<unk>	0
<s>	0
</s>	0
<pad>	0
¬	-2.97487
,¬	-3.30619
,	-3.40081
a	-4.01803
.¬	-4.02252
▁se	-4.11285
▁v	-4.23798
▁	-4.40111
▁a	-4.75632
m	-4.90193
▁na	-4.90548
i	-5.16111
▁z	-5.202
▁s	-5.20295
y	-5.34998
u	-5.35613
.	-5.36343
v	-5.37565
▁je	-5.46415
▁to	-5.47278
!¬	-5.57952
▁k	-5.61086
A	-5.65585
▁do	-5.67082
▁po	-5.69293
s	-5.71103
▁za	-5.71861
o	-5.72969
▁–	-5.74056
▁–¬	-5.7509
na	-5.8017
▁jsem	-5.82431
▁si	-5.9259
?¬	-5.94162
▁mi	-5.96857
!	-5.99986
...¬	-6.01689
▁jak	-6.02056
▁jen	-6.09709
;¬	-6.09859
▁ne	-6.10581
š	-6.12695
ch	-6.13532
e	-6.14658
▁že	-6.16522
▁co	-6.16719
▁o	-6.19343
z	-6.21728
že	-6.25679
em	-6.2759
▁i	-6.27807
▁u	-6.32018
jak	-6.32583
▁tak	-6.34349
í	-6.34489
...	-6.37228
▁pro	-6.38018
V	-6.44577
▁ve	-6.47615
▁tu	-6.48461
▁jako	-6.5025
▁vy	-6.50483
ne	-6.50765
á	-6.50796
ou	-6.51145
li	-6.55732
se	-6.55818
:¬	-6.57388
▁srdce	-6.5875
▁by	-6.59052
ů	-6.59497
▁mě	-6.60569
▁už	-6.62465
po	-6.6405
k	-6.64215
▁má	-6.71155
co	-6.72075
▁když	-6.72166
za	-6.73433
é	-6.73904
te	-6.75403
▁od	-6.75676
▁já	-6.77338
když	-6.7794
▁ty	-6.78537
ho	-6.80109
▁ti	-6.80197
▁mu	-6.81553
▁své	-6.81679
▁tě	-6.82491
’	-6.83444
▁jsi	-6.83593
?	-6.83902
ní	-6.84035
:	-6.84913
do	-6.85516
-	-6.85875
to	-6.8629
▁jeho	-6.88714
ý	-6.89136
▁ten	-6.90424
▁tam	-6.9158
me	-6.92438
ně	-6.92822
je	-6.94617
▁bez	-6.96306
Na	-6.97623
mi	-6.98269
nou	-6.98655
▁mne	-6.99201
ná	-7.00095
▁byl	-7.01123
▁roz	-7.01397
S	-7.01664
ce	-7.04296
ě	-7.04598
▁již	-7.04687
▁nad	-7.05683
▁ji	-7.06534
▁mé	-7.07808
▁zas	-7.08809
né	-7.09796
▁při	-7.10295
t	-7.10563
▁pod	-7.11047
▁nám	-7.11813
▁nás	-7.12582
▁však	-7.13096
ku	-7.14542
▁„	-7.1459
ky	-7.1499
l	-7.1583
jen	-7.16306
tak	-7.18125
▁duše	-7.18895
▁jsou	-7.19887
▁pak	-7.20873
▁ještě	-7.20989
▁ní	-7.21434
▁bych	-7.21976
la	-7.22514
Z	-7.25617
▁jí	-7.2571
▁není	-7.25897
▁ho	-7.2697
▁svou	-7.2738
▁život	-7.27611
▁ze	-7.31102
▁duši	-7.3166
ka	-7.32796
▁kde	-7.32896
▁můj	-7.33073
▁před	-7.34084
▁jsme	-7.34289
Ne	-7.34321
▁svět	-7.35237
Jak	-7.35496
Tak	-7.35671
ve	-7.36228
ty	-7.36311
ný	-7.36393
▁ta	-7.36634
kde	-7.37141
▁vše	-7.37443
▁teď	-7.37826
pro	-7.37861
▁jež	-7.38462
vy	-7.39649
Po	-7.4034
▁tom	-7.41203
▁bude	-7.41247
c	-7.43758
▁oči	-7.44153
▁dál	-7.45235
▁den	-7.46481
▁jest	-7.47256
Co	-7.47492
▁lásky	-7.47694
tu	-7.47939
až	-7.48268
já	-7.49
▁pře	-7.49584
cí	-7.50357
▁mně	-7.51272
jež	-7.51747
by	-7.52602
však	-7.52694
Za	-7.52843
ni	-7.53658
▁její	-7.53882
▁slunce	-7.5412
:¬„	-7.54861
▁té	-7.55396
jako	-7.55986
▁mám	-7.5616
ale	-7.56493
▁až	-7.575
Já	-7.57891
▁sám	-7.5856
▁jenž	-7.59892
▁být	-7.60675
O	-7.615
ta	-7.6163
▁bylo	-7.62797
▁sobě	-7.63037
▁tvé	-7.64385
▁čas	-7.64744
▁snad	-7.6481
▁noci	-7.65347
To	-7.6541
▁tebe	-7.65569
▁než	-7.65619
ti	-7.65754
!“¬	-7.66571
no	-7.6697
..¬	-7.68007
▁víc	-7.68159
ých	-7.68895
nu	-7.69246
n	-7.69923
▁srdci	-7.7085
▁svůj	-7.71489
Když	-7.71952
▁moje	-7.71972
lo	-7.72194
od	-7.72803
▁nebe	-7.73239
▁kdo	-7.74187
▁byla	-7.74838
I	-7.74876
▁jej	-7.75086
Ó	-7.75364
mu	-7.76238
K	-7.76351
;	-7.764
ci	-7.7644
ť	-7.76838
▁ruce	-7.77195
Je	-7.77338
▁štěstí	-7.77906
U	-7.78179
▁nic	-7.78194
▁sebe	-7.79951
▁V	-7.80011
Však	-7.80558
ž	-7.80945
▁vždy	-7.81468
Jen	-7.81539
▁těch	-7.81762
▁zemi	-7.8192
▁kolem	-7.82045
▁tobě	-7.82408
▁ani	-7.83863
▁chvíli	-7.83893
ať	-7.84298
▁nich	-7.85318
▁dnes	-7.86279
▁noc	-7.86598
vá	-7.87392
▁jim	-7.87518
ných	-7.87753
▁svých	-7.87872
ek	-7.88265
▁rád	-7.897
▁láska	-7.90548
▁každý	-7.91101
▁slova	-7.91212
▁něm	-7.91271
ech	-7.91365
▁stále	-7.91691
▁nikdy	-7.91802
▁země	-7.92273
▁zase	-7.92628
▁toho	-7.92754
▁všech	-7.93136
Ty	-7.93394
▁jejich	-7.94015
▁ale	-7.94087
Do	-7.94095
▁jenom	-7.94118
Že	-7.9423
▁A	-7.94914
ze	-7.94994
.¬„	-7.95634
!“	-7.95742
▁ním	-7.96137
▁ke	-7.96253
▁žití	-7.96842
ten	-7.97006
má	-7.97317
už	-7.9764
▁tvůj	-7.97908
▁sen	-7.98969
ko	-7.99035
▁naše	-7.99316
▁vás	-7.99687
jenž	-7.99829
▁ni	-8.00381
it	-8.00411
pod	-8.00803
▁mnou	-8.00953
ové	-8.01947
kou	-8.02109
▁jich	-8.02395
▁kdy	-8.02711
▁tím	-8.03166
nad	-8.03241
▁tiše	-8.03487
pak	-8.03537
než	-8.03796
▁vám	-8.0395
ly	-8.04671
tam	-8.04952
▁hlavu	-8.05015
▁jednou	-8.05069
▁mou	-8.05126
▁měl	-8.06881
bez	-8.06999
jsem	-8.08752
▁očí	-8.08807
▁on	-8.08954
▁svým	-8.09495
▁zde	-8.0958
▁-	-8.09793
▁květ	-8.09881
si	-8.10045
▁lásku	-8.10679
kdy	-8.11767
Vy	-8.12536
▁hlas	-8.12681
▁S	-8.1311
Ale	-8.13559
▁jste	-8.1369
▁mezi	-8.13972
▁světa	-8.14354
▁celý	-8.15428
▁tvář	-8.15429
Tu	-8.15791
ny	-8.16008
r	-8.16668
roz	-8.16802
▁píseň	-8.17488
▁zem	-8.18367
▁moře	-8.18475
▁ku	-8.19547
▁ať	-8.20132
při	-8.20403
▁let	-8.20564
il	-8.22424
Pro	-8.22631
▁všechno	-8.23463
▁tebou	-8.23547
▁člověk	-8.23784
▁Tě	-8.2387
uje	-8.23879
jí	-8.2389
▁chtěl	-8.24271
▁které	-8.25237
..	-8.25758
.“¬	-8.2579
▁svého	-8.25797
ba	-8.25806
▁tělo	-8.26003
▁též	-8.26235
ům	-8.26287
Proč	-8.26576
▁hned	-8.27148
kdo	-8.27386
snad	-8.27902
▁přes	-8.28196
▁nebi	-8.28484
ách	-8.28544
ej	-8.28597
on	-8.28901
ným	-8.2892
či	-8.28974
d	-8.29275
j	-8.29334
▁svém	-8.29337
▁kol	-8.29374
tě	-8.29576
▁také	-8.29856
▁Ti	-8.29893
▁krev	-8.30085
▁mých	-8.30841
▁tomu	-8.30849
▁života	-8.32034
▁přec	-8.32043
ó	-8.32078
▁více	-8.32237
▁všecko	-8.33045
▁tvých	-8.33216
ji	-8.33386
▁náhle	-8.3424
▁rukou	-8.34688
▁náš	-8.34772
▁slzy	-8.34932
▁jeden	-8.35283
Kdo	-8.3548
ým	-8.35644
▁chci	-8.36925
lí	-8.36985
▁zrak	-8.37489
▁budu	-8.37606
▁dítě	-8.37991
▁moc	-8.38078
▁dal	-8.38216
▁růže	-8.38474
▁dávno	-8.3894
▁my	-8.38989
“	-8.39071
▁přece	-8.39081
vše	-8.39309
▁spolu	-8.3938
Pak	-8.39868
▁či	-8.39936
▁stín	-8.40724
▁stojí	-8.40832
neb	-8.40862
▁vím	-8.4087
▁sama	-8.4145
le	-8.41655
▁ob	-8.41969
▁kam	-8.41984
teď	-8.42053
cích	-8.42228
čí	-8.42261
▁smrti	-8.42396
▁ruku	-8.43189
▁který	-8.4331
Kde	-8.43613
před	-8.43712
▁mít	-8.43926
▁tady	-8.44363
Jsem	-8.44852
Teď	-8.45111
▁poslední	-8.45163
▁proč	-8.46224
Tam	-8.46658
▁žít	-8.46693
již	-8.4749
Od	-8.4762
▁světě	-8.47835
at	-8.48155
▁chce	-8.48227
tí	-8.48454
▁večer	-8.48718
▁hlavou	-8.49211
▁dech	-8.49223
▁hlavy	-8.5037
proč	-8.50507
ám	-8.50538
▁první	-8.50939
če	-8.51016
▁máš	-8.51021
▁děti	-8.51061
▁snů	-8.51341
▁nikdo	-8.51754
▁tvá	-8.51761
▁nebo	-8.51774
▁všem	-8.51817
Ve	-8.51914
▁pár	-8.51948
▁chvíle	-8.52148
▁láskou	-8.5257
ká	-8.53352
▁těla	-8.53369
aby	-8.53554
▁hvězdy	-8.53618
▁tvoje	-8.5387
Snad	-8.54123
ň	-8.54392
▁úsměv	-8.54477
▁nyní	-8.54652
▁Bůh	-8.55527
▁ticho	-8.55614
▁jde	-8.55724
en	-8.56095
Až	-8.56097
▁nez	-8.56416
▁Na	-8.56565
Jako	-8.56773
st	-8.57491
▁něco	-8.57521
▁níž	-8.57741
p	-8.58016
▁svoje	-8.58047
▁nes	-8.58348
▁duší	-8.58416
▁vítr	-8.58542
▁bílé	-8.59185
pře	-8.59187
▁sny	-8.59391
▁trochu	-8.59529
▁dlouho	-8.59583
ší	-8.59895
▁.	-8.5999
ím	-8.60409
▁cestu	-8.60699
Ach	-8.61414
Už	-8.61443
▁hvězd	-8.61657
my	-8.61718
▁leží	-8.61822
▁smrt	-8.62236
leč	-8.62702
▁světlo	-8.62707
▁ví	-8.62764
Ten	-8.63699
▁rána	-8.63807
▁dobře	-8.63888
č	-8.63915
▁tolik	-8.64279
▁mého	-8.64438
vždyť	-8.64675
▁smích	-8.64725
▁ona	-8.64739
kem	-8.64872
▁všechny	-8.651
▁osud	-8.65329
▁pohled	-8.65599
▁oko	-8.65612
lu	-8.6575
▁svítí	-8.65756
▁radost	-8.65962
▁bolest	-8.66001
▁květy	-8.66102
h	-8.66237
al	-8.66458
▁zní	-8.66729
lá	-8.66891
▁duch	-8.66964
▁někdy	-8.67403
▁očích	-8.67403
▁námi	-8.67543
▁která	-8.6775
ost	-8.67923
▁Z	-8.68154
▁hor	-8.68336
▁vlastní	-8.68485
▁letí	-8.68503
▁dva	-8.68558
▁dále	-8.69094
▁sebou	-8.69306
ovat	-8.69308
▁nimi	-8.69485
ře	-8.69549
ví	-8.69816
ovi	-8.69859
ují	-8.69907
vě	-8.69977
▁žena	-8.7032
▁touhy	-8.70591
▁padá	-8.70661
▁tvou	-8.70767
▁krve	-8.70814
▁Ty	-8.70945
val	-8.71232
▁musí	-8.71314
tá	-8.71324
▁ráno	-8.7134
▁může	-8.71534
▁nocí	-8.71552
ají	-8.71804
▁třeba	-8.7187
ř	-8.72113
ného	-8.72132
▁tváři	-8.72262
▁dne	-8.72306
b	-8.72667
On	-8.72799
ého	-8.72842
'	-8.72868
ků	-8.72896
▁lásce	-8.72905
▁zdá	-8.72932
▁neza	-8.73125
▁prý	-8.73203
▁neu	-8.73364
▁ně	-8.74088
▁bys	-8.74186
▁dáli	-8.74545
▁tváře	-8.7479
mě	-8.74839
oval	-8.75347
Ať	-8.75569
▁jedno	-8.75956
▁Ne	-8.76233
▁vždycky	-8.7639
▁nebes	-8.7642
▁nepo	-8.76441
▁lidí	-8.76445
▁místo	-8.76713
▁lid	-8.76787
jsou	-8.76936
Ta	-8.76958
lou	-8.77014
▁král	-8.77174
▁muž	-8.77363
▁ženy	-8.77401
lé	-8.77634
ské	-8.77695
▁domů	-8.777
mé	-8.7777
kam	-8.77843
▁paní	-8.77867
ec	-8.77884
▁starý	-8.77893
jsi	-8.77969
▁buď	-8.78167
zas	-8.78303
▁cizí	-8.78452
▁přijde	-8.78484
ra	-8.78615
▁dá	-8.78766
byl	-8.7877
Jsi	-8.78868
vždy	-8.7903
▁zpět	-8.79141
▁krásné	-8.79285
▁prach	-8.79443
ú	-8.79444
▁září	-8.79527
nost	-8.79573
▁nevy	-8.79728
Se	-8.79823
▁křídla	-8.79858
▁málo	-8.80178
▁nové	-8.80251
)¬	-8.80468
své	-8.80625
▁Tvé	-8.80898
té	-8.81041
ač	-8.81056
▁asi	-8.81061
▁světla	-8.81113
ním	-8.81463
▁aby	-8.81647
▁klid	-8.81773
čka	-8.82564
¬(	-8.82619
Má	-8.82624
▁dost	-8.82669
▁Tebe	-8.82671
▁ruka	-8.83108
▁hlavě	-8.83173
▁lidé	-8.83175
▁strach	-8.83547
▁bílý	-8.83633
▁vlasy	-8.83789
tou	-8.84513
ši	-8.84592
▁slov	-8.84769
▁něj	-8.84936
nout	-8.85015
▁opět	-8.85034
▁proti	-8.85268
▁sem	-8.8533
▁znovu	-8.85461
▁býti	-8.85655
▁pouze	-8.86281
▁kraj	-8.86461
které	-8.86781
▁zpěv	-8.86847
▁naděje	-8.86896
▁vůně	-8.87071
▁nový	-8.8716
▁zlaté	-8.87214
▁nemá	-8.87511
▁právě	-8.87861
▁šel	-8.87988
▁svoji	-8.8811
▁vody	-8.88296
▁jít	-8.88314
▁snění	-8.88371
▁ó	-8.88499
▁neb	-8.88651
▁ráda	-8.88665
▁čelo	-8.88839
▁budou	-8.88886
▁celé	-8.88933
▁vidím	-8.88966
▁cesty	-8.89032
ří	-8.89103
▁mém	-8.89224
ani	-8.89517
ská	-8.89546
Při	-8.89751
▁znova	-8.89753
▁zpívá	-8.89814
▁často	-8.89994
▁krásy	-8.90034
▁stíny	-8.90059
▁svojí	-8.9016
▁proto	-8.90363
▁mládí	-8.90728
▁viděl	-8.90825
▁síly	-8.91081
▁cit	-8.91607
▁dolů	-8.91864
▁potom	-8.91877
▁O	-8.92149
▁Po	-8.92166
▁čeká	-8.92598
▁žal	-8.92744
Vše	-8.92807
Roz	-8.92982
▁všeho	-8.93063
▁měsíc	-8.93079
který	-8.93105
▁tedy	-8.93266
▁velký	-8.93313
▁hoří	-8.93338
D	-8.93592
▁všude	-8.93612
kol	-8.93637
▁rychle	-8.93797
▁stál	-8.94099
▁nese	-8.94123
▁všichni	-8.94205
ém	-8.94259
ru	-8.94314
▁mnoho	-8.94609
▁květů	-8.94731
▁naší	-8.94732
ři	-8.94797
▁touha	-8.9484
▁vlasti	-8.95018
▁obraz	-8.9504
dnes	-8.9539
nul	-8.95887
nosti	-8.9595
▁mým	-8.96244
re	-8.96454
▁měla	-8.96885
▁budeš	-8.97002
▁slovo	-8.97047
nebo	-8.9709
▁tváří	-8.97113
▁písně	-8.97256
▁volá	-8.97512
Pod	-8.97679
▁hrob	-8.97892
ami	-8.97905
▁mojí	-8.97916
▁milý	-8.97982
▁rty	-8.98047
▁staré	-8.98324
▁našich	-8.98346
▁velké	-8.98366
▁chtěla	-8.98423
▁Jak	-8.98439
▁ústa	-8.9856
▁sotva	-8.98655
▁hledí	-8.98767
▁času	-8.99066
▁boj	-8.99247
▁pole	-8.99304
▁boží	-8.9933
▁jistě	-8.99346
▁nej	-8.99373
še	-8.99515
Bez	-8.99537
vý	-8.99666
▁víš	-8.99703
▁...	-8.99761
chci	-8.99861
mám	-8.99916
ném	-8.99967
▁národ	-9.00007
▁jiné	-9.00148
▁tou	-9.00241
▁stát	-9.00378
▁dát	-9.00524
▁hlava	-9.00669
zda	-9.01045
▁dvě	-9.0145
▁Je	-9.01453
in	-9.01458
svět	-9.01463
nic	-9.01523
▁dřív	-9.01817
▁práci	-9.01873
ha	-9.02075
▁taky	-9.02397
▁cítím	-9.02419
▁konec	-9.02484
▁černé	-9.02637
▁němž	-9.0283
Nad	-9.02909
ová	-9.03018
▁ven	-9.03117
▁Tobě	-9.0319
▁jiný	-9.03267
el	-9.03363
▁sníh	-9.03415
Již	-9.0363
▁krásná	-9.03747
▁písní	-9.03769
▁nevím	-9.04126
▁sílu	-9.04134
která	-9.04254
▁marně	-9.04411
▁všecky	-9.04506
▁bolí	-9.04644
Hle	-9.04754
nej	-9.04969
▁jedna	-9.04981
▁tmy	-9.05011
▁věčně	-9.05109
ský	-9.05162
▁nedo	-9.05163
▁práce	-9.05193
▁něho	-9.05354
▁cestou	-9.05431
▁stromů	-9.05472
▁stejně	-9.05567
▁ba	-9.0567
▁hory	-9.05763
M	-9.05767
▁plné	-9.05863
Vždyť	-9.05874
svou	-9.05903
přes	-9.06233
▁někdo	-9.06242
▁světem	-9.0635
ček	-9.06376
▁blíž	-9.06675
tím	-9.07308
▁zlato	-9.07431
▁juž	-9.07496
)	-9.07512
▁pane	-9.07806
"	-9.07855
T	-9.07869
▁kdysi	-9.07871
▁chceš	-9.0811
▁nichž	-9.08291
▁moři	-9.08369
▁dlaní	-9.08676
▁slunci	-9.08797
▁mají	-9.09084
▁přišel	-9.0929
ila	-9.09608
f	-9.0983
▁roze	-9.09912
▁tvého	-9.10118
▁zlatý	-9.1036
▁každé	-9.10382
▁pořád	-9.10382
▁léta	-9.10417
▁les	-9.10508
▁bouře	-9.10639
mně	-9.10669
▁milá	-9.10741
pa	-9.10833
▁To	-9.10833
▁anděl	-9.10867
Mám	-9.10979
da	-9.10986
▁děl	-9.11003
▁touhou	-9.11058
▁zář	-9.11061
▁zá	-9.11166
▁přání	-9.11168
▁stínu	-9.11326
Chci	-9.1182
▁byly	-9.1186
My	-9.11873
ník	-9.12004
▁Já	-9.12079
▁navždy	-9.1218
srdce	-9.12188
ovou	-9.12259
osti	-9.12477
▁němu	-9.12621
▁lidu	-9.12632
uji	-9.12954
▁Co	-9.13034
▁sta	-9.13042
bu	-9.13156
ích	-9.13235
▁věky	-9.13333
ry	-9.1359
▁mysli	-9.13649
▁smutek	-9.13666
▁pří	-9.13797
▁těle	-9.13954
▁bílá	-9.14036
▁cest	-9.14074
▁jdou	-9.14261
dě	-9.14466
▁jemu	-9.14475
▁plný	-9.14528
▁vedle	-9.14717
▁krásný	-9.14791
▁nechci	-9.14797
▁objetí	-9.14913
▁svit	-9.15139
▁pocit	-9.15326
▁krví	-9.15512
Byl	-9.15577
▁vzal	-9.15761
▁mění	-9.15924
▁celá	-9.15969
▁čím	-9.15996
▁cesta	-9.16102
ob	-9.16123
rá	-9.16345
▁pán	-9.16463
ení	-9.16537
Š	-9.16587
.“	-9.16662
Dnes	-9.16709
▁příliš	-9.16739
šel	-9.168
nice	-9.16956
▁žár	-9.17006
▁"	-9.17053
▁dálky	-9.17304
▁vzhůru	-9.17331
▁další	-9.17347
P	-9.17485
▁žil	-9.17491
▁jaro	-9.17531
ových	-9.17764
?“¬	-9.1785
▁zvolna	-9.17893
dí	-9.1806
Než	-9.18071
ový	-9.18236
▁žije	-9.18242
du	-9.18258
▁poli	-9.18259
▁města	-9.18277
¬-	-9.18694
ův	-9.18738
zde	-9.18745
▁spát	-9.19159
▁byli	-9.1916
▁krásu	-9.19333
▁vlny	-9.19386
čím	-9.19434
▁rány	-9.19473
▁rok	-9.196
▁boji	-9.19623
kách	-9.19658
let	-9.19678
▁mír	-9.19725
▁prosím	-9.19836
▁možná	-9.19876
ova	-9.20094
vat	-9.20232
▁vidí	-9.20306
▁tisíc	-9.20367
ke	-9.20399
.“¬„	-9.20443
▁listí	-9.20619
▁ma	-9.20734
▁doma	-9.20767
hle	-9.20858
▁kterou	-9.21105
an	-9.21238
▁svá	-9.21247
mo	-9.21694
▁(	-9.21726
▁Za	-9.21775
sám	-9.21798
vám	-9.21798
▁voní	-9.21842
▁jméno	-9.21876
▁lesy	-9.21881
▁dí	-9.21975
▁vaše	-9.22158
▁svaté	-9.22196
sti	-9.22223
▁malý	-9.22235
▁tvém	-9.22297
▁klidně	-9.2232
há	-9.22338
rou	-9.22551
▁síla	-9.22554
▁kdys	-9.22622
▁bůh	-9.2268
▁strom	-9.22825
▁list	-9.22852
/	-9.22855
jde	-9.22922
dá	-9.22931
▁zpátky	-9.23046
▁věru	-9.23194
▁prsou	-9.23435
▁K	-9.23573
?“	-9.23604
▁celou	-9.23703
▁sladké	-9.23714
▁oheň	-9.24099
nám	-9.24114
▁vý	-9.243
▁zítra	-9.2438
▁malé	-9.2439
▁ú	-9.24537
▁záře	-9.24543
Zde	-9.24557
▁otec	-9.24563
▁časem	-9.24649
▁dívá	-9.24655
▁říci	-9.24656
▁vstříc	-9.24684
▁pan	-9.24719
▁slávy	-9.24824
▁krok	-9.24864
▁zda	-9.2488
▁noční	-9.25024
▁mohl	-9.2509
Leč	-9.251
▁dnů	-9.25163
▁plamen	-9.25285
▁jara	-9.25383
▁oku	-9.25409
▁lásko	-9.25433
▁znám	-9.25435
▁doby	-9.25458
▁okna	-9.25479
▁svatý	-9.25486
▁nohy	-9.25792
bych	-9.25913
▁Když	-9.25917
...¬...	-9.25948
▁oba	-9.26038
▁beze	-9.26134
▁brzy	-9.26238
ještě	-9.26295
▁dává	-9.26387
▁dosud	-9.26552
▁zraky	-9.26654
▁Bože	-9.26655
▁radosti	-9.26696
▁víru	-9.26936
▁dny	-9.26963
ží	-9.2701
L	-9.27013
▁kámen	-9.27027
skou	-9.27095
▁máme	-9.27254
▁nemám	-9.27318
▁prachu	-9.27435
ských	-9.27528
▁výš	-9.27541
▁hrobu	-9.27708
▁nohou	-9.27842
▁syn	-9.27881
nutí	-9.27911
▁bolesti	-9.27962
čku	-9.28234
▁mizí	-9.28317
nem	-9.28468
ro	-9.28478
▁ránu	-9.28528
▁matka	-9.28649
▁kříž	-9.2871
▁lidské	-9.28761
▁pryč	-9.29087
▁stromy	-9.29454
▁pravdu	-9.29494
čky	-9.29635
▁kdyby	-9.29829
▁snu	-9.29849
▁hoře	-9.29855
▁pták	-9.30091
▁jinak	-9.30456
▁líce	-9.30709
▁tvým	-9.30742
▁sa	-9.30775
▁ruky	-9.30851
▁aspoň	-9.30865
▁hruď	-9.30915
us	-9.3096
▁chlad	-9.3105
▁záři	-9.31081
▁dole	-9.31141
,¬„	-9.31269
ců	-9.31341
di	-9.31433
▁jas	-9.3164
▁nelze	-9.31751
▁růží	-9.31775
Což	-9.31793
¬/	-9.31873
Ba	-9.32041
sta	-9.32124
ď	-9.32267
¬..	-9.32426
▁mysl	-9.32514
▁nebyl	-9.32525
▁hledá	-9.32568
,“	-9.32604
bí	-9.32674
▁moji	-9.32736
▁vůbec	-9.3275
možná	-9.32927
▁zřel	-9.32994
▁sladký	-9.33277
▁náruč	-9.33318
▁–¬„	-9.33408
▁nejsem	-9.33535
▁době	-9.33671
▁kráse	-9.33673
dal	-9.33679
▁výše	-9.33782
▁nechce	-9.33828
můj	-9.3388
B	-9.33925
▁vidět	-9.34062
▁sedí	-9.34184
▁Tak	-9.34219
ice	-9.34239
/¬	-9.34409
▁vln	-9.34494
▁tiché	-9.3463
dál	-9.34694
▁čele	-9.34734
▁vůni	-9.34868
▁kvítí	-9.34939
▁I	-9.34987
▁muže	-9.35087
▁pláče	-9.35104
▁úst	-9.35139
▁proud	-9.35183
▁věků	-9.35184
▁vůní	-9.35255
▁vlastně	-9.35334
▁dám	-9.35382
▁svému	-9.35398
▁hrudi	-9.35507
▁dlaně	-9.35564
▁ode	-9.35566
▁spí	-9.35649
▁mraky	-9.35845
▁vede	-9.35867
nější	-9.35869
čas	-9.35883
▁cestě	-9.35949
není	-9.35954
▁Tvůj	-9.36288
Kam	-9.36334
▁tma	-9.36393
g	-9.36613
▁srdcem	-9.36869
▁tři	-9.37248
▁ducha	-9.37305
▁jednu	-9.37305
▁stará	-9.37396
lý	-9.37397
Před	-9.37402
▁musím	-9.3746
▁malá	-9.37554
▁skal	-9.37651
▁věčné	-9.37677
▁slz	-9.37789
Neb	-9.37806
▁lesů	-9.37884
▁U	-9.37945
▁lese	-9.37995
▁tichý	-9.38064
▁milovat	-9.38071
▁de	-9.38252
Srdce	-9.38344
▁pláč	-9.38406
▁Tebou	-9.38409
▁dlouhé	-9.38491
Jsou	-9.38563
▁bol	-9.38735
’,¬	-9.39015
▁pra	-9.39028
▁hle	-9.39209
▁vzduch	-9.39249
▁vším	-9.39344
▁okem	-9.39346
▁vlasů	-9.39473
▁černý	-9.39582
každý	-9.398
▁kráčí	-9.39818
et	-9.39864
▁točí	-9.39883
Můj	-9.39904
▁Ó	-9.3994
▁sto	-9.40125
ství	-9.40234
▁půl	-9.40241
▁voda	-9.40286
▁dobrý	-9.40287
▁dej	-9.4046
▁hvězda	-9.40484
▁větší	-9.40516
▁klín	-9.40584
▁kraje	-9.40641
▁div	-9.40643
▁břehu	-9.40644
▁lehce	-9.40724
▁vlas	-9.40832
▁čela	-9.40838
▁pravda	-9.40865
▁někde	-9.40949
hu	-9.41041
▁srdcí	-9.41057
▁blesk	-9.41114
▁neví	-9.41124
▁jedné	-9.41159
▁nech	-9.41162
▁lesa	-9.41187
▁mluví	-9.41302
▁úsměvem	-9.41372
▁hlasem	-9.41382
▁vod	-9.41398
▁lidem	-9.41488
▁kroky	-9.41592
▁kraji	-9.41688
▁řekl	-9.41805
▁smutku	-9.41826
buď	-9.41937
▁běží	-9.41976
▁míru	-9.42285
▁skály	-9.4236
Mé	-9.42487
su	-9.4255
Či	-9.42587
zní	-9.42775
▁lidi	-9.4279
¬–	-9.42791
▁matky	-9.4281
▁těžké	-9.42837
▁prsty	-9.43062
Tvé	-9.43104
dy	-9.43119
▁led	-9.43287
▁sami	-9.43357
▁dala	-9.43632
▁větru	-9.43747
hned	-9.43781
▁žen	-9.43805
▁světu	-9.43809
▁věci	-9.43859
Ze	-9.4394
▁bouří	-9.43983
▁jarní	-9.44221
Pře	-9.44304
▁Tvých	-9.44346
▁svými	-9.44431
▁drahá	-9.4447
vo	-9.44517
▁dívka	-9.44667
▁moci	-9.44989
▁sní	-9.45003
▁této	-9.45113
▁dvou	-9.4513
▁řek	-9.45153
▁nedá	-9.45277
vím	-9.45365
▁cítí	-9.45376
▁rtech	-9.45479
▁p	-9.45493
▁chvěje	-9.45569
jší	-9.45655
▁řeč	-9.45677
▁ples	-9.45809
▁slyšet	-9.45819
jenom	-9.46106
▁ret	-9.46111
▁ach	-9.46128
▁venku	-9.46182
▁slyším	-9.46309
▁muži	-9.46318
▁každou	-9.46417
sky	-9.46439
▁náručí	-9.46483
život	-9.46525
▁každá	-9.46574
▁hrobě	-9.46617
C	-9.46634
▁rozum	-9.46665
▁zemí	-9.4672
Ještě	-9.46823
▁Bohu	-9.46863
▁rtů	-9.47232
de	-9.47319
▁vrací	-9.47344
▁lepší	-9.47566
květ	-9.47585
R	-9.47588
▁Do	-9.47762
▁naši	-9.47932
▁ná	-9.47988
▁modré	-9.48021
▁tichu	-9.48069
děl	-9.48168
▁sladce	-9.48201
▁ztrácí	-9.48335
mezi	-9.48386
těch	-9.4841
▁zvoní	-9.48595
▁...¬	-9.48595
rád	-9.48691
▁zjev	-9.48691
▁boje	-9.48757
tvé	-9.48824
▁bije	-9.48894
▁mladý	-9.49018
Není	-9.49074
▁věc	-9.49109
▁svěží	-9.49185
▁myslí	-9.49274
▁domu	-9.49345
▁myšlenky	-9.49467
▁krása	-9.49604
▁ptáci	-9.49608
▁zcela	-9.49642
▁žádný	-9.49797
▁Boha	-9.49827
pu	-9.49906
▁ticha	-9.4993
aj	-9.50005
ach	-9.50095
▁říct	-9.50267
tý	-9.50286
ští	-9.50297
▁chodí	-9.50309
nes	-9.50321
▁vlast	-9.5037
▁druhý	-9.50417
▁city	-9.50481
▁klidu	-9.50571
▁snít	-9.50582
▁chrám	-9.5088
!“¬„	-9.50921
▁dar	-9.50939
den	-9.51002
Zda	-9.51132
zá	-9.51152
▁ač	-9.51155
Bůh	-9.51183
▁dům	-9.51263
▁jediný	-9.51275
▁dětí	-9.51335
▁drahé	-9.51379
protože	-9.51507
▁všemi	-9.51674
▁dobré	-9.51934
....¬	-9.51956
▁nebude	-9.52305
▁životem	-9.52356
sť	-9.52368
▁pomalu	-9.52377
▁hloubi	-9.5239
uj	-9.52466
▁cíl	-9.52569
▁Boží	-9.52586
hou	-9.52776
bou	-9.52886
▁vína	-9.52889
▁hlad	-9.53059
▁řeky	-9.5308
▁krásně	-9.53098
Buď	-9.53275
▁hrát	-9.53299
▁meč	-9.53427
▁bývá	-9.5353
▁mladé	-9.53549
▁ráj	-9.53652
▁par	-9.53762
▁cítil	-9.53804
▁dým	-9.53889
▁boku	-9.53971
▁roste	-9.53976
▁slza	-9.54065
▁životě	-9.54087
▁rudé	-9.5422
iti	-9.54234
▁věčný	-9.54325
ající	-9.54378
▁konce	-9.54401
▁očima	-9.54459
▁ženu	-9.5449
▁mohu	-9.54506
▁včera	-9.54958
Vím	-9.55038
▁re	-9.55092
▁člověka	-9.55107
▁stane	-9.55112
▁smutné	-9.55181
▁starých	-9.55431
Možná	-9.55495
▁přišla	-9.55515
▁chví	-9.55543
▁ráje	-9.55651
bude	-9.55677
▁zatím	-9.55714
▁dosti	-9.55753
jsme	-9.55789
er	-9.55983
▁živ	-9.56097
ot	-9.5626
▁ran	-9.56382
▁pa	-9.56533
▁milé	-9.56549
▁místa	-9.56656
▁dálce	-9.56697
▁pomoc	-9.56756
▁šat	-9.56805
▁tento	-9.56848
▁moh	-9.56973
▁dlaň	-9.57006
sí	-9.57109
pra	-9.57125
▁slyšel	-9.57128
ních	-9.57136
▁hřích	-9.57259
neš	-9.57289
▁velká	-9.57486
▁nežli	-9.57527
H	-9.57601
ště	-9.57617
jej	-9.57693
▁tmou	-9.57838
▁jasné	-9.57853
Každý	-9.57885
▁pevně	-9.57949
▁řeči	-9.58007
▁praví	-9.58013
Svět	-9.58059
▁žádné	-9.58239
▁blíží	-9.58294
Nuž	-9.58395
▁druhé	-9.58532
▁tenkrát	-9.58555
▁bílých	-9.58561
pří	-9.58942
▁hraje	-9.58971
víc	-9.58995
▁město	-9.59099
▁Vám	-9.59115
be	-9.59299
▁-¬	-9.59373
▁váš	-9.59381
án	-9.59411
hlas	-9.59417
▁tisíce	-9.59492
▁smíchu	-9.59571
ička	-9.59708
mou	-9.5976
▁čest	-9.59776
ově	-9.59781
▁stačí	-9.59862
nka	-9.59906
▁ráz	-9.60026
▁patří	-9.60116
dej	-9.60117
▁citů	-9.60157
ký	-9.60164
▁líc	-9.60289
Láska	-9.60303
▁neo	-9.60516
íš	-9.60565
▁daleko	-9.60617
div	-9.60647
▁kus	-9.60721
▁dní	-9.60777
▁nade	-9.60907
....	-9.61092
▁mrak	-9.61104
▁sláva	-9.6111
▁nadějí	-9.61142
▁spánku	-9.61152
▁sil	-9.61172
▁zdraví	-9.61218
▁duchu	-9.61231
ování	-9.61293
ičky	-9.61389
▁pokoj	-9.61731
▁vůle	-9.61736
nky	-9.61801
▁vzdech	-9.61875
By	-9.61938
▁pravdy	-9.62042
jdu	-9.62148
▁jejž	-9.6216
ie	-9.62236
dám	-9.62339
▁touží	-9.6235
▁ranní	-9.62356
▁hněv	-9.62445
▁sklání	-9.62502
▁stalo	-9.62597
▁sněhu	-9.62633
měl	-9.62668
▁tvojí	-9.62897
▁Vy	-9.62899
▁přede	-9.63011
▁těm	-9.63067
▁naději	-9.6315
▁víno	-9.63269
▁smutně	-9.63278
▁per	-9.63369
vou	-9.63447
Kdy	-9.63639
E	-9.63653
chtěl	-9.63816
▁příští	-9.63884
jdou	-9.64076
▁vášní	-9.64163
bo	-9.64308
▁pálí	-9.6439
šli	-9.64441
Zas	-9.64463
abych	-9.64575
▁dlouhý	-9.64694
▁kon	-9.64761
lek	-9.64896
▁rázem	-9.64949
lil	-9.6504
▁vzduchu	-9.65159
▁zřím	-9.65282
ov	-9.65359
▁drahý	-9.65406
▁zvon	-9.65477
▁bílou	-9.6551
ala	-9.65511
▁černá	-9.65595
▁motýl	-9.65753
kolem	-9.65765
▁blaho	-9.65825
▁šumí	-9.6587
vé	-9.65903
▁bouři	-9.65942
▁nebylo	-9.65951
▁hrad	-9.66009
ující	-9.66315
▁tmě	-9.66439
▁mráz	-9.66545
▁zdálo	-9.66559
▁jejím	-9.66572
oči	-9.66589
▁zrakem	-9.66637
▁šla	-9.66652
▁čem	-9.66744
avé	-9.6675
▁jaký	-9.66828
kám	-9.66828
os	-9.66852
▁zima	-9.6694
▁prostě	-9.6714
▁zří	-9.67171
▁zlata	-9.67214
▁pět	-9.67347
▁valí	-9.67369
▁koně	-9.67375
▁jdu	-9.67442
ber	-9.67476
mít	-9.67479
▁E	-9.67547
▁ha	-9.67556
▁smysl	-9.67559
▁hlubin	-9.67629
▁y	-9.67694
▁zvuk	-9.67795
▁mladá	-9.67802
letí	-9.67923
▁klam	-9.68161
pe	-9.68169
▁polo	-9.68197
▁Jen	-9.68243
▁líp	-9.68359
▁zdi	-9.68377
▁kdes	-9.68396
▁táhne	-9.684
▁slovy	-9.68406
nech	-9.68604
▁snech	-9.68625
lka	-9.68691
dr	-9.68704
sy	-9.68763
lit	-9.68833
x	-9.68872
▁zná	-9.6894
nce	-9.68943
▁dlani	-9.69046
pal	-9.69319
tem	-9.69449
▁každém	-9.69661
▁časy	-9.69725
ili	-9.69742
rt	-9.69894
▁růži	-9.69943
cím	-9.69946
▁la	-9.69971
▁ňader	-9.70066
▁hudba	-9.70092
▁lidstva	-9.7017
Tys	-9.70192
str	-9.70339
▁třetí	-9.70402
▁kloní	-9.70417
▁T	-9.7049
▁temné	-9.70672
Aby	-9.70721
▁budí	-9.70807
▁dně	-9.70844
stí	-9.71077
▁vámi	-9.71114
▁rozkoš	-9.71151
láska	-9.71244
▁křídel	-9.71244
▁květu	-9.71254
▁bratří	-9.71263
▁denně	-9.71268
▁šum	-9.71319
dat	-9.71326
▁nim	-9.71338
▁ž	-9.71352
▁pravil	-9.71597
▁stran	-9.71648
▁vášně	-9.71678
▁M	-9.71697
len	-9.71746
Mně	-9.71852
▁mohla	-9.71886
▁věk	-9.71931
Život	-9.7197
▁sy	-9.71976
▁ohně	-9.71992
▁podzim	-9.72037
▁silou	-9.72045
▁kteří	-9.72074
▁básník	-9.72245
▁dříve	-9.72315
▁jiná	-9.7248
být	-9.72588
jest	-9.72648
▁řečí	-9.72726
ými	-9.7278
Nic	-9.72823
mír	-9.72921
svůj	-9.72942
▁oblak	-9.72953
▁plá	-9.72967
▁lesk	-9.72988
▁králi	-9.73096
▁cos	-9.73161
▁zvedá	-9.73235
▁zlatá	-9.73278
▁smát	-9.73298
Nebo	-9.73333
▁krále	-9.73351
▁vážně	-9.73439
▁jestli	-9.73445
▁mnohý	-9.73446
▁naposled	-9.73465
▁vrátí	-9.73611
Chtěl	-9.73768
ání	-9.73811
čko	-9.7384
▁Čech	-9.73882
▁snem	-9.73934
▁černých	-9.73938
pá	-9.73997
▁plná	-9.73999
▁kdesi	-9.74031
▁Tvá	-9.74108
▁deště	-9.74139
▁stopy	-9.74162
sil	-9.74194
▁dnem	-9.7421
▁míti	-9.74339
stře	-9.74371
▁sladká	-9.74441
▁tajemství	-9.74483
ivé	-9.74517
iť	-9.74541
▁děje	-9.74631
sku	-9.74663
▁novou	-9.74701
stup	-9.74849
▁strachu	-9.74919
▁býval	-9.74993
▁myslím	-9.75183
▁krokem	-9.75228
Ti	-9.75233
▁prsa	-9.7537
▁otce	-9.75452
▁plane	-9.75562
dech	-9.75566
▁jiných	-9.7591
tka	-9.7591
▁touze	-9.75935
▁měli	-9.75949
▁páni	-9.75979
zrak	-9.76012
▁velkou	-9.76016
▁dálku	-9.76179
▁pad	-9.76247
Aj	-9.76263
▁polí	-9.76414
▁sluncem	-9.76428
pan	-9.76547
přec	-9.76556
▁možno	-9.76573
▁čase	-9.76629
▁svírá	-9.76726
▁barev	-9.7675
▁skrývá	-9.76778
▁velmi	-9.76802
nými	-9.76815
▁můžeš	-9.76874
▁nemůže	-9.76889
▁okamžik	-9.76917
▁hrom	-9.76947
▁déšť	-9.76968
▁budem	-9.77081
▁tančí	-9.77165
▁strany	-9.77179
▁D	-9.77207
▁mrtvých	-9.77245
▁stála	-9.77287
Tvůj	-9.77414
hy	-9.77489
kla	-9.77578
▁Ve	-9.77638
▁stínů	-9.77646
▁směje	-9.77718
krát	-9.77738
▁blízko	-9.77793
▁visí	-9.7792
Ač	-9.77932
▁B	-9.77962
▁nejsou	-9.77993
kové	-9.7805
▁trávě	-9.7805
▁mlhy	-9.78094
nikdy	-9.78133
N	-9.78195
▁radostí	-9.78223
▁slávu	-9.78252
poslední	-9.78259
▁žíti	-9.78294
▁takto	-9.78394
▁mrtvé	-9.78417
▁teprv	-9.7848
▁těžký	-9.78606
▁spíš	-9.7862
tvůj	-9.78644
▁lože	-9.78694
▁víry	-9.78782
ostí	-9.78868
▁říše	-9.78974
.¬–	-9.78985
▁Pane	-9.79053
▁plno	-9.79126
▁Vás	-9.79146
▁tohle	-9.79149
▁Š	-9.79186
ené	-9.79612
▁oka	-9.79629
▁dýchá	-9.79662
om	-9.79677
▁jehož	-9.79679
▁rosy	-9.79727
▁smutný	-9.79831
▁naň	-9.79879
▁tichá	-9.79897
duch	-9.7991
mne	-9.79955
▁slávě	-9.79961
▁svatá	-9.79993
per	-9.80307
▁pal	-9.80363
nit	-9.80402
bě	-9.80417
▁doba	-9.80487
▁loď	-9.80511
kal	-9.80531
▁čisté	-9.8056
▁běda	-9.8065
▁řekla	-9.8072
zí	-9.8074
▁barvy	-9.80779
▁večera	-9.8089
▁pozdrav	-9.80933
▁hlasy	-9.80964
▁rod	-9.81079
▁nejde	-9.81085
▁neměl	-9.81091
▁mraků	-9.81184
▁nitru	-9.81283
▁vůkol	-9.81292
▁oken	-9.81502
▁pozdě	-9.81528
▁letu	-9.81536
▁pomoci	-9.8154
iny	-9.81549
▁neroz	-9.8157
▁oknem	-9.81615
duše	-9.81643
▁vzpomínky	-9.81702
▁jaké	-9.81703
▁tělem	-9.8178
▁dneska	-9.81967
▁slyší	-9.82006
▁posud	-9.82183
ily	-9.82343
čet	-9.8235
▁krás	-9.82386
budu	-9.8242
▁chrámu	-9.82501
▁víra	-9.82502
w	-9.82526
žil	-9.82553
▁ňadra	-9.82618
▁koho	-9.82718
▁věřit	-9.82841
▁dechem	-9.82959
▁jím	-9.83024
Tvá	-9.8306
▁Pán	-9.83084
tra	-9.831
▁med	-9.83112
▁tají	-9.83128
▁skoro	-9.83194
▁jemně	-9.83297
▁kůži	-9.83472
▁hled	-9.83527
▁bolestí	-9.83557
▁zvláštní	-9.8361
▁hledám	-9.83695
▁vůli	-9.83823
?!¬	-9.83878
▁zlatých	-9.83879
ké	-9.83928
sem	-9.83944
▁pil	-9.84032
▁změní	-9.84051
▁žel	-9.84055
pí	-9.84097
▁jazyk	-9.84104
hled	-9.84128
▁pln	-9.84172
▁všemu	-9.84258
No	-9.84476
▁kůže	-9.84506
▁bledá	-9.84651
▁onen	-9.84745
▁li	-9.84858
▁světů	-9.84874
▁nejsi	-9.84923
tr	-9.84954
▁obzor	-9.85082
▁kdož	-9.85134
▁jinou	-9.85322
ností	-9.85346
▁řeka	-9.85348
stále	-9.85373
▁stesk	-9.85421
▁podle	-9.85426
▁konci	-9.8544
▁halí	-9.8553
▁písni	-9.85743
▁miloval	-9.85752
nku	-9.85757
▁staví	-9.85777
plá	-9.85784
▁české	-9.85859
chá	-9.85892
pár	-9.8592
kterou	-9.85958
▁kyne	-9.85977
klad	-9.86172
▁umí	-9.86178
pad	-9.8625
což	-9.86335
▁světy	-9.86366
tek	-9.86408
▁dveří	-9.86447
▁nebem	-9.86469
▁klesá	-9.86482
bi	-9.86507
▁touhu	-9.86511
▁hu	-9.86553
Toť	-9.86632
ák	-9.86678
▁končí	-9.8674
▁údolí	-9.86748
ja	-9.86801
▁Pro	-9.8683
▁křičí	-9.86979
▁básně	-9.87087
dra	-9.87101
▁vrátil	-9.87137
▁stolu	-9.87158
▁přesto	-9.87162
Sám	-9.87201
rad	-9.87232
▁boha	-9.8728
cy	-9.87296
▁š	-9.87314
▁verše	-9.87349
▁říká	-9.87384
▁vesele	-9.87471
šku	-9.87502
"¬	-9.87524
▁mlčí	-9.876
py	-9.87616
▁ženou	-9.87644
▁bohem	-9.87653
▁samo	-9.87673
▁Jsem	-9.87683
▁chleba	-9.87707
▁líci	-9.87724
pi	-9.87778
▁místě	-9.87791
▁nepro	-9.87837
▁krvi	-9.87846
▁nena	-9.87857
vej	-9.87897
▁Bohem	-9.87899
▁nová	-9.87925
náš	-9.87938
svým	-9.87996
▁leč	-9.88013
▁hra	-9.88027
Ani	-9.88042
stra	-9.88058
třeba	-9.88064
všechno	-9.88098
Čas	-9.8813
▁ja	-9.88146
cítím	-9.88212
▁našel	-9.88239
▁trávy	-9.88281
▁záhy	-9.88346
▁abych	-9.88466
chce	-9.88565
▁slovem	-9.88649
ční	-9.88737
▁pes	-9.88764
▁chuť	-9.88766
▁svědomí	-9.88794
▁drží	-9.88903
▁což	-9.88905
roze	-9.88942
or	-9.88947
byla	-9.89012
zi	-9.89085
▁vzdor	-9.89087
noc	-9.891
▁písku	-9.89171
▁tvoří	-9.89175
▁dav	-9.89186
▁viny	-9.89195
▁jitra	-9.89248
padá	-9.89284
▁Tvoje	-9.89288
▁miluji	-9.89322
Kéž	-9.89334
▁plnou	-9.89341
▁bod	-9.89346
▁konečně	-9.89357
vají	-9.89372
▁nechť	-9.89425
ilo	-9.8949
▁domov	-9.8951
▁tuší	-9.89528
pla	-9.89528
ovým	-9.89552
▁pre	-9.8958
▁občas	-9.89593
▁bledé	-9.8961
▁zvony	-9.89613
lem	-9.89727
▁černou	-9.898
pil	-9.89893
▁chvil	-9.90054
▁cosi	-9.90123
▁popel	-9.90197
▁lodi	-9.9024
▁hlav	-9.90293
Ch	-9.90355
pat	-9.90362
▁buší	-9.90367
▁vždyť	-9.90409
slunce	-9.90502
▁blesky	-9.90581
mat	-9.90623
žit	-9.9065
▁hochu	-9.90685
▁as	-9.90722
▁pláči	-9.9074
▁vroucí	-9.90839
dle	-9.90869
▁hodin	-9.90899
▁hladí	-9.90953
▁d	-9.90962
▁pít	-9.90998
▁hledat	-9.91158
znám	-9.91164
šla	-9.91223
▁tmách	-9.91246
▁kouzlo	-9.91249
▁lesní	-9.91305
krev	-9.91311
¬„	-9.91378
▁chladné	-9.91405
uješ	-9.91499
▁znamení	-9.91525
jejž	-9.91551
▁citu	-9.91551
▁rodí	-9.91602
▁milování	-9.91616
▁bouř	-9.91753
▁třese	-9.91774
▁pád	-9.91881
ík	-9.9197
▁uvnitř	-9.91976
▁lze	-9.9207
▁obě	-9.92222
dává	-9.92303
▁dívky	-9.9233
▁stal	-9.92462
▁komu	-9.92469
▁kterak	-9.92486
▁pěkně	-9.92585
št	-9.92729
▁cítit	-9.92759
▁věčnosti	-9.92778
▁stěny	-9.92811
▁bloudí	-9.92815
▁vzduchem	-9.92824
sk	-9.92829
chází	-9.92881
▁krásou	-9.92893
avý	-9.9292
jdi	-9.92928
▁rádi	-9.92955
▁druh	-9.92974
▁líbá	-9.93006
ur	-9.93075
Proto	-9.93094
▁těžce	-9.93098
jíž	-9.93226
▁pouta	-9.93269
▁jediná	-9.93277
▁dob	-9.93322
ičku	-9.9334
▁Tvou	-9.93361
šť	-9.93384
▁děvče	-9.93405
▁větrem	-9.93486
▁P	-9.93487
▁pekla	-9.93516
▁plod	-9.93632
▁ztratil	-9.93645
Slunce	-9.93674
ant	-9.93685
▁bolu	-9.93695
zem	-9.93706
▁kapky	-9.93743
též	-9.93762
▁dřímá	-9.93783
▁dobu	-9.93819
toť	-9.93959
▁směle	-9.94002
Jsme	-9.9404
▁host	-9.9406
tož	-9.94083
▁žene	-9.94105
▁kosti	-9.94138
▁listy	-9.9422
▁jed	-9.94225
▁hoch	-9.94226
▁sluch	-9.94333
nechť	-9.94347
Vždy	-9.94375
bor	-9.94377
▁ohněm	-9.944
▁mému	-9.94421
▁lidský	-9.94458
▁slyš	-9.94459
lad	-9.94505
vr	-9.94564
▁zůstal	-9.9457
kle	-9.94625
▁kousek	-9.94636
▁padne	-9.94641
▁pout	-9.94657
▁věcí	-9.94723
prý	-9.94875
▁blaha	-9.94902
▁luny	-9.94924
▁vodou	-9.94963
jít	-9.94963
▁malou	-9.94974
▁každým	-9.94989
▁dali	-9.95
▁l	-9.9505
▁vzpomínek	-9.95118
áci	-9.95143
▁umění	-9.95169
▁myšlenek	-9.95187
▁jediné	-9.95218
▁jasný	-9.95239
▁davu	-9.95242
▁Má	-9.95283
▁bratr	-9.95373
▁tehdy	-9.95391
tro	-9.95407
▁měsíce	-9.95421
▁pravý	-9.95451
stál	-9.95456
váš	-9.95486
▁tvoji	-9.95527
mí	-9.95559
▁smrtí	-9.9556
▁nosí	-9.95583
avě	-9.95592
▁lidských	-9.95684
▁horách	-9.95715
nici	-9.95717
šky	-9.95732
▁vět	-9.95741
▁dílo	-9.95744
▁těžko	-9.95788
tvá	-9.95863
▁stoupá	-9.95958
▁zněl	-9.95994
▁čemu	-9.9601
▁zlatem	-9.96125
▁pohledem	-9.96206
rod	-9.96233
▁tys	-9.96328
▁neod	-9.96329
▁tíží	-9.96358
bylo	-9.9643
▁in	-9.9646
▁vodu	-9.96472
aly	-9.96477
jeho	-9.96499
ver	-9.96552
▁som	-9.96651
▁dum	-9.96652
▁zmizí	-9.96729
lez	-9.9673
Noc	-9.96828
▁světlem	-9.96835
▁plyne	-9.96898
▁tuto	-9.96902
▁máte	-9.96951
Kol	-9.96994
▁zákon	-9.9701
▁jasně	-9.97064
lých	-9.97077
▁dělat	-9.9715
Jest	-9.97204
tů	-9.97246
▁nikde	-9.97256
Jenž	-9.97263
▁běd	-9.9728
▁řád	-9.97329
▁prudce	-9.97368
bož	-9.97404
▁ovšem	-9.97443
ska	-9.97513
▁závoj	-9.97535
▁teplo	-9.97615
!...¬	-9.97643
▁chvěl	-9.97715
▁dni	-9.9772
▁nepře	-9.97733
▁poklad	-9.97789
▁hradu	-9.97809
hor	-9.97852
ená	-9.97879
men	-9.97882
▁krásnou	-9.97937
▁tmavé	-9.98017
▁vlnách	-9.98032
▁kalich	-9.98043
ter	-9.98055
▁roků	-9.9806
▁zlé	-9.98096
▁mlčky	-9.98143
!...	-9.98144
▁zpíval	-9.98157
▁zmizel	-9.98254
▁chvilku	-9.98275
▁lev	-9.983
sen	-9.98388
▁roky	-9.98427
▁vyšel	-9.98465
tři	-9.98505
ané	-9.98554
▁řítí	-9.98663
Hned	-9.987
rů	-9.98756
▁blíže	-9.98771
▁vír	-9.98779
avou	-9.98794
▁nebudu	-9.98795
▁zuby	-9.98854
▁dlouhá	-9.9893
▁splývá	-9.98945
▁sladkou	-9.98969
tky	-9.98983
▁nějak	-9.98991
víš	-9.99059
Pojď	-9.99077
▁přítel	-9.9918
nese	-9.99203
▁rej	-9.99221
▁sou	-9.99339
ovy	-9.99372
▁psát	-9.99473
▁ves	-9.99478
▁žádná	-9.99593
▁totiž	-9.99617
▁nadšení	-9.99717
▁vášeň	-9.99745
▁zlatou	-9.99748
▁hloub	-9.99851
▁hleděl	-9.99875
▁mí	-9.99916
▁nových	-9.99955
▁kost	-10.0012
▁znát	-10.0027
▁zpívat	-10.0027
▁osudu	-10.0032
▁šeru	-10.0033
Pan	-10.0043
▁dělá	-10.0043
nikdo	-10.0049
lej	-10.0051
dva	-10.0058
▁děd	-10.0063
▁temně	-10.0067
▁znal	-10.0069
▁něhy	-10.0069
▁vlna	-10.0072
▁zrovna	-10.0081
▁stromu	-10.0081
▁ano	-10.0085
▁obloze	-10.0086
zu	-10.0087
▁soud	-10.0093
▁hledal	-10.0097
ského	-10.0097
▁smutná	-10.0111
ému	-10.0113
▁tep	-10.0116
▁lež	-10.012
lít	-10.0122
th	-10.0149
▁křik	-10.015
▁vánek	-10.0163
ži	-10.0164
kami	-10.0165
jednou	-10.0168
▁mluvil	-10.0172
▁květem	-10.0176
▁prapor	-10.0183
▁čekám	-10.0185
▁oni	-10.0188
▁šli	-10.0189
ška	-10.0195
▁spící	-10.0196
osť	-10.0197
smrt	-10.0198
Oh	-10.0215
▁kterých	-10.0219
▁vesmír	-10.0238
Přes	-10.0239
▁těl	-10.0239
▁pojď	-10.0246
▁prahu	-10.025
áš	-10.0255
▁byť	-10.0255
?“¬„	-10.0256
▁zlý	-10.0258
eň	-10.0263
▁cíle	-10.0282
rie	-10.0282
Ha	-10.0286
moc	-10.0286
Den	-10.0287
▁prostřed	-10.029
▁poznal	-10.0293
tiše	-10.0294
mluv	-10.0296
▁nemohu	-10.0296
▁hrůzou	-10.0299
▁pouti	-10.0304
▁hroby	-10.0307
▁začal	-10.0316
▁dveře	-10.0328
▁Proč	-10.0331
▁bože	-10.0332
kat	-10.0335
chy	-10.0337
▁němý	-10.0338
“¬	-10.0347
proto	-10.0355
▁nesou	-10.0358
▁víčka	-10.0358
▁štít	-10.0364
Jenom	-10.0374
▁dýše	-10.0382
▁pramen	-10.0382
▁žalu	-10.039
hvězd	-10.0396
▁ptáků	-10.04
▁starou	-10.04
Zá	-10.04
▁chtít	-10.04
ivá	-10.0404
▁Ma	-10.042
▁zraku	-10.0423
▁sluší	-10.0424
▁brání	-10.0432
▁umírá	-10.0432
▁syna	-10.0436
▁kvete	-10.0436
▁Mar	-10.0437
▁časů	-10.0438
▁Jan	-10.0442
▁jíti	-10.0446
▁ptáče	-10.0447
▁nejkrásnější	-10.0459
▁nezná	-10.0461
▁jiným	-10.0464
pou	-10.0465
▁jiní	-10.0482
pě	-10.0484
▁třpyt	-10.0494
▁výkřik	-10.0498
▁měst	-10.0499
živ	-10.05
▁řas	-10.0501
▁světel	-10.0504
▁samé	-10.0505
pořád	-10.0505
▁klíč	-10.0512
▁pouhý	-10.0512
jim	-10.0514
▁vane	-10.0524
▁tvor	-10.0525
cem	-10.0526
,“¬	-10.053
▁čistý	-10.053
▁Jsi	-10.0538
vit	-10.0546
hra	-10.0547
▁rudý	-10.0547
▁odpověď	-10.0549
▁volně	-10.055
tvář	-10.0559
▁lesem	-10.0561
til	-10.0568
▁bojí	-10.0587
▁rek	-10.0591
▁svitu	-10.0594
▁ruch	-10.0598
▁šedé	-10.061
sto	-10.0616
pán	-10.0618
▁zírá	-10.0625
zpěv	-10.0626
▁prázdné	-10.0626
▁poutník	-10.0628
▁hříchu	-10.0631
její	-10.0632
níci	-10.0633
šek	-10.0634
▁c	-10.0636
▁Ta	-10.064
chlad	-10.0641
–	-10.0643
▁věže	-10.0656
▁jednom	-10.0659
▁stojím	-10.0663
▁čistá	-10.0667
▁městě	-10.0668
▁západ	-10.0681
▁krátký	-10.0682
někdy	-10.0685
Nechci	-10.069
▁nitra	-10.0694
▁kruh	-10.0702
▁zázrak	-10.0703
boj	-10.0705
▁věděl	-10.0706
▁hučí	-10.0707
▁hrají	-10.0708
▁Páně	-10.0716
▁letní	-10.0719
▁slzách	-10.0729
▁vší	-10.0731
▁minulosti	-10.0738
jímž	-10.0741
▁svítání	-10.0742
ven	-10.075
▁musil	-10.0752
jící	-10.0752
is	-10.0756
stav	-10.0759
▁děcko	-10.0764
▁C	-10.0767
▁rytíř	-10.0767
▁tichou	-10.077
▁skráň	-10.0773
▁díky	-10.0775
▁me	-10.0779
J	-10.0779
▁dechu	-10.0781
▁On	-10.079
▁zbývá	-10.079
▁plní	-10.0791
Nechť	-10.0793
jeden	-10.0794
zná	-10.0795
jich	-10.0798
▁vznáší	-10.08
▁paměti	-10.0801
ati	-10.0815
▁příval	-10.0819
▁mnohé	-10.082
raz	-10.0828
▁výši	-10.0839
▁Kdo	-10.084
Byla	-10.0846
Ob	-10.085
▁vin	-10.0853
▁smál	-10.0853
Ž	-10.0859
▁nejvíc	-10.0866
▁světle	-10.0883
▁český	-10.0886
▁čekal	-10.0886
▁štěstím	-10.089
ga	-10.0895
▁plna	-10.0897
ovo	-10.0898
▁zvuky	-10.0904
ivý	-10.0906
štěstí	-10.0913
razil	-10.0915
ici	-10.0917
▁dešti	-10.092
▁bál	-10.0922
▁hrdě	-10.0928
zřel	-10.0929
lid	-10.093
▁zlá	-10.093
▁vodě	-10.0931
▁brány	-10.0932
▁ňadrech	-10.0939
chu	-10.0942
▁prosí	-10.096
▁krajem	-10.0966
br	-10.0966
▁dívčí	-10.0968
▁věží	-10.0968
▁propast	-10.0977
▁klíně	-10.0978
▁milost	-10.0979
všech	-10.098
▁ráji	-10.0981
▁klas	-10.0984
▁struny	-10.0992
eček	-10.0996
▁právo	-10.0997
▁čin	-10.1009
▁prázdno	-10.1012
▁kráčel	-10.1014
▁bledý	-10.1015
lky	-10.1016
▁polibek	-10.1016
▁lidstvo	-10.102
▁temný	-10.1022
▁dáti	-10.1025
▁něžně	-10.1031
▁kruhu	-10.1031
▁líto	-10.1033
▁zástup	-10.1039
padla	-10.1039
▁kolena	-10.1044
▁tato	-10.1053
▁půvab	-10.1055
▁šeptá	-10.1059
▁dnešní	-10.1062
▁věčná	-10.1067
▁jména	-10.107
hání	-10.107
▁dna	-10.1072
▁dlouhou	-10.1075
volá	-10.1076
▁vědět	-10.1076
▁mech	-10.1077
sní	-10.1079
ovu	-10.108
▁mluvit	-10.1081
(	-10.1084
▁vstává	-10.1084
stoupil	-10.1085
▁ptačí	-10.1085
▁dobrá	-10.1087
stvo	-10.1088
ící	-10.1092
▁snách	-10.1096
▁rosa	-10.1097
▁pás	-10.1109
▁mlha	-10.1109
▁dávných	-10.1117
▁spánek	-10.1124
▁pohár	-10.1124
▁letech	-10.1124
¬"	-10.1126
Král	-10.1133
nek	-10.1143
▁trest	-10.1145
▁chýlí	-10.1149
▁nesmí	-10.1151
nie	-10.1153
▁nechal	-10.1153
▁zpěvu	-10.1157
bit	-10.116
▁hrál	-10.1162
▁hodiny	-10.1164
▁hrůzy	-10.1165
padne	-10.1169
▁vládne	-10.1172
▁cíli	-10.1174
▁slzí	-10.1178
▁kout	-10.1182
▁hodně	-10.1188
rat	-10.12
▁přímo	-10.1204
▁pravé	-10.1206
▁tmu	-10.1216
mysl	-10.1217
▁díval	-10.1219
▁miluje	-10.122
▁smutno	-10.1225
klid	-10.1226
▁volal	-10.1234
vala	-10.1237
stejně	-10.1237
▁najednou	-10.1239
▁divné	-10.1245
▁nitro	-10.1245
▁sbor	-10.126
uju	-10.1261
▁jíž	-10.127
svit	-10.1282
▁t	-10.1283
▁mocí	-10.1291
Bože	-10.1303
▁půjdu	-10.1306
▁vzít	-10.1308
Smrt	-10.1318
▁stranou	-10.1318
inu	-10.1319
▁břeh	-10.1322
cý	-10.1331
ran	-10.1344
▁vidíš	-10.1352
▁svíce	-10.1356
dvě	-10.1357
▁lépe	-10.1358
král	-10.1358
▁jejích	-10.136
▁denní	-10.1362
▁věří	-10.1375
▁číst	-10.1379
▁toť	-10.138
▁jindy	-10.1382
vad	-10.1384
▁bohů	-10.1385
▁pozor	-10.1393
Nevím	-10.1401
▁kat	-10.1401
▁prostor	-10.141
Nač	-10.1414
▁honí	-10.1421
ivě	-10.1423
nechci	-10.1429
▁přitom	-10.1436
▁větve	-10.1444
▁chlap	-10.1445
▁mlád	-10.1446
▁děv	-10.1446
▁loži	-10.1451
▁sad	-10.1459
▁lidská	-10.1462
▁peklo	-10.1471
kop	-10.1472
▁mor	-10.1473
▁ohni	-10.1474
▁oběť	-10.1494
pis	-10.15
▁jednoho	-10.1504
▁H	-10.1505
▁obzoru	-10.1506
▁zvíře	-10.1513
▁svatou	-10.152
krá	-10.1528
▁přichází	-10.1529
Chtěla	-10.1533
Čím	-10.1537
▁stáří	-10.154
ější	-10.1543
tře	-10.1544
cit	-10.1559
▁milosti	-10.1563
Ko	-10.1566
čil	-10.1567
máš	-10.1569
▁mrtvý	-10.1583
▁Už	-10.1584
▁šaty	-10.1586
▁kříže	-10.1588
▁květin	-10.1592
▁zvěst	-10.1594
▁žhavé	-10.1597
Nu	-10.1599
▁Slunce	-10.1608
▁přátel	-10.1611
▁vztek	-10.1612
▁davy	-10.1615
▁noha	-10.1615
▁synu	-10.1619
▁šťastný	-10.1621
▁srdcích	-10.1627
’.¬	-10.1629
nec	-10.1629
▁něhu	-10.1631
▁živé	-10.1633
▁zlo	-10.1635
▁bleskem	-10.1636
▁samotě	-10.1637
▁bu	-10.164
▁jal	-10.1644
▁bran	-10.1647
▁L	-10.1648
kot	-10.1648
▁vrátit	-10.1649
▁čet	-10.165
▁čert	-10.1659
▁jedním	-10.1661
stín	-10.1661
rej	-10.1673
čit	-10.1674
▁papír	-10.1679
▁vzala	-10.1681
▁kmet	-10.1683
▁chudé	-10.1685
▁krásných	-10.1688
▁zářící	-10.1689
▁propasti	-10.1689
▁píše	-10.169
nko	-10.1695
▁děs	-10.1696
▁vnad	-10.1697
▁vstal	-10.1703
▁h	-10.1704
slav	-10.1708
man	-10.1717
▁kterém	-10.1718
.¬(	-10.173
▁křídly	-10.1731
▁práh	-10.1734
tys	-10.1745
▁jaká	-10.1747
místo	-10.1752
▁císař	-10.1759
▁snil	-10.1761
▁druhou	-10.1763
kéž	-10.1768
▁okno	-10.1776
▁životu	-10.178
go	-10.1788
▁nevíš	-10.179
nás	-10.1799
nů	-10.18
▁pěst	-10.1804
▁hází	-10.1809
▁kvílí	-10.1812
▁přál	-10.1813
▁stráž	-10.1814
▁–¬–	-10.1819
nil	-10.1819
ral	-10.182
ečku	-10.1825
ické	-10.1826
▁dno	-10.1826
▁poušti	-10.1831
▁pokoji	-10.1831
čel	-10.1848
▁jichž	-10.185
▁rov	-10.1851
▁darmo	-10.1852
dou	-10.1854
ic	-10.1858
▁řekne	-10.187
▁věřím	-10.187
▁musíš	-10.187
▁Ha	-10.1872
les	-10.1875
▁věčnost	-10.1878
sou	-10.188
vin	-10.1883
▁matku	-10.1884
▁dlaních	-10.1888
▁hlasu	-10.1891
Bude	-10.1905
▁Od	-10.1907
▁červ	-10.1908
▁meče	-10.191
▁léto	-10.1911
▁hvězdám	-10.1913
▁kterým	-10.1913
▁předu	-10.1916
▁strašně	-10.1918
▁jsa	-10.1919
▁matce	-10.1923
hne	-10.1928
▁budoucnost	-10.1929
ri	-10.1934
bol	-10.1939
žít	-10.1944
moje	-10.1946
▁proudy	-10.1948
▁pri	-10.196
ona	-10.1966
mar	-10.197
▁mluv	-10.1971
▁vichr	-10.1971
Ni	-10.1973
Ona	-10.1978
asi	-10.1984
▁had	-10.1985
▁kmen	-10.1986
hrad	-10.1988
▁bratři	-10.1989
▁pluje	-10.1989
▁duchů	-10.1996
kon	-10.1998
▁okny	-10.1999
byť	-10.201
▁soused	-10.2012
▁ulici	-10.2014
▁ro	-10.2018
▁líbal	-10.2019
▁velkým	-10.202
▁utrpení	-10.202
šly	-10.2023
▁jitro	-10.2024
▁manžel	-10.2028
▁těší	-10.2031
▁hněvu	-10.2033
pálí	-10.2047
▁vál	-10.2051
▁Ach	-10.2059
vidím	-10.2062
▁divný	-10.2063
▁ostatní	-10.2066
▁velkých	-10.2067
▁čekat	-10.2068
▁len	-10.2068
▁kníže	-10.207
▁kolik	-10.2072
▁fa	-10.2073
▁noří	-10.2073
Slyš	-10.208
šti	-10.2081
▁zapomněl	-10.2084
▁milou	-10.2086
kr	-10.2087
▁táhnou	-10.2088
Své	-10.2091
▁tóny	-10.2092
▁věř	-10.2094
níků	-10.2095
▁bílém	-10.2099
Víš	-10.2099
▁znáš	-10.2104
mín	-10.2107
▁vrchol	-10.2111
▁křídlech	-10.2114
▁mořem	-10.2118
▁polibky	-10.2123
proti	-10.2133
lení	-10.2134
Nech	-10.2139
fe	-10.2142
kteří	-10.2145
muž	-10.2146
▁stole	-10.2147
▁hovor	-10.2148
▁najde	-10.2154
ejte	-10.2154
íček	-10.2155
▁matko	-10.2157
▁zve	-10.2158
▁stůl	-10.216
hr	-10.2163
▁přeci	-10.2165
▁dětem	-10.2169
▁stínem	-10.2177
▁tichém	-10.218
▁tíž	-10.2184
▁zapomnění	-10.2185
▁kryje	-10.2191
▁tomto	-10.2191
Ano	-10.2194
Pán	-10.2196
▁Ba	-10.2197
▁záda	-10.2199
▁tajně	-10.2202
▁neštěstí	-10.2202
bys	-10.221
▁dostal	-10.2211
▁říši	-10.2215
sně	-10.2216
▁chladný	-10.2224
▁najít	-10.2225
▁vítá	-10.2226
▁nebyla	-10.2226
▁chléb	-10.2228
▁vítězství	-10.224
slova	-10.2241
šlo	-10.2246
▁mečem	-10.2249
▁chová	-10.225
▁největší	-10.2267
▁báseň	-10.2269
▁vzlet	-10.227
▁chystá	-10.2271
▁mechu	-10.2271
▁Tu	-10.228
▁vinu	-10.228
▁celém	-10.2283
▁mistr	-10.2287
vlád	-10.2291
▁středu	-10.2299
▁všecka	-10.23
▁pěstí	-10.2303
▁mlčení	-10.2304
▁temnou	-10.231
Dej	-10.2318
▁vys	-10.2322
▁pot	-10.233
▁vrah	-10.2332
Bylo	-10.2333
ár	-10.2334
nému	-10.234
▁temno	-10.234
Někdy	-10.2341
▁stud	-10.235
▁věku	-10.2353
▁marné	-10.2363
razí	-10.2366
▁slib	-10.2368
Ku	-10.2369
▁nutí	-10.2372
▁trhá	-10.2381
bá	-10.2386
kdyby	-10.2387
jestli	-10.2396
▁skrání	-10.2396
dů	-10.2397
▁bytí	-10.24
Nikdy	-10.2401
▁jiného	-10.2402
▁jásá	-10.241
▁dětství	-10.2417
čen	-10.2418
▁vlastním	-10.2421
avá	-10.2434
▁práva	-10.2435
▁zádech	-10.2436
▁bohu	-10.2439
▁str	-10.2451
▁vzpomínám	-10.2452
▁nechtěl	-10.2453
▁kos	-10.2458
▁bychom	-10.2461
něte	-10.2466
▁víla	-10.2466
ický	-10.2467
Měl	-10.2471
Jestli	-10.2476
▁slzou	-10.2478
▁čeho	-10.2481
▁perly	-10.251
▁požehnání	-10.251
▁těžká	-10.2511
Kdyby	-10.2511
▁teče	-10.2522
▁vroucně	-10.2529
▁dávné	-10.253
▁střel	-10.2535
▁mocně	-10.2535
▁vine	-10.2536
▁nechat	-10.2536
▁ženě	-10.2542
zdá	-10.2544
všechny	-10.2546
▁kroků	-10.2549
▁těchto	-10.2554
▁vaší	-10.2554
▁chvění	-10.2559
▁usmívá	-10.2561
▁pokoje	-10.2562
▁běl	-10.2562
▁ptám	-10.2565
▁mimo	-10.2568
▁přírody	-10.2569
▁paprsky	-10.2572
▁prosté	-10.2574
▁mužů	-10.2576
tají	-10.258
▁kles	-10.2582
▁nepři	-10.2584
▁cenu	-10.2586
▁háje	-10.2598
,¬–	-10.2599
▁vlasech	-10.2607
▁zbyl	-10.2607
▁západu	-10.2608
▁klínu	-10.261
G	-10.2611
▁člověku	-10.2612
běh	-10.2613
▁číše	-10.2616
▁trůn	-10.2624
▁stává	-10.2629
▁vrásky	-10.263
▁dobrou	-10.2652
▁hledím	-10.2658
▁kola	-10.2659
▁těmi	-10.2668
▁vašich	-10.2669
neboť	-10.267
▁plání	-10.2672
itel	-10.2673
▁mělo	-10.2674
▁br	-10.268
▁peří	-10.268
▁domě	-10.2689
▁skála	-10.269
zase	-10.2691
▁nejlepší	-10.2695
ut	-10.27
▁pel	-10.2719
▁dlouhých	-10.2721
▁chvějí	-10.2722
▁tráva	-10.2727
▁takhle	-10.2727
nové	-10.273
sla	-10.2735
všem	-10.2739
kne	-10.2741
▁zřít	-10.2749
čné	-10.275
▁slavné	-10.2752
ng	-10.276
▁zápas	-10.2761
▁jeví	-10.2762
▁začíná	-10.2765
▁chvěla	-10.2767
▁věnec	-10.2768
▁příteli	-10.2769
▁divý	-10.277
▁prací	-10.2775
▁třpytí	-10.2775
▁pohledu	-10.2776
▁smíchem	-10.2776
▁veliký	-10.2776
▁ru	-10.2783
▁spatřil	-10.2783
▁vsi	-10.2784
▁uši	-10.2788
...“¬	-10.279
▁všední	-10.2792
Jeho	-10.2796
▁naděj	-10.2796
▁moří	-10.2796
▁bytost	-10.2797
▁kom	-10.28
▁zvonů	-10.2804
▁žárem	-10.2807
▁pouští	-10.2812
zří	-10.2812
▁počal	-10.2817
▁luk	-10.2847
▁novým	-10.285
▁chybí	-10.2851
▁zle	-10.2852
▁stříbro	-10.2855
vod	-10.2858
▁hr	-10.286
plné	-10.2865
▁dobro	-10.2868
▁větví	-10.2868
▁klade	-10.2874
spí	-10.2877
▁drahou	-10.2882
▁jedinou	-10.2883
pit	-10.2885
ct	-10.2889
ovala	-10.2893
Oči	-10.2899
▁proudu	-10.2906
▁nemáš	-10.2908
Dál	-10.2912
▁dlí	-10.2914
del	-10.2914
▁posled	-10.2915
▁věčnou	-10.2918
▁padl	-10.292
▁uměl	-10.292
ený	-10.2923
řek	-10.2926
▁zastavil	-10.2929
▁zůstane	-10.2933
▁stanul	-10.2933
▁skále	-10.2934
▁bídy	-10.2935
Lid	-10.2936
▁jinoch	-10.2941
▁kamení	-10.2942
▁g	-10.2944
▁pr	-10.2949
▁most	-10.2951
▁lesku	-10.2953
▁směl	-10.2954
▁no	-10.2957
▁kývá	-10.2963
▁sluneční	-10.2965
▁ryzí	-10.2968
▁Však	-10.2972
čin	-10.2973
▁ležel	-10.2974
▁jímž	-10.2975
večer	-10.2976
▁Kde	-10.2978
▁řady	-10.298
▁planou	-10.2987
▁známý	-10.2988
▁Krista	-10.299
▁blankyt	-10.2994
▁Byl	-10.2996
▁daleka	-10.2996
Být	-10.2997
Poslední	-10.3
čně	-10.3003
▁svobodu	-10.3003
eš	-10.3004
▁pláčem	-10.3004
var	-10.3009
Tož	-10.3012
▁pravdě	-10.3013
cos	-10.3017
▁začne	-10.3017
slov	-10.3023
hnal	-10.3028
▁jinde	-10.3029
▁jakby	-10.3032
tolik	-10.3036
▁pána	-10.3039
▁tr	-10.304
▁kmit	-10.3041
▁rozkoše	-10.3044
▁vlá	-10.3045
kus	-10.3045
nevím	-10.3046
▁mar	-10.3046
▁bída	-10.3048
▁taje	-10.3054
taj	-10.3055
▁slavný	-10.3063
list	-10.3064
čte	-10.3065
▁zahrad	-10.3067
vali	-10.3068
spal	-10.3068
potom	-10.3071
▁budeme	-10.3071
▁stokrát	-10.3074
▁zeď	-10.3076
▁vábí	-10.3078
▁znamená	-10.3079
▁chtějí	-10.308
▁lži	-10.308
bil	-10.3082
ovém	-10.3084
▁ono	-10.3086
▁žáru	-10.3087
▁láká	-10.3089
▁trn	-10.3092
▁zbraně	-10.31
ář	-10.3102
▁bídu	-10.3104
0	-10.3105
Máš	-10.3106
oví	-10.3116
hlíd	-10.3118
Tím	-10.3126
▁řad	-10.3131
▁Pod	-10.3135
▁mladých	-10.3136
▁hyne	-10.3138
cen	-10.3145
jel	-10.3149
▁žitím	-10.316
▁šíji	-10.3161
žal	-10.3163
?!	-10.3164
▁otců	-10.3168
▁kněz	-10.317
▁ptá	-10.3171
▁padla	-10.3177
jakoby	-10.3177
ičkou	-10.3177
Č	-10.3177
▁kdybych	-10.3178
▁šero	-10.318
▁zimě	-10.318
▁obe	-10.3187
2	-10.3199
▁prchá	-10.3204
▁vůdce	-10.3206
pojď	-10.3213
▁okolí	-10.3219
nosť	-10.322
▁živý	-10.3222
nez	-10.3231
ah	-10.3236
dala	-10.3241
▁chyt	-10.3242
▁mocný	-10.3245
▁sním	-10.3258
▁oltář	-10.3259
▁hřeje	-10.327
jichž	-10.3273
oh	-10.3274
▁zdí	-10.3275
▁ctnost	-10.3284
▁slaví	-10.3286
▁ulic	-10.3286
Všechno	-10.3286
▁poznání	-10.3287
▁víří	-10.3288
▁kal	-10.3288
▁Tvého	-10.3289
▁děla	-10.3289
▁chtěli	-10.329
▁rady	-10.3294
▁pije	-10.3299
▁jede	-10.3299
dokud	-10.3301
▁bral	-10.3303
▁kdos	-10.3311
▁hříchy	-10.3311
▁chcete	-10.3312
▁zimní	-10.3315
▁toužím	-10.3318
▁cizích	-10.3321
▁mlze	-10.3322
svých	-10.3323
dřív	-10.3324
▁dnech	-10.3328
níku	-10.3332
▁slavně	-10.3334
▁Se	-10.3334
Jeden	-10.3336
▁pohádky	-10.3343
ován	-10.3348
▁dík	-10.3348
▁obou	-10.335
marně	-10.3355
▁máj	-10.3358
▁bolem	-10.336
▁sna	-10.3362
▁snáší	-10.3363
▁pu	-10.3364
▁dle	-10.3364
Nyní	-10.3367
▁zmírá	-10.3367
▁kov	-10.3367
mr	-10.3373
▁poví	-10.3377
▁vínem	-10.3378
Potom	-10.3381
▁slzami	-10.339
▁pi	-10.3391
▁ra	-10.3392
hal	-10.3398
▁tich	-10.34
ráží	-10.3403
lásky	-10.3407
▁hluk	-10.3407
▁cha	-10.3407
nač	-10.341
▁plášť	-10.3411
ivou	-10.3413
▁všechna	-10.3416
▁někam	-10.3418
▁bát	-10.3429
▁veliké	-10.3431
▁něžné	-10.3431
kraj	-10.3432
zvuk	-10.3433
▁koní	-10.3435
lů	-10.3438
▁blud	-10.3439
gi	-10.344
▁ží	-10.3445
naše	-10.3458
▁nač	-10.3463
▁státi	-10.3466
hlíží	-10.3467
▁dívat	-10.3468
▁řece	-10.3472
lila	-10.3475
▁černo	-10.3475
▁seděl	-10.3478
▁cti	-10.3489
rka	-10.3489
▁otče	-10.349
▁chtělo	-10.3495
▁věrně	-10.3496
▁zahradě	-10.3496
▁ďábel	-10.3498
▁samoty	-10.3502
▁trůnu	-10.3509
vádí	-10.3509
pol	-10.3511
▁schází	-10.3511
▁Bo	-10.3513
▁skvost	-10.3519
▁tvrdé	-10.3524
▁zbraň	-10.3527
▁zdál	-10.3534
1	-10.3535
▁platí	-10.3537
chod	-10.3539
▁knihy	-10.3541
▁věrné	-10.3542
▁říkám	-10.3542
vede	-10.3544
ar	-10.3547
▁nos	-10.3547
vil	-10.3551
▁okamžiku	-10.3552
▁všady	-10.3553
▁skončí	-10.3556
díl	-10.3556
nik	-10.3556
▁hvězdami	-10.3558
Miluji	-10.3558
ované	-10.356
Ná	-10.3561
▁Ka	-10.3562
▁sítě	-10.3565
Duše	-10.3565
▁bratře	-10.3567
kor	-10.3567
Ji	-10.3568
▁pode	-10.3569
▁žádá	-10.3573
▁každého	-10.3574
věr	-10.3577
▁dr	-10.3578
hod	-10.3586
▁tanci	-10.3587
▁naposledy	-10.3592
▁snadno	-10.3592
▁plakat	-10.3593
něco	-10.3594
▁pění	-10.3598
nci	-10.36
▁plát	-10.3607
▁zbylo	-10.361
▁anděla	-10.361
▁koutě	-10.3611
▁žhavý	-10.3614
▁pojí	-10.3614
▁lží	-10.3619
▁bojím	-10.3623
▁holka	-10.3623
▁oblohou	-10.3625
mor	-10.3627
mal	-10.3629
▁nocích	-10.3633
iště	-10.3634
▁leh	-10.3641
▁hrdin	-10.3646
▁dotek	-10.3647
▁Ale	-10.3648
věř	-10.3649
▁dívám	-10.3658
▁ber	-10.3661
▁čelem	-10.3662
Sta	-10.3666
▁slzu	-10.3667
▁krku	-10.3671
▁toužil	-10.3675
▁líbat	-10.3683
ává	-10.3686
▁paprsk	-10.3692
▁zor	-10.3697
▁horké	-10.3697
▁Petr	-10.3699
F	-10.37
▁krůpěj	-10.3703
▁rodné	-10.3711
▁duchem	-10.3712
Vidím	-10.3714
▁ramen	-10.3714
▁jimi	-10.3723
stane	-10.3726
bra	-10.3727
▁hrá	-10.3728
▁vlní	-10.3729
▁hnutí	-10.373
jím	-10.3744
ložil	-10.3744
▁samý	-10.3745
▁/	-10.3745
vět	-10.3748
▁tlačí	-10.3756
ál	-10.3758
▁odpor	-10.376
▁půjde	-10.3766
▁skráně	-10.3771
▁stav	-10.3776
▁poprvé	-10.3776
▁prvním	-10.3777
▁krutý	-10.3779
▁polích	-10.3783
▁psal	-10.3783
▁ony	-10.3785
Jednou	-10.3786
Duch	-10.3788
ským	-10.379
▁budiž	-10.3795
▁řetěz	-10.3796
▁sedím	-10.3805
▁zimy	-10.3806
▁rodu	-10.3808
▁chrání	-10.3811
▁prost	-10.3812
▁síle	-10.3816
▁tyto	-10.3817
▁nemoc	-10.3818
▁potu	-10.3821
rát	-10.3826
▁lem	-10.3836
▁hluboko	-10.3842
▁prázdný	-10.3844
▁ptát	-10.3847
▁šera	-10.3848
zřím	-10.3851
▁duní	-10.3854
Dí	-10.3858
▁žebrák	-10.3858
Mě	-10.386
▁plakal	-10.3861
sko	-10.3863
▁rosou	-10.3865
▁cestách	-10.3867
Budu	-10.3867
▁bere	-10.3869
Nikdo	-10.3877
▁činy	-10.3879
ění	-10.3881
▁činí	-10.3881
▁čo	-10.3888
▁ulice	-10.3891
hej	-10.3894
▁trud	-10.39
▁nemoh	-10.3904
▁modrý	-10.391
▁káže	-10.3913
▁tmavý	-10.3913
▁muka	-10.3916
▁vina	-10.3918
▁vítěz	-10.3919
▁modlí	-10.3921
budou	-10.3924
▁Život	-10.393
cházel	-10.3931
▁hrůza	-10.3932
▁důvod	-10.3935
bolest	-10.3935
ros	-10.3938
▁mal	-10.3939
ju	-10.394
▁pl	-10.394
▁šťasten	-10.3942
▁plameny	-10.3943
jste	-10.3948
▁mile	-10.3958
eb	-10.396
▁Že	-10.3961
▁dnu	-10.3963
rem	-10.3966
valy	-10.3974
▁políbení	-10.3975
▁otvírá	-10.3977
▁sten	-10.3981
hl	-10.3982
hnul	-10.3983
▁blázen	-10.3984
stojí	-10.3996
▁kor	-10.3998
íčku	-10.3998
▁pozdní	-10.3999
▁proudem	-10.3999
▁pravou	-10.4001
▁přišli	-10.4009
▁Ten	-10.401
▁ramena	-10.4016
klo	-10.4017
tor	-10.4019
pět	-10.4021
▁věrný	-10.4023
sama	-10.4024
▁otci	-10.4026
ret	-10.4027
▁slasti	-10.4027
▁myšlenka	-10.4036
▁zoufalství	-10.4037
▁abys	-10.4039
▁minulost	-10.404
Kr	-10.4041
▁žilách	-10.4043
Rád	-10.4043
hlad	-10.4044
▁Mám	-10.4053
lásku	-10.4054
▁zdvih	-10.4054
čkou	-10.4054
▁šíp	-10.4056
▁kamarád	-10.4067
▁druhá	-10.4068
kej	-10.4069
▁stáli	-10.407
▁budoucnosti	-10.4075
cího	-10.4077
Mne	-10.4081
▁něž	-10.4082
▁man	-10.4091
▁krouží	-10.4098
▁soumrak	-10.4101
áček	-10.4102
▁zbraní	-10.4103
▁básní	-10.4105
▁rozkoší	-10.4107
▁divně	-10.4108
sny	-10.4108
▁lící	-10.4112
▁všechen	-10.4113
▁kolo	-10.4114
▁hnízdo	-10.4115
▁straně	-10.4117
▁šepot	-10.4117
▁luna	-10.4118
mý	-10.4124
▁uprostřed	-10.414
▁břehy	-10.4146
▁běh	-10.4146
▁mnich	-10.4146
Jde	-10.4153
dla	-10.4154
▁úsměvu	-10.4154
op	-10.4158
rov	-10.416
▁šťastná	-10.4161
▁zdobí	-10.4161
▁posteli	-10.4161
▁vesmíru	-10.4162
▁ničí	-10.4163
▁jasu	-10.4164
▁vrhá	-10.4168
▁zpěvy	-10.4175
▁soucit	-10.4177
kov	-10.4177
▁těžkou	-10.4178
ved	-10.4178
▁plen	-10.4181
▁kole	-10.4184
▁slavík	-10.4184
ence	-10.4184
▁Jako	-10.4186
dají	-10.4187
▁vzpomínka	-10.4188
▁zahrady	-10.4195
▁silný	-10.4198
▁parku	-10.4207
▁stařec	-10.421
▁dívku	-10.4212
▁průvod	-10.4213
▁knih	-10.4215
Jež	-10.4216
člověk	-10.4219
▁temných	-10.4222
Jdi	-10.4224
▁divé	-10.4226
▁rve	-10.4226
▁víte	-10.4232
Pří	-10.4232
▁druhdy	-10.4234
▁nechá	-10.4242
▁stráni	-10.4243
áč	-10.4248
▁La	-10.4249
viděl	-10.4251
▁šedý	-10.4258
▁vzdychá	-10.426
prosím	-10.4266
▁zved	-10.427
celý	-10.4271
tma	-10.4272
hni	-10.4272
▁smí	-10.4279
směv	-10.4281
tku	-10.4282
Kolem	-10.4284
▁raděj	-10.4289
▁zelené	-10.429
▁mohou	-10.429
Cítím	-10.429
▁zraků	-10.4291
▁svobody	-10.4292
▁nůž	-10.4296
▁jiskry	-10.4304
▁Dnes	-10.4305
▁zvučí	-10.4307
▁mžik	-10.4308
▁říš	-10.4317
▁Jeho	-10.4319
▁stůj	-10.4319
hoří	-10.4321
▁dcera	-10.4323
▁závod	-10.4328
▁ledu	-10.4328
▁městem	-10.4335
▁roj	-10.4336
▁modrých	-10.4336
▁proudí	-10.4339
▁číš	-10.4339
▁čar	-10.4341
▁požár	-10.4342
▁nutno	-10.4342
▁zločin	-10.4344
▁trav	-10.4345
ster	-10.4347
Sem	-10.4349
▁celým	-10.4353
▁království	-10.4357
blesk	-10.4358
▁papež	-10.4364
▁dumy	-10.437
kl	-10.4383
▁koni	-10.4385
drž	-10.4387
▁vedou	-10.4388
▁dvojí	-10.4389
▁prší	-10.4391
▁Až	-10.4392
▁umřít	-10.4393
▁hrozí	-10.4397
zář	-10.4398
Ticho	-10.4399
ing	-10.4402
ální	-10.4405
▁úkol	-10.4414
▁věnce	-10.4414
▁strání	-10.4416
▁můžu	-10.4419
▁měj	-10.442
▁pá	-10.4421
ového	-10.4422
▁tří	-10.4427
lku	-10.4431
▁čtyři	-10.4432
Protože	-10.4432
▁zapomenout	-10.4433
nské	-10.4435
▁zdráv	-10.4437
▁běs	-10.4439
sotva	-10.4439
▁sladkých	-10.444
▁krk	-10.444
▁neznám	-10.4442
!¬„	-10.4446
▁mohlo	-10.4453
▁náruči	-10.4457
Chceš	-10.4457
▁vodní	-10.4458
slzy	-10.4459
▁obličej	-10.446
▁hrozné	-10.4461
dav	-10.4461
▁drtí	-10.4466
ol	-10.4468
▁stejné	-10.4469
▁nahá	-10.4474
▁ptal	-10.4475
Sotva	-10.4477
▁Václav	-10.4479
Nej	-10.4488
es	-10.4489
▁ženo	-10.4491
▁vzdechy	-10.4493
▁raději	-10.4496
▁b	-10.4496
▁ústech	-10.4498
▁našem	-10.45
▁síně	-10.4501
▁zlost	-10.4502
▁zůstat	-10.4502
▁nímž	-10.4504
▁chvílí	-10.4505
hnu	-10.4508
▁brát	-10.451
bal	-10.4511
▁druhu	-10.4514
koli	-10.4522
▁nevidí	-10.4524
▁roní	-10.4533
Pár	-10.454
volal	-10.4543
▁nepřátel	-10.4544
▁jímá	-10.4546
prch	-10.4549
▁Ni	-10.4551
trá	-10.4552
Svou	-10.4566
▁Ko	-10.4568
▁doktor	-10.4568
▁strachem	-10.4569
vzal	-10.457
▁starost	-10.457
▁tajné	-10.4572
▁jemné	-10.4572
ajíc	-10.4572
▁nejvyšší	-10.4575
▁vtip	-10.4586
▁přátelství	-10.4588
jedna	-10.4588
▁hrozný	-10.459
▁ozval	-10.4596
▁potají	-10.4603
▁jasná	-10.4605
▁padají	-10.4609
▁dějin	-10.4611
▁hrdé	-10.4613
▁bled	-10.4621
▁drobné	-10.4622
▁směr	-10.4623
ruce	-10.4624
▁krbu	-10.4625
▁bít	-10.4639
▁pánem	-10.464
pr	-10.4641
▁Pa	-10.4645
dávám	-10.4648
▁plody	-10.465
▁tlum	-10.4654
▁docela	-10.4664
▁lůně	-10.4664
první	-10.4669
▁dusí	-10.4679
▁slunko	-10.4682
▁zad	-10.4684
▁pekel	-10.4686
▁myslil	-10.4687
▁vinou	-10.469
▁kar	-10.4691
▁rámě	-10.4691
▁jdeš	-10.4697
▁větrů	-10.4697
čo	-10.4698
▁hrdlo	-10.4699
▁nev	-10.4702
chtěla	-10.4704
▁opravdu	-10.4705
▁baví	-10.4708
▁koz	-10.4709
stat	-10.471
▁letěl	-10.471
ečky	-10.4714
Stále	-10.4719
▁rohu	-10.4721
pjal	-10.4725
▁dokola	-10.4727
▁jat	-10.473
▁prstů	-10.473
▁–“¬	-10.4732
▁andělé	-10.4734
▁skřivan	-10.4734
▁dceru	-10.4735
přesto	-10.4738
▁zámku	-10.4739
▁šeptal	-10.4739
▁sloup	-10.4741
▁not	-10.4742
▁hříchů	-10.4742
▁vzor	-10.4742
▁smysly	-10.4748
nouti	-10.4754
▁polibků	-10.4754
neu	-10.4755
▁děsí	-10.4758
vrh	-10.476
▁dub	-10.4762
▁byt	-10.4766
▁peněz	-10.4766
▁zdání	-10.4772
▁stisk	-10.4775
lím	-10.4776
Muž	-10.4778
▁živá	-10.4779
Naše	-10.4782
fi	-10.4784
▁řada	-10.4785
▁vol	-10.4789
nc	-10.4789
hořel	-10.4794
▁lidmi	-10.4795
vých	-10.4801
dlo	-10.4805
▁posléz	-10.4805
hodil	-10.4812
▁ční	-10.4812
▁dvéře	-10.4814
▁vděk	-10.4814
fa	-10.4814
žár	-10.4817
▁představ	-10.482
▁tichým	-10.4821
řad	-10.4822
blá	-10.4822
▁krajinou	-10.4825
▁neviděl	-10.4829
dro	-10.4835
čkách	-10.4837
ča	-10.4837
▁panna	-10.4842
▁křídlem	-10.4843
nežli	-10.4845
▁Láska	-10.4846
▁lety	-10.4848
▁tuze	-10.4849
níky	-10.485
▁Kristus	-10.4851
▁pochyb	-10.4859
Pra	-10.4861
▁pusté	-10.4864
▁ryb	-10.4871
▁he	-10.4874
▁bič	-10.4881
toho	-10.4886
nění	-10.489
ode	-10.4893
?...¬	-10.4899
▁kouzlem	-10.4902
▁pavučin	-10.491
▁našeho	-10.4913
▁slast	-10.4921
▁spěchá	-10.4924
▁světlu	-10.4925
▁plaše	-10.4926
plav	-10.4927
▁přízrak	-10.4929
▁letem	-10.4933
▁pěje	-10.4933
he	-10.4933
▁přelud	-10.4939
▁radši	-10.4945
▁Tvém	-10.4945
lík	-10.4949
rd	-10.496
▁mrav	-10.4963
▁dokud	-10.4964
▁strun	-10.4965
stát	-10.4966
hla	-10.4972
▁šest	-10.4976
▁sic	-10.4977
▁spaní	-10.4978
▁divy	-10.4979
▁králem	-10.498
ření	-10.4986
▁míří	-10.4986
▁století	-10.499
▁hlahol	-10.499
▁hnal	-10.4993
Zrak	-10.4998
▁zlatí	-10.5001
rot	-10.5006
▁nohám	-10.5007
▁be	-10.501
létá	-10.5017
vál	-10.5021
▁rukama	-10.5023
▁lán	-10.5024
▁přišlo	-10.5024
běhl	-10.5025
▁náměstí	-10.5028
▁hotov	-10.5034
▁prokletí	-10.5034
▁lad	-10.5036
▁háj	-10.5036
▁oblohy	-10.5039
▁dětské	-10.5039
Víc	-10.504
▁přátelé	-10.504
padají	-10.5042
▁rostou	-10.5045
▁krvavé	-10.5047
▁včel	-10.5049
▁vzlyk	-10.5058
šed	-10.5058
▁kudy	-10.5059
▁nazpět	-10.5059
eno	-10.5062
▁teskně	-10.5065
▁plat	-10.5068
nos	-10.5068
▁holé	-10.5071
jdeš	-10.5072
▁okolo	-10.5076
▁čí	-10.5076
▁brzo	-10.5077
▁Vše	-10.508
▁přijít	-10.5084
▁chodil	-10.5084
ečka	-10.5086
▁skrz	-10.5089
▁hluboké	-10.5089
▁mlýn	-10.5092
▁Nad	-10.5095
padl	-10.5096
jedno	-10.5098
jaký	-10.51
▁všickni	-10.5101
▁kabát	-10.5105
Člověk	-10.5105
▁zvyk	-10.5105
čce	-10.5112
▁půlnoci	-10.5118
▁spěje	-10.5123
pouta	-10.5123
▁ránem	-10.5123
▁žluté	-10.5123
pln	-10.5123
Hoj	-10.5124
▁hřbitov	-10.5125
▁spal	-10.5125
▁promění	-10.5142
▁hru	-10.5145
▁učí	-10.5153
hý	-10.5156
▁volnost	-10.5156
▁mladosti	-10.5159
Nes	-10.516
vlastní	-10.5163
▁známé	-10.5171
▁půlnoc	-10.5176
▁obr	-10.5184
▁balvan	-10.5185
▁nesl	-10.5188
▁w	-10.5191
▁Roz	-10.5196
táhne	-10.5201
▁smutkem	-10.5204
Jaký	-10.5207
Hlas	-10.5218
▁staletí	-10.5219
tvou	-10.522
▁pouště	-10.5222
Znám	-10.5232
ment	-10.5233
jezd	-10.5236
▁přijdou	-10.5242
▁nebesa	-10.5243
Ro	-10.5252
Nám	-10.5254
pomalu	-10.5254
▁ved	-10.5255
Její	-10.5256
▁poesie	-10.5259
▁božské	-10.526
▁Hle	-10.5261
▁maně	-10.5263
▁klasy	-10.5264
řit	-10.5265
▁znaven	-10.5266
hoj	-10.5267
▁minul	-10.527
▁hod	-10.5271
▁lká	-10.5273
Jdu	-10.5274
▁psaní	-10.5279
▁kap	-10.5279
▁kořist	-10.5286
vrat	-10.5287
ském	-10.5287
hrá	-10.5288
▁chutí	-10.5289
▁svádí	-10.5289
íme	-10.5291
▁posledním	-10.5294
dávno	-10.5296
▁ostrov	-10.5296
▁bot	-10.5296
▁zlatém	-10.5297
▁kup	-10.53
▁mladou	-10.5301
▁síni	-10.5306
Ma	-10.5309
▁vesel	-10.531
▁hlubiny	-10.5314
ěn	-10.5315
▁sice	-10.5316
bral	-10.5317
.....	-10.5318
▁Lu	-10.5319
kají	-10.5324
▁skryl	-10.5326
▁šlo	-10.533
▁nebesům	-10.5331
▁jarem	-10.5334
▁sněhem	-10.5337
▁máti	-10.5338
▁hrobů	-10.5339
plod	-10.5341
vražd	-10.5342
zněl	-10.5353
▁voj	-10.5355
▁žila	-10.5362
▁listů	-10.5367
abys	-10.5368
▁deset	-10.5371
▁hudby	-10.5371
▁šťastné	-10.5374
kaz	-10.5382
▁řev	-10.5382
▁ston	-10.5384
▁čaroděj	-10.5387
▁vlastních	-10.5387
▁sme	-10.5388
ps	-10.5388
▁vysoko	-10.5389
led	-10.5392
▁nevěděl	-10.5393
▁Tam	-10.5394
▁ša	-10.5395
může	-10.5397
Krev	-10.5397
stva	-10.5397
▁Již	-10.5397
▁nemůžu	-10.5399
▁něhou	-10.54
▁bohy	-10.5401
▁musel	-10.5403
▁rety	-10.5403
hloub	-10.5406
up	-10.5407
▁ctnosti	-10.5408
Mezi	-10.541
▁jakýs	-10.5411
▁bor	-10.542
▁nedal	-10.5422
moh	-10.5431
Div	-10.5432
▁leskem	-10.5432
ního	-10.5435
Moje	-10.5438
▁obět	-10.5447
▁zemřel	-10.545
▁cítíš	-10.545
▁jdi	-10.5456
▁kdosi	-10.5458
Tolik	-10.5462
▁ovoce	-10.5462
▁krátce	-10.5464
▁klína	-10.5466
▁mr	-10.5471
▁tvému	-10.5472
▁Praze	-10.5475
▁korun	-10.5476
▁báje	-10.5476
▁bloudil	-10.548
▁tvar	-10.5481
podob	-10.5483
▁poušť	-10.5487
inka	-10.5497
▁údy	-10.5498
▁žalem	-10.55
▁červen	-10.5501
▁obětí	-10.5501
▁hleď	-10.5503
▁jar	-10.5504
Prosím	-10.5508
!"¬	-10.5509
▁oltáři	-10.5522
▁Osud	-10.5522
▁lá	-10.5523
▁špatně	-10.5525
ovali	-10.5526
▁tra	-10.5529
ruš	-10.5529
Který	-10.553
▁lesích	-10.5535
▁potok	-10.5542
rychle	-10.5543
▁pohyb	-10.5546
▁nesla	-10.5548
▁luh	-10.555
▁vlnou	-10.555
▁velí	-10.5554
tří	-10.5555
▁symbol	-10.556
ud	-10.5562
rek	-10.5562
▁jménem	-10.5565
▁Smrt	-10.5568
▁háji	-10.5568
skočí	-10.557
▁vlídně	-10.5571
▁stranu	-10.5571
▁Svět	-10.5572
▁knihu	-10.5572
▁taj	-10.5573
▁poslal	-10.5574
▁mrtev	-10.5576
▁svatých	-10.5576
▁doufám	-10.5579
▁zvolal	-10.558
▁moudrost	-10.5583
▁kůň	-10.5584
▁bílým	-10.5586
▁obrazy	-10.5597
dní	-10.5598
Chce	-10.5599
▁války	-10.56
▁hodí	-10.56
▁tón	-10.56
stačí	-10.56
▁němá	-10.5602
noucí	-10.5603
těm	-10.5605
▁vonný	-10.5606
▁prorok	-10.561
Prý	-10.561
so	-10.5617
Moc	-10.5619
▁vyjde	-10.5619
▁příběh	-10.5623
▁plných	-10.5627
vinu	-10.5635
▁paprsků	-10.5636
▁Mi	-10.5637
žen	-10.5638
dáš	-10.5644
▁dlouze	-10.5645
▁tiskne	-10.5647
▁plynou	-10.5653
slyš	-10.5654
drží	-10.5656
▁dvé	-10.5662
▁polem	-10.5665
▁hovoří	-10.5665
▁šíří	-10.5668
všichni	-10.5676
Všecko	-10.5676
rty	-10.5677
hledám	-10.5677
▁nenávist	-10.5677
▁věž	-10.568
▁odkud	-10.5684
▁neznámé	-10.5686
▁kvetou	-10.5686
všude	-10.5688
▁Noc	-10.5691
▁odejít	-10.5691
▁lampy	-10.5693
▁mil	-10.5697
mění	-10.5698
▁zmar	-10.5698
▁teskno	-10.5704
▁poznat	-10.5705
▁lodí	-10.5706
▁smutnou	-10.5709
běl	-10.5711
stanou	-10.5711
▁boří	-10.5714
stal	-10.5716
▁vědomí	-10.5721
ičko	-10.5725
▁síň	-10.5728
▁toto	-10.573
juž	-10.5733
trochu	-10.5736
▁spásy	-10.5739
kázal	-10.574
nutím	-10.5742
Třeba	-10.5751
▁Ji	-10.5751
▁vnitřní	-10.5753
▁hostí	-10.5757
tělo	-10.5758
▁dával	-10.5759
nský	-10.5759
▁hnízda	-10.5765
▁prázdná	-10.5767
▁míjí	-10.5772
ent	-10.5779
▁kop	-10.5781
leh	-10.5783
▁klesla	-10.5784
▁zvuků	-10.5784
mlouvá	-10.5785
jal	-10.5786
jede	-10.5791
▁R	-10.5791
všecko	-10.5794
▁podzimní	-10.5797
▁her	-10.5798
▁několik	-10.5801
▁Tvým	-10.5803
▁teskné	-10.5805
▁chud	-10.5806
▁potkal	-10.5809
myšlen	-10.5812
van	-10.5813
▁bratry	-10.5815
nesou	-10.5818
▁černém	-10.5818
ložit	-10.5822
▁blýská	-10.5824
▁dálek	-10.5827
oko	-10.5828
těž	-10.5829
bůh	-10.5836
▁zlatým	-10.5837
▁hlubinách	-10.5839
Pryč	-10.5844
mluví	-10.5846
▁mlh	-10.5852
▁hej	-10.5853
▁větry	-10.5858
▁dvacet	-10.586
▁pohledy	-10.5861
kovi	-10.5866
▁půdu	-10.5868
▁kouzla	-10.5868
▁odlesk	-10.5869
▁zbude	-10.5871
▁zastaví	-10.5876
lehl	-10.5878
▁láme	-10.5878
▁trpí	-10.5882
Tě	-10.5883
Ř	-10.5884
▁nohu	-10.5887
▁všudy	-10.5892
▁jihu	-10.5893
Takto	-10.5893
▁něhož	-10.5898
▁lítá	-10.5902
▁sedm	-10.5904
▁prst	-10.5904
▁nářek	-10.5905
▁nekonečné	-10.591
anděl	-10.591
▁úzkost	-10.5911
▁tichem	-10.5913
▁bledou	-10.5914
▁báj	-10.5916
▁pravá	-10.5917
▁pěsti	-10.592
▁sahá	-10.5923
jme	-10.5925
▁divá	-10.5931
▁žhoucí	-10.5935
▁večerní	-10.5939
▁poledne	-10.5941
zpívá	-10.5941
▁šept	-10.5944
▁lidskou	-10.5949
Boj	-10.5952
▁ďas	-10.5953
▁mohli	-10.5956
šení	-10.5957
▁stala	-10.5958
myslím	-10.5962
▁andělů	-10.5963
▁skle	-10.5966
jaké	-10.5968
par	-10.5968
▁chudý	-10.597
▁stálo	-10.5971
▁díla	-10.5976
▁sítí	-10.5977
▁nového	-10.5979
▁malých	-10.5984
▁hudbu	-10.5987
▁č	-10.5988
met	-10.5989
▁plál	-10.599
nebe	-10.5993
▁jmen	-10.5994
kolik	-10.5996
▁te	-10.6002
▁rytmu	-10.6003
▁spor	-10.6004
sty	-10.6006
▁odtud	-10.6007
řeč	-10.6008
Slzy	-10.6008
▁zeleň	-10.6011
▁Karel	-10.6014
▁Vaše	-10.6015
▁zbytky	-10.6018
eč	-10.6019
▁orel	-10.6019
zatím	-10.6022
▁lí	-10.6024
▁hudbou	-10.6028
▁vrh	-10.603
pustil	-10.6031
Všichni	-10.6035
▁oblacích	-10.6035
▁Ro	-10.6035
▁houští	-10.6036
▁vonné	-10.6038
▁J	-10.6041
▁horší	-10.6045
▁Ježíš	-10.6052
uprostřed	-10.6057
▁číši	-10.6057
▁r	-10.6062
strach	-10.6066
▁brachu	-10.6067
▁věz	-10.6068
kříd	-10.6073
▁unaven	-10.6085
čeká	-10.6086
▁pouť	-10.6086
▁bijí	-10.609
▁oné	-10.6091
▁takové	-10.6093
▁domy	-10.6095
dl	-10.6096
▁Jo	-10.6096
▁barvu	-10.6098
▁pohan	-10.6103
▁takový	-10.6104
▁dary	-10.6104
▁veliká	-10.6105
▁pěl	-10.6105
▁žijí	-10.6107
▁záhad	-10.6109
Náhle	-10.6109
hrob	-10.6111
▁záští	-10.6111
ed	-10.6118
▁zdech	-10.612
▁hladině	-10.612
▁jiskra	-10.6122
pás	-10.6122
▁blaze	-10.6122
▁připraven	-10.6127
▁řasy	-10.6129
držel	-10.6129
▁mračna	-10.6131
▁nestačí	-10.6132
▁plémě	-10.6132
▁dáš	-10.6132
svítí	-10.6133
▁bděl	-10.6135
rky	-10.6136
▁žili	-10.6137
▁mnohá	-10.6138
¬*	-10.614
Nemám	-10.614
ených	-10.6143
▁líně	-10.6145
▁oh	-10.6146
▁bratra	-10.6147
▁Snad	-10.6148
vis	-10.6148
svobod	-10.6152
Nebe	-10.6155
zo	-10.6156
bod	-10.6158
▁míst	-10.6165
▁slep	-10.617
▁rudá	-10.6171
*	-10.6172
▁bok	-10.6172
▁dýchat	-10.6174
▁kusy	-10.6175
padlo	-10.6175
▁starém	-10.6181
!!!	-10.6181
▁milo	-10.6182
▁sáh	-10.6182
gu	-10.6185
▁osudem	-10.6185
▁pastýř	-10.6186
▁rým	-10.6187
bud	-10.6187
▁hrobem	-10.6192
▁ohlas	-10.6201
▁prvý	-10.6203
▁těžkých	-10.6206
▁temná	-10.6211
▁kvítek	-10.6212
▁soumraku	-10.6213
▁zbyla	-10.6216
▁rtu	-10.6217
▁rakev	-10.6217
slyším	-10.6218
▁stěží	-10.6218
▁kruté	-10.6218
enou	-10.6219
Kolik	-10.6221
ad	-10.6223
▁vrať	-10.6225
▁My	-10.6228
▁pěkné	-10.6229
▁stráně	-10.623
▁No	-10.6236
▁čistou	-10.6239
▁..	-10.624
▁vyšší	-10.6245
▁pí	-10.6247
▁pravdou	-10.6248
lým	-10.6251
▁vedl	-10.626
▁mo	-10.6261
▁radu	-10.6265
▁trápení	-10.6267
▁strojí	-10.6268
▁ex	-10.6274
▁pocity	-10.6274
pít	-10.6274
třel	-10.6275
▁matkou	-10.6278
▁pouhé	-10.6279
▁nechceš	-10.6281
▁sestry	-10.6281
▁řádky	-10.6281
▁spokojen	-10.6284
▁lo	-10.6289
▁červánků	-10.6291
▁křoví	-10.6291
▁paží	-10.6294
▁trápí	-10.6299
Jí	-10.6301
▁nádech	-10.6304
▁slyšíš	-10.6305
Marně	-10.6305
han	-10.6315
ér	-10.6317
nicí	-10.6322
▁hezky	-10.6322
čení	-10.6333
▁volný	-10.6335
▁slepý	-10.6335
▁prsten	-10.6339
▁nahé	-10.634
vaz	-10.6344
také	-10.6348
▁vrat	-10.6352
An	-10.6354
▁bdí	-10.6357
bývá	-10.6359
▁tratí	-10.6359
Nuže	-10.636
▁Jiří	-10.6362
▁chyb	-10.6362
▁žízeň	-10.6364
▁los	-10.6364
:¬"	-10.6368
▁hřmí	-10.6372
▁umřel	-10.6373
leží	-10.6378
Které	-10.6378
vlas	-10.6378
▁Le	-10.6381
ge	-10.6381
pokoj	-10.6384
Mar	-10.6387
▁stříbrné	-10.6391
▁cel	-10.6391
▁hvězdné	-10.6394
▁víme	-10.6395
▁šťastně	-10.6395
vln	-10.6396
▁bi	-10.6399
vítr	-10.6401
plný	-10.6408
▁modrá	-10.6409
dar	-10.6412
nut	-10.6412
řil	-10.6422
pust	-10.6422
▁pivo	-10.6425
▁smím	-10.6432
Dřív	-10.6432
▁mozek	-10.6436
▁zůstává	-10.6436
▁ostrý	-10.6438
▁chyby	-10.6438
▁spěch	-10.6439
rci	-10.6441
▁prostoru	-10.6443
zel	-10.6443
▁kéž	-10.6445
▁stop	-10.6446
▁škoda	-10.6448
▁vid	-10.645
pírá	-10.645
▁pláni	-10.6452
▁cizím	-10.6452
Pr	-10.6454
lice	-10.646
▁otázky	-10.6467
▁kostel	-10.6467
lévá	-10.6468
▁vezme	-10.6471
▁břehů	-10.6472
iž	-10.6473
▁lhát	-10.6473
▁věd	-10.6478
▁kluk	-10.6482
▁teplé	-10.6487
pre	-10.6491
▁Ze	-10.6492
ul	-10.6497
▁člověkem	-10.6499
▁panny	-10.6502
▁mnohem	-10.6504
tkal	-10.6504
▁najdu	-10.6508
Avšak	-10.6508
▁postele	-10.651
▁dámy	-10.6514
▁sluje	-10.6516
▁roku	-10.6516
Zatím	-10.6516
▁ranou	-10.6519
pouští	-10.652
▁osm	-10.652
▁chceme	-10.6521
át	-10.6522
▁jitřní	-10.6525
tit	-10.653
▁dělí	-10.6531
▁zvěř	-10.6539
▁kým	-10.6541
▁skráni	-10.6541
▁šíje	-10.6541
▁Li	-10.6542
ňa	-10.6543
▁hranice	-10.6546
▁aj	-10.6547
jas	-10.6547
▁mladí	-10.6548
▁kostí	-10.6548
▁paže	-10.6549
▁zlých	-10.6553
zpět	-10.6553
▁zlého	-10.6553
▁odraz	-10.6556
▁chutná	-10.6558
▁mý	-10.6565
▁vzácné	-10.6567
▁sis	-10.6569
Jedna	-10.6573
proud	-10.6573
▁vskutku	-10.6573
▁stejný	-10.6575
▁démon	-10.6578
klam	-10.6579
▁šleh	-10.6581
▁odešel	-10.6584
▁kr	-10.6586
znal	-10.6588
▁pozná	-10.6589
▁dáno	-10.6592
▁trávu	-10.6593
▁smělý	-10.6595
▁tvářích	-10.6595
▁hrot	-10.6598
▁druhého	-10.6603
lám	-10.6605
čekám	-10.6607
nemám	-10.6607
▁znak	-10.6609
cům	-10.6611
▁skládá	-10.6611
úsměv	-10.6612
hroz	-10.6613
▁nu	-10.6613
Též	-10.662
myšlenky	-10.6621
kdes	-10.6621
ovaná	-10.6626
dlouho	-10.6628
▁skočí	-10.6629
▁kroku	-10.663
▁Pi	-10.6632
▁sladkým	-10.6637
nový	-10.6638
▁úplně	-10.6639
▁muk	-10.6639
▁hodil	-10.6639
budeš	-10.6641
▁zpěvem	-10.6641
▁žert	-10.6644
▁tanec	-10.6654
▁veršů	-10.6656
zy	-10.6659
▁věřil	-10.666
kům	-10.666
▁opuštěn	-10.6661
vol	-10.6666
▁minut	-10.667
▁mas	-10.667
▁splín	-10.6674
▁deštěm	-10.6674
▁f	-10.6678
Pa	-10.6681
▁pýcha	-10.6682
▁písek	-10.6684
▁sedá	-10.6685
▁pravo	-10.6687
▁němé	-10.6691
Bo	-10.6692
▁myšlenkách	-10.6694
▁děj	-10.6695
nášel	-10.6696
icky	-10.6697
byt	-10.6699
lko	-10.6701
▁retů	-10.6702
▁světlý	-10.6707
▁tajemné	-10.6711
▁keř	-10.6712
▁příroda	-10.6713
ré	-10.672
tru	-10.6724
▁stéká	-10.6728
▁oceán	-10.673
tel	-10.6731
musí	-10.6731
kří	-10.6731
▁blesků	-10.6733
▁mramor	-10.6733
▁lístek	-10.6735
▁nohama	-10.6735
▁tro	-10.6736
▁G	-10.6736
▁hlasů	-10.6737
ruší	-10.674
Dost	-10.6745
Zem	-10.6745
▁nebeské	-10.6747
▁zmítá	-10.6751
Dobře	-10.6755
▁skryt	-10.6756
Zdá	-10.676
▁hasne	-10.6762
voní	-10.6766
nedo	-10.6771
právě	-10.6773
radost	-10.6773
▁divě	-10.6774
▁koráb	-10.6784
▁obloha	-10.6784
▁šílenství	-10.6786
plat	-10.6788
stupuje	-10.6789
▁snové	-10.6789
střel	-10.6805
avým	-10.6808
▁sled	-10.6808
▁děvy	-10.6813
Juž	-10.6813
▁víly	-10.6815
rušil	-10.6817
▁voják	-10.682
▁plíží	-10.682
Kdož	-10.6824
▁vlak	-10.6825
▁zachvěl	-10.6826
▁spat	-10.6826
▁řekni	-10.6829
▁srp	-10.6831
▁změnil	-10.6832
▁něžná	-10.6833
▁Prahy	-10.6837
bolí	-10.6837
▁česká	-10.6838
▁N	-10.6841
▁šeré	-10.6842
práv	-10.6844
čkem	-10.6844
▁pros	-10.6844
klidně	-10.6846
...¬„	-10.6846
▁leb	-10.6848
▁silné	-10.6848
▁zříti	-10.6848
Krás	-10.6849
rud	-10.6849
▁hůl	-10.6851
▁potichu	-10.6854
ických	-10.6855
▁zjeví	-10.6855
▁mrtvá	-10.6858
žije	-10.6859
▁nesu	-10.686
▁tábor	-10.6863
▁šíř	-10.6864
▁špatné	-10.6864
Dva	-10.6864
brat	-10.6869
pláče	-10.6869
▁lehké	-10.6871
▁hlídá	-10.6872
▁hlíny	-10.6876
▁klesl	-10.6878
spolu	-10.688
▁duhy	-10.688
▁propastí	-10.6881
psal	-10.6882
▁rysy	-10.6882
▁chladnou	-10.6883
Strach	-10.6883
Místo	-10.6884
▁chr	-10.6886
▁tušil	-10.6887
▁pějí	-10.6889
▁stěn	-10.6892
▁prostý	-10.6893
▁čaj	-10.6902
▁kvas	-10.6902
▁slední	-10.6904
▁usnul	-10.6907
krut	-10.6908
▁zazní	-10.6911
pas	-10.6911
dost	-10.6917
▁smála	-10.6917
▁díl	-10.6918
▁stár	-10.6921
▁objímá	-10.6922
Jaké	-10.6924
och	-10.6925
▁školy	-10.693
▁mozku	-10.6931
▁věčných	-10.6931
▁blankytu	-10.6931
▁an	-10.6932
kom	-10.6934
▁trpěl	-10.6935
▁krám	-10.6938
▁téměř	-10.6938
hrává	-10.6938
▁říkal	-10.6941
▁peruť	-10.6942
▁slabé	-10.6942
▁druž	-10.6946
chů	-10.6948
Děl	-10.6952
▁sbohem	-10.6952
myslil	-10.6954
Která	-10.6956
livé	-10.6959
▁východ	-10.6961
rost	-10.6961
cítil	-10.6964
▁prů	-10.6967
▁kapka	-10.6967
▁kázal	-10.6969
▁smějí	-10.697
točí	-10.6973
▁drob	-10.6978
tich	-10.6981
▁utíká	-10.6981
léhá	-10.6982
▁chvátá	-10.6982
▁déle	-10.6984
bří	-10.6986
▁krutě	-10.6993
jejich	-10.6995
▁kameny	-10.6999
▁svítá	-10.7001
▁jásot	-10.7006
▁zrcadle	-10.701
▁zlatě	-10.7011
▁běž	-10.7014
▁du	-10.7014
▁páry	-10.7015
▁skáče	-10.7016
Li	-10.7018
▁kříži	-10.7021
hrom	-10.7023
▁slze	-10.7023
Lásko	-10.7024
druh	-10.7026
▁kořen	-10.7027
▁rum	-10.703
▁horoucí	-10.7031
▁Řím	-10.7031
▁suché	-10.7033
▁řídí	-10.7035
▁jun	-10.7038
▁leká	-10.7041
pot	-10.7042
kdys	-10.7043
▁pevné	-10.7046
livě	-10.7047
▁plesu	-10.705
▁chod	-10.7052
▁blažen	-10.7054
▁třás	-10.7054
zve	-10.7056
▁lék	-10.7057
▁otevře	-10.7057
▁korunu	-10.706
▁důkaz	-10.7061
▁rozkaz	-10.7062
▁probudil	-10.7062
▁skvoucí	-10.7065
▁lup	-10.7067
▁přestal	-10.707
.¬"	-10.707
▁jakoby	-10.7071
▁šp	-10.7071
alo	-10.7072
▁úděl	-10.7072
▁otevřel	-10.7076
▁zády	-10.7076
▁Čechách	-10.7081
táhl	-10.7083
▁slastí	-10.7084
hat	-10.7085
▁ulicí	-10.7089
hraje	-10.7089
▁nevěří	-10.7089
Ho	-10.7092
▁úžas	-10.7093
▁krov	-10.7095
▁vzácný	-10.7098
▁dán	-10.7098
▁roucho	-10.7102
▁volám	-10.7104
mile	-10.7107
▁vaši	-10.7107
▁ztratí	-10.7111
▁lov	-10.7113
▁tisíckrát	-10.7113
Jenže	-10.7116
sed	-10.7116
Mi	-10.7118
▁zněla	-10.7125
▁bránu	-10.7129
Pane	-10.7132
▁hub	-10.7133
jíždí	-10.7134
▁myslíš	-10.7138
?...	-10.7138
bírá	-10.7139
stá	-10.714
▁vzali	-10.7142
▁hbitě	-10.7143
▁ako	-10.7143
▁dráhy	-10.7145
▁tůně	-10.7155
stří	-10.7157
▁ostré	-10.7157
▁neznal	-10.7157
▁chvat	-10.7158
▁blahem	-10.716
▁stádo	-10.716
▁třikrát	-10.7163
▁um	-10.7166
▁jist	-10.7171
▁svatým	-10.7174
▁zpívají	-10.7178
▁očka	-10.7179
▁ulicích	-10.7179
▁vánku	-10.718
▁pádí	-10.7181
▁přát	-10.7184
letěl	-10.7187
▁nahoře	-10.7189
ujíc	-10.7191
tal	-10.7191
▁kostela	-10.7197
..¬..	-10.7198
hlížel	-10.7199
▁znělo	-10.7206
▁oblohu	-10.7209
▁vězení	-10.7212
▁pílí	-10.7215
▁rmut	-10.7216
Hor	-10.7217
někdo	-10.7217
jimž	-10.7219
▁jasnou	-10.7219
▁pas	-10.7224
smích	-10.7224
▁Kam	-10.7225
▁Ch	-10.7228
▁lístky	-10.7232
išti	-10.7237
Kdybych	-10.724
drá	-10.724
▁nikoho	-10.7241
vidí	-10.7242
▁klad	-10.7244
▁udělal	-10.7245
Lí	-10.7247
▁zvuku	-10.7247
▁Zas	-10.7247
Dlouho	-10.725
plň	-10.7252
Viděl	-10.7253
hledí	-10.7257
▁východu	-10.7257
▁perutí	-10.7258
▁prask	-10.7259
uška	-10.7259
jmu	-10.726
▁živí	-10.7262
pustit	-10.7265
▁strašný	-10.7266
vlá	-10.727
▁trní	-10.7272
vor	-10.7277
▁stvořil	-10.7277
miluji	-10.728
▁vlád	-10.7284
▁melodie	-10.729
pů	-10.729
▁národu	-10.7292
půl	-10.7294
▁měsíci	-10.7295
mil	-10.7295
▁Země	-10.7297
▁sráz	-10.7299
▁nie	-10.73
▁něha	-10.73
▁hrabě	-10.7306
gr	-10.7306
▁kvůli	-10.7308
▁cele	-10.7311
CH	-10.7312
kryje	-10.7314
▁pěn	-10.7315
Lidé	-10.7319
▁Při	-10.7321
▁vrb	-10.7323
▁pohrd	-10.7323
▁snivé	-10.7323
▁doteky	-10.7326
▁sval	-10.7328
▁křížem	-10.7329
sled	-10.7329
▁létě	-10.7332
▁zazněl	-10.7336
▁hlásá	-10.7342
Byť	-10.7345
píše	-10.7348
▁plují	-10.735
lák	-10.735
▁hrdla	-10.7351
▁spojí	-10.7352
▁opustil	-10.7353
Br	-10.7353
▁soudu	-10.7362
▁blesku	-10.7362
stud	-10.7363
▁kane	-10.7364
▁spi	-10.7366
▁starší	-10.7366
lat	-10.7367
kým	-10.7371
píšu	-10.7373
▁lidstvu	-10.7374
▁hořké	-10.7375
▁lítost	-10.7376
▁tónů	-10.7376
trp	-10.7377
▁poupě	-10.7379
lesk	-10.7383
▁nebolí	-10.7385
▁louce	-10.7387
enci	-10.7388
▁..¬	-10.739
▁An	-10.739
▁pěti	-10.7395
▁kouř	-10.7397
hýbá	-10.7397
▁krátké	-10.7397
▁skryté	-10.7399
▁skvělý	-10.7402
▁hněvem	-10.7403
▁mísí	-10.7406
▁Den	-10.7412
▁chtíč	-10.7416
▁zhas	-10.7418
▁přeje	-10.7418
▁hlásí	-10.7422
▁činu	-10.7423
▁ruchu	-10.7424
▁tříští	-10.7425
▁výraz	-10.7425
▁1	-10.7426
▁sál	-10.7428
▁snaží	-10.743
▁netuší	-10.7431
▁zraje	-10.7433
▁di	-10.7435
▁zloba	-10.7435
▁vnady	-10.7435
▁Pan	-10.7437
Něco	-10.744
spěch	-10.744
▁půdy	-10.7442
▁bozi	-10.7442
▁nastal	-10.7443
▁trub	-10.7443
▁učitel	-10.7444
▁tíhou	-10.7447
▁dítky	-10.7447
děj	-10.745
▁tichých	-10.7451
ub	-10.7453
tká	-10.7454
átko	-10.7457
Ke	-10.7457
šit	-10.746
▁černým	-10.7463
▁kalí	-10.7465
▁plam	-10.7467
▁vnuk	-10.7468
ule	-10.7468
▁vydal	-10.747
▁stří	-10.7471
Asi	-10.7475
občas	-10.7481
▁jimž	-10.7482
▁nit	-10.7485
▁zdát	-10.7486
▁Teď	-10.7488
▁zrcadlo	-10.7497
▁dveřmi	-10.7497
Šel	-10.7498
nuž	-10.7499
roste	-10.7501
▁mlhou	-10.7502
▁nevrátí	-10.7502
▁verš	-10.7503
▁hrou	-10.7505
▁slávou	-10.7506
▁nádherné	-10.7507
▁Ar	-10.7508
▁spíše	-10.7509
▁tuším	-10.7509
▁vlčí	-10.7516
▁jdeme	-10.7516
řin	-10.7517
▁kreslí	-10.7521
▁klidný	-10.7521
Celý	-10.7525
Pla	-10.7525
▁zadu	-10.7526
Stál	-10.7528
▁zřela	-10.7529
níka	-10.753
▁kořeny	-10.7534
plní	-10.7536
áž	-10.7537
▁zámek	-10.754
prostě	-10.754
▁složil	-10.7542
aná	-10.7544
Běda	-10.7545
▁fakt	-10.7548
▁vleče	-10.7554
tých	-10.7557
výš	-10.7557
▁trvá	-10.7557
▁ctí	-10.7561
▁píšu	-10.7563
▁vzpomíná	-10.7563
stává	-10.7564
▁zklamání	-10.7567
▁dávám	-10.7568
▁Ku	-10.7571
▁hvězdou	-10.7572
často	-10.7572
▁vzdal	-10.7573
aný	-10.7573
ráž	-10.7574
▁pruh	-10.7579
."¬	-10.7583
▁můž	-10.7586
▁samota	-10.7589
razit	-10.759
▁květech	-10.7592
▁mat	-10.7596
vrať	-10.7596
▁vře	-10.7597
▁op	-10.7599
krok	-10.7599
▁zebe	-10.76
▁byste	-10.76
pne	-10.7601
jdem	-10.7602
▁svítil	-10.7604
tně	-10.7604
Hleď	-10.7606
pěl	-10.7613
▁pevný	-10.7614
▁hlavně	-10.7621
ker	-10.7631
▁stan	-10.7632
stavil	-10.7633
▁lek	-10.7637
▁jaře	-10.7642
▁divná	-10.7645
oba	-10.7645
▁ucho	-10.7645
Syn	-10.7649
osud	-10.7649
▁nějž	-10.765
▁Mil	-10.7651
klín	-10.7653
▁básni	-10.7655
▁sliby	-10.7664
▁vůz	-10.7664
▁nahoru	-10.7664
vzduch	-10.7669
▁někoho	-10.7672
▁hrdý	-10.7673
▁horami	-10.7673
vstříc	-10.7674
avých	-10.7674
▁skalách	-10.7676
mol	-10.7679
▁otrok	-10.7679
▁rdí	-10.7683
▁hrozně	-10.7685
zou	-10.769
▁duhu	-10.7699
▁květiny	-10.7699
▁svatební	-10.7701
kterak	-10.7703
▁Mo	-10.7705
▁stýská	-10.7705
slyšel	-10.7708
mnoho	-10.7708
▁střed	-10.7709
▁různé	-10.7711
▁libo	-10.7712
▁zub	-10.7716
vky	-10.7717
▁Čas	-10.7717
▁záblesk	-10.7721
▁jedu	-10.7723
▁papíru	-10.7723
▁brána	-10.7725
▁pláň	-10.7734
▁chodit	-10.7736
▁pýše	-10.7737
Vý	-10.7738
Také	-10.7742
▁vyšla	-10.7745
▁rval	-10.775
▁rtům	-10.775
▁kanou	-10.7752
▁dvakrát	-10.7755
▁snivý	-10.7757
vrací	-10.7758
▁řeku	-10.7759
nd	-10.776
▁věži	-10.7761
čnou	-10.7762
▁šedá	-10.7762
▁běhu	-10.7762
▁klep	-10.7763
▁pučí	-10.7764
▁chytí	-10.7764
ád	-10.7765
hodí	-10.7767
▁snivá	-10.7768
▁padal	-10.7768
▁hřát	-10.7769
▁králů	-10.7772
▁dálné	-10.7776
▁vodopád	-10.7776
bran	-10.7778
nepo	-10.7779
věd	-10.7779
▁kolenou	-10.7783
▁krutá	-10.7786
▁vracel	-10.7788
▁mrtví	-10.7789
▁sadě	-10.7792
spíš	-10.7794
chceš	-10.7795
▁kvést	-10.7796
▁našla	-10.7803
▁roh	-10.7804
▁znějí	-10.7808
▁tužeb	-10.7809
▁přístav	-10.7813
▁peřin	-10.7813
▁zač	-10.7814
▁hnízd	-10.7816
▁sklonil	-10.7817
ir	-10.7817
▁bodá	-10.7818
▁svatém	-10.7822
▁ju	-10.7824
nevy	-10.7826
bel	-10.7827
daleko	-10.7833
tisíce	-10.7833
▁napořád	-10.7834
▁skálu	-10.7838
inky	-10.7838
▁vpřed	-10.7839
Zase	-10.7841
▁nepřítel	-10.7842
▁Tvojí	-10.7842
▁nést	-10.7842
kyně	-10.7845
▁řadu	-10.7848
▁nočním	-10.7849
▁mračen	-10.7849
rab	-10.7851
Květ	-10.7853
▁střechy	-10.7855
▁činů	-10.7856
pl	-10.7856
vání	-10.7857
ická	-10.7858
▁plápol	-10.7859
znovu	-10.7859
neza	-10.786
nejsem	-10.7866
Často	-10.7869
▁modro	-10.7869
▁branou	-10.787
duši	-10.787
▁pochod	-10.7871
▁zříš	-10.7872
rok	-10.7873
cové	-10.7873
▁povstal	-10.7878
hnou	-10.7878
▁klečí	-10.788
▁vedla	-10.7882
▁řekou	-10.7882
▁táh	-10.7883
mých	-10.7884
▁mok	-10.7884
▁ukrývá	-10.7885
▁protože	-10.7887
▁severu	-10.7888
▁vstane	-10.789
dali	-10.789
La	-10.7891
rač	-10.7891
▁ocel	-10.7892
▁zůstala	-10.7894
▁klidem	-10.7895
▁biskup	-10.7896
?¬„	-10.7897
ck	-10.7897
zpíval	-10.7899
ín	-10.7902
nců	-10.7903
▁spěl	-10.7904
▁zrozen	-10.7905
Bolest	-10.7905
▁dospěl	-10.7908
▁puká	-10.7909
▁pouhá	-10.7911
▁prvé	-10.7913
tančí	-10.7917
▁rozmar	-10.7919
kost	-10.792
▁uviděl	-10.7922
▁drát	-10.7924
▁stmívá	-10.7925
▁hloupý	-10.7928
mluvil	-10.793
▁Zde	-10.7933
▁vojsko	-10.7933
▁oběti	-10.7934
▁tluče	-10.7937
▁hry	-10.7938
▁obrátil	-10.7942
▁viděla	-10.7943
▁lip	-10.7944
ával	-10.7946
▁vzkaz	-10.7947
iček	-10.795
▁nezmění	-10.7952
▁lahod	-10.7953
▁rudou	-10.7953
létla	-10.7955
▁stesku	-10.7957
▁písmen	-10.7962
měst	-10.7965
▁děsný	-10.7966
▁méně	-10.7966
▁plout	-10.7968
▁spásu	-10.7969
▁stáda	-10.7969
náhle	-10.7969
▁zvedne	-10.7969
://	-10.7973
nesl	-10.7973
nkou	-10.7975
▁mocné	-10.7977
▁starosti	-10.7977
Ně	-10.7978
▁Ž	-10.798
▁směs	-10.798
▁pochopil	-10.798
▁přítele	-10.7983
Vzduch	-10.7983
▁koutku	-10.7984
▁nejsme	-10.7988
bílé	-10.7988
▁postav	-10.7993
▁chladná	-10.7994
▁prázdna	-10.7998
▁zlou	-10.8
▁širý	-10.8001
První	-10.8001
▁jaksi	-10.8003
▁naivní	-10.8004
▁zticha	-10.8006
pri	-10.8008
▁vzplane	-10.8012
▁slouží	-10.8012
Osud	-10.8013
▁pat	-10.8014
Té	-10.8015
▁neděli	-10.802
Dvě	-10.802
zý	-10.8024
Tou	-10.8024
▁jezera	-10.8025
lét	-10.8027
▁větřík	-10.8028
▁dýmu	-10.8031
Če	-10.8033
šle	-10.8033
▁pustý	-10.8033
Přec	-10.8034
▁pochopit	-10.8035
▁mučí	-10.8036
▁Me	-10.8038
lev	-10.8042
Všude	-10.8042
▁dáma	-10.8042
▁najdeš	-10.8042
▁teplý	-10.8043
▁svátek	-10.8044
▁Bez	-10.8045
Ode	-10.805
▁mrazem	-10.8055
stará	-10.8056
▁křesťan	-10.8062
▁větvích	-10.8063
der	-10.807
krad	-10.8071
▁zrcadla	-10.8072
▁mrazí	-10.8074
▁mraku	-10.8077
▁půlnoční	-10.8082
▁Lo	-10.8083
▁des	-10.8084
vši	-10.8085
▁nechám	-10.8086
▁veselé	-10.8093
Nejsem	-10.8093
▁citem	-10.8094
▁chat	-10.8096
mohl	-10.8096
▁dívce	-10.8101
▁zněly	-10.8102
▁temna	-10.8102
šat	-10.8103
líp	-10.8108
▁kamene	-10.8109
▁stály	-10.8111
▁stíhá	-10.8111
▁syt	-10.8114
▁jedem	-10.8117
▁část	-10.812
▁pokud	-10.812
klá	-10.8122
▁kamen	-10.8123
letět	-10.8127
▁tý	-10.8127
▁smyslů	-10.8129
▁pusto	-10.813
▁krajině	-10.8131
řád	-10.8134
▁bídný	-10.8134
ař	-10.8134
▁něžný	-10.8137
vždycky	-10.8138
▁starce	-10.8142
ag	-10.8147
hrd	-10.8147
▁ztracen	-10.8148
▁kácí	-10.8149
praví	-10.8149
▁otcem	-10.8149
dát	-10.8151
utí	-10.8153
▁pasu	-10.8153
▁druha	-10.8153
▁ztracené	-10.8154
▁oře	-10.8156
tla	-10.8157
▁nivy	-10.8161
!)¬	-10.8161
▁hosti	-10.8168
▁očím	-10.8173
jinak	-10.8175
Svůj	-10.8175
▁podob	-10.8177
rovná	-10.8177
skal	-10.8178
hlédnu	-10.8179
bezpeč	-10.8179
▁or	-10.8183
▁růž	-10.8186
teč	-10.8188
kryl	-10.8189
▁krásnější	-10.8189
▁píti	-10.8189
▁množství	-10.819
dělá	-10.819
▁týden	-10.8191
Někdo	-10.8193
vít	-10.8193
▁dětských	-10.8193
▁hří	-10.8195
▁čekají	-10.8196
ráno	-10.8198
▁dýchal	-10.8199
ok	-10.82
▁ztrácím	-10.8201
▁měkké	-10.8204
žene	-10.8204
▁oblaka	-10.8205
života	-10.8205
▁vojska	-10.8206
▁plným	-10.8208
▁boky	-10.821
▁provaz	-10.821
sáhl	-10.8212
▁psa	-10.8212
čer	-10.8213
jaká	-10.8213
sel	-10.8213
▁novém	-10.8214
▁provází	-10.8216
▁vznik	-10.822
.)¬	-10.8224
▁rudých	-10.8225
naděje	-10.8226
▁lamp	-10.8226
komu	-10.8228
táh	-10.8228
hlav	-10.8229
▁ruší	-10.8229
▁nosil	-10.823
musím	-10.8231
▁druhým	-10.8232
▁vaz	-10.8233
▁chytá	-10.8234
▁modrou	-10.8234
vzpomínky	-10.8235
ovaný	-10.8239
▁náruče	-10.8241
▁nemohl	-10.8255
▁Jsou	-10.8259
▁pustil	-10.826
Vám	-10.826
▁klidné	-10.8261
▁nejdražší	-10.8265
▁zápal	-10.8267
▁perel	-10.8272
Viz	-10.8277
tvých	-10.8278
▁hrozná	-10.828
▁škol	-10.8281
▁stavu	-10.8281
ano	-10.8281
ticho	-10.8283
▁věrná	-10.8285
▁zdvihá	-10.8285
▁zboží	-10.8286
▁prachem	-10.8289
cházet	-10.829
▁nevidím	-10.8299
býval	-10.83
▁ubohý	-10.83
▁oblaky	-10.8301
▁ukryt	-10.8301
tep	-10.8302
▁tance	-10.8302
▁džbán	-10.8304
▁dvůr	-10.8306
▁červené	-10.8308
▁kněží	-10.8311
▁pne	-10.8313
▁měly	-10.8313
▁čár	-10.8317
Tma	-10.8323
▁měří	-10.8328
vec	-10.8329
Zpěv	-10.8331
▁vešel	-10.8333
▁loučí	-10.8336
▁pokoře	-10.8338
hrál	-10.8341
▁umírání	-10.8348
▁hromu	-10.8352
Radost	-10.8352
▁sup	-10.8354
▁měkce	-10.8356
res	-10.8357
říká	-10.8359
jat	-10.8359
jenže	-10.8359
▁klasů	-10.8364
vým	-10.8364
▁krajiny	-10.8369
▁spoustu	-10.8369
cítit	-10.8374
▁hořící	-10.8374
▁ženich	-10.8375
syn	-10.8376
Tr	-10.8379
▁boty	-10.838
▁milí	-10.838
▁líbí	-10.8381
▁spěchu	-10.8382
▁zavřel	-10.8383
▁míň	-10.8384
tat	-10.8385
cítí	-10.8385
▁českých	-10.8386
▁houpá	-10.8391
▁rodný	-10.8393
▁oblaků	-10.8394
Hledám	-10.8395
ón	-10.8396
▁dých	-10.8396
▁neumím	-10.8396
▁neměla	-10.8401
▁zmatku	-10.8401
▁potřeb	-10.8402
září	-10.8405
▁ležet	-10.8407
slz	-10.8407
▁shon	-10.8408
▁syny	-10.841
další	-10.841
Te	-10.8411
▁tenhle	-10.8413
ivých	-10.8418
▁odpuštění	-10.8422
▁zapadá	-10.8422
▁viz	-10.8423
▁oltáře	-10.8427
▁cukr	-10.8428
▁nevz	-10.8432
beze	-10.8435
▁ry	-10.8436
▁pánů	-10.8442
▁řeknu	-10.8443
tvrd	-10.8446
▁chcem	-10.8448
▁stroj	-10.845
plet	-10.8455
tohle	-10.8461
▁rozhod	-10.8463
▁kohout	-10.8468
▁věděla	-10.847
▁snům	-10.847
nemá	-10.847
▁mdlý	-10.8472
▁živa	-10.8473
▁mod	-10.8474
▁lehký	-10.8475
▁pomsty	-10.8478
Pe	-10.848
▁kráčím	-10.8481
Štěstí	-10.8481
▁beznaděj	-10.8482
▁fo	-10.8482
vším	-10.8485
▁cení	-10.849
▁víře	-10.849
▁myšlénky	-10.8491
▁chvělo	-10.8493
▁nejvíce	-10.8494
▁vlasť	-10.8496
▁odpovědi	-10.8499
▁azur	-10.8501
▁Hus	-10.8503
tahuje	-10.8503
▁krvácí	-10.8505
▁hluboký	-10.8505
Neboť	-10.8506
▁zjevil	-10.8507
▁staří	-10.8508
▁blízké	-10.851
▁tmí	-10.851
▁postavy	-10.8512
▁probouzí	-10.8513
jdeme	-10.8513
▁hravě	-10.8514
▁žid	-10.8515
▁vlk	-10.8517
▁dvěma	-10.8517
▁skrze	-10.8518
▁příšer	-10.852
▁jisker	-10.8524
▁nemají	-10.8525
▁zoře	-10.8525
ujte	-10.8529
▁domova	-10.8529
▁dravý	-10.8532
jem	-10.8536
▁studu	-10.8537
rý	-10.854
▁used	-10.8542
▁Můj	-10.8543
▁zíral	-10.8545
loží	-10.8545
▁měsíční	-10.8547
▁vavřín	-10.8548
pták	-10.8552
▁pány	-10.8553
kdož	-10.8555
▁pýchu	-10.8555
Dokud	-10.8555
nechat	-10.8555
▁Rus	-10.8555
▁Al	-10.8556
▁háv	-10.8558
▁jasno	-10.8558
zůstal	-10.8558
▁pověst	-10.856
rku	-10.8565
▁vlhké	-10.8566
milovat	-10.8568
▁hoři	-10.8569
▁dvoj	-10.857
▁hluku	-10.8571
▁vstoupil	-10.8571
▁mnohou	-10.8574
▁vzdálen	-10.8574
▁plav	-10.8578
▁plály	-10.858
▁končin	-10.858
▁úsměvy	-10.858
▁dalo	-10.8582
▁chaty	-10.8583
▁paty	-10.8584
▁blahu	-10.8584
▁divoce	-10.8584
nú	-10.8589
klí	-10.8592
▁past	-10.8596
kup	-10.86
▁plány	-10.86
▁hodina	-10.86
▁ztratila	-10.8601
▁svojich	-10.8602
▁zvedl	-10.8604
řekl	-10.8604
▁různých	-10.8605
Tvář	-10.8609
▁vysoké	-10.8611
▁pyšně	-10.8612
lec	-10.8613
▁rozumu	-10.8614
▁udělat	-10.8615
▁těžkým	-10.8616
▁maják	-10.8616
▁křídlo	-10.8616
vrátí	-10.8616
▁živobytí	-10.8617
▁šerem	-10.8621
Vítr	-10.8623
tní	-10.8624
▁zlosti	-10.8627
▁dcery	-10.8628
▁šer	-10.863
▁rám	-10.8633
pálil	-10.8635
aniž	-10.8638
hledal	-10.8641
Du	-10.8642
▁svet	-10.8643
▁kmitá	-10.8643
▁strasti	-10.8645
Náš	-10.8646
▁strašné	-10.8648
▁zmámen	-10.865
▁kopí	-10.865
▁zelený	-10.8651
prs	-10.8654
▁hejno	-10.8654
▁přísně	-10.8655
▁plachý	-10.8659
▁vodí	-10.8663
▁proměn	-10.8663
▁žízní	-10.8665
▁krůpěje	-10.8666
Stejně	-10.8667
▁společnosti	-10.8668
▁tuhle	-10.8673
▁sladkém	-10.8676
▁obrací	-10.8676
Les	-10.8677
▁reků	-10.8677
▁bar	-10.8678
▁roje	-10.8684
tné	-10.8686
▁zdroj	-10.8687
▁plála	-10.8688
plete	-10.8688
▁neznámý	-10.8688
▁příklad	-10.8692
▁veselí	-10.8692
▁věty	-10.8694
▁odvahu	-10.8694
▁ste	-10.8696
Hej	-10.8697
Jaká	-10.8697
Sto	-10.87
▁probuzení	-10.8701
▁mými	-10.8703
▁krvavý	-10.8703
dělí	-10.8704
até	-10.8704
▁sed	-10.8707
▁skví	-10.8707
▁objeví	-10.8709
▁okně	-10.8713
▁léč	-10.8713
▁zdar	-10.8713
),¬	-10.8714
dané	-10.8715
▁poklady	-10.8717
▁tvrdý	-10.8721
▁výšin	-10.8721
slo	-10.8722
▁schová	-10.8722
▁dejte	-10.8722
▁neustále	-10.8723
▁ničeho	-10.8723
šetř	-10.8725
▁bas	-10.8726
slech	-10.8728
luh	-10.8733
Tohle	-10.8735
▁chrámy	-10.8737
▁onu	-10.8739
nič	-10.8739
▁městu	-10.874
píná	-10.8745
▁hloubky	-10.8746
▁divém	-10.8747
lov	-10.8749
ele	-10.8757
...“	-10.8762
cky	-10.8764
zra	-10.8764
neme	-10.8764
Jdou	-10.8766
▁jasem	-10.8766
▁smrť	-10.8766
!!!¬	-10.8768
▁suchý	-10.8769
lívá	-10.877
hlédl	-10.8771
▁směrem	-10.8771
plul	-10.8774
▁vložil	-10.8774
▁návrat	-10.8775
▁umírat	-10.8776
Zřím	-10.8781
děti	-10.8781
▁lkání	-10.8787
▁nikam	-10.8787
Mnoho	-10.879
▁hvězdu	-10.8791
▁slovech	-10.8793
▁mořské	-10.8797
jistě	-10.8798
▁zmatek	-10.8806
chot	-10.8808
Všechny	-10.8808
rve	-10.8808
Večer	-10.8811
chová	-10.8812
▁růst	-10.8812
trav	-10.8814
téká	-10.8815
čkám	-10.8816
▁příštích	-10.8817
měla	-10.8817
▁pe	-10.8819
nebude	-10.882
▁nemohou	-10.8822
naté	-10.8825
▁buďte	-10.8825
▁hřbet	-10.8826
svá	-10.8832
▁volné	-10.8832
▁fi	-10.8833
▁Or	-10.8834
Tiše	-10.8835
▁purpur	-10.8836
jed	-10.8838
▁Pol	-10.8839
▁rci	-10.8839
dny	-10.8841
obraz	-10.8841
▁svobodě	-10.8843
▁žádnou	-10.8845
▁slabý	-10.8845
vrhl	-10.8856
přijde	-10.8856
▁spáti	-10.8862
Tebe	-10.8862
▁širé	-10.8863
the	-10.8866
▁opojení	-10.8866
stoupí	-10.8866
▁kdybys	-10.887
ková	-10.887
Nez	-10.887
▁trpět	-10.8871
▁volání	-10.8871
▁předc	-10.8873
▁mam	-10.8873
▁hlavní	-10.8875
Dal	-10.8875
▁ideál	-10.8875
▁rad	-10.8876
▁ničím	-10.8877
lezl	-10.8877
est	-10.8881
▁učil	-10.8883
▁zloby	-10.8884
▁druzí	-10.8885
sté	-10.8885
▁sud	-10.8886
Darmo	-10.8886
▁pís	-10.8892
poč	-10.8897
▁prosil	-10.8898
rub	-10.8899
▁člun	-10.8899
skočil	-10.8901
▁nevinné	-10.8903
▁příchod	-10.8904
hněv	-10.8904
▁řadě	-10.8906
chyt	-10.8909
pustí	-10.8909
Tvoje	-10.891
▁lampa	-10.891
áků	-10.8911
▁cen	-10.8911
▁havran	-10.8914
▁vele	-10.8915
ard	-10.8915
▁naším	-10.8917
▁zbožně	-10.8918
▁lilie	-10.8921
▁prožil	-10.8922
▁tmavých	-10.8923
ble	-10.8923
▁vichřice	-10.8924
▁pestré	-10.8924
▁Ať	-10.8925
▁čel	-10.8925
stoup	-10.8929
▁sténá	-10.8932
lásko	-10.8932
Konečně	-10.8934
▁tet	-10.8936
▁prs	-10.8941
▁hladem	-10.8943
Tři	-10.8943
▁praská	-10.8948
▁uz	-10.8949
▁kočár	-10.895
▁louky	-10.8951
▁zároveň	-10.8954
čná	-10.8955
▁bohatství	-10.8956
▁vlaje	-10.8958
dlou	-10.8959
nechám	-10.896
▁mroucí	-10.8961
▁vracím	-10.8963
▁význam	-10.8965
nských	-10.8966
▁děsné	-10.8967
ptá	-10.8968
plná	-10.8968
nesu	-10.897
▁bojovat	-10.8971
▁mužem	-10.8971
▁jel	-10.8972
▁mojich	-10.8973
ron	-10.8974
▁věčným	-10.8974
▁ptáka	-10.8975
▁starým	-10.8976
láskou	-10.8976
▁stanu	-10.8978
▁jo	-10.8979
▁bázně	-10.8982
▁pověz	-10.8983
▁nevěřím	-10.8984
▁šílí	-10.8986
▁ptáky	-10.8986
▁mrtvol	-10.899
▁větvi	-10.8993
▁Hor	-10.8994
jímá	-10.8996
▁mladost	-10.8996
▁čte	-10.8996
▁paměť	-10.8997
▁hořký	-10.8997
▁miluju	-10.8998
▁knize	-10.8999
▁palác	-10.9001
jehož	-10.9002
▁dojde	-10.9002
Slova	-10.9004
ečko	-10.9004
▁učinil	-10.9006
tko	-10.9006
▁horu	-10.9006
▁rob	-10.9008
▁dají	-10.9008
▁blahé	-10.9013
▁milující	-10.9013
Těch	-10.9017
▁pohádka	-10.9019
▁Praha	-10.9023
▁spěchal	-10.9025
▁zázraky	-10.9026
▁Satan	-10.9026
▁dostat	-10.9028
měsíc	-10.9029
▁peníze	-10.9029
▁jemuž	-10.9029
▁skalní	-10.903
zřít	-10.9031
vést	-10.9032
▁smutných	-10.9033
Sen	-10.9037
▁hrst	-10.9039
▁topí	-10.9039
▁příště	-10.9039
▁hvězdách	-10.904
mají	-10.9042
▁povrch	-10.9042
mysli	-10.9045
!¬–	-10.9047
▁zelená	-10.9047
▁tísní	-10.9047
ráz	-10.9048
▁jmění	-10.9048
▁pohlazení	-10.9049
ist	-10.9055
▁zdravý	-10.9055
▁povzdech	-10.9057
▁Kr	-10.9058
▁marný	-10.9059
národ	-10.9059
▁nočních	-10.9062
▁váže	-10.9063
píjí	-10.9067
▁položil	-10.9068
▁hrůz	-10.9068
valo	-10.9069
▁hledět	-10.9074
▁modrým	-10.9079
▁mnoha	-10.908
▁št	-10.9082
▁husté	-10.9084
▁lukách	-10.9086
sluš	-10.9086
▁samy	-10.9087
▁posledních	-10.9088
ruč	-10.9089
▁hřímá	-10.909
▁pach	-10.909
▁mládež	-10.9095
tady	-10.9096
▁nejen	-10.9098
▁silná	-10.9099
▁spadne	-10.91
▁bujné	-10.9103
dne	-10.9104
▁slon	-10.9105
▁vzhled	-10.9107
světlo	-10.9108
▁nakonec	-10.9109
▁vstát	-10.9109
▁hranici	-10.9117
áři	-10.912
▁hrála	-10.9122
Ví	-10.9122
▁národa	-10.9123
▁pádu	-10.9124
vka	-10.9126
▁nechtěla	-10.9126
▁Ra	-10.9127
▁lípy	-10.9127
▁vzdát	-10.9128
hub	-10.9129
▁oněch	-10.9132
▁polštář	-10.9132
▁krajů	-10.9134
▁lékař	-10.9135
▁nápad	-10.9135
kání	-10.9136
▁jesti	-10.9144
▁hnul	-10.9145
▁vil	-10.9145
▁housle	-10.9146
▁žiju	-10.9148
▁žiji	-10.9152
Čech	-10.9153
Věř	-10.9157
Sama	-10.9158
▁paprsek	-10.9158
▁stře	-10.9159
▁van	-10.916
▁staro	-10.9162
strom	-10.9163
▁podvečer	-10.9163
▁vznes	-10.9165
▁Měsíc	-10.9165
ajíce	-10.9166
▁oddech	-10.9168
▁domácí	-10.9174
▁skla	-10.9175
tisíc	-10.9175
znáš	-10.9175
ťal	-10.9177
▁zahalen	-10.9177
Díky	-10.9178
▁památku	-10.9178
jo	-10.9181
kap	-10.9182
pije	-10.9188
nula	-10.9188
▁čekání	-10.9189
▁sladko	-10.919
▁uších	-10.9191
kládal	-10.9194
▁děcka	-10.9195
▁rozcestí	-10.9195
vedu	-10.9195
▁posměch	-10.9195
▁studené	-10.9196
▁obilí	-10.92
lín	-10.9205
▁jistá	-10.9207
▁okovy	-10.9207
sedí	-10.9208
▁Ho	-10.9209
▁pevnou	-10.9211
▁rakvi	-10.9213
san	-10.9216
▁odpoví	-10.9217
▁hladu	-10.9217
▁marno	-10.9219
▁náhodou	-10.9221
ance	-10.9222
myslí	-10.9223
▁ničem	-10.9225
▁zastavit	-10.9227
Abych	-10.9227
▁kniha	-10.9228
▁far	-10.9229
▁klek	-10.9231
▁tvůrčí	-10.9231
Jej	-10.9234
▁pláně	-10.9236
navždy	-10.9237
▁jinam	-10.9238
▁bídné	-10.924
▁puk	-10.924
▁vchází	-10.924
pokud	-10.924
kých	-10.9242
▁nějaký	-10.9242
▁oknech	-10.9245
▁dvoře	-10.9245
▁plazí	-10.9245
▁napsal	-10.9246
dlí	-10.9248
stesk	-10.9251
▁nádherný	-10.9252
▁zajetí	-10.9255
▁Br	-10.9258
▁maje	-10.9258
▁temnoty	-10.9258
▁jemný	-10.926
cuje	-10.9261
▁děva	-10.9261
▁drobných	-10.9263
▁cár	-10.9266
▁vládce	-10.9267
vír	-10.927
▁skutečnost	-10.9273
sic	-10.9274
▁ústy	-10.9274
▁niv	-10.9275
▁všechnu	-10.9275
▁chudák	-10.9275
lily	-10.9276
voj	-10.9279
▁milence	-10.9279
▁koruny	-10.928
................	-10.928
bloudí	-10.9281
▁choť	-10.9282
▁zvyku	-10.9282
pt	-10.9283
▁vřelé	-10.9283
▁plném	-10.9284
▁tá	-10.9284
▁houf	-10.9286
▁stvořen	-10.9286
▁hvězdný	-10.9291
pozor	-10.9292
▁vrátím	-10.9294
▁míhá	-10.9297
▁zemřít	-10.9297
▁steskem	-10.93
Str	-10.93
dobře	-10.9302
▁kamsi	-10.9305
▁darem	-10.9306
nách	-10.9308
▁polní	-10.9308
▁neslyší	-10.9309
▁tíseň	-10.9311
▁bájí	-10.9311
bíhá	-10.9312
▁Č	-10.9315
▁chorý	-10.9317
▁bohatýr	-10.9317
Pořád	-10.9317
Pověz	-10.9318
▁vrahů	-10.9318
▁vypadá	-10.9319
inou	-10.9319
▁Bu	-10.9324
▁trčí	-10.9325
▁sokol	-10.9328
livý	-10.9328
▁dere	-10.9331
▁vrch	-10.9334
lého	-10.9339
Měsíc	-10.9341
fer	-10.9342
▁stůně	-10.9345
dlem	-10.9345
▁nepoznal	-10.9345
▁nahý	-10.9348
▁klobouk	-10.9349
▁zrodil	-10.935
▁znít	-10.9352
▁pohnutí	-10.9355
▁špatný	-10.9357
▁předků	-10.9359
Ráno	-10.9359
ším	-10.9364
▁vychází	-10.9367
mrz	-10.9369
hi	-10.9369
▁cigaret	-10.9371
log	-10.9371
▁bojů	-10.9372
koliv	-10.9372
každá	-10.9376
▁vést	-10.9378
▁moudrosti	-10.9378
▁půdě	-10.9378
▁tmavá	-10.938
▁leskne	-10.9381
přej	-10.9383
▁zpívám	-10.9384
▁choré	-10.9386
_	-10.9386
mlčí	-10.9388
▁malíř	-10.9392
▁ztracený	-10.9393
▁měkký	-10.9393
▁dopis	-10.9393
▁kostele	-10.9394
Řekni	-10.9395
pír	-10.9395
▁roce	-10.9396
Nás	-10.9399
pravil	-10.94
▁sílí	-10.94
▁zabil	-10.94
▁krá	-10.9401
Mou	-10.9401
▁jedenkrát	-10.9402
▁jih	-10.9404
▁Bar	-10.9406
▁divoké	-10.9406
▁zmizela	-10.9407
▁hon	-10.9408
▁národů	-10.9409
myslel	-10.9409
▁svár	-10.941
▁drak	-10.9411
tomu	-10.9412
▁královna	-10.9415
Proti	-10.9416
▁vzdá	-10.9417
▁kleci	-10.9418
rg	-10.942
fr	-10.9421
▁vítal	-10.9422
tkem	-10.9424
▁tisk	-10.9424
íc	-10.9427
▁nebezpečí	-10.9429
rně	-10.9429
▁blahý	-10.9429
díval	-10.9429
▁rozdíl	-10.9431
rván	-10.9431
▁vzpomínat	-10.9432
▁prázdných	-10.9433
Přesto	-10.9434
▁bříz	-10.9434
▁šál	-10.9436
▁znají	-10.9438
.....¬	-10.9441
hlédnout	-10.9442
čká	-10.9444
▁tká	-10.9445
Bojím	-10.9445
▁bázní	-10.9446
kládám	-10.9447
▁dáme	-10.9447
kládá	-10.9449
▁tyran	-10.9451
nda	-10.9456
▁skok	-10.9456
▁snoubí	-10.9459
▁šlehá	-10.9463
dře	-10.9464
Každá	-10.9466
vedle	-10.947
▁počne	-10.947
▁radostně	-10.9474
▁hladil	-10.9474
skrz	-10.9475
▁původ	-10.9476
▁troj	-10.9483
číš	-10.9483
Tady	-10.9484
ňuje	-10.9487
▁bur	-10.9488
▁prstem	-10.9491
▁vran	-10.9492
▁klene	-10.9494
▁těšil	-10.9495
▁He	-10.9496
▁břímě	-10.9496
Kraj	-10.9498
▁chvílích	-10.9498
Pomalu	-10.95
▁the	-10.9501
▁koří	-10.9503
▁Prokop	-10.9504
▁vlády	-10.9505
▁obdiv	-10.9507
Anděl	-10.9508
hří	-10.9512
svítil	-10.9512
čků	-10.9512
▁vzejde	-10.9515
adla	-10.9517
▁luhy	-10.9517
▁fe	-10.9517
růstá	-10.9518
tne	-10.9519
šil	-10.9519
▁šepce	-10.9531
▁niž	-10.9531
▁zrádce	-10.9531
lidé	-10.9531
▁šanci	-10.9532
▁schodech	-10.9532
zkou	-10.9532
chodí	-10.9534
uč	-10.9536
▁zašlé	-10.9537
▁duha	-10.9539
▁trny	-10.9539
▁sestra	-10.9539
▁chodím	-10.954
▁synů	-10.9541
jíc	-10.9542
druž	-10.9542
▁večeru	-10.9545
píseň	-10.9547
staví	-10.9549
hladí	-10.9553
koj	-10.9558
▁plny	-10.956
▁nesmím	-10.956
▁spol	-10.9561
▁farář	-10.9561
▁usmál	-10.9568
▁všecku	-10.9569
miluj	-10.9572
rčí	-10.9572
starý	-10.9574
▁keře	-10.9577
▁sadu	-10.9579
▁rvát	-10.9582
▁chladu	-10.9583
▁roli	-10.9583
▁sedlák	-10.9584
▁kadeř	-10.9585
▁jisté	-10.9587
▁ztratit	-10.9588
▁málem	-10.959
▁plálo	-10.9592
hvězdy	-10.9594
slyšíš	-10.9594
cel	-10.9595
mer	-10.9595
▁rubáš	-10.96
▁skloní	-10.9601
sypal	-10.9603
▁pěkný	-10.9604
▁otevírá	-10.9604
Ja	-10.9608
▁vzdechů	-10.9609
Tobě	-10.9615
▁fu	-10.9616
▁béře	-10.9617
▁pustá	-10.9618
▁dráhu	-10.9621
koho	-10.9622
▁říkat	-10.9627
vidět	-10.9628
▁nebudeš	-10.9634
▁plesá	-10.9634
▁skvělé	-10.9635
▁ručky	-10.9635
▁třesk	-10.9636
▁poet	-10.9642
kmit	-10.9643
▁vzdoru	-10.9643
hlava	-10.9647
země	-10.9648
▁zval	-10.9649
▁vírou	-10.9651
▁nápis	-10.9651
▁radosť	-10.9651
▁Anděl	-10.9651
▁setkání	-10.9652
šum	-10.9652
▁hnát	-10.9656
mohou	-10.9657
prask	-10.9661
▁kul	-10.9662
prach	-10.9662
váží	-10.9662
▁širém	-10.9663
▁Si	-10.9664
▁Lid	-10.9665
křik	-10.9666
líbal	-10.9666
raj	-10.9676
Klid	-10.9679
ex	-10.968
vaje	-10.9681
▁hrud	-10.9681
▁jmeno	-10.9682
stoupit	-10.9684
Rozum	-10.9684
▁zhyne	-10.9685
aných	-10.9685
▁stříbrem	-10.9686
ptal	-10.9687
▁tře	-10.9689
ivým	-10.9689
▁hořce	-10.9689
Země	-10.9689
▁Kriste	-10.969
▁Ga	-10.9691
top	-10.9692
▁zašlých	-10.9693
pusť	-10.9695
▁budoucí	-10.9697
▁pokryt	-10.9698
Me	-10.9699
▁držel	-10.9701
▁met	-10.9701
▁bdění	-10.9703
▁chvějící	-10.9705
▁studí	-10.9705
▁Chci	-10.9706
▁smír	-10.971
▁beru	-10.9711
▁lichot	-10.9711
▁snila	-10.9713
▁opil	-10.9713
▁kapek	-10.9713
▁pomník	-10.9715
▁lkal	-10.9717
▁doufat	-10.9719
▁tušení	-10.972
▁mává	-10.972
krou	-10.972
ět	-10.9721
▁sklad	-10.9721
▁trh	-10.9722
Myslím	-10.9723
ama	-10.9726
▁vous	-10.9726
▁šťastni	-10.9726
▁růžové	-10.9728
▁tlukot	-10.973
dával	-10.9733
▁nízké	-10.9738
▁kynul	-10.9739
Cos	-10.974
▁síť	-10.974
▁oživ	-10.9742
▁ťa	-10.9743
▁vzpomněl	-10.9743
Komu	-10.9747
▁vločky	-10.9753
▁křiku	-10.9755
▁dílu	-10.9757
▁lest	-10.9761
▁vteřin	-10.9763
vedla	-10.9764
▁velkém	-10.9764
.¬/	-10.9766
střih	-10.9766
spi	-10.9768
Sny	-10.977
zuje	-10.977
▁ostří	-10.9771
▁poupat	-10.9771
▁jejíž	-10.9772
▁pěšin	-10.9773
daná	-10.9777
▁pocitů	-10.9779
stávají	-10.9779
▁dětský	-10.9783
▁jdem	-10.9783
▁neslyšel	-10.9784
▁plamenem	-10.9784
▁snažím	-10.9785
▁Srdce	-10.9785
Mo	-10.9786
▁žhavá	-10.979
▁životní	-10.9791
stěn	-10.9791
▁mlčel	-10.9795
▁zdroje	-10.9796
▁Čechy	-10.9796
▁zoufale	-10.9796
▁vzbudil	-10.9798
▁hnus	-10.9798
láká	-10.9798
milost	-10.9799
vid	-10.9801
▁myšlenkou	-10.9803
▁dlel	-10.9804
trh	-10.9805
▁statný	-10.9808
▁chuti	-10.9809
aspoň	-10.981
▁hřeb	-10.9812
▁práv	-10.9813
▁půjdem	-10.9816
hlavu	-10.9816
▁našli	-10.9818
▁slepé	-10.9818
▁mrtvým	-10.982
▁hodinu	-10.9821
▁jsy	-10.9826
stříbr	-10.9827
bledl	-10.9829
▁stromech	-10.9829
▁narodil	-10.9831
▁nadarmo	-10.9831
▁velice	-10.9832
sadil	-10.9832
Děkuji	-10.9832
hlá	-10.9834
▁sněží	-10.9834
Musím	-10.9835
▁plaší	-10.9837
▁druhy	-10.9838
▁pánu	-10.9838
▁vadne	-10.9839
▁kob	-10.9841
ika	-10.9842
▁váb	-10.9843
▁vědí	-10.9845
tan	-10.9846
▁novin	-10.9847
▁žas	-10.9848
tisk	-10.9849
▁ga	-10.985
▁samotu	-10.985
▁pyšný	-10.9857
▁přines	-10.9858
▁znáte	-10.9859
▁pilně	-10.9859
▁dobrých	-10.986
▁hledáš	-10.9861
▁veselý	-10.9862
▁Re	-10.9863
▁blaží	-10.9865
cházejí	-10.9871
▁křišťál	-10.9872
▁medvěd	-10.9872
▁dávný	-10.9876
pustím	-10.9876
lup	-10.9881
pole	-10.9885
Slov	-10.9886
▁ucha	-10.9886
▁barva	-10.9888
De	-10.9895
rob	-10.9897
▁milenci	-10.9898
▁bil	-10.9898
▁zášť	-10.9899
▁kterého	-10.9903
▁dobrým	-10.9904
▁kvetoucí	-10.9905
▁snahy	-10.9907
ako	-10.9909
věřím	-10.9912
kuje	-10.9912
viz	-10.9914
▁probudí	-10.9916
plach	-10.9917
více	-10.9917
▁známe	-10.9919
▁prázdnou	-10.9921
▁bo	-10.9921
▁Ca	-10.9923
▁nosím	-10.9925
Bych	-10.9929
▁objal	-10.9931
▁každému	-10.9931
ste	-10.9933
syl	-10.9934
▁střeží	-10.9935
▁přináší	-10.9936
stej	-10.9937
▁mez	-10.9939
Národ	-10.994
trpěl	-10.9941
▁usíná	-10.9941
▁šerý	-10.9943
▁tajemnou	-10.9943
▁Váš	-10.9947
▁večerem	-10.9948
▁barvách	-10.9949
▁chmury	-10.9951
▁De	-10.9953
▁daleké	-10.9956
▁mih	-10.9957
Ruce	-10.996
ria	-10.9963
▁ozývá	-10.9964
▁mřel	-10.9964
padnout	-10.9968
▁hynou	-10.9969
▁Tys	-10.9971
vost	-10.9971
▁chvěly	-10.9973
▁zbytek	-10.9975
▁planoucí	-10.9975
▁rub	-10.9976
▁číhá	-10.9978
▁řadou	-10.9979
har	-10.9981
▁přijal	-10.9985
▁skříp	-10.9988
▁jazyku	-10.9989
▁váhá	-10.999
▁mře	-10.9992
cu	-10.9994
smí	-10.9996
ož	-10.9998
▁vítězný	-10.9999
▁hlase	-10.9999
▁bujný	-11
▁jiném	-11.0003
▁lůno	-11.0003
Mlad	-11.0004
▁želez	-11.0006
pros	-11.0008
▁závist	-11.0008
lejí	-11.001
▁jasným	-11.0013
Pohled	-11.0015
▁sklo	-11.0021
▁dnové	-11.0023
▁matčin	-11.0024
rva	-11.0026
and	-11.0029
▁mol	-11.0032
▁šeptají	-11.0033
▁kruhy	-11.0033
▁smělé	-11.0035
Slyšíš	-11.0036
▁zemské	-11.0039
▁mukou	-11.0042
has	-11.0042
▁rosu	-11.0044
zítra	-11.0046
▁princ	-11.0051
▁bytosti	-11.0051
▁ubohé	-11.0051
hleď	-11.0051
▁choval	-11.0055
tes	-11.0059
▁pud	-11.0059
▁dotýká	-11.0059
trhl	-11.0063
Jedno	-11.0065
Tělo	-11.0065
dívám	-11.0065
Stín	-11.0065
▁tmavou	-11.0066
▁hora	-11.0071
▁skon	-11.0074
▁ozvěna	-11.0077
▁tvrdě	-11.0078
Žal	-11.008
▁slovu	-11.008
▁hus	-11.008
▁raní	-11.0081
▁teprve	-11.0082
ujícý	-11.0083
cizí	-11.0083
▁psáno	-11.0085
▁rudým	-11.0086
enství	-11.0087
▁vyje	-11.0088
hoď	-11.0089
íčka	-11.0091
Vidíš	-11.0091
▁zbaven	-11.0092
malý	-11.0093
▁stálý	-11.0093
sle	-11.0096
▁bídě	-11.0097
sát	-11.0098
▁mrtvo	-11.0098
▁vánoční	-11.0099
▁neklid	-11.0099
řím	-11.0104
lič	-11.0106
▁Ju	-11.0107
▁rachot	-11.0108
▁útěchu	-11.0111
▁božím	-11.0111
▁ceny	-11.0111
▁pěna	-11.0112
kryt	-11.0112
▁vzbudí	-11.0115
▁pohřben	-11.0117
▁hříchem	-11.0118
▁vřes	-11.0121
▁nerad	-11.0121
▁tančit	-11.0122
Živ	-11.0125
dli	-11.0129
▁osamělý	-11.0129
▁způsob	-11.013
Slyším	-11.0132
▁modlil	-11.0133
▁povel	-11.0139
hád	-11.0141
přede	-11.0142
▁tvými	-11.0144
plně	-11.0144
▁odchází	-11.015
▁obchod	-11.0151
patří	-11.0155
íci	-11.0159
icí	-11.016
▁chraň	-11.016
▁božství	-11.0165
▁temnu	-11.0165
▁boků	-11.0166
▁šik	-11.0167
Chlad	-11.0167
vlast	-11.0168
▁svý	-11.0169
▁srn	-11.0169
▁zimu	-11.0171
dil	-11.0173
enky	-11.0173
▁horký	-11.0175
▁medu	-11.0175
▁políbil	-11.0176
▁pase	-11.0179
▁hranic	-11.0179
▁vzadu	-11.0181
▁podivné	-11.0182
▁bledne	-11.0182
▁dětmi	-11.0183
▁rada	-11.0186
▁stařen	-11.0186
▁holí	-11.0186
pověz	-11.0187
▁shluk	-11.0187
,¬(	-11.0188
▁ot	-11.0189
cení	-11.0193
▁vkrádá	-11.0194
mohu	-11.0197
Dávno	-11.0199
něm	-11.02
▁vlídný	-11.0203
▁kočka	-11.0203
▁váží	-11.0204
▁zdali	-11.0206
▁změna	-11.0209
nuté	-11.021
ložím	-11.021
hodit	-11.0211
▁mdlé	-11.0213
▁věta	-11.0214
▁honem	-11.0218
ěj	-11.022
▁vztah	-11.0222
▁spád	-11.0223
tměl	-11.0225
▁dříme	-11.0228
▁pla	-11.0228
▁hoši	-11.0232
▁zimou	-11.0236
rám	-11.0238
▁straší	-11.0239
▁zrady	-11.0242
Mí	-11.0242
▁střídá	-11.0245
tej	-11.0248
▁spíná	-11.0251
Tvou	-11.0252
▁přejde	-11.0255
pohled	-11.0255
▁dlouhým	-11.0256
▁přírodě	-11.0257
▁pokolení	-11.0257
▁kouří	-11.0259
milovan	-11.0261
▁odpusť	-11.0261
▁chutě	-11.0262
▁spojen	-11.0262
▁základ	-11.0264
Mu	-11.0264
cest	-11.0264
NE	-11.0265
▁hy	-11.0267
▁soucitu	-11.0268
Čekám	-11.0269
▁zlým	-11.0271
laj	-11.0271
▁diví	-11.0277
kryj	-11.0278
▁toul	-11.0283
▁pranic	-11.0284
kles	-11.0285
škem	-11.0287
▁lány	-11.0287
Hol	-11.0287
▁změnit	-11.0289
rce	-11.0291
▁otevřené	-11.0296
hlo	-11.0297
▁druhů	-11.0298
rozum	-11.03
vázal	-11.03
▁var	-11.0303
ren	-11.0311
▁pýchy	-11.0312
Rychle	-11.0312
áře	-11.0317
kali	-11.0317
volí	-11.0319
▁voje	-11.0319
padly	-11.032
Občas	-11.032
nechal	-11.032
Chyt	-11.0322
▁záhon	-11.0327
▁jakés	-11.0327
▁Pe	-11.0329
▁trosky	-11.0331
▁Adam	-11.0331
▁spousta	-11.0333
▁levo	-11.0333
valil	-11.0335
▁pěny	-11.0338
▁živých	-11.0339
▁vřelý	-11.034
zor	-11.0341
▁souzvuk	-11.0342
▁podá	-11.0343
▁jelen	-11.0343
kaž	-11.0344
chystá	-11.0347
▁hře	-11.0347
níkem	-11.0347
▁zmije	-11.0352
▁vzdálené	-11.0352
▁hradě	-11.0354
ujeme	-11.0354
▁slunné	-11.0356
zvon	-11.0357
Dech	-11.0358
hrou	-11.0359
luje	-11.0361
▁dvor	-11.0362
vznešen	-11.0363
plo	-11.0363
▁vlásky	-11.0363
▁slíbil	-11.0363
▁pavouk	-11.0364
Neboj	-11.0365
slyšet	-11.0365
▁svato	-11.0369
▁českou	-11.0369
▁opoj	-11.0369
▁rakve	-11.037
▁plaz	-11.0371
▁miluješ	-11.0373
▁kamenné	-11.0373
▁tvojich	-11.0375
Svým	-11.0377
▁bělá	-11.0379
▁Ja	-11.0379
nechá	-11.0384
ičce	-11.0384
vek	-11.0385
▁značí	-11.0385
▁večeři	-11.0386
Nepo	-11.0387
▁alespoň	-11.039
trž	-11.0391
“.¬	-11.0393
▁Syn	-11.0393
▁Nic	-11.0397
nová	-11.0399
try	-11.0401
▁nikomu	-11.0401
▁tráví	-11.0402
dávají	-11.0402
▁máje	-11.0406
▁klíče	-11.0406
▁Ještě	-11.0409
kterým	-11.0411
▁vida	-11.0414
slyší	-11.0414
vrch	-11.0414
▁bab	-11.0414
pryč	-11.0415
▁ondy	-11.0416
▁dobách	-11.0417
▁holubice	-11.0418
▁Tr	-11.0423
▁žaly	-11.0423
▁otázku	-11.0423
▁proniká	-11.0424
▁dívek	-11.0424
nesla	-11.0425
▁nepokoj	-11.0427
stý	-11.0428
padám	-11.0429
▁plic	-11.0429
atý	-11.0429
▁odsouzen	-11.043
něji	-11.0433
kamen	-11.0434
vidíš	-11.0434
děd	-11.0434
▁zanechal	-11.044
Může	-11.044
klop	-11.0441
▁berou	-11.0444
▁Říma	-11.0446
▁hrdle	-11.0447
▁slun	-11.0448
žka	-11.0449
“,¬	-11.0452
dět	-11.0454
▁uhlí	-11.0457
Jakoby	-11.0458
hů	-11.0459
▁bolesť	-11.0461
▁tíhu	-11.0461
He	-11.0461
▁nápěv	-11.0461
▁vyprávěl	-11.0462
▁umíral	-11.0463
▁nouze	-11.0463
vedou	-11.0465
▁lu	-11.0469
Vzal	-11.0474
▁rajské	-11.0475
▁kryt	-11.0475
větr	-11.0476
▁malin	-11.0482
▁zoufalý	-11.0482
touha	-11.0483
▁hrady	-11.0484
kala	-11.0487
▁hou	-11.0492
▁stínech	-11.0494
▁klesne	-11.0494
▁neznámých	-11.0496
▁moudrý	-11.0497
▁stvol	-11.0497
▁lůžko	-11.0498
▁stuh	-11.0499
zd	-11.0501
▁drah	-11.0501
ickou	-11.0503
▁strop	-11.0505
srd	-11.0511
▁hrd	-11.0516
pomíná	-11.0517
▁žeh	-11.0518
▁špičkách	-11.0518
▁Což	-11.052
▁tepla	-11.052
oni	-11.0523
bere	-11.0524
▁nekonečný	-11.0524
vané	-11.0525
hlédne	-11.0527
chvěj	-11.0527
▁travou	-11.0528
▁vyprávět	-11.0531
žádný	-11.0531
▁vodách	-11.0531
konečně	-11.0532
smál	-11.0533
▁postavil	-11.0533
lán	-11.0536
▁stolem	-11.0538
▁tomhle	-11.0538
▁zamyšlen	-11.054
▁začít	-11.054
▁nejsladší	-11.0541
Jakby	-11.0541
vedl	-11.0543
▁ztich	-11.0546
▁rez	-11.0547
▁tulák	-11.0548
▁Vždyť	-11.0548
▁spanilá	-11.055
▁bludné	-11.0555
▁kletba	-11.0557
▁ihned	-11.0559
▁ukázal	-11.056
▁zůstaň	-11.0565
▁vezmi	-11.0566
dělej	-11.0567
ško	-11.0567
▁ležím	-11.0568
▁svatého	-11.0569
▁obejmout	-11.0569
▁polibkem	-11.0569
Re	-11.057
▁mrákot	-11.0571
▁něčí	-11.0573
▁válí	-11.0574
▁lep	-11.0575
▁vzpíná	-11.0575
▁nemůžeš	-11.0575
vzdech	-11.0576
ličky	-11.0577
ražen	-11.0577
▁sp	-11.0578
▁metá	-11.0578
▁žíly	-11.058
▁dvanáct	-11.0581
meč	-11.0582
▁třesou	-11.0583
kos	-11.0584
topil	-11.0587
!!	-11.0587
▁vzp	-11.0589
▁síti	-11.059
▁podal	-11.0591
▁jizbě	-11.0593
▁barvou	-11.0594
říkám	-11.0595
▁kryl	-11.0596
▁péro	-11.0598
▁dělal	-11.0598
▁malí	-11.0599
tické	-11.0599
▁poklid	-11.06
▁brázd	-11.0601
veď	-11.0602
atá	-11.0604
Hvězdy	-11.0605
odkud	-11.0606
▁tíže	-11.0606
líček	-11.0607
▁Mu	-11.0607
▁prosit	-11.0608
Přijde	-11.0609
chem	-11.061
▁množí	-11.0612
ďa	-11.0612
▁nehod	-11.0614
▁miliony	-11.0615
▁zabloudil	-11.062
Dívám	-11.0621
▁problém	-11.0621
▁dokořán	-11.0624
stě	-11.0626
▁kmeny	-11.0628
▁půli	-11.0629
▁jemnou	-11.063
▁marná	-11.0631
hrnul	-11.0631
▁sedla	-11.0632
▁taková	-11.0636
▁kalné	-11.0636
▁vřele	-11.0642
▁jedin	-11.0642
▁bloudím	-11.0643
▁čtvrt	-11.0644
▁dluh	-11.0645
▁nástroj	-11.0646
▁horské	-11.0647
vie	-11.0647
?¬–	-11.0647
▁neznáma	-11.0648
Le	-11.0648
▁svíjí	-11.0649
mizí	-11.065
▁nenadání	-11.065
▁stvoření	-11.0651
▁divoký	-11.0652
▁pohádku	-11.0654
▁hody	-11.0654
▁pekle	-11.0655
▁řekli	-11.0656
▁zbledl	-11.0659
▁milovala	-11.0661
tvoje	-11.0664
▁F	-11.0664
▁usmíval	-11.0666
▁mrtvou	-11.0666
▁masa	-11.0669
▁posel	-11.0669
cítíš	-11.067
▁román	-11.067
▁pocel	-11.0674
▁zpola	-11.0674
▁lije	-11.0675
▁dů	-11.0677
▁včely	-11.0678
▁nože	-11.0686
▁spjat	-11.0687
▁pýchou	-11.0688
▁nevinnosti	-11.0689
Dá	-11.0689
zně	-11.069
átka	-11.069
▁samá	-11.0694
▁jistý	-11.0694
nuv	-11.0695
▁vstala	-11.0698
lom	-11.0699
nést	-11.0701
▁Zemi	-11.0701
▁uč	-11.0702
▁zradil	-11.0703
▁hrůzu	-11.0704
▁–“	-11.0705
▁ryk	-11.0707
▁tůni	-11.0708
jet	-11.0709
▁zlat	-11.0711
učení	-11.0713
▁mrzí	-11.0715
blíž	-11.0716
▁rokem	-11.0719
▁pohladí	-11.0719
▁hukot	-11.0719
kříž	-11.0722
směje	-11.0723
▁muce	-11.0725
dně	-11.0726
hřát	-11.0727
▁mnozí	-11.0729
▁plně	-11.073
▁skrýš	-11.0734
▁Lásko	-11.0735
▁sluchu	-11.0735
mok	-11.0739
▁Te	-11.0741
▁hadí	-11.0743
▁prch	-11.0743
vás	-11.0744
▁omyl	-11.0746
▁lůžku	-11.0746
▁nádraží	-11.0746
▁dráze	-11.0746
▁víčky	-11.0746
▁lůna	-11.0747
▁roucha	-11.0747
▁volat	-11.0747
▁vraha	-11.0748
▁kletby	-11.075
hloup	-11.0751
rážel	-11.0754
▁potěšení	-11.0754
▁sbírá	-11.0755
▁stejnou	-11.0758
▁tiší	-11.0759
▁vzplál	-11.0761
pláč	-11.0765
▁pojednou	-11.0766
▁našim	-11.0767
trhne	-11.0768
▁tudy	-11.0768
▁stojíš	-11.0769
▁pol	-11.0771
něžně	-11.0772
koval	-11.0772
▁mrz	-11.0772
▁plané	-11.0773
▁samot	-11.0773
▁lačný	-11.0775
bouř	-11.0776
had	-11.0778
▁spřádá	-11.0779
▁mlčící	-11.0785
▁heslo	-11.0785
▁snaha	-11.0785
žu	-11.0787
▁psi	-11.0787
jakby	-11.0788
▁tri	-11.0789
▁paláce	-11.079
▁tajemný	-11.0792
Věřím	-11.0793
▁rys	-11.0793
▁jsouc	-11.0795
bojím	-11.0795
lce	-11.0797
▁pluh	-11.0799
mp	-11.0801
▁bohatý	-11.0803
bře	-11.0804
krásné	-11.0804
▁přítmí	-11.0805
▁pouhou	-11.0805
toužím	-11.0805
šleh	-11.0805
▁drazí	-11.0806
brá	-11.0807
▁laň	-11.0807
▁čtyř	-11.0808
Miluju	-11.0809
Jejich	-11.081
ějí	-11.0814
▁kopyt	-11.0817
těžko	-11.0817
▁střepy	-11.0824
▁zřeli	-11.0824
bar	-11.0825
▁skokem	-11.0826
ité	-11.0827
smysl	-11.0829
▁cílem	-11.0831
Myšlenky	-11.0834
▁šeří	-11.0836
Rci	-11.0838
her	-11.084
▁ozdob	-11.0841
▁chalup	-11.0843
budeme	-11.0843
▁stkví	-11.0843
▁fr	-11.0844
▁blízku	-11.0844
▁hřál	-11.0845
ovati	-11.0845
učí	-11.0846
▁rab	-11.0846
Hroz	-11.0849
▁sedět	-11.0849
padal	-11.085
▁volnosti	-11.085
▁stoup	-11.0852
▁hloží	-11.0853
nská	-11.0855
▁vzíti	-11.0855
▁démant	-11.0857
▁modra	-11.0857
▁kopce	-11.0857
▁krajina	-11.0859
Čí	-11.0862
▁plul	-11.0862
▁hezké	-11.0863
týká	-11.0865
rní	-11.0865
▁zvou	-11.0866
▁střela	-11.0866
▁loktech	-11.0867
hel	-11.0871
▁kritik	-11.0872
▁změny	-11.0872
málo	-11.0872
▁tahy	-11.0873
▁chytil	-11.0873
▁dol	-11.0875
žila	-11.0876
Hlad	-11.0876
Řekl	-11.0878
▁vdov	-11.0879
áčku	-11.088
▁jizby	-11.0882
mým	-11.0884
pen	-11.0884
▁mlhách	-11.0886
▁tisíci	-11.0886
Dítě	-11.0887
▁celého	-11.0887
adlo	-11.0888
▁schoval	-11.0888
▁patřil	-11.0889
▁svod	-11.089
přece	-11.0891
▁prvně	-11.0891
Roze	-11.0894
▁mladík	-11.0896
▁zrada	-11.0896
▁jarních	-11.0897
zvu	-11.09
blaž	-11.09
tah	-11.09
▁vážné	-11.0902
▁pyšné	-11.0902
▁střechu	-11.0904
▁plot	-11.0906
▁Če	-11.0907
▁nevadí	-11.0912
▁role	-11.0912
ovský	-11.0913
▁druhém	-11.0914
▁vrak	-11.0915
▁rodnou	-11.0916
▁znáti	-11.0916
▁nach	-11.0917
Blesk	-11.0918
▁milenců	-11.092
▁svíčky	-11.0922
▁drsný	-11.0922
▁světlé	-11.0923
▁nevěr	-11.0924
▁stroje	-11.0925
chvěl	-11.0926
▁nápoj	-11.0926
▁uší	-11.0929
rodí	-11.0929
▁zprávu	-11.093
▁prv	-11.0931
▁ustání	-11.0933
▁myslet	-11.0933
přál	-11.0936
zlatý	-11.0937
Dám	-11.0937
▁dálných	-11.0938
Jich	-11.0938
ruku	-11.094
▁bílého	-11.094
kvete	-11.0941
▁pust	-11.0941
▁zloděj	-11.0943
stran	-11.0943
▁nemůž	-11.0943
▁chrámě	-11.0943
▁okraj	-11.0944
moře	-11.0944
▁duje	-11.0946
▁chválí	-11.0946
▁věřte	-11.0946
▁bláto	-11.095
teče	-11.0951
▁nésti	-11.0952
▁drahých	-11.0958
▁rovněž	-11.0962
▁tulí	-11.0963
▁zim	-11.0963
vítá	-11.0963
podle	-11.0964
▁zob	-11.0964
▁korunách	-11.0965
▁zradu	-11.0967
ňák	-11.0969
▁socha	-11.0969
líbá	-11.0969
▁stád	-11.097
▁vůlí	-11.0971
řá	-11.0971
▁koš	-11.0973
▁říc	-11.0974
trvá	-11.0979
▁skončil	-11.0979
Vzhůru	-11.098
▁sněhy	-11.098
▁dělo	-11.098
tri	-11.0981
▁těká	-11.0982
▁taký	-11.0982
▁mlčet	-11.0984
▁visel	-11.0985
tknut	-11.0986
vrátil	-11.0989
▁ozve	-11.0993
▁dělám	-11.0994
▁přesně	-11.0996
▁počátku	-11.0996
černá	-11.0998
▁chápu	-11.0999
▁kouzel	-11.1
▁hromy	-11.1
daný	-11.1
▁vzteku	-11.1
▁hladinou	-11.1001
▁přeji	-11.1002
▁star	-11.1002
livá	-11.1003
dří	-11.1003
▁táhla	-11.1005
▁chleb	-11.1006
táhnu	-11.1009
▁znění	-11.1009
tnou	-11.1012
bej	-11.1019
▁dobou	-11.1019
otevře	-11.1019
gen	-11.102
▁ptáček	-11.102
▁možné	-11.102
▁tůň	-11.1021
tvor	-11.1021
▁fial	-11.1023
▁mrakem	-11.1024
valí	-11.1025
▁vteřiny	-11.1026
▁modrém	-11.1026
▁šach	-11.1028
▁vzkřik	-11.1028
▁sláb	-11.1028
bílá	-11.1028
▁studený	-11.1032
▁bohyně	-11.1034
▁slunný	-11.1035
kruh	-11.1036
vší	-11.1036
▁svatozář	-11.1037
děs	-11.1037
▁labutí	-11.1039
▁zbožné	-11.1042
▁daří	-11.1042
▁třicet	-11.1042
vzdor	-11.1043
▁tajný	-11.1043
▁skutky	-11.1043
▁masku	-11.1046
voz	-11.1048
eny	-11.105
plamen	-11.1052
▁jakou	-11.1053
▁větu	-11.1054
▁hráz	-11.1056
zír	-11.1058
▁chorob	-11.1059
▁hebké	-11.1059
átek	-11.1061
zni	-11.1063
▁tož	-11.1067
▁car	-11.1069
léval	-11.107
▁šedou	-11.107
ld	-11.1072
▁zvonky	-11.1073
krýt	-11.1073
▁jásal	-11.1074
▁lítosti	-11.1074
▁sype	-11.1074
▁děr	-11.1074
▁NE	-11.1079
Oko	-11.108
dol	-11.108
▁Mé	-11.1081
Vol	-11.1083
▁skočil	-11.1089
▁chorál	-11.1089
▁šílený	-11.1091
ben	-11.1091
▁ovce	-11.1093
čný	-11.1094
bývají	-11.1094
Ej	-11.1095
▁důl	-11.1096
háněl	-11.1096
psat	-11.1096
Uprostřed	-11.1098
svěc	-11.1098
jeť	-11.1098
▁hledají	-11.1099
oč	-11.1099
bili	-11.1099
byly	-11.1099
jsa	-11.1104
▁pokus	-11.1104
▁úsvit	-11.1108
heb	-11.1111
▁mine	-11.1111
▁nedbá	-11.1114
▁sady	-11.1114
Lo	-11.1116
▁věšt	-11.1119
Hlava	-11.1119
pel	-11.1119
měj	-11.1121
černý	-11.1123
▁listím	-11.1123
něná	-11.1124
▁mrazu	-11.1124
▁tvrdou	-11.1125
▁Pře	-11.1125
▁dívko	-11.1127
▁postel	-11.1127
sud	-11.1128
▁muky	-11.1128
▁zlobě	-11.1129
?"¬	-11.1129
▁zdráva	-11.1129
▁rubín	-11.1133
dále	-11.1134
▁psí	-11.1134
ves	-11.1143
▁žlutý	-11.1143
Nemohu	-11.1149
▁ztrácel	-11.1153
▁stopu	-11.1154
▁rojí	-11.1162
zjev	-11.1162
▁stěnách	-11.1163
▁pronik	-11.1166
▁šedých	-11.1166
▁syčí	-11.117
černé	-11.117
▁červánky	-11.117
říkal	-11.117
▁přítomnost	-11.1172
▁mlad	-11.1172
▁ozvěnou	-11.1173
▁miláčku	-11.1173
▁dobrého	-11.1174
nechce	-11.1177
nyní	-11.1178
▁luzné	-11.118
▁pokání	-11.1181
Vždycky	-11.1182
Touha	-11.1182
▁hrůze	-11.1185
por	-11.1187
▁Ber	-11.1188
▁držet	-11.1189
▁zdob	-11.119
▁peníz	-11.1191
dek	-11.1191
ll	-11.1194
▁plamenů	-11.1197
šeptal	-11.1197
▁vděčně	-11.1197
▁štíty	-11.1198
▁Král	-11.1199
▁stejná	-11.12
▁nachem	-11.12
▁kapsy	-11.1201
▁dávat	-11.1201
uměl	-11.1203
▁vážný	-11.1204
Jan	-11.1204
obe	-11.1206
▁nevidíš	-11.1207
▁temném	-11.1209
▁pravím	-11.1212
▁dědin	-11.1213
▁lesklé	-11.1214
lout	-11.1215
▁odešla	-11.1216
▁Zá	-11.1216
vesel	-11.1218
vstal	-11.1219
jte	-11.1221
▁věrnost	-11.1222
líbí	-11.1223
▁menší	-11.1226
▁srdcy	-11.1226
▁kvítím	-11.1226
▁podzimu	-11.1226
▁klášter	-11.1227
▁plaché	-11.1227
▁zbyly	-11.1228
▁tepe	-11.1229
▁trou	-11.1229
▁splýval	-11.1229
▁zbloudil	-11.1231
Ra	-11.1231
▁právu	-11.1234
ničky	-11.1235
▁leknín	-11.1238
Žij	-11.1238
slep	-11.1238
▁smuteční	-11.124
▁vlnobití	-11.124
▁podiv	-11.1241
▁polední	-11.1241
touží	-11.1242
▁skrytá	-11.1247
hnat	-11.125
▁obec	-11.1251
▁složit	-11.1251
ďte	-11.1252
las	-11.1253
eli	-11.1253
▁chápat	-11.1253
▁vzrůstá	-11.1254
▁míval	-11.1255
▁rodiny	-11.1256
▁křikem	-11.1257
růž	-11.1257
▁bezpečí	-11.1261
začal	-11.1261
eg	-11.1262
▁pamatuj	-11.1265
▁bloud	-11.1267
▁uvidíš	-11.1268
pád	-11.1268
▁line	-11.1269
▁strážce	-11.127
▁prales	-11.127
▁kůr	-11.1271
id	-11.1273
▁skalin	-11.1275
polo	-11.1275
▁nestojí	-11.1279
cet	-11.128
▁blízký	-11.128
▁majestát	-11.1281
mítá	-11.1282
někde	-11.1282
▁sluha	-11.1282
▁kapkách	-11.1282
▁zhoub	-11.1284
▁koule	-11.1288
▁leje	-11.1292
leje	-11.1293
▁napřed	-11.1294
hnil	-11.1295
přáh	-11.1296
tná	-11.1296
lep	-11.1297
▁blýsk	-11.1297
snil	-11.1299
vic	-11.1299
▁bublin	-11.13
dem	-11.13
Smích	-11.1301
▁nejlíp	-11.1303
▁objevil	-11.1303
▁hladinu	-11.1303
hýbal	-11.1305
kryté	-11.1311
▁hromů	-11.1317
▁suk	-11.1319
ič	-11.1321
▁závrati	-11.1321
▁sever	-11.1323
▁mraz	-11.1323
▁hloupé	-11.1323
Jste	-11.1324
ínek	-11.1325
Slav	-11.1326
lan	-11.1326
Najednou	-11.133
▁šelest	-11.1331
▁stírá	-11.1332
▁snící	-11.1332
lze	-11.1335
▁skrytý	-11.1339
▁díků	-11.1342
▁procit	-11.1346
▁blb	-11.1348
▁plán	-11.1349
váže	-11.1353
sebe	-11.1354
▁tamo	-11.1354
▁mříž	-11.1357
bít	-11.1358
Milost	-11.1359
stanu	-11.1359
▁hořem	-11.136
▁vidin	-11.1362
▁klenot	-11.1362
▁pnou	-11.1364
rval	-11.1369
▁pamět	-11.137
tul	-11.1372
▁bolů	-11.1374
▁tuhý	-11.1375
▁hospod	-11.1376
▁doly	-11.1377
▁Di	-11.1382
▁víně	-11.1382
▁zákoutí	-11.1383
nk	-11.1385
▁pochopí	-11.1385
řené	-11.1386
Lásku	-11.1386
▁skřek	-11.1388
slun	-11.1389
množ	-11.1389
dáme	-11.139
Mil	-11.1392
rušen	-11.1392
Neza	-11.1393
▁sněti	-11.1393
leť	-11.1397
▁silnici	-11.1399
dýchá	-11.1402
byli	-11.1402
▁oněměl	-11.1404
klonil	-11.1404
▁modlit	-11.1408
▁spása	-11.1409
daj	-11.1409
▁hvozd	-11.141
vůně	-11.1411
▁pestrý	-11.1413
hlédni	-11.1414
▁soudí	-11.1414
hrab	-11.1415
Hoch	-11.1415
ctví	-11.142
▁snětí	-11.1421
▁šatech	-11.1421
▁nesmírné	-11.1421
▁podobě	-11.1422
zmizel	-11.1422
▁přej	-11.1423
▁soudruh	-11.1425
▁modlitba	-11.1427
▁keři	-11.1427
▁le	-11.1427
můžeš	-11.1427
samot	-11.1429
▁hvězdo	-11.143
Sedí	-11.143
vrátit	-11.1433
ztratil	-11.1434
▁robot	-11.1435
▁útěk	-11.1437
▁odpočívá	-11.1437
▁padlo	-11.1438
▁divou	-11.1439
▁poděl	-11.1442
▁dračí	-11.1442
▁měkká	-11.1445
ony	-11.1445
▁kvésti	-11.1445
▁naproti	-11.1445
krásná	-11.1448
▁dojat	-11.145
▁modlitby	-11.145
▁zdála	-11.1455
keď	-11.1455
▁čaro	-11.1455
▁klaní	-11.1456
čené	-11.1458
najednou	-11.1458
▁zhynul	-11.1458
▁výšky	-11.1458
▁stoupal	-11.1461
▁žilo	-11.1464
pane	-11.1465
▁Čechů	-11.1466
▁božský	-11.1466
ručí	-11.1467
▁kýv	-11.1467
▁šatů	-11.1467
ávám	-11.1469
▁stopách	-11.147
ču	-11.1471
▁veselá	-11.1473
▁ráně	-11.1473
▁sklep	-11.1476
dávat	-11.1478
▁mžiku	-11.1478
vědom	-11.1479
▁četl	-11.1481
tekl	-11.1482
▁fra	-11.1482
ounké	-11.1482
Led	-11.1484
▁naslouchal	-11.1485
▁holky	-11.1486
▁hloupá	-11.1486
▁mračno	-11.1488
▁nejspíš	-11.1489
▁zrádné	-11.149
otevř	-11.1491
snů	-11.1491
▁silně	-11.1495
tre	-11.1497
hynou	-11.1497
▁Pánu	-11.1498
dělal	-11.15
▁da	-11.15
▁vznět	-11.1501
▁temným	-11.1501
▁klekání	-11.1502
▁zhasne	-11.1505
taje	-11.1506
▁miluj	-11.1507
veleb	-11.1508
pij	-11.1508
ráda	-11.1509
▁lodě	-11.1509
▁právem	-11.1509
▁rtem	-11.1509
▁val	-11.1513
▁místech	-11.1513
smutek	-11.1513
▁vnitř	-11.1515
bije	-11.1522
▁neboť	-11.1523
▁oblouk	-11.1527
▁zvukem	-11.1527
▁odříkání	-11.1528
▁světe	-11.1528
tik	-11.153
▁Před	-11.1532
▁obrátí	-11.1533
▁sluncí	-11.1534
jímal	-11.1534
kový	-11.1534
▁prýští	-11.1536
Zdaž	-11.1537
▁říkáš	-11.1537
▁prosby	-11.1538
▁pluk	-11.1544
povídá	-11.1546
▁vyznání	-11.1546
▁domovu	-11.1546
fu	-11.1547
▁nějaké	-11.1548
▁stříbrný	-11.1548
volat	-11.1551
▁pozadí	-11.1551
točil	-11.1552
▁podél	-11.1552
žhav	-11.1553
▁ros	-11.1554
vně	-11.1554
čkové	-11.1556
íku	-11.1556
▁jejichž	-11.1557
vanou	-11.1558
růže	-11.1558
▁živou	-11.1559
▁jasných	-11.156
▁slavných	-11.1561
Toho	-11.1561
Kdybys	-11.1562
▁obrazu	-11.1562
▁opouští	-11.1562
▁klub	-11.1564
▁hospodář	-11.1564
▁šípy	-11.1565
▁životy	-11.1567
umí	-11.1569
bohat	-11.1569
▁šklebí	-11.1571
tebe	-11.1575
▁hmoty	-11.1576
▁radí	-11.1577
Hr	-11.1578
sníh	-11.1581
Stojí	-11.1583
▁bohům	-11.1584
níček	-11.1584
hlé	-11.1585
▁mžikem	-11.1588
▁keď	-11.1588
▁skvěl	-11.1588
▁opodál	-11.1589
▁výlet	-11.159
▁němě	-11.1593
▁kouká	-11.1596
▁Slav	-11.1597
▁nesměle	-11.16
▁dosah	-11.1601
▁kypí	-11.1602
Spi	-11.1603
ista	-11.1604
▁plynul	-11.1604
anci	-11.1605
nička	-11.1606
▁navěky	-11.1608
▁zašel	-11.1609
▁vyvolen	-11.1611
▁krčí	-11.1612
▁dřeva	-11.1614
▁potká	-11.1616
▁kouzelné	-11.1619
▁zaplakal	-11.1619
▁růžemi	-11.1622
Váš	-11.1627
▁hospody	-11.1628
▁čekala	-11.163
▁rvou	-11.1631
▁stavěl	-11.1632
▁okamžení	-11.1633
www	-11.1633
▁bázni	-11.1633
cká	-11.1633
▁názor	-11.1634
▁ševel	-11.1635
▁Není	-11.1635
▁politik	-11.1639
▁strh	-11.1639
10	-11.1641
▁strast	-11.1642
pluje	-11.1643
▁laur	-11.1646
▁chladem	-11.1647
▁bludný	-11.1648
▁věsí	-11.165
▁proměnil	-11.1652
▁nítí	-11.1654
▁slitování	-11.1654
Růže	-11.1654
▁moment	-11.1654
máme	-11.1655
▁dumá	-11.1656
Krok	-11.1657
slib	-11.1659
▁nedbal	-11.166
▁jaru	-11.166
pěv	-11.1665
▁nejdřív	-11.1669
▁svitem	-11.1669
pej	-11.1669
▁zavře	-11.1673
▁máji	-11.1676
▁pochopení	-11.1676
▁stříbra	-11.1678
▁hýří	-11.1678
▁tělu	-11.1679
▁nadšen	-11.1679
▁mosty	-11.1682
▁krátí	-11.1683
vřít	-11.1686
▁nestál	-11.1687
Nedo	-11.1689
vrácen	-11.169
▁hojí	-11.1692
ženou	-11.1692
▁jejího	-11.1694
▁zmaru	-11.1697
eni	-11.1698
▁nimiž	-11.1701
vající	-11.1701
volně	-11.1703
▁mramoru	-11.1705
▁sloupy	-11.1706
▁sedmi	-11.1709
▁žehná	-11.171
cén	-11.171
▁přísný	-11.171
Starý	-11.1713
ota	-11.1715
psané	-11.1717
▁pobřeží	-11.1717
▁dlouhém	-11.1718
kře	-11.172
▁ledové	-11.1721
▁občan	-11.1723
▁květe	-11.1723
hol	-11.1723
▁Go	-11.1723
▁otevřít	-11.1725
▁dítěte	-11.1727
létají	-11.1727
Vzpomínám	-11.1729
ěné	-11.1732
▁dojem	-11.1732
▁návratu	-11.1737
son	-11.1738
▁pohřební	-11.1739
▁mocným	-11.1739
šce	-11.174
▁tkví	-11.1748
▁klap	-11.1748
▁zástupy	-11.1748
▁zprávy	-11.1749
▁vrata	-11.1749
smutně	-11.1753
▁mračí	-11.1757
▁zmaten	-11.1758
▁chladně	-11.1758
▁nahlas	-11.1758
▁barbar	-11.176
Zítra	-11.176
Budeš	-11.176
út	-11.1761
▁včerejší	-11.1765
▁prudký	-11.1766
▁žhavých	-11.1766
oř	-11.1766
▁svad	-11.1767
▁ztracená	-11.1768
motýl	-11.1768
▁snes	-11.1769
Tá	-11.177
uvnitř	-11.177
▁satan	-11.177
▁čtver	-11.1771
▁veta	-11.1772
▁spousty	-11.1773
▁dřev	-11.1774
▁mocná	-11.1777
Žel	-11.178
pění	-11.1782
▁jarý	-11.1782
...¬(	-11.1784
zdrav	-11.1788
déšť	-11.179
▁zelených	-11.179
Jeť	-11.179
lin	-11.179
▁alejí	-11.1791
▁líbám	-11.1791
Krásná	-11.1795
kročí	-11.1796
▁prchal	-11.1798
plašil	-11.1799
▁loučení	-11.1799
vaný	-11.1799
▁příboj	-11.18
▁sok	-11.1801
▁čist	-11.1801
avšak	-11.1802
▁plachty	-11.1803
▁chvále	-11.1803
▁obrazem	-11.1804
▁taji	-11.1804
hoř	-11.1805
nký	-11.1805
sadí	-11.1806
▁kapse	-11.1809
táčí	-11.181
▁věčného	-11.1812
▁meze	-11.1813
plyne	-11.1814
▁dra	-11.1814
▁poznáš	-11.1815
▁lebky	-11.1816
▁vzdych	-11.1818
▁padat	-11.1819
Děd	-11.1821
Zří	-11.1822
▁dostane	-11.1823
▁stěně	-11.1825
kvetl	-11.1826
pomene	-11.1827
▁trup	-11.1827
prv	-11.1828
hodný	-11.1828
rac	-11.1829
▁tvý	-11.1829
LA	-11.1829
▁daleký	-11.1831
▁divnou	-11.1832
▁holá	-11.1833
prá	-11.1834
kdos	-11.1838
noční	-11.1839
Stojím	-11.184
Kon	-11.1841
▁naplnil	-11.1845
▁podobu	-11.1845
vykl	-11.1848
▁uleh	-11.1848
▁hoj	-11.185
▁básníka	-11.1852
▁básníků	-11.1852
▁postava	-11.1854
vracel	-11.1855
vesele	-11.1858
nova	-11.186
▁hý	-11.1862
▁Du	-11.1863
▁vypráví	-11.1863
▁hostin	-11.1863
▁zlob	-11.1864
▁poplach	-11.1864
▁škleb	-11.1866
▁odkaz	-11.1866
▁kolébky	-11.1867
▁jeseň	-11.1869
▁úspěch	-11.1869
knou	-11.187
krásně	-11.1871
▁synem	-11.1871
▁přinesl	-11.1872
ábl	-11.1879
▁podobá	-11.1879
Neu	-11.1881
píjím	-11.1882
▁mní	-11.1886
chrom	-11.1886
mon	-11.1887
▁kacíř	-11.1888
▁jménu	-11.1889
▁větev	-11.1889
▁stinné	-11.1889
▁steré	-11.1891
Plá	-11.1893
stojím	-11.1895
▁krb	-11.1897
▁rákosí	-11.1898
▁vryl	-11.1901
ajících	-11.1902
hasne	-11.1905
Šla	-11.1905
▁smyslu	-11.1906
▁sněm	-11.1906
▁myšlének	-11.1908
ivní	-11.1909
slí	-11.1909
▁ohnivé	-11.1909
▁labuť	-11.191
Kterak	-11.191
Tenkrát	-11.1911
▁políbit	-11.1912
▁hluboká	-11.1913
váděl	-11.1913
▁vlahý	-11.1914
▁Be	-11.1916
▁starci	-11.1917
volil	-11.1917
▁věrnou	-11.1918
▁zla	-11.1919
▁dus	-11.1925
chutná	-11.1925
▁zdají	-11.1926
Let	-11.1931
▁přišly	-11.1933
zdvih	-11.1934
▁pomůže	-11.1935
hyb	-11.1936
celé	-11.1937
stalo	-11.1937
▁trysk	-11.1937
Konec	-11.1938
▁koupil	-11.1938
hasí	-11.1939
▁kousky	-11.194
tancuj	-11.194
miloval	-11.1941
Děv	-11.1942
▁stropu	-11.1942
▁vad	-11.1943
▁žalář	-11.1943
▁spadla	-11.1943
nášejí	-11.1944
▁Kar	-11.1946
růst	-11.1951
▁potácí	-11.1952
▁poslouchat	-11.1953
▁chladí	-11.1954
▁blízka	-11.1955
syt	-11.1959
▁obzorem	-11.1961
zka	-11.1961
▁váz	-11.1962
Nebude	-11.1964
sazen	-11.1973
Zdali	-11.1974
▁Roland	-11.1976
▁věčna	-11.1976
lib	-11.1976
▁těsně	-11.1976
▁modlitbě	-11.1976
▁pasti	-11.1979
áku	-11.1981
chat	-11.1982
▁chtěly	-11.1983
▁zničí	-11.1984
▁bos	-11.1986
▁dral	-11.1987
▁lide	-11.1991
staré	-11.1993
dusí	-11.1996
▁jedině	-11.1996
▁hůry	-11.1997
▁mate	-11.1999
stil	-11.1999
▁dáváš	-11.2
enka	-11.2
▁křiv	-11.2003
ejch	-11.2004
▁úsvitu	-11.2005
▁leta	-11.2006
pravit	-11.2006
▁modravé	-11.2007
▁ztichl	-11.2008
žky	-11.2009
▁holou	-11.2009
▁služ	-11.2014
▁padám	-11.2015
▁tyhle	-11.2015
▁tohoto	-11.2015
▁spala	-11.2016
rodil	-11.2017
▁poslouchal	-11.2018
Všech	-11.2018
▁loubí	-11.2019
▁hravý	-11.202
▁leda	-11.2021
▁klestí	-11.2021
▁lučin	-11.2022
▁perla	-11.2023
▁vznesl	-11.2023
▁kovu	-11.2024
▁tísni	-11.2025
anti	-11.2028
▁slavná	-11.2028
líc	-11.2032
▁povídá	-11.2032
ple	-11.2032
vědomí	-11.2034
▁oč	-11.2034
▁tluk	-11.2035
řka	-11.2035
držím	-11.2035
▁obtíž	-11.2036
▁nechte	-11.2037
▁kur	-11.2039
▁přijdeš	-11.204
▁rýmy	-11.204
Jistě	-11.2041
▁chůzi	-11.2041
Per	-11.2042
dávej	-11.2043
▁otázka	-11.2043
▁zlomil	-11.2044
▁vydá	-11.2045
▁lehko	-11.2048
stvu	-11.2049
▁nečeká	-11.2052
http	-11.2053
každé	-11.2053
▁kroutí	-11.2055
smát	-11.2056
▁vrcholu	-11.2056
ovské	-11.2059
▁Ru	-11.2059
▁strachy	-11.2061
dlu	-11.2062
dky	-11.2063
▁obra	-11.2063
▁vzpomínkách	-11.2063
▁letět	-11.2063
▁tisíců	-11.2066
▁vzrostl	-11.2069
▁potup	-11.2069
řekla	-11.207
▁upír	-11.207
Žádný	-11.2071
▁kouře	-11.2071
cestou	-11.2071
Letí	-11.2073
;¬„	-11.2074
▁smíš	-11.2078
▁střech	-11.2078
▁ště	-11.2081
trhané	-11.2081
▁snažil	-11.2082
▁oknu	-11.2082
▁podvod	-11.2083
▁nenávisti	-11.2084
▁Žižka	-11.2086
▁vojín	-11.2088
▁dítko	-11.2089
▁sloužit	-11.2089
▁zuří	-11.209
▁krajinu	-11.2091
▁sálá	-11.2092
▁bydlí	-11.2093
tým	-11.2094
▁oděn	-11.2095
buj	-11.2095
Dr	-11.21
▁sfér	-11.2102
▁modlitbou	-11.2104
kly	-11.2105
▁podává	-11.2105
nt	-11.2107
▁pohádce	-11.2107
Přišel	-11.2108
poutá	-11.2109
▁holub	-11.2109
▁lib	-11.2111
▁nemohla	-11.2112
▁věno	-11.2113
▁rozkoši	-11.2113
▁Her	-11.2116
▁temen	-11.2116
▁podivný	-11.2116
▁úpí	-11.2118
▁růžích	-11.212
▁tyčí	-11.212
▁sochy	-11.212
▁výdech	-11.2123
▁hodný	-11.2124
Odpusť	-11.2125
▁vlekl	-11.2126
▁mistře	-11.2127
dělat	-11.2127
▁křivd	-11.2128
▁něžnou	-11.2128
▁došel	-11.2129
▁výsměch	-11.2129
▁tančil	-11.213
▁javor	-11.213
▁bytu	-11.2131
▁závojem	-11.2134
▁chmurné	-11.2135
Ah	-11.2139
bíjí	-11.2139
nické	-11.214
dím	-11.2143
bořil	-11.2143
▁plamenech	-11.2144
▁bud	-11.2147
▁dobří	-11.2148
kra	-11.2149
▁usta	-11.2149
▁bují	-11.2149
lát	-11.2151
▁„„	-11.2152
Kolikrát	-11.2155
ero	-11.2155
▁půjdeš	-11.2158
vítěz	-11.2161
zrál	-11.2161
▁skutečnosti	-11.2161
▁duších	-11.2163
▁milují	-11.2164
▁uzřel	-11.2165
▁souhlas	-11.2165
▁přízeň	-11.2167
ram	-11.2167
▁připomíná	-11.2168
stavit	-11.2169
voda	-11.217
▁hvízdá	-11.217
▁ozářen	-11.2175
Oba	-11.2176
hám	-11.2177
▁rozbil	-11.2177
ením	-11.2179
▁smutky	-11.2179
lab	-11.2181
▁prvních	-11.2186
▁malým	-11.2187
▁vínek	-11.2188
vane	-11.219
Naděje	-11.2194
▁zlehka	-11.2194
▁pěvce	-11.2196
▁lásek	-11.2199
▁ženské	-11.22
for	-11.2201
zku	-11.2202
▁kůru	-11.2203
▁Mí	-11.2203
Ký	-11.2205
▁zajat	-11.2207
Cit	-11.2207
dit	-11.2207
▁chlapec	-11.2213
ečný	-11.2214
stupují	-11.2215
▁struna	-11.2216
leká	-11.2217
▁břez	-11.2218
▁chmurný	-11.2218
▁paprscích	-11.2218
▁kůží	-11.2219
liš	-11.2221
lhal	-11.2221
▁neboj	-11.2223
danou	-11.2227
▁živlů	-11.2228
▁Zem	-11.2232
▁hezký	-11.2235
▁napsat	-11.2235
Oj	-11.2236
▁jarním	-11.2236
▁zvonek	-11.2236
▁souží	-11.2238
▁slav	-11.2238
▁maso	-11.2239
mate	-11.224
▁sníš	-11.2243
Lou	-11.2246
▁Pána	-11.2247
lené	-11.2247
▁daň	-11.2248
Láskou	-11.225
měň	-11.225
▁kot	-11.2252
Toužím	-11.2253
▁křehké	-11.2259
▁šílen	-11.226
▁El	-11.226
▁Či	-11.226
▁skryla	-11.226
▁lidským	-11.2261
áky	-11.2261
▁pustou	-11.2261
tický	-11.2263
▁zapomíná	-11.2263
▁zřídka	-11.2264
▁polibku	-11.2266
trhal	-11.2266
▁odpovídá	-11.2266
▁statky	-11.2267
▁bláta	-11.2271
pouze	-11.2271
▁teple	-11.2273
Stře	-11.2273
venku	-11.2276
▁chmur	-11.2276
▁věčném	-11.2276
ovaly	-11.2277
▁slůvka	-11.2279
Pi	-11.228
▁el	-11.2281
▁klíčí	-11.2283
▁dravé	-11.2283
▁dřevo	-11.2286
Stačí	-11.2288
Daleko	-11.2289
kořen	-11.2289
▁stromem	-11.2289
▁umírám	-11.2291
sáh	-11.2291
▁mívá	-11.2293
▁chyba	-11.2293
▁lít	-11.2293
▁tahle	-11.2293
▁sedl	-11.2293
▁rohy	-11.2294
díky	-11.2294
velký	-11.2295
Mít	-11.2298
lká	-11.2299
▁síní	-11.2299
bliž	-11.2301
▁možnost	-11.2302
Jas	-11.2303
zim	-11.2304
▁mlází	-11.2308
chvěje	-11.2309
▁vraždí	-11.2311
▁vešla	-11.2313
čar	-11.2317
▁svatí	-11.2319
▁nesměl	-11.232
▁mezí	-11.2321
▁děvu	-11.2321
hají	-11.2321
▁vkročí	-11.2322
▁přála	-11.2324
▁starostí	-11.2325
tiš	-11.2328
stoupá	-11.2329
hlížet	-11.2331
šept	-11.2331
▁slečna	-11.2333
nade	-11.2335
▁šedivé	-11.2336
jistí	-11.2336
▁křičet	-11.2338
kdybych	-11.2339
lité	-11.234
uško	-11.2343
▁tlam	-11.2345
▁pocitem	-11.2346
topí	-11.2347
▁rose	-11.2348
▁ranním	-11.2349
ruka	-11.2352
▁myš	-11.2352
ovými	-11.2353
jiskr	-11.2354
▁spatří	-11.2354
táhnout	-11.2355
▁opat	-11.2355
▁divem	-11.2358
▁jahod	-11.2361
vře	-11.2364
▁mši	-11.2365
▁spojil	-11.2365
plakat	-11.2372
▁valné	-11.2373
▁varhan	-11.2375
maje	-11.2375
▁tele	-11.2376
končí	-11.2376
▁půda	-11.2376
▁houslí	-11.2376
▁úřad	-11.2378
▁malém	-11.2378
▁uchu	-11.238
chybí	-11.2381
pouštím	-11.2381
▁trpké	-11.2381
▁hostem	-11.2383
věděl	-11.2383
▁teskný	-11.2385
ánek	-11.2385
chví	-11.2386
▁úžasu	-11.2386
▁hodině	-11.2387
▁vece	-11.2388
▁padlý	-11.239
niká	-11.2391
▁myslit	-11.2391
tírá	-11.2393
Lá	-11.2394
▁hřbitově	-11.2394
ovní	-11.2397
List	-11.2397
▁mag	-11.2398
Pokud	-11.2399
tvoří	-11.24
▁Lásky	-11.24
▁milované	-11.2401
hlazen	-11.2402
šků	-11.2404
▁budete	-11.2405
▁luka	-11.2405
▁šly	-11.2406
▁rozední	-11.2407
▁milým	-11.2407
▁lhář	-11.2408
▁tímto	-11.2409
▁trám	-11.241
▁krásným	-11.2412
rovnat	-11.2414
▁vlídné	-11.2415
př	-11.2416
inách	-11.2417
▁hřeben	-11.242
▁koná	-11.242
▁nesmysl	-11.242
pevn	-11.2421
▁kvil	-11.2422
Dobrý	-11.2422
trápen	-11.2423
▁dovede	-11.2423
metá	-11.2423
▁símě	-11.2424
▁smáli	-11.2424
chvíli	-11.2425
sedl	-11.2429
▁přijdu	-11.2431
▁luhu	-11.2431
▁štěp	-11.2433
▁ledy	-11.2434
▁křeči	-11.2436
▁chtí	-11.2436
rývá	-11.2437
žeh	-11.2437
píjel	-11.2438
▁rájem	-11.2441
▁žij	-11.2442
▁výší	-11.2443
▁ňádra	-11.2445
laska	-11.2446
tur	-11.2446
▁trošku	-11.2447
▁Kol	-11.2447
káže	-11.2449
▁doufal	-11.2449
nila	-11.2449
mýšlí	-11.2451
měří	-11.2451
▁hrdá	-11.2454
ep	-11.2455
▁líčka	-11.2458
▁sestro	-11.2458
▁karty	-11.246
nesmí	-11.2462
lepší	-11.2467
▁rtoma	-11.2467
▁útěchy	-11.2467
ono	-11.2468
▁lupen	-11.2472
dob	-11.2472
vřel	-11.2474
▁dešť	-11.2475
▁hladit	-11.2475
cké	-11.2475
▁stra	-11.2478
TE	-11.2479
pila	-11.2482
zavře	-11.2482
věz	-11.2484
Žár	-11.2485
prázd	-11.2486
Krásné	-11.2486
▁mříže	-11.2489
▁červená	-11.2489
Trochu	-11.249
▁bráně	-11.2491
▁temnot	-11.2491
Děti	-11.2491
▁plášti	-11.2492
▁díle	-11.2492
▁šíj	-11.2493
▁tajemná	-11.2494
▁hořkost	-11.2495
poj	-11.2498
▁slunka	-11.2499
▁opojen	-11.2499
▁krutou	-11.25
▁trpký	-11.2501
▁sedne	-11.2502
▁rud	-11.2503
Obraz	-11.2504
hozen	-11.2504
▁vezdy	-11.2505
budí	-11.2506
▁marnost	-11.2507
▁sboru	-11.2507
▁vězí	-11.2508
třásl	-11.2508
▁břízy	-11.2508
▁vhod	-11.251
špi	-11.2511
▁dotknout	-11.2513
Vzpomínky	-11.2513
▁dalekých	-11.2513
▁kynou	-11.2516
žádné	-11.2518
zatímco	-11.2521
▁hnědé	-11.2524
▁Buď	-11.2527
jším	-11.2528
běž	-11.2528
hlédla	-11.2529
▁takovou	-11.2529
Sláva	-11.253
kř	-11.2533
▁valil	-11.2533
▁Gr	-11.2534
Řek	-11.2534
hledá	-11.2534
něj	-11.2535
▁tajů	-11.2535
Vrať	-11.2536
▁strážný	-11.2537
“¬–	-11.2537
brán	-11.254
▁míle	-11.2541
pnu	-11.2541
▁divu	-11.2542
▁milého	-11.2542
▁žiješ	-11.2543
▁trpce	-11.2545
Věz	-11.2547
malé	-11.2547
Těžko	-11.2548
▁úrod	-11.2549
bři	-11.2549
▁něžných	-11.2556
brzy	-11.2556
▁zajde	-11.2558
▁zove	-11.256
lis	-11.2564
▁zvěsti	-11.2569
▁domem	-11.257
hasíná	-11.257
tin	-11.2573
věčně	-11.2581
▁bělo	-11.2582
▁slabá	-11.2583
▁šťastní	-11.2583
▁divadlo	-11.2584
▁smetí	-11.2586
▁blížil	-11.2586
▁nerv	-11.2587
▁správ	-11.2588
▁mák	-11.2589
▁ukáže	-11.259
plou	-11.2592
▁zoufalé	-11.2592
▁šuměl	-11.2593
hrát	-11.2594
▁maj	-11.2595
áme	-11.2595
Nemá	-11.2596
zlaté	-11.2598
▁nepřijde	-11.2598
▁trne	-11.2601
▁církve	-11.2606
▁bázeň	-11.2606
Měj	-11.2608
▁ml	-11.2608
▁tvary	-11.2609
▁starého	-11.261
▁myslel	-11.2612
▁tryská	-11.2613
▁národy	-11.2614
lal	-11.2622
raní	-11.2622
▁střely	-11.2626
táhla	-11.2628
▁nebýt	-11.2629
watch	-11.2629
▁kvítky	-11.2629
▁začátku	-11.2629
▁tužby	-11.2629
▁myšlénka	-11.2629
▁neob	-11.263
▁smuten	-11.2631
▁spějí	-11.2632
▁podívat	-11.2633
▁zapomněla	-11.2633
▁šed	-11.2635
▁bezmoc	-11.2637
▁prve	-11.2638
trhá	-11.2638
Sou	-11.264
Znáš	-11.2643
▁jala	-11.2647
▁....¬	-11.2648
vlaž	-11.2652
youtube	-11.2652
▁neuměl	-11.2652
vát	-11.2652
přít	-11.2652
▁hrudí	-11.2652
▁200	-11.2653
▁ulicemi	-11.2653
▁povím	-11.2654
Mnohý	-11.2654
▁zavírá	-11.2654
▁snese	-11.2655
Všem	-11.2655
▁vztáh	-11.2656
ino	-11.2657
▁tlap	-11.2657
▁pozved	-11.2657
▁vznešený	-11.2661
ečná	-11.2662
ovky	-11.2662
Bol	-11.2665
▁zbroj	-11.2666
volej	-11.2666
▁Slovan	-11.2666
▁hřmot	-11.2667
▁bránit	-11.2667
Básník	-11.2672
dých	-11.2673
Stud	-11.2673
motá	-11.2674
▁post	-11.2675
plakal	-11.2675
▁větrn	-11.2675
Škoda	-11.2676
▁mdlá	-11.2676
lije	-11.2677
▁krátko	-11.2677
anebo	-11.2677
▁silnější	-11.2679
▁spatřit	-11.268
třese	-11.2681
Měla	-11.2682
▁ver	-11.2683
▁jediným	-11.2684
▁promluvil	-11.2686
▁trhal	-11.2687
bloudil	-11.2689
▁vozy	-11.269
bílý	-11.2691
▁houp	-11.2692
▁nehty	-11.2694
med	-11.2694
▁rybář	-11.2694
▁stkvěl	-11.2697
čená	-11.2699
▁Renald	-11.2699
▁šňůr	-11.2699
Další	-11.2701
Zní	-11.2704
Nechce	-11.2707
lém	-11.2707
▁zvonil	-11.2709
tvar	-11.2712
▁soli	-11.2713
▁čtu	-11.2714
zbyt	-11.2714
▁naučil	-11.2714
▁holý	-11.2714
▁Sta	-11.2715
▁Zikmund	-11.2716
▁díváš	-11.2717
ptám	-11.2717
▁lhal	-11.2717
▁Běl	-11.2718
▁hrne	-11.2719
▁pohnul	-11.2719
▁bradu	-11.2719
▁věkem	-11.272
▁Zda	-11.2722
▁bičem	-11.2723
žij	-11.2723
Ejhle	-11.2724
zírá	-11.2725
směj	-11.2727
▁žeň	-11.2729
řen	-11.273
tváře	-11.273
tný	-11.2731
▁teplem	-11.2731
chud	-11.2732
▁otisk	-11.2734
ínka	-11.2736
íčko	-11.2738
zlo	-11.2739
blažen	-11.2739
▁snesl	-11.2739
▁zahrada	-11.274
▁smet	-11.2743
▁ču	-11.2744
dejte	-11.2745
▁sex	-11.2745
▁podlé	-11.2746
bychom	-11.2746
Dívka	-11.2747
aha	-11.2748
lilo	-11.2751
miluje	-11.2752
▁dítek	-11.2753
▁řve	-11.2753
▁blaženosti	-11.2755
▁pohledů	-11.2756
▁Amor	-11.2757
Žena	-11.2759
▁platno	-11.276
▁zoufal	-11.2761
pnout	-11.2761
čké	-11.2763
▁mříží	-11.2765
▁souznění	-11.2766
▁přítomnosti	-11.2766
stihl	-11.2767
▁čarovný	-11.277
▁škod	-11.2775
▁mrtva	-11.2775
lant	-11.2776
▁rděl	-11.2777
▁vichrem	-11.2778
jedu	-11.278
▁šperk	-11.278
▁dokáže	-11.2782
stř	-11.2783
lní	-11.2784
▁ca	-11.2784
žívá	-11.2785
▁vrahy	-11.2786
vlasy	-11.2786
vel	-11.2787
▁děkuji	-11.2788
▁drž	-11.2789
▁mudrc	-11.279
každou	-11.2792
jimiž	-11.2792
▁čerstvé	-11.2793
raději	-11.2794
▁še	-11.2796
▁plyn	-11.2797
▁film	-11.2798
▁nálada	-11.2798
▁kapli	-11.2799
▁životů	-11.2799
▁hlavami	-11.2799
▁musíme	-11.2801
Proud	-11.2801
▁nekonečná	-11.2802
Nelze	-11.2802
skvěl	-11.2805
▁děláš	-11.2808
korun	-11.2809
▁skrytě	-11.2809
▁obsah	-11.2811
▁hrály	-11.2811
zře	-11.2812
zrcadl	-11.2812
▁dobra	-11.2813
rik	-11.2813
vržen	-11.2813
▁tvorů	-11.2817
postav	-11.2817
Hvězd	-11.2818
očí	-11.2818
▁rameno	-11.2819
všecky	-11.2819
▁náhlý	-11.282
▁později	-11.282
▁louka	-11.2821
ler	-11.2822
▁snášel	-11.2824
▁chvatem	-11.2827
*)	-11.2827
▁zdola	-11.2827
tváří	-11.2827
▁plápolá	-11.2831
▁trudu	-11.2835
▁ryby	-11.2835
čtu	-11.2836
▁jíst	-11.2837
řep	-11.2839
Věru	-11.284
xi	-11.2842
Bu	-11.2843
▁vějíř	-11.2843
▁drama	-11.2844
▁zlomen	-11.2844
▁dvora	-11.2846
▁hříšné	-11.2847
ris	-11.285
▁žalob	-11.2852
cházíš	-11.2853
▁prosto	-11.2854
▁horou	-11.2854
▁brat	-11.2855
▁pospolu	-11.2855
padnou	-11.2855
chlub	-11.2855
RA	-11.2856
čítám	-11.2856
die	-11.286
▁úsměvů	-11.2861
dum	-11.2861
▁dělník	-11.2861
▁jimiž	-11.2861
▁viděli	-11.2862
▁pořádku	-11.2864
▁hluboka	-11.2865
▁beznaděje	-11.2865
▁příkrov	-11.2865
▁plete	-11.2871
Spí	-11.2871
sp	-11.2872
▁vezmu	-11.2873
sklen	-11.2874
▁stená	-11.2874
▁Pra	-11.2874
▁pití	-11.2875
Taj	-11.2876
▁bohat	-11.2876
Dneska	-11.2878
▁pohybu	-11.288
▁tuše	-11.2881
▁zkrátka	-11.2882
▁Tvoji	-11.2882
▁Smrti	-11.2882
▁stráži	-11.2883
▁Vlast	-11.2883
▁žhavou	-11.2889
ární	-11.2889
▁zrní	-11.289
hodně	-11.2891
kázat	-11.2892
▁darů	-11.2892
hna	-11.2894
▁samet	-11.2895
▁dřímal	-11.2896
chrání	-11.2898
▁lada	-11.2898
Strom	-11.29
▁jděte	-11.2901
▁soudce	-11.2903
▁Ticho	-11.2903
▁dře	-11.2904
▁mladší	-11.2905
zvěst	-11.2908
▁skoku	-11.2908
LE	-11.2908
sladký	-11.2909
▁hluboce	-11.291
▁nepod	-11.291
Nevy	-11.291
smrtelný	-11.2913
▁strastí	-11.2914
volám	-11.2916
▁otevřela	-11.2916
ávají	-11.2916
▁osob	-11.2916
nivý	-11.2917
▁nedám	-11.292
atel	-11.292
hodné	-11.2922
hé	-11.2922
▁vaří	-11.2924
▁nesly	-11.2925
▁silnice	-11.2925
▁smavé	-11.2925
▁pij	-11.2926
rc	-11.2926
▁opuštěné	-11.2927
▁hluchý	-11.2927
luč	-11.2928
▁máť	-11.293
můžu	-11.293
▁zděšen	-11.2931
▁ostře	-11.2932
ovité	-11.2932
▁plouží	-11.2936
kouše	-11.2936
▁pili	-11.2938
kloní	-11.2939
Otec	-11.2939
▁břehům	-11.2941
třpyt	-11.2942
▁tvrdá	-11.2943
obě	-11.2945
žral	-11.2946
▁spad	-11.2946
přichází	-11.2946
Kdys	-11.2946
ínky	-11.2949
▁kněze	-11.2951
▁známá	-11.2951
▁sú	-11.2952
▁útok	-11.2953
▁zrození	-11.2954
těl	-11.2956
dým	-11.2958
▁dím	-11.296
▁severní	-11.296
▁mlhu	-11.296
▁kávu	-11.2961
▁hrdost	-11.2961
budem	-11.2962
▁nevol	-11.2965
▁vzpomínal	-11.2966
▁arci	-11.2966
Mír	-11.2966
bru	-11.2968
▁věrných	-11.2969
pevně	-11.2971
▁účel	-11.2971
neček	-11.2972
▁gest	-11.2972
▁čaje	-11.2973
▁žhavým	-11.2973
▁břit	-11.2974
▁útrob	-11.2974
křičí	-11.2975
▁zničen	-11.2975
blýsk	-11.2975
▁vozu	-11.2976
▁vítězné	-11.2977
▁temnotě	-11.2977
věsil	-11.2977
▁skvělá	-11.2977
▁uzavřen	-11.2978
▁smutným	-11.2979
fon	-11.298
▁oddechu	-11.298
▁vrchu	-11.298
inku	-11.2981
▁Chtěl	-11.2982
Pravda	-11.2985
▁vznášel	-11.2985
žel	-11.2987
▁anjel	-11.2988
▁živým	-11.2989
gar	-11.299
▁zahradách	-11.2991
▁krade	-11.2993
▁blázni	-11.2996
▁společně	-11.2996
opět	-11.2997
▁opustit	-11.2997
ovať	-11.2998
▁táhly	-11.3001
▁hovoru	-11.3001
▁kameni	-11.3002
▁šatě	-11.3002
hem	-11.3008
▁žádost	-11.3008
▁ohňů	-11.3009
Přijď	-11.3009
▁krystal	-11.3009
▁zrcadlí	-11.301
Nežli	-11.301
▁nervy	-11.301
▁rudě	-11.3011
▁kladou	-11.3013
větří	-11.3013
▁hlučný	-11.3013
▁skloněn	-11.3019
▁kvapí	-11.3019
▁piva	-11.302
▁určen	-11.3021
▁spěš	-11.3022
▁hnán	-11.3025
loď	-11.3025
snu	-11.3027
▁fla	-11.3027
▁církev	-11.3033
▁pevná	-11.3033
▁nebeský	-11.3033
ině	-11.3033
přišel	-11.3034
▁třímá	-11.3036
hud	-11.3036
neznám	-11.3038
Pl	-11.3039
chovej	-11.3039
▁hledě	-11.3039
▁ukryl	-11.3039
▁povídal	-11.304
▁zvedal	-11.3043
▁panen	-11.3044
▁něčím	-11.3044
níž	-11.3045
bíhal	-11.3045
▁přešel	-11.3045
▁šedi	-11.3046
▁průvodu	-11.3048
álně	-11.3049
▁Fa	-11.305
▁pustých	-11.305
poznal	-11.3051
▁hlubokém	-11.3056
íd	-11.3057
▁ďábla	-11.3057
▁šťastna	-11.3057
▁nevěst	-11.306
▁umře	-11.306
▁skutku	-11.3062
▁patách	-11.3062
▁slovům	-11.3064
hodím	-11.3066
▁řasách	-11.3066
▁sklesl	-11.3066
dělit	-11.3067
pet	-11.3069
▁kladu	-11.3072
žírá	-11.3072
▁smělá	-11.3074
▁student	-11.3075
▁stráží	-11.3075
nivé	-11.3075
tančil	-11.3075
čký	-11.3077
klíč	-11.3077
▁neumí	-11.308
▁raněn	-11.3081
rit	-11.3081
▁udiven	-11.3081
Opět	-11.3081
▁šumné	-11.3084
▁hovořil	-11.3084
lomil	-11.3087
▁prochází	-11.3087
mas	-11.3087
Vod	-11.3092
▁všedních	-11.3093
lové	-11.3098
▁jiskří	-11.3099
▁dána	-11.31
Tisíce	-11.3103
▁držím	-11.3105
mlouval	-11.3106
▁svor	-11.3109
ýr	-11.3109
▁j	-11.3112
modré	-11.3113
Vlast	-11.3115
▁hrubý	-11.3116
ndu	-11.3116
▁kous	-11.3118
▁vyšli	-11.3118
▁hocha	-11.3118
dél	-11.3119
▁bídně	-11.312
▁věstí	-11.3122
▁padající	-11.3125
zvolna	-11.3125
▁uniká	-11.3125
Mluv	-11.3126
▁snivě	-11.3127
▁cizin	-11.313
▁drozd	-11.3131
▁zelenou	-11.3133
▁skvěle	-11.3137
lítost	-11.314
▁prí	-11.314
▁stěna	-11.3141
kova	-11.3142
▁hojně	-11.3142
▁nával	-11.3142
koupí	-11.3144
▁nebesích	-11.3145
▁nekonečna	-11.3146
und	-11.3148
▁zkameněl	-11.3148
▁výkřiky	-11.315
▁klec	-11.3154
▁vřava	-11.3155
laď	-11.3156
▁čerstvý	-11.3157
stru	-11.3157
▁květina	-11.3158
jař	-11.3158
▁špič	-11.3161
tvým	-11.3161
kni	-11.3162
▁navrátí	-11.3166
▁domek	-11.3166
▁křičel	-11.3167
▁chudá	-11.3168
▁zářný	-11.3169
zle	-11.3172
▁plač	-11.3175
▁zlom	-11.3176
▁píšťal	-11.3176
▁močál	-11.318
bouří	-11.3182
▁říkají	-11.3182
▁polštáře	-11.3183
zích	-11.3184
Bolí	-11.3184
milý	-11.3187
▁obav	-11.3189
žena	-11.3193
▁valný	-11.3195
ejme	-11.3196
▁rybník	-11.3197
▁nosit	-11.3197
něl	-11.32
!““	-11.32
▁nožky	-11.3201
▁neděle	-11.3201
velké	-11.3203
▁hudbě	-11.3204
▁myšlenku	-11.3204
▁dbá	-11.3204
▁nejhorší	-11.3205
▁zbor	-11.3206
▁úběl	-11.3206
▁bojovník	-11.3207
▁říz	-11.3208
▁odpoledne	-11.321
▁velikou	-11.3212
▁hosté	-11.3212
šen	-11.3213
Plamen	-11.3214
▁děsně	-11.3216
▁bíti	-11.3217
▁zítřek	-11.3217
▁hořel	-11.3219
▁jakás	-11.3219
▁vášni	-11.3219
spěl	-11.322
▁peče	-11.322
▁perutě	-11.3221
▁šelma	-11.3222
▁návštěv	-11.3222
▁oslav	-11.3224
▁obrazů	-11.3226
▁há	-11.3227
spěje	-11.3231
▁táže	-11.3231
▁děsná	-11.3233
▁zpit	-11.3233
▁vídal	-11.3234
malá	-11.3234
...?¬	-11.3235
celá	-11.3235
▁meči	-11.3237
▁zápasu	-11.3237
hřeje	-11.3237
vesmír	-11.3238
nosí	-11.3239
▁tlumí	-11.3241
▁skrýval	-11.3241
▁chrámů	-11.3241
▁hrany	-11.3244
bij	-11.3244
▁směsi	-11.3245
▁odmít	-11.3248
▁zvlášť	-11.3248
▁chodník	-11.3249
▁cáry	-11.3249
kář	-11.3251
▁motýli	-11.3251
▁zjevy	-11.3254
zván	-11.3255
▁krátká	-11.3255
páč	-11.3255
▁zničil	-11.3258
▁tolikrát	-11.3261
▁hustý	-11.3262
Jaro	-11.3262
křís	-11.3262
tobě	-11.3263
jediný	-11.3263
boh	-11.3264
▁chuďas	-11.3266
▁robě	-11.3269
kněž	-11.3269
Přichází	-11.327
▁nemoci	-11.327
▁minulých	-11.3271
hledat	-11.3272
▁vévod	-11.3274
tar	-11.3275
lený	-11.3275
▁kolikrát	-11.3276
▁stavět	-11.3277
▁úder	-11.3277
▁schody	-11.3278
▁vlají	-11.3278
▁lákal	-11.3279
▁rukáv	-11.3279
▁sirot	-11.3279
▁kráčet	-11.3279
▁tre	-11.328
▁svobod	-11.3281
▁ptáš	-11.3282
▁hradby	-11.3282
hřál	-11.3283
rovnal	-11.3283
tkaný	-11.3283
doufám	-11.3285
▁studem	-11.3285
▁Nu	-11.3286
▁svoboda	-11.3287
▁spár	-11.3287
tého	-11.3292
pojí	-11.3292
▁královský	-11.3293
stavím	-11.3294
▁Han	-11.3298
modr	-11.3299
vážně	-11.33
▁pěvec	-11.3303
▁kněžna	-11.3303
▁fajn	-11.3304
hlu	-11.3304
▁davů	-11.3304
▁všechněch	-11.3304
Kdos	-11.3305
▁písničku	-11.3306
▁mrtvoly	-11.3306
ňte	-11.3306
▁druhých	-11.3306
Růž	-11.3309
půjdu	-11.3309
▁čistě	-11.3315
▁milých	-11.3316
▁plnil	-11.3316
stev	-11.3317
▁usměje	-11.3317
áda	-11.332
▁rodná	-11.332
▁tmavém	-11.3321
tažen	-11.3322
▁usínám	-11.3324
▁vlaku	-11.3324
▁zavál	-11.3325
sláv	-11.3325
▁prošel	-11.3326
děv	-11.3326
▁Duch	-11.3327
▁sluníčko	-11.3327
bul	-11.333
▁druhem	-11.333
▁steh	-11.3332
▁unavený	-11.3332
zdali	-11.3332
▁jisto	-11.3332
plynul	-11.3333
hly	-11.3333
▁cokoli	-11.3333
Ře	-11.3333
neměl	-11.3336
▁hloubce	-11.3336
brání	-11.3337
▁víček	-11.3337
ovanou	-11.3339
nemůže	-11.334
věk	-11.3342
▁skrytu	-11.3343
▁lících	-11.3344
▁loupež	-11.3348
▁lesních	-11.3349
▁mohly	-11.335
plnou	-11.3353
▁lůžka	-11.3353
▁suše	-11.3354
▁zdravé	-11.3354
▁luzný	-11.3357
▁léčí	-11.3358
▁volná	-11.3358
vosti	-11.3359
▁pych	-11.3359
▁kytku	-11.3361
▁naplní	-11.3362
začíná	-11.3362
▁bla	-11.3363
▁bíle	-11.3364
říš	-11.3365
Mat	-11.3366
▁dovol	-11.3367
▁čekáš	-11.337
▁stráň	-11.337
vič	-11.3372
▁lesknou	-11.3373
▁zahradu	-11.3373
▁daly	-11.3374
Cesta	-11.3375
▁kvetly	-11.3375
Jo	-11.3378
▁všecek	-11.3379
platil	-11.3383
▁srší	-11.3386
▁pohrdání	-11.3386
tele	-11.3387
▁bledých	-11.3388
pli	-11.3389
Pět	-11.3391
▁šumu	-11.3391
▁činům	-11.3391
celou	-11.3392
měnit	-11.3398
▁Da	-11.3398
▁poznám	-11.3398
▁kvap	-11.3401
▁počíná	-11.3403
plno	-11.3403
▁prá	-11.3405
ciz	-11.3407
▁vzruch	-11.3407
??¬	-11.3408
▁pokorně	-11.3409
příliš	-11.341
Žil	-11.341
▁úzkosti	-11.341
▁nádherná	-11.3411
prosí	-11.3411
▁hráze	-11.3413
▁choulí	-11.3413
▁vztekem	-11.3414
nuly	-11.3415
▁cho	-11.3415
▁hroznou	-11.3416
▁sevřel	-11.3419
▁matičko	-11.3421
▁velkého	-11.3421
Rad	-11.3421
ánky	-11.3423
Světlo	-11.3423
▁pěkná	-11.3424
▁skryta	-11.3424
▁masky	-11.3425
▁tíha	-11.3425
▁stráže	-11.3427
viň	-11.3428
▁témě	-11.3431
▁trp	-11.3431
▁skutků	-11.3432
▁hůř	-11.3432
▁časně	-11.3434
Brzy	-11.3434
Samo	-11.3435
▁princezna	-11.3436
běhne	-11.3438
▁moderní	-11.3438
▁zmlkl	-11.3438
Bouř	-11.3439
tráví	-11.3439
▁porad	-11.3443
▁lan	-11.3444
▁záchvěv	-11.3444
▁věje	-11.3444
▁spojení	-11.3445
ací	-11.3447
sadit	-11.3447
▁zlomí	-11.3447
▁kovář	-11.3447
krásný	-11.3448
▁potoka	-11.3448
▁odráží	-11.3449
EN	-11.3449
nický	-11.3451
▁dražší	-11.3452
▁plakala	-11.3453
▁odvet	-11.3454
▁krásném	-11.3455
▁zmlk	-11.3456
any	-11.3456
▁zvykl	-11.3457
▁probuzen	-11.3458
▁kávy	-11.3458
▁běžel	-11.3458
krytá	-11.3459
▁nadšením	-11.3461
▁hladina	-11.3461
▁zářil	-11.3462
livost	-11.3463
▁bídou	-11.3463
▁šatu	-11.3464
bla	-11.3464
Vesel	-11.3464
▁zoufání	-11.3464
piš	-11.3466
Vás	-11.3467
▁reka	-11.3469
Máme	-11.347
▁laně	-11.3471
▁vděčný	-11.3472
▁bystřin	-11.3474
▁opuštěný	-11.3476
Pad	-11.3478
zdy	-11.3478
▁chvála	-11.3479
▁pokušení	-11.3479
▁tůní	-11.3482
▁fen	-11.3482
▁Mistr	-11.3485
▁předtuch	-11.3487
▁pozdvih	-11.3487
▁žádal	-11.3488
▁údů	-11.3494
myká	-11.3494
▁společnost	-11.3494
ton	-11.3497
▁oři	-11.3497
▁zbroji	-11.3497
▁přemýšlím	-11.3498
▁rost	-11.3498
▁navrátil	-11.3501
lomí	-11.3503
!"	-11.3504
kovat	-11.3505
▁ple	-11.3505
▁usne	-11.3505
uf	-11.3507
stala	-11.3509
▁sůl	-11.3509
▁zvedla	-11.3511
▁rostl	-11.3512
▁sladkost	-11.3513
▁červený	-11.3513
▁vlasem	-11.3515
ňat	-11.3516
▁odměnu	-11.3517
▁vzrůst	-11.3518
▁ukazuje	-11.3519
▁dam	-11.3519
mluvit	-11.3519
vábí	-11.3522
▁nemusí	-11.3524
plnil	-11.3525
▁loudí	-11.3526
▁lích	-11.3528
hraj	-11.3529
neboj	-11.3531
▁číší	-11.3531
▁divoká	-11.3532
▁špa	-11.3534
▁hanby	-11.3535
▁černa	-11.3536
▁stopa	-11.3536
▁poháru	-11.3537
dívá	-11.3537
▁trap	-11.3539
▁pravila	-11.354
▁hrám	-11.3543
tkne	-11.3543
▁Per	-11.3545
▁znala	-11.3545
▁horám	-11.3546
žeň	-11.3547
▁prostá	-11.3549
liž	-11.3549
Zvon	-11.3552
▁smáčí	-11.3555
Kdes	-11.3556
▁vláhy	-11.3557
▁rý	-11.356
třít	-11.356
Miluj	-11.3562
▁válka	-11.3562
padalo	-11.3563
Skrz	-11.3563
oru	-11.3564
staven	-11.3565
▁prince	-11.3566
▁sněžné	-11.3566
▁naplněn	-11.3568
▁prostou	-11.3569
▁es	-11.357
▁vládu	-11.357
tkané	-11.357
zývá	-11.3571
šené	-11.3571
▁bolestně	-11.3572
▁potvor	-11.3576
kto	-11.3577
mej	-11.3578
▁nevěstu	-11.3579
měnil	-11.358
▁odletí	-11.358
▁mocnou	-11.3581
▁hávu	-11.3581
▁zbaví	-11.3581
▁onom	-11.3581
▁vločka	-11.3582
těr	-11.3582
Dík	-11.3582
▁ukrutn	-11.3584
▁odvahy	-11.3584
věřil	-11.3584
▁něčem	-11.3585
jemně	-11.3587
kloň	-11.3587
oucí	-11.3588
Slyšel	-11.3589
litá	-11.359
▁povětří	-11.359
▁hlubokých	-11.3591
▁koutů	-11.3597
▁vzpomínkou	-11.3597
▁kopretin	-11.3599
▁zrádný	-11.3599
▁milion	-11.3602
▁vyp	-11.3602
▁pen	-11.3605
▁jiskru	-11.3607
▁vesla	-11.3608
čuje	-11.3609
▁hnout	-11.361
chraň	-11.3614
druhý	-11.3615
▁zaklet	-11.3616
▁dcero	-11.3616
▁nebeských	-11.3616
Šed	-11.3618
něné	-11.3619
hlaď	-11.3619
Matka	-11.3623
▁bit	-11.3624
tloukl	-11.3625
▁nezdá	-11.3626
hry	-11.3629
▁krvavou	-11.363
rp	-11.3631
▁Pak	-11.3632
▁slečno	-11.3632
gn	-11.3633
).¬	-11.3635
ruch	-11.3636
▁celkem	-11.3636
▁údol	-11.3637
Hod	-11.3638
íř	-11.364
lap	-11.3641
▁přešla	-11.3641
▁říms	-11.3641
▁dceři	-11.3643
▁jedle	-11.3645
▁mechem	-11.3648
▁mečů	-11.3655
▁dokázal	-11.3656
prst	-11.3656
▁Své	-11.3657
▁hezká	-11.3658
▁rcete	-11.3658
Čeká	-11.3658
▁sloužil	-11.3662
▁spravedlivý	-11.3663
Kříž	-11.3664
▁přístavu	-11.3664
▁Mně	-11.3665
▁žluč	-11.3667
▁hráti	-11.3668
▁Nebe	-11.3668
rána	-11.3668
nouc	-11.3668
▁ře	-11.3669
▁žab	-11.367
▁píši	-11.3671
▁loni	-11.3672
Mohl	-11.3672
▁vísky	-11.3672
▁dalších	-11.3673
▁slok	-11.3678
nebylo	-11.3679
prahl	-11.368
▁lil	-11.368
jasni	-11.3682
hynul	-11.3682
▁tvarů	-11.3684
Copyright	-11.3684
▁kláves	-11.3684
▁burácí	-11.3684
mlčel	-11.3687
▁čistým	-11.3687
▁žhavě	-11.3689
▁lovec	-11.369
dneska	-11.3691
▁uvidí	-11.3692
▁smilování	-11.3692
ležel	-11.3693
vysoko	-11.3694
▁rozhovor	-11.3694
prostřed	-11.3698
▁štíhlé	-11.3699
Druhý	-11.37
▁společné	-11.37
▁snadné	-11.3701
▁hrdina	-11.3704
boří	-11.3705
▁rostla	-11.3705
▁shod	-11.3705
▁triumf	-11.3707
▁řekneš	-11.3708
paní	-11.3709
▁plíce	-11.371
▁dědů	-11.3711
▁Pla	-11.3711
▁chasa	-11.3711
ryté	-11.3713
▁schvátil	-11.3713
▁poselství	-11.3714
▁zavolá	-11.3714
víte	-11.3714
▁dmou	-11.3715
nskou	-11.3717
▁oliv	-11.3717
▁válce	-11.3717
▁drn	-11.3719
▁sněž	-11.3723
rnou	-11.3725
▁otvor	-11.3726
▁bed	-11.3726
zvoní	-11.3728
ince	-11.373
▁vichru	-11.373
▁nabízí	-11.3732
▁shlíží	-11.3733
Odkud	-11.3736
▁rouše	-11.3738
▁skutek	-11.3738
Sníh	-11.3739
▁šumění	-11.374
▁příhod	-11.3746
otvírá	-11.3747
▁úkrytu	-11.3749
▁obočí	-11.3751
▁hrází	-11.3752
trou	-11.3753
rist	-11.3756
▁růžový	-11.3756
▁vsí	-11.3757
▁vyrval	-11.3758
▁dél	-11.3759
▁mlat	-11.3759
▁rouha	-11.376
Jinak	-11.3764
▁táta	-11.3765
stro	-11.3765
▁zpráva	-11.3766
▁hlasně	-11.3767
▁krajin	-11.3767
▁zlobu	-11.3768
▁barevné	-11.3768
▁bitvy	-11.3769
▁létá	-11.3769
▁mnohých	-11.3769
▁ploch	-11.3769
▁hlaholí	-11.3771
znova	-11.3772
▁barví	-11.3773
▁lís	-11.3774
▁číslo	-11.3779
zen	-11.3779
▁zázrakem	-11.3779
nemohu	-11.3782
Pá	-11.3783
▁dozněl	-11.3784
!)	-11.3784
Kap	-11.3785
▁komín	-11.3785
▁koň	-11.3786
▁volným	-11.3788
▁vzplanul	-11.3789
▁matek	-11.3789
▁myšlení	-11.379
▁zeleni	-11.379
▁mdloby	-11.3791
▁moudré	-11.3791
▁toulá	-11.3793
▁chápe	-11.3793
▁věští	-11.3795
▁večerů	-11.3795
zer	-11.3796
▁navzájem	-11.3798
oma	-11.3799
žili	-11.38
▁drobný	-11.3801
▁lit	-11.3801
beru	-11.3802
▁kams	-11.3803
▁nepřítele	-11.3805
▁zkázy	-11.3805
▁Hospodin	-11.3807
▁muzik	-11.3807
▁hmyz	-11.3813
▁jabloní	-11.3814
▁vzlét	-11.3815
▁luční	-11.3816
Zvuk	-11.3816
▁spravedlnost	-11.3817
▁výt	-11.382
Sedm	-11.382
žívat	-11.3821
▁Pl	-11.3823
Slz	-11.3826
▁odboj	-11.3827
▁druži	-11.3827
▁vrby	-11.3828
Slib	-11.3828
▁Němec	-11.3828
▁spálil	-11.383
kul	-11.3831
létly	-11.3831
▁skryto	-11.3832
hnout	-11.3833
▁zachvěla	-11.3833
▁tekla	-11.3834
nků	-11.3835
Žít	-11.3836
hnán	-11.3836
stůj	-11.3836
▁tajemstvím	-11.3838
▁andělem	-11.3839
knu	-11.3839
▁kolébce	-11.384
▁spoj	-11.3841
aci	-11.3842
▁nachu	-11.3843
naposled	-11.3846
▁vniká	-11.3846
▁živě	-11.3846
▁ide	-11.3847
Musí	-11.3851
▁milován	-11.3853
▁loví	-11.3853
ivost	-11.3854
▁vzdává	-11.3855
▁hvězdných	-11.3855
▁obličeji	-11.3855
nějším	-11.3856
▁přijď	-11.3857
rozkoš	-11.3858
▁hledání	-11.3861
áče	-11.3864
▁zarděl	-11.3865
▁modlitbách	-11.3867
▁nejhlubší	-11.3867
Píseň	-11.3867
▁upřímně	-11.3868
▁kvítko	-11.3868
ovník	-11.3868
▁topol	-11.3869
Věr	-11.387
▁nití	-11.3872
běží	-11.3873
pletu	-11.3874
cka	-11.3877
Děs	-11.388
stávám	-11.3882
▁čísti	-11.3885
▁maličký	-11.3885
▁zvykem	-11.3886
▁tvrdí	-11.3887
NO	-11.389
▁kvet	-11.389
▁vlnami	-11.389
sad	-11.389
▁rozpustil	-11.389
▁přítelem	-11.389
▁vyzná	-11.389
▁zatracen	-11.3891
▁svorně	-11.3892
▁vedli	-11.3892
▁moudře	-11.3892
ujem	-11.3895
▁vesna	-11.3896
▁mrtvého	-11.3897
cesta	-11.3898
▁lesu	-11.3901
kládat	-11.3903
kry	-11.3904
▁svítit	-11.3904
▁panské	-11.3904
▁vzpomenu	-11.3906
▁neřekl	-11.3906
zříš	-11.3907
▁bránil	-11.3908
jmen	-11.3909
▁rovná	-11.3909
▁netušil	-11.3909
ovně	-11.391
kad	-11.391
dan	-11.3911
klání	-11.3912
▁vonící	-11.3915
kva	-11.3917
ávat	-11.3917
▁cítila	-11.3917
▁pustém	-11.3917
▁otroctví	-11.3919
▁faleš	-11.3921
▁zámky	-11.3921
ničí	-11.3923
▁zášti	-11.3927
Ovšem	-11.3927
▁teplou	-11.3927
šlap	-11.393
robil	-11.393
▁hada	-11.3931
konec	-11.3932
▁zisk	-11.3932
Svatý	-11.3933
▁fantazie	-11.3934
▁vykoupení	-11.3934
▁opřen	-11.3935
▁go	-11.3936
hřívá	-11.3937
tivní	-11.3937
lituj	-11.3938
▁harfy	-11.3938
▁nastane	-11.3939
vrah	-11.3942
▁objev	-11.3942
krývají	-11.3943
Tedy	-11.3943
▁šťastným	-11.3946
▁hádá	-11.3949
ústa	-11.3949
▁samotář	-11.395
lehce	-11.3951
▁Vím	-11.3951
držet	-11.3952
▁tmám	-11.3952
tekla	-11.3952
▁chor	-11.3952
▁slin	-11.3952
▁jemná	-11.3956
plál	-11.3958
▁horká	-11.396
▁hlás	-11.396
▁for	-11.3961
▁plodů	-11.3962
Pozor	-11.3962
duš	-11.3963
▁park	-11.3963
▁kostelní	-11.3964
▁věr	-11.3964
▁Každý	-11.3965
▁slyšte	-11.3969
▁zvonu	-11.397
▁Duše	-11.3972
▁mnohdy	-11.3972
▁dalším	-11.3973
▁nízko	-11.3974
▁lidech	-11.3974
▁krátkou	-11.3975
▁touto	-11.3975
křídla	-11.3975
▁tlukou	-11.3976
▁nevinná	-11.3977
▁vzpomene	-11.3979
▁nebudou	-11.398
▁psy	-11.3983
▁drze	-11.3984
sladké	-11.3988
Každé	-11.3988
▁svadlé	-11.3988
▁zdejší	-11.3988
ťák	-11.3988
pocit	-11.3989
▁umím	-11.3989
▁vztekle	-11.3989
▁vězně	-11.3989
▁sále	-11.399
padnu	-11.3991
▁tajná	-11.3994
šeptá	-11.3996
▁sráží	-11.3997
▁voněl	-11.3998
▁výsluní	-11.3999
▁vetchý	-11.4
▁bolestné	-11.4
Pták	-11.4
▁stříbrných	-11.4
▁rytíři	-11.4
▁naříká	-11.4002
▁temnotách	-11.4003
bub	-11.4003
▁statku	-11.4003
Vstaň	-11.4003
!““¬	-11.4004
▁lidského	-11.4004
mlád	-11.4005
▁skonání	-11.4005
▁živo	-11.4006
▁hedvábí	-11.4008
▁zachoval	-11.401
▁cval	-11.401
▁dumách	-11.401
▁tupý	-11.4012
Bá	-11.4013
bl	-11.4014
čekal	-11.4015
tle	-11.4017
dán	-11.4017
▁ústům	-11.402
plaší	-11.402
hostí	-11.4021
▁padesát	-11.4022
▁vzdušné	-11.4023
▁dědictví	-11.4024
znají	-11.4024
▁melodii	-11.4026
▁vlh	-11.4028
▁dárek	-11.403
▁skryje	-11.403
▁podnik	-11.403
▁vzdechem	-11.4031
▁házel	-11.4033
▁zavolal	-11.4034
▁orlí	-11.4035
▁kolébá	-11.4036
pěje	-11.4037
▁reji	-11.4038
baví	-11.4038
▁květné	-11.4038
▁projít	-11.4039
vzpomínka	-11.404
mrak	-11.404
škleb	-11.4042
kre	-11.4042
▁jazykem	-11.4043
střed	-11.4044
▁svojím	-11.4045
▁hráč	-11.4049
zub	-11.405
▁venkov	-11.4053
20	-11.4053
▁vidění	-11.4054
▁puch	-11.4055
áno	-11.4058
▁chýž	-11.4058
tkví	-11.4058
▁rozhodnutí	-11.4059
Milý	-11.4061
rný	-11.4064
dku	-11.4065
▁stydí	-11.4067
...¬/	-11.4069
padat	-11.407
Venku	-11.4072
kú	-11.4072
▁vánkem	-11.4075
▁sukni	-11.4075
▁vesnice	-11.4076
činy	-11.4078
▁praž	-11.4078
▁volno	-11.4079
▁dítětem	-11.408
vadly	-11.4081
▁veď	-11.4081
vými	-11.4081
Právě	-11.4082
▁volí	-11.4084
▁žezlo	-11.4084
▁výbor	-11.4085
▁zkusí	-11.4086
▁davem	-11.4086
▁hráli	-11.4088
Dny	-11.409
nohy	-11.409
▁složí	-11.4094
žádná	-11.4094
▁skrýt	-11.4097
▁téhle	-11.41
▁Pal	-11.4103
▁mrk	-11.4103
těží	-11.4104
▁plodí	-11.4105
enců	-11.4106
▁nebojí	-11.4106
▁pojal	-11.4107
▁jizbu	-11.4107
▁nezřel	-11.4112
▁hloubku	-11.4112
bíhají	-11.4113
▁churav	-11.4113
▁bělostné	-11.4115
▁spouští	-11.4117
▁naslouchá	-11.4117
▁můžem	-11.4118
▁maličko	-11.4119
plý	-11.412
Blažen	-11.412
▁granát	-11.4122
00	-11.4122
▁řval	-11.4122
tila	-11.4126
oj	-11.4128
Jim	-11.4128
▁pouto	-11.4128
nář	-11.4128
▁aniž	-11.413
pni	-11.4131
▁zrn	-11.4132
▁obličeje	-11.4134
▁náladu	-11.4135
▁auto	-11.4135
dík	-11.4136
▁sklon	-11.4137
▁dýku	-11.4139
nebudu	-11.414
▁zeleném	-11.414
pojil	-11.4142
..........	-11.4144
▁chvatu	-11.4146
▁pospíchá	-11.4146
▁chytit	-11.4146
naj	-11.4147
▁sníti	-11.4148
▁předem	-11.4148
▁jezero	-11.415
▁třísk	-11.415
▁pramene	-11.415
Pu	-11.415
▁kyt	-11.4153
▁kouři	-11.4154
vati	-11.4156
ckou	-11.4156
Meč	-11.4157
▁drsné	-11.4157
leze	-11.4158
řeší	-11.4159
▁divým	-11.4159
▁Juan	-11.4159
zved	-11.4159
▁chválu	-11.4161
tvořil	-11.4162
▁pokaždé	-11.4163
▁kůl	-11.4166
▁mince	-11.4169
nelze	-11.4169
▁únavy	-11.4172
▁Pr	-11.4172
▁statek	-11.4172
▁dědiny	-11.4172
Tomu	-11.4173
▁padly	-11.4173
▁hlady	-11.4173
▁spolku	-11.4174
veden	-11.4175
▁hrobech	-11.4176
skoč	-11.4176
▁zaplál	-11.4176
▁svědčí	-11.4176
▁kra	-11.4177
▁poutech	-11.4177
▁oceánu	-11.4177
▁hejna	-11.4177
▁strnul	-11.4178
▁nejmilejší	-11.4179
▁letos	-11.4179
▁vozů	-11.4179
jasně	-11.418
▁povídat	-11.418
▁anebo	-11.4181
▁štítem	-11.4181
▁třásl	-11.4183
▁stih	-11.4183
▁přinese	-11.4184
věst	-11.4186
▁zábav	-11.4187
stával	-11.4188
▁Velký	-11.4188
▁kapradí	-11.4188
▁odpovědí	-11.4189
▁nesmírný	-11.4189
lád	-11.419
▁neumírá	-11.419
▁rodin	-11.4191
▁listu	-11.4192
▁kamenem	-11.4195
▁Sláv	-11.4195
voň	-11.4195
▁you	-11.4196
▁útrap	-11.4196
líbat	-11.4199
▁šírý	-11.4199
dvé	-11.4199
▁těšit	-11.4201
▁polštáři	-11.4201
▁zvědav	-11.4203
šuměl	-11.4204
átky	-11.4204
▁dítěti	-11.4204
▁domku	-11.4206
▁žalost	-11.4207
▁harf	-11.4208
▁klamu	-11.4208
▁poprav	-11.4209
lehnout	-11.421
šeptám	-11.4212
zůstane	-11.4213
▁schovat	-11.4215
▁otázek	-11.4215
▁péči	-11.4215
psán	-11.4218
▁létat	-11.4218
▁úmysl	-11.4219
▁hlučně	-11.4219
▁líný	-11.422
▁Krist	-11.4222
bur	-11.4222
▁mřít	-11.4222
Zřel	-11.4223
▁kmene	-11.4224
hotov	-11.4224
▁víže	-11.4226
of	-11.4227
▁nevěřil	-11.4232
▁věrným	-11.4233
▁kocour	-11.4234
chut	-11.4236
Jiný	-11.4237
▁zůstalo	-11.4237
▁obnov	-11.4237
hrnu	-11.4237
▁velkost	-11.4237
ff	-11.4238
▁jabloň	-11.4239
znej	-11.424
▁divo	-11.4242
chovat	-11.4242
▁udeřil	-11.4243
cti	-11.4243
▁kletbu	-11.4244
▁písmo	-11.4245
▁řine	-11.4245
▁proseb	-11.4246
▁vzkřikl	-11.4249
Leží	-11.4249
tlačí	-11.425
▁díra	-11.4251
dání	-11.4251
bouře	-11.4252
▁chlast	-11.4252
pátra	-11.4255
zení	-11.4257
▁obrys	-11.4257
▁usmála	-11.4258
▁zabíjí	-11.4258
▁drápy	-11.4259
tajemství	-11.4259
lákal	-11.426
▁nechala	-11.4261
▁Řek	-11.4263
chuť	-11.4263
▁šťastných	-11.4264
mohla	-11.4265
bách	-11.4265
▁znali	-11.4266
▁košil	-11.4266
bát	-11.4267
luk	-11.427
▁splní	-11.427
▁iluze	-11.427
smr	-11.427
▁člověče	-11.4271
▁neznáš	-11.4271
gl	-11.4271
▁písk	-11.4271
▁doteků	-11.4272
počet	-11.4273
milá	-11.4274
▁kvetla	-11.4275
▁prchla	-11.4276
▁Mor	-11.4276
▁rán	-11.4277
▁vlci	-11.4277
▁jase	-11.4278
▁filosof	-11.428
▁han	-11.428
Šli	-11.428
říz	-11.4281
▁míč	-11.4281
věčný	-11.4282
▁nekonečnou	-11.4283
íčky	-11.4284
▁potem	-11.4284
ryt	-11.4285
Chybí	-11.4286
▁divů	-11.4287
▁souhvězdí	-11.4287
▁skalisk	-11.4288
pějí	-11.4288
▁královské	-11.4288
krov	-11.4289
Málo	-11.429
ajú	-11.4291
▁skončit	-11.4291
četl	-11.4292
▁nud	-11.4293
letá	-11.4294
bité	-11.4295
něný	-11.4298
▁houštin	-11.4301
▁bro	-11.4302
▁zeje	-11.4302
dlel	-11.4303
▁zbavil	-11.4304
▁chudou	-11.4305
▁žaláře	-11.4305
▁rohem	-11.4306
▁tiši	-11.4307
Sedím	-11.4308
čist	-11.4308
▁vlastního	-11.4308
Zmizel	-11.4309
▁chaos	-11.4309
▁vlastí	-11.4312
▁zázraků	-11.4312
pálen	-11.4313
lézá	-11.4314
▁páž	-11.4314
▁vejde	-11.4315
▁jedou	-11.4318
keř	-11.432
▁samém	-11.4321
▁chránit	-11.4322
fo	-11.4322
kalí	-11.4324
▁brou	-11.4324
▁chvály	-11.4325
krajin	-11.4326
▁pestrých	-11.4326
▁jaré	-11.4328
▁rukách	-11.433
▁nehne	-11.4331
▁nevidět	-11.4333
rodit	-11.4333
▁Jsme	-11.4334
▁dotkne	-11.4334
▁leze	-11.4336
▁kouzelný	-11.4339
vlečen	-11.434
▁otočí	-11.4341
▁náhod	-11.4344
▁skončen	-11.4345
blíží	-11.4346
▁neslyšíš	-11.4348
▁jevil	-11.4348
pletl	-11.4348
▁chodníku	-11.435
▁lidském	-11.435
prší	-11.435
▁vrátíš	-11.4351
▁viď	-11.4353
▁rozloučení	-11.4356
▁hoví	-11.4357
Hrob	-11.4357
▁slyšela	-11.4358
▁popela	-11.4358
▁chudých	-11.4358
prázdno	-11.4358
▁apoštol	-11.4359
▁horkou	-11.4359
▁spas	-11.436
▁rovnou	-11.4362
▁dívala	-11.4363
rop	-11.4364
▁vryt	-11.4364
▁cizo	-11.4365
pravo	-11.4366
pání	-11.4366
▁vzrušení	-11.4366
dítě	-11.4366
▁vzplála	-11.4367
hm	-11.4368
▁hledíš	-11.4368
▁pila	-11.437
▁brali	-11.4372
▁bála	-11.4373
▁dveřím	-11.4373
bli	-11.4374
▁obrat	-11.4374
▁touže	-11.4375
pozdrav	-11.4375
Pís	-11.4379
Znovu	-11.438
▁čáp	-11.4381
▁věnci	-11.4381
▁krav	-11.4381
▁počasí	-11.4381
škou	-11.4383
cá	-11.4384
▁plesem	-11.4385
▁prožít	-11.4385
▁listem	-11.4386
▁pálil	-11.4386
burác	-11.4388
▁komnat	-11.4389
▁hravé	-11.439
▁hodinách	-11.4392
vinou	-11.4393
▁plátno	-11.4394
▁hlup	-11.4394
▁sváteční	-11.4395
▁zachvěje	-11.4395
Tvým	-11.4395
třes	-11.4397
▁milenka	-11.4398
▁opustí	-11.4398
▁nešťastný	-11.4401
dný	-11.4401
ticky	-11.4402
líbil	-11.4402
▁bl	-11.4403
▁udělá	-11.4403
▁nově	-11.4405
ejší	-11.4407
▁hlínu	-11.4408
▁vyrostl	-11.4409
▁spáse	-11.4409
▁necítím	-11.441
nutý	-11.441
▁povždy	-11.4411
▁čítá	-11.4411
▁rozechvěn	-11.4411
Zima	-11.4412
kvi	-11.4413
třás	-11.4413
avém	-11.4413
▁matný	-11.4414
▁vznese	-11.4414
▁slepá	-11.4415
▁bědné	-11.442
▁tajemně	-11.442
dlá	-11.4422
ovce	-11.4423
enec	-11.4423
ndy	-11.4423
Koho	-11.4424
▁maskou	-11.4424
▁tisknu	-11.4425
zla	-11.4425
▁Hel	-11.4426
rostou	-11.4427
▁divných	-11.4428
míří	-11.4428
hleděl	-11.4429
▁rodinu	-11.4429
▁viděti	-11.4432
staneš	-11.4433
▁Vít	-11.4433
▁pěvců	-11.4436
Jediný	-11.4437
Obr	-11.4437
síla	-11.4438
▁žes	-11.4439
▁zníti	-11.444
▁usnout	-11.4441
▁proklet	-11.4441
▁dohromady	-11.4443
▁pohoří	-11.4446
▁kleká	-11.4447
▁dcer	-11.4448
Sní	-11.445
▁umlk	-11.4451
▁kri	-11.4452
eným	-11.4452
směl	-11.4455
dych	-11.4455
▁Ano	-11.4456
Nebyl	-11.4456
bič	-11.4457
▁zastav	-11.4457
▁zbavit	-11.4457
▁tajnou	-11.4458
▁vzpomínku	-11.446
▁matné	-11.446
učil	-11.446
▁laská	-11.446
▁metr	-11.446
leté	-11.4461
fl	-11.4462
▁propasť	-11.4464
▁zašlo	-11.4465
▁upřímnost	-11.4465
jiný	-11.4466
▁bolestech	-11.4468
▁dráha	-11.4468
▁oškliv	-11.4468
letím	-11.4468
zkad	-11.4469
▁udělám	-11.4469
Soud	-11.4469
▁žijem	-11.4469
bitý	-11.447
▁navrací	-11.447
kvetou	-11.4471
▁Faust	-11.4474
rii	-11.4475
▁mrzut	-11.4476
▁svící	-11.4478
bos	-11.4478
pouštěl	-11.4479
▁kráska	-11.4481
pial	-11.4483
rají	-11.4484
polibky	-11.4484
▁spálí	-11.4484
▁šumot	-11.4485
▁zemře	-11.4487
žití	-11.4487
▁Sám	-11.4487
Hrom	-11.4487
▁tíži	-11.449
▁nemluví	-11.4491
▁břiše	-11.4492
▁stezky	-11.4492
padlé	-11.4492
▁zdvíhá	-11.4492
▁studánky	-11.4492
vina	-11.4494
zval	-11.4494
▁můry	-11.4494
▁pátek	-11.4494
▁milovali	-11.4495
▁pusu	-11.4495
▁nesli	-11.4496
▁teskní	-11.4498
▁vladař	-11.4499
▁duhou	-11.4499
skému	-11.45
▁stálém	-11.45
starost	-11.45
hrají	-11.4501
red	-11.4504
▁Toť	-11.4504
hluboko	-11.4506
Tento	-11.4508
milé	-11.4509
▁bohaté	-11.451
▁škole	-11.451
▁hladké	-11.4511
▁veškeré	-11.4512
padaly	-11.4513
▁has	-11.4514
▁vrátila	-11.4514
▁Marie	-11.4517
graf	-11.4518
tíž	-11.4519
▁tupě	-11.452
▁trýzní	-11.452
▁šarlat	-11.452
▁drzý	-11.4522
▁rakví	-11.4522
svoje	-11.4522
end	-11.4523
▁výská	-11.4523
blí	-11.4524
▁smutků	-11.4524
Rozkoš	-11.4524
jarní	-11.4527
kan	-11.4528
Praví	-11.4528
▁Maďar	-11.4529
Be	-11.453
▁uvidím	-11.453
bila	-11.453
▁závěje	-11.4531
krytý	-11.4531
Pust	-11.4532
visí	-11.4533
tuch	-11.4534
dnou	-11.4538
▁láhev	-11.4538
▁vstoupí	-11.4538
▁pleti	-11.4539
▁bujně	-11.4539
hoch	-11.454
pohledem	-11.4541
tiskne	-11.4543
šumí	-11.4544
▁smavý	-11.4545
rož	-11.4546
▁pohřbil	-11.4547
▁klepe	-11.4548
Nade	-11.4549
▁divadle	-11.4549
platí	-11.4549
Dobré	-11.4549
▁radš	-11.455
věří	-11.4552
▁přáno	-11.4552
bů	-11.4553
hlás	-11.4553
▁rozumí	-11.4554
lost	-11.4554
▁anděly	-11.4558
Mlčí	-11.4559
▁hájů	-11.4562
▁koupá	-11.4563
líš	-11.4563
▁vzdychl	-11.4564
▁nenasyt	-11.4564
▁omámen	-11.4565
▁tramvaj	-11.4566
▁družky	-11.4566
▁vteřinu	-11.4567
▁chrt	-11.4567
áním	-11.4569
hruď	-11.457
Rty	-11.4572
▁novo	-11.4574
loudil	-11.4575
▁učení	-11.4576
▁propadl	-11.4576
▁mléko	-11.4576
Příroda	-11.4577
▁nejmenší	-11.4577
▁Pánbůh	-11.4578
▁Nevím	-11.4579
▁rév	-11.458
▁múz	-11.458
▁přísné	-11.4581
prchá	-11.4581
▁silnou	-11.4582
▁pláču	-11.4584
haj	-11.4585
▁korunou	-11.4586
▁spasení	-11.4588
vila	-11.4588
▁šeptám	-11.4591
▁spanilé	-11.4591
řík	-11.4595
rány	-11.4595
▁bratrů	-11.4596
stroj	-11.4596
▁obří	-11.4597
▁nevinnost	-11.4597
alespoň	-11.4598
taky	-11.4598
▁stálé	-11.46
jedná	-11.46
▁křehká	-11.46
▁děvčátko	-11.4603
▁zápětí	-11.4605
▁pohádek	-11.4605
▁stránky	-11.4605
Stůj	-11.4605
▁tiskl	-11.4607
▁pitom	-11.4607
cku	-11.4607
▁čáry	-11.4608
▁voze	-11.4611
▁hebký	-11.4612
▁tajemných	-11.4612
▁švih	-11.4613
▁části	-11.4613
Mrtv	-11.4613
▁zakryl	-11.4614
hlt	-11.4615
dělám	-11.4617
▁nerozumí	-11.4617
▁osení	-11.4619
▁rozplynul	-11.462
Bratr	-11.462
▁nepoví	-11.462
▁vzdálený	-11.4623
▁plamenné	-11.4625
▁ted	-11.4626
▁lom	-11.4627
▁vrchy	-11.4629
▁ztrát	-11.4631
▁příšerný	-11.4632
▁mohyl	-11.4635
sedá	-11.4635
▁svaz	-11.4635
▁shonu	-11.4637
dvoj	-11.4638
idel	-11.4639
▁střev	-11.4642
▁zářné	-11.4643
▁bre	-11.4643
▁přestat	-11.4643
Mysl	-11.4644
▁ruče	-11.4646
▁dbal	-11.4646
Mr	-11.4646
rman	-11.4646
▁projev	-11.4647
tce	-11.4649
min	-11.4649
záchran	-11.465
vítal	-11.4653
spá	-11.4653
▁chtění	-11.4655
▁ozvěny	-11.4657
zpíva	-11.4657
Zář	-11.4657
knout	-11.4658
kur	-11.4658
ecké	-11.4659
boha	-11.466
▁brod	-11.466
▁veleb	-11.466
“,	-11.4661
▁tklivý	-11.4662
▁chvět	-11.4662
▁ledem	-11.4662
Ru	-11.4664
▁probudit	-11.4665
▁tkal	-11.4665
▁psů	-11.4667
▁lehká	-11.4667
▁spálen	-11.4668
▁mocných	-11.4668
měním	-11.4669
▁oběma	-11.4669
▁...¬...	-11.467
▁ubohá	-11.467
▁světí	-11.4672
▁rot	-11.4672
▁páru	-11.4676
svého	-11.4678
▁diamant	-11.4678
▁lebku	-11.4679
pé	-11.468
▁Val	-11.468
▁šustí	-11.468
slouchají	-11.4681
▁rovno	-11.4682
▁poslouchá	-11.4684
▁luhů	-11.4686
▁požehnán	-11.4686
▁kouzlí	-11.4689
dé	-11.4689
▁žit	-11.4689
▁zápase	-11.4691
▁otáčí	-11.4691
▁spon	-11.4691
▁plachá	-11.4692
▁zlí	-11.4694
▁netvor	-11.4695
▁nalezne	-11.4695
stírá	-11.4695
oři	-11.4695
vaj	-11.4695
trap	-11.4696
▁autor	-11.4696
▁choti	-11.4696
ovej	-11.4697
▁zájem	-11.4698
▁čistých	-11.47
▁čistí	-11.4705
něn	-11.4709
▁zdroji	-11.4709
hala	-11.4709
▁levé	-11.4712
▁svíral	-11.4712
host	-11.4712
kams	-11.4713
itou	-11.4713
▁neptá	-11.4715
▁prameny	-11.4716
Padá	-11.4716
▁ctností	-11.4717
▁neznámá	-11.4719
Zdráv	-11.4719
▁kok	-11.4719
▁posledního	-11.472
▁zářivý	-11.4721
▁stožár	-11.4721
▁objímal	-11.4722
▁vonná	-11.4722
▁poledni	-11.4722
▁Par	-11.4722
▁vrány	-11.4724
plouvá	-11.4726
▁nikým	-11.4726
dly	-11.4727
▁prstech	-11.4728
Fi	-11.473
ušku	-11.473
▁přestane	-11.4731
kvétá	-11.4731
pozdě	-11.4731
nemůžu	-11.4731
dívat	-11.4731
▁získá	-11.4733
▁změnu	-11.4733
hřích	-11.4734
▁zrcadlem	-11.4734
▁sluji	-11.4735
hází	-11.4735
▁sjel	-11.4736
▁pred	-11.4737
▁pomoz	-11.4737
Mal	-11.4738
▁zabít	-11.474
klep	-11.4742
Druh	-11.4746
▁líčko	-11.4747
▁bratrem	-11.4748
▁zvláště	-11.4748
▁počest	-11.475
▁šťastnou	-11.4751
jednu	-11.4751
ST	-11.4751
fouk	-11.4751
▁národní	-11.4752
takže	-11.4752
bre	-11.4753
▁táhlý	-11.4753
▁sladší	-11.4754
▁koncert	-11.4754
▁vítězně	-11.4758
▁jízd	-11.4759
lci	-11.4761
▁posil	-11.4761
▁talíř	-11.4761
blud	-11.4762
▁záclon	-11.4763
▁nenadále	-11.4763
▁Svatý	-11.4764
moci	-11.4764
▁líb	-11.4765
▁nemáme	-11.4766
▁vstaň	-11.4766
▁ci	-11.4768
▁hude	-11.4768
křikl	-11.477
pravd	-11.477
▁němém	-11.4772
▁výsk	-11.4773
▁během	-11.4774
dělil	-11.4774
kaly	-11.4775
gy	-11.4775
▁chlebem	-11.4775
Pokoj	-11.4776
▁dívčích	-11.4776
▁vzkříšení	-11.4776
▁kletbou	-11.4777
▁sličné	-11.4778
▁povinnost	-11.4779
▁stráních	-11.478
▁hromad	-11.4781
▁žalosti	-11.4787
▁atom	-11.4789
▁jakým	-11.479
▁zhrd	-11.4792
tkou	-11.4794
Vstal	-11.4796
▁jíní	-11.4796
▁hrách	-11.4798
▁skládám	-11.48
zářil	-11.48
▁zjevení	-11.48
▁psala	-11.48
hlavně	-11.4802
▁vláda	-11.4802
ill	-11.4802
▁vonných	-11.4803
▁šust	-11.4803
▁netopýr	-11.4805
▁klátí	-11.4807
ších	-11.4807
chytí	-11.4808
Zjev	-11.4809
myšlenka	-11.4809
▁noty	-11.4812
čila	-11.4814
patř	-11.4814
▁tlup	-11.4817
▁pohřeb	-11.4818
▁mořských	-11.4818
▁zívá	-11.4819
▁hviezd	-11.482
▁usedl	-11.482
blik	-11.4822
zbroj	-11.4822
▁hne	-11.4825
▁shání	-11.4825
▁dýchám	-11.4826
Straš	-11.4827
▁Josef	-11.4827
zapomněl	-11.4829
▁srdeč	-11.4829
tichý	-11.483
▁olej	-11.4834
▁tklivé	-11.4834
▁pochodní	-11.4834
▁sídlo	-11.4835
▁útlé	-11.4835
▁těžší	-11.4835
▁dóm	-11.4835
▁křehký	-11.4836
▁bytostí	-11.4836
▁modru	-11.4838
▁bystrý	-11.4838
▁příštím	-11.4838
tuž	-11.4841
Krásný	-11.4842
dka	-11.4844
žiju	-11.4844
▁zhasíná	-11.4845
▁tajných	-11.4846
▁teplá	-11.4848
pínal	-11.4849
▁přijel	-11.4851
▁hoden	-11.4852
▁Maria	-11.4852
íky	-11.4853
▁part	-11.4854
tápí	-11.4855
▁cikán	-11.4855
▁jezdí	-11.4856
▁pohleď	-11.4857
zká	-11.4857
klu	-11.4857
▁těším	-11.4858
Vln	-11.4858
▁řez	-11.4858
▁zkus	-11.4858
rn	-11.4859
inko	-11.486
▁mladém	-11.486
▁růžových	-11.4861
Nebudu	-11.4861
▁umíš	-11.4861
čina	-11.4862
tmí	-11.4862
boře	-11.4862
▁paprskem	-11.4863
▁zamyšlení	-11.4864
Svato	-11.4865
pověděl	-11.4869
Ven	-11.4869
▁velebný	-11.4871
▁vykřik	-11.4873
▁tuhé	-11.4874
▁horizont	-11.4874
ion	-11.4875
▁vydech	-11.4876
radit	-11.4876
nebyl	-11.4876
Tisíc	-11.4879
hřej	-11.488
▁vřelá	-11.488
▁obyčej	-11.4881
▁krutost	-11.4884
▁hroty	-11.4884
▁Jene	-11.4885
▁náraz	-11.4885
zvedá	-11.4886
▁akt	-11.4887
▁příliv	-11.4887
mnohý	-11.4887
▁počít	-11.4888
▁sté	-11.4888
Svit	-11.4889
▁známo	-11.4891
▁modlitbu	-11.4891
▁otevřen	-11.4891
ujíce	-11.4891
▁poklon	-11.4892
Tvých	-11.4892
íků	-11.4893
▁vyslovit	-11.4893
▁ocas	-11.4894
▁strou	-11.4894
Nové	-11.4894
▁platit	-11.4894
▁Vol	-11.4894
▁poutí	-11.4895
Ruka	-11.4895
ivo	-11.4896
▁můra	-11.4896
▁získal	-11.4896
jížděl	-11.4897
Všecky	-11.4899
▁hvězdičky	-11.4904
mos	-11.4906
Budou	-11.4906
▁maz	-11.4906
▁širou	-11.4909
▁vášnivě	-11.491
▁třpytu	-11.4913
▁dolin	-11.4914
▁blednou	-11.4914
▁podíl	-11.4916
svatý	-11.4917
Och	-11.4918
▁krásného	-11.4921
▁klenbou	-11.4922
čák	-11.4922
třetí	-11.4922
▁šelmy	-11.4923
▁druzi	-11.4925
▁hvizd	-11.4926
▁činil	-11.4926
▁výklad	-11.4927
stan	-11.493
bin	-11.4934
▁pohladil	-11.4935
▁pannu	-11.4935
cestu	-11.4936
létlo	-11.4938
▁zvířat	-11.4939
hubil	-11.494
Blíž	-11.494
▁pláště	-11.494
▁har	-11.4941
bouřil	-11.4943
▁souzen	-11.4943
▁poslouchám	-11.4943
▁liter	-11.4944
šlá	-11.4945
▁vrt	-11.4946
▁klet	-11.4947
kročil	-11.4948
▁volají	-11.4948
▁zkvétá	-11.4948
kající	-11.4949
▁úzké	-11.4951
▁pravici	-11.4953
▁napětí	-11.4953
kových	-11.4954
▁níže	-11.4955
vzpomínám	-11.4955
▁toužení	-11.4958
▁nepatří	-11.4958
škoda	-11.4958
▁představy	-11.496
▁neznají	-11.496
▁pěli	-11.496
měr	-11.4961
buší	-11.4962
Čert	-11.4964
doma	-11.4964
▁budov	-11.4965
▁šedivý	-11.4965
pliv	-11.4966
▁vésti	-11.4966
▁jasmín	-11.4967
mladý	-11.4969
▁střechou	-11.4971
▁oběd	-11.4971
▁rozbit	-11.4973
▁hněte	-11.4974
▁ústrety	-11.4974
pek	-11.4979
▁ptactvo	-11.498
▁Francie	-11.4981
▁válku	-11.4981
sal	-11.4982
vanul	-11.4982
▁usmívání	-11.4983
▁lkát	-11.4983
pamatuj	-11.4984
▁někomu	-11.4984
▁dění	-11.4984
ičká	-11.4984
minul	-11.4985
tichá	-11.4985
▁spjal	-11.4987
▁balvany	-11.4988
niž	-11.4989
▁uslyšel	-11.499
▁kultur	-11.499
▁bytě	-11.499
dý	-11.4991
▁poznala	-11.4992
▁obrovské	-11.4992
▁srdeční	-11.4993
trhla	-11.4994
jmout	-11.4994
chmur	-11.4997
▁správný	-11.4998
▁zahradou	-11.5
maj	-11.5001
▁vie	-11.5003
▁nudy	-11.5003
ženy	-11.5004
tud	-11.5005
druhé	-11.5006
věřit	-11.5008
▁rameni	-11.5008
nových	-11.5009
Lásky	-11.5009
bír	-11.501
▁sázku	-11.501
▁azuru	-11.5011
▁nalezl	-11.5011
▁obavy	-11.5012
▁dolu	-11.5012
▁gen	-11.5014
▁otcův	-11.5014
▁bojoval	-11.5014
▁správně	-11.5014
▁horských	-11.5015
čelo	-11.5015
▁ctěn	-11.5016
chlap	-11.5017
chýlil	-11.5019
neví	-11.5019
▁hřbitovní	-11.502
▁komet	-11.5021
▁piv	-11.5024
▁pochop	-11.5026
lehne	-11.5026
hyne	-11.5027
jar	-11.503
▁civí	-11.5031
▁jícen	-11.5033
▁pospas	-11.5034
▁vědy	-11.5036
nejsou	-11.5038
hli	-11.5039
▁sídlí	-11.504
▁službě	-11.504
▁povy	-11.5041
▁laskavý	-11.5044
▁začala	-11.5044
▁okouzlen	-11.5045
▁kosa	-11.5045
počítá	-11.5045
▁hrouží	-11.5046
▁dneška	-11.5047
plaš	-11.5048
▁svaly	-11.5048
▁vdova	-11.5049
▁stání	-11.5049
byste	-11.5049
▁ideal	-11.505
▁lví	-11.5052
▁bratru	-11.5052
Vůně	-11.5053
dni	-11.5053
▁hloupost	-11.5054
▁bij	-11.5055
▁zrno	-11.5058
▁čep	-11.5058
volit	-11.506
▁uplynul	-11.5062
▁žebra	-11.5062
lah	-11.5063
▁rozumět	-11.5064
▁brodí	-11.5065
▁zažeh	-11.5067
Voda	-11.5067
▁známých	-11.5068
▁mukách	-11.5068
▁odpočinku	-11.5069
▁hrozny	-11.5069
Zůstal	-11.5071
Moře	-11.5072
▁slavil	-11.5078
chal	-11.5078
▁opatrně	-11.5078
Můžeš	-11.5078
▁trůní	-11.5079
prosil	-11.5081
▁tesknou	-11.5081
jších	-11.5084
chyl	-11.5084
vlek	-11.5085
▁pověděl	-11.5087
▁voz	-11.5088
pálené	-11.5091
▁klonil	-11.5091
▁chladných	-11.5092
▁tisknou	-11.5093
▁pudí	-11.5096
obr	-11.5096
lici	-11.5096
▁klece	-11.5097
hodila	-11.5097
▁pažit	-11.5099
▁zracích	-11.5099
▁milenky	-11.5102
▁příběhy	-11.5102
▁prej	-11.5102
▁vírem	-11.5103
mdlé	-11.5105
▁zářivé	-11.5105
▁bojišti	-11.5106
matka	-11.5106
▁myrt	-11.5108
zlat	-11.5109
▁dávají	-11.5111
▁klavír	-11.5112
▁dubu	-11.5113
řekni	-11.5113
čela	-11.5114
▁gra	-11.5115
▁klamné	-11.5116
▁hvozdů	-11.5119
▁nijak	-11.5119
řídil	-11.5119
bratr	-11.512
sype	-11.512
▁zříme	-11.512
klame	-11.512
fil	-11.5122
Vedle	-11.5122
našel	-11.5122
▁nezastaví	-11.5122
nutá	-11.5124
rné	-11.5126
...“¬„	-11.5127
▁stoje	-11.5128
▁děsu	-11.5128
pích	-11.5128
▁mast	-11.5129
▁hřmění	-11.513
▁jizvy	-11.513
▁šátek	-11.513
▁dráp	-11.5133
trop	-11.5133
▁junák	-11.5134
▁předce	-11.5134
▁nesmíš	-11.5135
Přede	-11.5136
▁zabije	-11.5136
měř	-11.5137
Vaše	-11.5138
▁umírají	-11.5139
rukou	-11.5139
dnem	-11.5142
▁zůstanou	-11.5144
Staré	-11.5144
▁Rad	-11.5144
▁–“¬„	-11.5146
Smutně	-11.5146
▁ladí	-11.5146
Hra	-11.5146
▁zavřít	-11.5147
Myslíš	-11.5148
jiné	-11.5149
▁vznešené	-11.515
▁zajisté	-11.515
lék	-11.515
lkem	-11.5152
▁rozpíná	-11.5153
raf	-11.5153
▁Mojžíš	-11.5154
onu	-11.5154
▁Jana	-11.5155
▁cnosti	-11.5155
▁2	-11.5155
......	-11.5157
▁čilý	-11.5157
▁Bi	-11.5157
▁posvátný	-11.5157
▁dis	-11.5159
▁vřavy	-11.5159
▁hlína	-11.5159
▁Aj	-11.5159
čený	-11.516
▁pohladit	-11.5161
▁napadlo	-11.5161
▁nevinný	-11.5162
kudy	-11.5162
sílá	-11.5164
▁mdlobě	-11.5165
▁hlt	-11.5165
▁třásla	-11.5165
tahují	-11.5166
Věk	-11.5166
▁seděla	-11.5166
▁rozkvétá	-11.5168
▁stavení	-11.5168
ličku	-11.5169
▁Mag	-11.517
raci	-11.517
řid	-11.517
▁Paní	-11.5171
▁Ob	-11.5171
▁toužit	-11.5173
Ptá	-11.5173
enku	-11.5174
▁širo	-11.5174
▁ter	-11.5176
▁tok	-11.5176
tkán	-11.5177
▁obrovský	-11.518
▁dveřích	-11.5181
▁běhá	-11.5182
▁vesmírem	-11.5183
▁klame	-11.5183
▁dílem	-11.5184
▁hluché	-11.5185
▁líná	-11.5186
▁milostné	-11.5186
slouží	-11.5186
▁stele	-11.5186
▁kryjí	-11.5187
▁řízy	-11.5187
▁nejbližší	-11.5189
▁pátrá	-11.5189
▁pochodeň	-11.519
▁zátiší	-11.519
zpívat	-11.5192
▁nerozum	-11.5193
▁lyr	-11.5193
toužil	-11.5194
▁panoš	-11.5194
znam	-11.5196
▁oblaku	-11.5196
vem	-11.5196
strádá	-11.5197
▁pozemské	-11.5197
?)¬	-11.5198
▁zlém	-11.52
tok	-11.5201
novou	-11.5203
Krá	-11.5204
▁ust	-11.5204
▁drahokam	-11.5207
▁poslech	-11.5207
▁čněl	-11.5208
Byli	-11.5209
chvějí	-11.5209
jaro	-11.5212
▁uzří	-11.5213
tisknu	-11.5215
▁krvavá	-11.5216
▁osamělé	-11.5217
▁reality	-11.5219
▁bejt	-11.5219
▁ladné	-11.522
▁sňal	-11.5221
▁hárá	-11.5221
▁Jí	-11.5221
Nemůžu	-11.5221
▁prosbu	-11.5222
lézt	-11.5222
myslíš	-11.5222
skoro	-11.5224
rodič	-11.5224
Hlavu	-11.5225
▁večery	-11.5226
Hu	-11.5227
▁pijí	-11.5227
▁schovává	-11.5227
Jed	-11.5228
▁stříd	-11.5229
▁spěla	-11.523
▁zčernal	-11.523
▁táhlé	-11.523
▁krvavých	-11.523
Umí	-11.5231
plí	-11.5232
▁hold	-11.5232
plaví	-11.5232
▁krad	-11.5233
▁zvítězil	-11.5236
lička	-11.5238
pustila	-11.5238
plývá	-11.524
musíš	-11.5241
▁lepším	-11.5243
prů	-11.5244
▁vinul	-11.5246
vého	-11.5246
▁váha	-11.5247
▁slabě	-11.525
▁milenec	-11.5252
▁dřímot	-11.5252
▁kafe	-11.5252
▁bloudit	-11.5253
▁pěnou	-11.5253
▁San	-11.5254
květy	-11.5254
▁soch	-11.5256
▁chvilka	-11.5258
▁skrýše	-11.5258
▁utkvěl	-11.5258
▁dívkou	-11.5259
Nový	-11.526
▁tušit	-11.526
▁vadí	-11.5261
pletla	-11.5262
Pozdě	-11.5263
▁zora	-11.5263
▁minula	-11.5269
▁zkázu	-11.5269
▁pláčou	-11.5271
▁troud	-11.5271
všad	-11.5272
▁líbezný	-11.5273
▁usedá	-11.5275
▁níží	-11.5276
Tehdy	-11.5279
▁půjdeme	-11.528
▁svah	-11.528
▁aut	-11.5281
▁smrtelné	-11.5282
▁solí	-11.5282
wa	-11.5282
▁blízkost	-11.5283
▁velebné	-11.5284
▁šeři	-11.5284
▁poskyt	-11.5286
tíží	-11.5286
▁zničit	-11.5286
▁dravá	-11.5286
▁svíci	-11.5287
▁křesle	-11.5287
sál	-11.5288
▁pára	-11.5288
hlížejí	-11.5289
▁dcerou	-11.529
šený	-11.5291
čata	-11.5292
▁hlavách	-11.5293
▁smálo	-11.5293
▁signál	-11.5295
▁bavil	-11.5295
hmot	-11.5299
▁révy	-11.53
▁veden	-11.53
lomen	-11.5301
▁pohltí	-11.5303
▁odpad	-11.5304
▁dovolí	-11.5304
▁Byla	-11.5305
▁jediném	-11.5308
▁tměl	-11.5309
▁sví	-11.5309
dná	-11.5309
▁kotouč	-11.531
▁chmýří	-11.531
▁péče	-11.531
▁boháč	-11.531
▁podlaze	-11.531
▁syr	-11.5311
▁Fr	-11.5311
Vítej	-11.5312
▁bitvě	-11.5312
musel	-11.5312
Par	-11.5313
▁samu	-11.5313
▁někým	-11.5314
▁ssál	-11.5315
představ	-11.5315
▁zastřen	-11.5317
▁tajem	-11.5318
víří	-11.5318
toval	-11.5319
▁černí	-11.532
▁hospodě	-11.5323
stíny	-11.5323
▁korál	-11.5326
▁zabit	-11.5327
▁rozuměl	-11.533
▁tvrz	-11.5332
dné	-11.5333
tkají	-11.5336
▁řetězy	-11.5336
vzdych	-11.5339
▁šeptat	-11.5339
▁škub	-11.534
hlý	-11.534
▁chůze	-11.534
bro	-11.5341
▁zmíral	-11.5341
▁otrav	-11.5342
▁nepřišel	-11.5342
cký	-11.5342
▁skláněl	-11.5344
klesl	-11.5345
▁hřbitova	-11.5347
▁splynul	-11.5347
▁řádu	-11.5347
▁vládl	-11.5348
▁dnešek	-11.5348
▁látky	-11.5348
▁vdech	-11.5348
Celé	-11.535
šťastný	-11.5351
kovou	-11.5351
▁minulé	-11.5351
ovalo	-11.5352
▁rodina	-11.5353
▁obrácen	-11.5355
▁bal	-11.5355
spokojen	-11.5356
▁pero	-11.5358
▁šle	-11.5358
▁přesvědčení	-11.5358
denně	-11.5358
▁opilý	-11.5359
▁líh	-11.5359
upřímn	-11.5359
▁těžkém	-11.5361
▁Dr	-11.5361
set	-11.5362
dáváš	-11.5362
▁Morav	-11.5362
▁Bra	-11.5363
líbám	-11.5365
Vidí	-11.5366
▁velikán	-11.5366
LI	-11.5368
▁motýlů	-11.537
chvívá	-11.5371
Madon	-11.5372
▁nechtěj	-11.5373
▁jezdec	-11.5375
stvím	-11.5376
▁Labe	-11.5376
▁zlíbal	-11.5377
▁Bylo	-11.5378
▁všednosti	-11.5379
Bys	-11.5379
▁budoucích	-11.5379
▁táhlo	-11.538
míru	-11.538
▁zřejmě	-11.5381
▁říší	-11.5381
▁stesky	-11.5382
▁hřej	-11.5383
stel	-11.5386
▁chladno	-11.5387
▁Kristu	-11.5388
▁žád	-11.5388
▁šeptem	-11.5389
▁nebesy	-11.5389
lejší	-11.539
▁věda	-11.539
▁zvad	-11.539
jemuž	-11.5391
▁roven	-11.5393
Cha	-11.5394
▁rytmus	-11.5394
vztek	-11.5395
▁střet	-11.5395
▁jezer	-11.5395
▁nepří	-11.5395
tán	-11.5397
▁vzývá	-11.5398
▁hlásal	-11.5398
psaný	-11.54
Vítěz	-11.5401
▁rovna	-11.5402
▁ráčil	-11.5402
▁iluzí	-11.5402
▁žehnal	-11.5402
▁daleku	-11.5402
oře	-11.5403
Fr	-11.5403
▁slabost	-11.5406
rin	-11.5408
▁zkvet	-11.5409
▁posvátné	-11.5409
umírá	-11.541
▁pokraji	-11.5411
ivém	-11.5411
▁počkej	-11.5413
▁mohutný	-11.5415
▁hnala	-11.5417
▁zapad	-11.5418
▁činit	-11.5419
ženu	-11.5419
▁lačně	-11.5419
elné	-11.542
▁žádám	-11.542
▁stával	-11.542
▁Jaro	-11.5422
Volá	-11.5425
▁kosou	-11.5426
souzen	-11.5426
▁jdoucí	-11.5427
▁připadá	-11.5431
rozkvetl	-11.5432
▁nezbývá	-11.5432
▁otroky	-11.5432
škráb	-11.5432
▁duchy	-11.5432
▁úctou	-11.5432
▁spánkem	-11.5432
▁vrátka	-11.5433
▁Přemysl	-11.5433
▁vraždy	-11.5434
▁srdcím	-11.5434
krývá	-11.5434
▁vrásek	-11.5435
▁halil	-11.5435
▁maluje	-11.5437
▁pustí	-11.5437
▁pocitu	-11.5439
prášen	-11.5439
▁sklá	-11.544
▁míjel	-11.5442
▁tuch	-11.5443
▁ortel	-11.5443
dul	-11.5443
▁dívčin	-11.5444
▁mladým	-11.5445
kar	-11.5445
▁bláhový	-11.5445
▁NA	-11.5446
nebes	-11.5446
▁poh	-11.5446
otec	-11.5447
chrám	-11.5449
In	-11.5449
▁úkryt	-11.5449
▁vykoná	-11.545
▁lípa	-11.5451
▁nádob	-11.5453
▁kapku	-11.5454
hen	-11.5455
Přece	-11.5456
Rok	-11.5456
▁čistém	-11.5457
▁divých	-11.5457
▁mdle	-11.5457
▁věřící	-11.5458
▁nimž	-11.5458
dus	-11.5458
▁lila	-11.5459
▁sloky	-11.546
▁zrodí	-11.546
▁dusné	-11.546
▁prachy	-11.5461
▁nízký	-11.5462
▁nádvoří	-11.5463
▁mokré	-11.5464
Neznám	-11.5464
▁konal	-11.5464
▁delší	-11.5465
▁zapomněli	-11.5466
vrš	-11.5466
Prostě	-11.5466
▁potlesk	-11.5468
▁závisti	-11.5468
▁koukám	-11.5469
přitom	-11.547
sami	-11.547
▁pluky	-11.5471
▁potěší	-11.5472
▁ležela	-11.5473
▁shasl	-11.5473
▁báji	-11.5474
▁krásky	-11.5477
▁vichrů	-11.5478
▁noze	-11.5478
▁zvučný	-11.5478
rtu	-11.5479
andr	-11.5479
▁milionů	-11.5482
ovec	-11.5489
sáhne	-11.5489
▁nejistot	-11.549
▁peklem	-11.549
nictví	-11.5492
▁hrnou	-11.5493
▁vzdálená	-11.5493
▁zápraží	-11.5494
▁nektar	-11.5494
▁blízká	-11.5495
▁padlých	-11.5495
▁skvosty	-11.5495
▁měkkou	-11.5496
▁zhojí	-11.5498
▁ctitel	-11.5498
▁gu	-11.55
▁hvozdy	-11.5503
▁rozplývá	-11.5503
▁nenávidí	-11.5503
hluč	-11.5505
vázán	-11.5505
bus	-11.5506
▁Květ	-11.5509
▁Mal	-11.5509
▁známou	-11.5513
▁rostly	-11.5513
▁uvěřit	-11.5515
Hledí	-11.5515
▁trval	-11.5516
▁útes	-11.5516
▁blik	-11.5518
jiskři	-11.5519
???¬	-11.552
pru	-11.552
▁rostlin	-11.5522
▁světlá	-11.5522
▁ruměn	-11.5523
veze	-11.5523
▁místnosti	-11.5523
▁svědkem	-11.5525
Kterou	-11.5525
▁udeří	-11.5526
▁osla	-11.5526
stání	-11.5527
▁vrazi	-11.5528
▁lok	-11.5528
kri	-11.5529
▁pochopíš	-11.553
Včera	-11.553
▁mot	-11.5531
▁měnil	-11.5531
Milovat	-11.5531
celí	-11.5531
▁rozechvěl	-11.5532
▁strašná	-11.5532
tlel	-11.5533
▁můžeme	-11.5533
tratí	-11.5535
▁lili	-11.5535
ovaných	-11.5535
▁rámu	-11.5535
▁noh	-11.5536
▁ožil	-11.5537
▁odpověděl	-11.5538
stvem	-11.5538
dole	-11.5541
▁neseš	-11.5541
kolikrát	-11.5542
▁ostrým	-11.5543
▁zahalil	-11.5543
▁sakra	-11.5545
▁budil	-11.5546
sním	-11.5546
Nechtěl	-11.5547
livou	-11.5551
vracím	-11.5553
rostlý	-11.5554
zlý	-11.5555
▁nechať	-11.5556
Ber	-11.5556
▁zápach	-11.5557
▁hříšník	-11.5557
▁ráčí	-11.5558
▁spadl	-11.5558
▁samotou	-11.5558
trysk	-11.5558
▁dotkl	-11.5559
▁trávník	-11.5559
rážejí	-11.5561
zvou	-11.5561
Mlč	-11.5562
Řekla	-11.5563
veliký	-11.5563
▁Pojď	-11.5563
Chlap	-11.5567
táhnou	-11.5569
▁posvěcen	-11.557
jú	-11.557
▁splav	-11.557
▁kata	-11.5571
▁semnou	-11.5572
▁samou	-11.5573
▁....	-11.5573
▁zpěvů	-11.5575
ickým	-11.5576
▁kadeří	-11.5576
▁figur	-11.5576
čest	-11.5577
▁páže	-11.5578
▁bolně	-11.5578
▁letních	-11.5579
▁dokonal	-11.5579
tická	-11.5579
▁toku	-11.558
▁sáhne	-11.5581
▁koupit	-11.5581
▁jakous	-11.5582
▁Nuž	-11.5584
jemné	-11.5585
končit	-11.5585
▁zkusil	-11.5585
▁dávná	-11.5586
▁žalů	-11.5587
▁výprav	-11.5587
▁brýle	-11.5588
Aspoň	-11.5588
▁plachet	-11.5588
▁mužům	-11.5588
▁bzučí	-11.5588
▁širá	-11.5589
▁nevinně	-11.559
▁vzlétl	-11.559
▁romantik	-11.559
▁odletěl	-11.5591
▁posílám	-11.5591
▁baj	-11.5591
▁chopil	-11.5591
tluče	-11.5597
▁Th	-11.5597
▁vzlyká	-11.5598
▁srazil	-11.5606
▁sází	-11.5606
▁snah	-11.5606
▁pokyn	-11.5609
▁pleť	-11.5609
▁jitru	-11.5609
kropen	-11.5611
▁střípky	-11.5612
blah	-11.5614
...¬–	-11.5615
Nebylo	-11.5616
▁paš	-11.5616
Křesťan	-11.5618
klik	-11.5619
▁pomstu	-11.5619
▁božská	-11.5619
▁různo	-11.5619
▁ohnivý	-11.5619
▁retu	-11.562
▁mistra	-11.5621
Prch	-11.5622
trhaný	-11.5623
▁jistotu	-11.5627
▁zpráv	-11.5627
Eh	-11.5628
svoji	-11.5628
▁horkých	-11.5628
Zlato	-11.5629
řu	-11.5629
pjaté	-11.563
věsí	-11.563
▁jehličí	-11.5631
▁hraní	-11.5632
▁leť	-11.5632
▁týž	-11.5634
▁klopí	-11.5635
▁nekonečno	-11.5635
▁přivře	-11.5636
▁kořenů	-11.5637
hladil	-11.5638
▁smály	-11.5638
▁chlapce	-11.564
▁planý	-11.564
▁obrázky	-11.564
▁chlup	-11.564
▁chut	-11.5641
▁zrodila	-11.5641
Šum	-11.5642
▁pozvedá	-11.5643
▁pouhým	-11.5643
hlásil	-11.5643
JE	-11.5644
lená	-11.5645
▁schýlen	-11.5645
▁tenký	-11.5645
▁rozlehl	-11.5646
svícen	-11.5646
Řeč	-11.5648
▁změn	-11.5649
krás	-11.5651
▁rumu	-11.5652
▁suchá	-11.5652
▁léty	-11.5653
kru	-11.5655
▁stě	-11.5655
Aniž	-11.5656
▁koše	-11.5657
▁zapomenut	-11.5658
▁blín	-11.5659
▁pramenů	-11.566
▁vábil	-11.5661
▁kytky	-11.5661
▁ryba	-11.5661
▁nebuď	-11.5663
▁úžasem	-11.5663
Přišla	-11.5663
▁zvěstí	-11.5665
rouch	-11.5666
▁překvapení	-11.5666
▁planet	-11.5666
ctí	-11.5666
potřeb	-11.5667
▁černého	-11.5668
padlý	-11.5668
.......	-11.5669
▁patřit	-11.5669
▁hromem	-11.5669
▁záleží	-11.567
▁hluch	-11.567
▁přemožen	-11.5673
jeli	-11.5674
▁oráč	-11.5674
▁skot	-11.5675
▁nespí	-11.5675
▁zvuč	-11.5676
slal	-11.5677
▁zelení	-11.5677
šetří	-11.5678
kavé	-11.5679
Zkus	-11.5679
trávit	-11.5679
▁šeď	-11.5683
zdi	-11.5683
▁mrač	-11.5684
▁hloupě	-11.5685
slechl	-11.5687
▁hlasitě	-11.5688
▁vydat	-11.5688
Otče	-11.5688
ryb	-11.5688
▁stékají	-11.5689
drob	-11.5689
▁pokryl	-11.5691
▁slad	-11.5693
▁díry	-11.5693
▁samým	-11.5697
▁bů	-11.5697
Doufám	-11.5698
▁pana	-11.57
loh	-11.57
▁drahokamy	-11.57
prost	-11.5701
▁brala	-11.5703
ismus	-11.5704
▁Fi	-11.5704
▁doved	-11.5704
▁skvrn	-11.5705
▁desky	-11.5706
sol	-11.5708
▁nedej	-11.571
ladí	-11.5712
▁svěžest	-11.5713
▁blázna	-11.5714
▁troskách	-11.5714
▁otazník	-11.5714
žíval	-11.5714
▁chránil	-11.5715
nikal	-11.5715
▁lopat	-11.5715
zvlášť	-11.572
▁TO	-11.572
usmívá	-11.5723
▁lehá	-11.5723
čili	-11.5723
▁chvilky	-11.5724
▁patře	-11.5724
▁vosk	-11.5724
vléká	-11.5725
gor	-11.5726
raď	-11.5726
▁chvilkou	-11.5731
samo	-11.5732
▁klus	-11.5732
Si	-11.5734
tám	-11.5735
▁zadní	-11.5735
▁Oh	-11.5737
▁zralý	-11.5737
▁kupí	-11.5737
sedla	-11.5738
▁Eva	-11.574
chodil	-11.5741
nkách	-11.5741
nášet	-11.5743
▁lotr	-11.5743
▁Vaší	-11.5745
▁rozednění	-11.5745
▁světnici	-11.5747
▁vlhký	-11.5747
▁sklenku	-11.5747
▁padli	-11.5747
▁prsy	-11.5747
▁zapadlo	-11.5747
▁potřebuje	-11.5748
▁závrať	-11.5748
Vlád	-11.5751
hřmí	-11.5752
bledlé	-11.5752
krocen	-11.5753
▁matně	-11.5754
▁Ona	-11.5754
možno	-11.5755
▁ostatním	-11.5755
▁rádo	-11.5756
▁sterých	-11.5756
bírat	-11.5757
Tančí	-11.5757
jediné	-11.5757
▁Kon	-11.5758
▁barvami	-11.5758
▁zažil	-11.576
▁ruk	-11.5761
che	-11.5762
...........	-11.5763
▁tvořil	-11.5765
▁zabolí	-11.5766
▁Měl	-11.5767
▁mějte	-11.5768
▁hlupák	-11.5769
▁derou	-11.577
▁opustila	-11.5771
rostlé	-11.5772
▁mlč	-11.5774
pul	-11.5775
▁modravý	-11.5776
▁půjdou	-11.5777
ičkách	-11.5777
▁jitrem	-11.5777
▁zhasla	-11.5778
▁Lí	-11.5778
▁básníku	-11.5779
tkám	-11.578
vedli	-11.578
▁oslep	-11.5781
gram	-11.5781
dobrý	-11.5782
▁vzchází	-11.5783
▁chladném	-11.5783
▁hvězdě	-11.5784
rna	-11.5785
▁zírám	-11.5785
▁chladným	-11.5785
▁potřeba	-11.5785
▁slepě	-11.5785
▁zpívej	-11.5786
rus	-11.5787
věč	-11.5787
tkává	-11.5788
aři	-11.5789
rvou	-11.579
sedím	-11.5791
ády	-11.5791
hlavý	-11.5791
▁sukně	-11.5793
▁vání	-11.5794
▁vítán	-11.5795
▁zdlouha	-11.5795
▁vábný	-11.5795
seděl	-11.5797
vlastně	-11.5797
choval	-11.5798
▁třes	-11.5799
▁zůstanu	-11.5799
▁proudů	-11.58
▁mužně	-11.58
▁necítil	-11.58
▁stíní	-11.5802
▁cyt	-11.5804
Copak	-11.5805
▁pravd	-11.5807
▁raz	-11.5807
▁zaslech	-11.5808
Déšť	-11.5809
▁mládenec	-11.581
▁vzpjal	-11.581
▁dýší	-11.5811
▁tone	-11.5811
▁humor	-11.5812
▁retem	-11.5812
▁dotyk	-11.5815
hněd	-11.5815
Stromy	-11.5815
▁lokty	-11.5816
▁opak	-11.5817
▁spalo	-11.5818
▁mihne	-11.5818
▁modř	-11.5818
loví	-11.5819
▁slavnou	-11.5822
▁pláčí	-11.5824
▁hvězdnou	-11.5826
▁štván	-11.5829
směr	-11.583
▁omam	-11.5833
tkách	-11.5834
staral	-11.5837
číst	-11.5837
rny	-11.5843
▁hlučí	-11.5843
▁pádem	-11.5845
▁šerou	-11.5847
▁kysel	-11.5847
▁zásad	-11.5847
▁skoč	-11.5847
pálená	-11.5849
▁bílí	-11.585
oň	-11.5851
▁klidná	-11.5856
mluvy	-11.5856
nutil	-11.5857
▁Chtěla	-11.5857
rudé	-11.5858
Sic	-11.5859
míst	-11.5859
▁blažené	-11.5859
tup	-11.586
děkuji	-11.586
rák	-11.5862
▁nedělá	-11.5866
zlob	-11.5866
▁kýval	-11.5866
osl	-11.5866
dvou	-11.5868
▁pojďte	-11.5868
▁mha	-11.5869
▁chatě	-11.587
Těm	-11.5871
▁Mus	-11.5872
▁chybu	-11.5872
víral	-11.5872
▁zjevila	-11.5873
▁zemřela	-11.5874
▁křísí	-11.5874
přišla	-11.5874
lekal	-11.5875
▁Boh	-11.5875
Promiň	-11.5876
▁hradem	-11.5876
▁zápasí	-11.5876
ztrácí	-11.5877
▁plameni	-11.5878
oblak	-11.5879
▁vláčí	-11.5882
▁bojem	-11.5883
▁vzpomínání	-11.5884
---	-11.5884
▁rozhodl	-11.5886
▁zapomenu	-11.5888
▁dobrém	-11.5888
▁brázdy	-11.5888
▁buch	-11.5889
▁hrana	-11.5889
Dar	-11.589
nského	-11.5892
▁bilo	-11.5893
▁úzkostí	-11.5893
čných	-11.5894
náram	-11.5894
▁padaly	-11.5898
mus	-11.59
▁pravidel	-11.59
▁zapomene	-11.5902
plane	-11.5903
▁čarovné	-11.5903
▁bludu	-11.5904
vírají	-11.5904
▁telefon	-11.5906
▁emocí	-11.5906
▁pomsta	-11.5908
Budiž	-11.5909
tví	-11.591
▁Hr	-11.5912
▁políbí	-11.5912
plout	-11.5913
▁utichl	-11.5914
ras	-11.5914
▁umělec	-11.5915
kradl	-11.5915
Muži	-11.5915
▁trestu	-11.5916
▁JE	-11.5918
▁vděku	-11.5919
▁zachrání	-11.5919
▁díru	-11.592
Postav	-11.5922
mrav	-11.5922
▁píská	-11.5922
▁panenka	-11.5923
▁bráti	-11.5923
nechtěl	-11.5924
kládají	-11.5924
▁parád	-11.5924
▁jasném	-11.5924
ňal	-11.5926
▁ryje	-11.5926
▁tygr	-11.5928
▁drahým	-11.5928
chvát	-11.5929
stoj	-11.5931
▁rumy	-11.5931
nesli	-11.5931
znak	-11.5933
▁zvítězí	-11.5933
knul	-11.5933
▁oltářem	-11.5933
▁jediného	-11.5934
▁vracet	-11.5934
básník	-11.5938
▁březích	-11.594
▁slibů	-11.5941
gan	-11.5948
▁pokřik	-11.5949
▁vašem	-11.5949
přádá	-11.5949
chtě	-11.5949
▁zřítelnic	-11.5949
bytí	-11.595
Nechte	-11.595
včera	-11.5951
Zved	-11.5953
▁ramenou	-11.5955
▁jdete	-11.5956
▁pěj	-11.5958
▁terč	-11.5958
▁zvonků	-11.5958
▁pohltil	-11.5959
▁honil	-11.5959
▁ubírá	-11.5964
víra	-11.5965
Paní	-11.5966
všední	-11.5966
▁koník	-11.5967
▁božích	-11.5969
cent	-11.5969
▁děcku	-11.597
▁ubohou	-11.597
▁včela	-11.5971
Ztratil	-11.5971
▁výbuch	-11.5971
▁hanbu	-11.5972
hovoří	-11.5973
▁osaměl	-11.5974
▁blátě	-11.5974
sej	-11.5974
▁rozmaru	-11.5976
▁promluvit	-11.5977
▁kad	-11.5978
▁zachová	-11.5978
▁hrozil	-11.5979
▁matička	-11.598
▁zavřen	-11.5983
▁havraní	-11.5983
▁Víš	-11.5984
létne	-11.5986
liny	-11.5987
▁nič	-11.5987
▁Hu	-11.5988
▁rákos	-11.5989
NA	-11.5992
kročit	-11.5992
▁zeleným	-11.5992
▁posílá	-11.5993
vědět	-11.5993
▁marných	-11.5995
hře	-11.5998
zdraví	-11.5999
natou	-11.6
▁styl	-11.6
don	-11.6
Slovo	-11.6001
šeří	-11.6001
Neměl	-11.6001
▁Cid	-11.6002
▁blues	-11.6003
▁siluet	-11.6003
Pocit	-11.6005
▁opi	-11.6005
▁stovky	-11.6006
mlouvat	-11.6008
strčil	-11.601
▁modlení	-11.601
tažené	-11.6011
▁ležíš	-11.6011
Oheň	-11.6011
Beze	-11.6012
▁tázal	-11.6012
▁kapkou	-11.6013
▁bývalo	-11.6014
▁zákony	-11.6014
jindy	-11.6016
▁odpustí	-11.6016
pršel	-11.6018
▁bratřím	-11.6019
▁lupič	-11.6019
▁knihou	-11.602
▁trýzni	-11.6023
měněn	-11.6027
řený	-11.6027
▁zlobou	-11.6028
žlut	-11.603
▁pohřbí	-11.6031
▁topoly	-11.6032
Prach	-11.6032
tvoř	-11.6032
."	-11.6033
▁Něm	-11.6034
▁vari	-11.6034
žní	-11.6035
▁brambor	-11.6036
snažím	-11.6037
▁zrání	-11.6037
cená	-11.6037
gre	-11.6037
▁bouřné	-11.6038
sie	-11.6038
zdí	-11.6039
▁hošík	-11.604
▁třesoucí	-11.604
▁takou	-11.604
Spíš	-11.6041
malou	-11.6043
vzdálen	-11.6045
ňou	-11.6045
kroj	-11.6048
▁chystal	-11.6052
▁podstat	-11.6052
▁hrubé	-11.6053
▁doufá	-11.6057
▁hroutí	-11.6057
▁Jde	-11.6058
jda	-11.6061
▁kmotr	-11.6062
dům	-11.6062
▁neslo	-11.6063
▁štíp	-11.6063
▁vyhnal	-11.6063
▁nebaví	-11.6066
▁vzlétá	-11.6067
domov	-11.6068
▁ňadru	-11.6068
▁ňadrům	-11.6068
▁stébla	-11.6069
▁všehomíra	-11.6069
ecký	-11.6069
▁rychlé	-11.6069
▁vázne	-11.607
▁žlutých	-11.6071
daných	-11.6071
▁svátku	-11.6072
▁parket	-11.6073
Doma	-11.6074
Vlasy	-11.6074
Bílý	-11.6075
▁vlnky	-11.6079
běda	-11.6081
▁nějakou	-11.6082
▁vybral	-11.6082
▁Nač	-11.6083
nikde	-11.6083
▁novému	-11.6085
Milá	-11.6086
íkem	-11.6086
▁řež	-11.6086
▁naučí	-11.6087
hus	-11.6089
▁prokletý	-11.6089
pěti	-11.6089
▁krůpějí	-11.6091
▁začátek	-11.6091
▁uvězněn	-11.6092
▁ruchem	-11.6092
Malá	-11.6093
▁bystře	-11.6094
▁loučil	-11.6094
▁milostí	-11.6094
pouštěj	-11.6095
▁padnout	-11.6095
Tra	-11.6095
▁páté	-11.6096
těžký	-11.6096
červen	-11.6097
▁vděč	-11.61
▁dívají	-11.6101
▁zřícenin	-11.6101
▁všade	-11.6102
▁sešli	-11.6102
▁uvítá	-11.6103
miluju	-11.6103
▁synové	-11.6106
▁divokých	-11.6106
▁plese	-11.6106
▁příkop	-11.6106
▁těles	-11.6108
▁listech	-11.6108
▁zamčen	-11.6109
▁obzory	-11.6111
▁hosty	-11.6111
▁ras	-11.6111
▁hrsti	-11.6112
▁zdvihl	-11.6113
▁otroků	-11.6114
▁schvátí	-11.6116
ket	-11.6116
tráv	-11.6117
▁nakloněn	-11.6118
táhni	-11.6118
brala	-11.6118
▁velikým	-11.6119
▁určitě	-11.612
čů	-11.6122
▁vzrušen	-11.6122
▁prázdnota	-11.6125
▁houpal	-11.6125
▁povede	-11.6126
▁prodej	-11.6127
▁promluví	-11.6128
▁ký	-11.613
pitá	-11.613
▁cena	-11.6132
▁hubu	-11.6134
▁trýzeň	-11.6134
▁výčitek	-11.6134
▁historie	-11.6134
▁bodláčí	-11.6134
ger	-11.6135
▁tlouci	-11.6135
▁vyšlo	-11.6136
tiché	-11.6137
▁vesny	-11.6137
▁Vámi	-11.6139
▁snést	-11.6139
životem	-11.6141
▁stačil	-11.6143
▁pytl	-11.6145
▁středem	-11.6146
kojí	-11.6147
krom	-11.6147
vine	-11.6147
▁hleděla	-11.6148
▁krovem	-11.6148
▁výmluv	-11.6148
plač	-11.6148
rig	-11.615
▁míní	-11.615
arch	-11.6151
zlá	-11.6152
▁tvaru	-11.6152
▁prvního	-11.6153
úz	-11.6154
▁uvěří	-11.6154
pěj	-11.6155
▁smrk	-11.6156
▁svěřil	-11.6157
▁Kle	-11.6159
čerpá	-11.6159
▁tichosti	-11.616
rouc	-11.6162
▁dovnitř	-11.6162
▁sevře	-11.6162
pís	-11.6163
▁šťastnější	-11.6166
▁kras	-11.6167
příjem	-11.6167
abychom	-11.6168
▁křovin	-11.6168
▁odchodu	-11.6168
▁hnije	-11.6168
▁skorem	-11.6168
▁hesla	-11.6169
Trp	-11.6169
▁tes	-11.6169
▁velcí	-11.6169
mého	-11.617
▁Vyšehrad	-11.617
▁padnou	-11.6171
▁bědný	-11.6172
▁nezří	-11.6172
Třetí	-11.6173
Samota	-11.6174
▁rybníka	-11.6175
▁dědic	-11.6177
▁zavřené	-11.6179
▁vstup	-11.6179
▁úl	-11.6179
vlík	-11.6181
▁lesklý	-11.6181
▁hřejí	-11.6182
pěkně	-11.6183
▁uzavřel	-11.6184
▁vrchů	-11.6184
▁zapadlé	-11.6185
▁čile	-11.6185
▁ztráty	-11.6189
▁hnízdě	-11.6189
▁skládal	-11.6189
ovka	-11.619
Zač	-11.6191
ujících	-11.6191
▁libý	-11.6192
myl	-11.6192
otu	-11.6192
▁směru	-11.6192
▁pánům	-11.6192
▁řeknou	-11.6193
létal	-11.6193
kdysi	-11.6195
Miloval	-11.6195
▁týl	-11.6197
vodní	-11.6197
▁praskot	-11.6197
HO	-11.6197
▁střásá	-11.6198
▁spáry	-11.6199
řekne	-11.62
čítal	-11.6201
skrze	-11.6201
▁týdny	-11.6201
▁chřest	-11.6201
Vůkol	-11.6202
usmál	-11.6203
▁milenku	-11.6203
▁hlubší	-11.6204
tnost	-11.6205
dostal	-11.6205
▁křivdy	-11.6205
▁domovem	-11.6207
▁okamžiků	-11.6207
Naposled	-11.6208
▁kouta	-11.6209
▁tvůrce	-11.6211
ány	-11.6213
▁košili	-11.6213
dýchal	-11.6214
polibek	-11.6214
sluneční	-11.6214
▁kolkolem	-11.6219
▁krajích	-11.6219
▁vášnivé	-11.622
▁zpívala	-11.6221
▁čokolád	-11.6222
▁zachvívá	-11.6222
▁plamínek	-11.6224
▁jasní	-11.6224
▁zachytit	-11.623
▁pozděj	-11.6233
▁ptactva	-11.6234
▁kvítka	-11.6234
▁úbočí	-11.6235
▁chlév	-11.6235
učím	-11.6235
▁kráčíš	-11.6236
▁jedovatý	-11.6236
trhnout	-11.6236
▁směj	-11.6239
raný	-11.6239
▁bdít	-11.624
bojí	-11.6241
▁kaple	-11.6242
▁patřím	-11.6242
Nekonečn	-11.6242
roj	-11.6249
▁spanilý	-11.625
▁nadšený	-11.625
kazuje	-11.6251
▁nemusím	-11.6253
▁zázraku	-11.6253
PO	-11.6254
!¬(	-11.6255
▁vyjít	-11.6257
▁bouřný	-11.6258
▁skel	-11.6258
▁Štěstí	-11.6261
▁hasnou	-11.6261
▁sedmikrás	-11.6263
Navždy	-11.6264
▁letním	-11.6265
▁záměr	-11.6266
▁svedl	-11.6266
▁děckem	-11.6267
▁Tábor	-11.6269
▁službu	-11.6269
líbit	-11.6269
kráčí	-11.6269
Chvíle	-11.6269
▁ženám	-11.627
▁závoje	-11.6271
Spolu	-11.6272
▁probod	-11.6273
Chvíli	-11.6273
syp	-11.6273
▁svátky	-11.6273
▁echem	-11.6277
!“¬„„	-11.6277
▁Její	-11.6279
dívka	-11.6282
▁opuštěná	-11.6282
▁dy	-11.6282
peč	-11.6282
bý	-11.6284
šák	-11.6286
moří	-11.6287
▁černě	-11.6288
Hus	-11.6289
▁východě	-11.629
můž	-11.6291
▁zastřel	-11.6292
těžké	-11.6297
"¬"	-11.6298
prostí	-11.6299
▁zvednu	-11.63
▁horský	-11.63
▁přilb	-11.63
tiskl	-11.6301
litý	-11.6302
▁Prahu	-11.6302
▁Mary	-11.6302
▁peřinou	-11.6302
▁buben	-11.6303
▁realita	-11.6303
kopal	-11.6304
blížil	-11.6304
Věčně	-11.6305
▁map	-11.6306
▁šine	-11.6308
▁hedváb	-11.631
▁netuše	-11.631
dlouhý	-11.6315
zůstává	-11.6317
▁skromně	-11.6317
oheň	-11.6317
▁nemožno	-11.6317
din	-11.632
▁Hol	-11.632
▁zdaž	-11.6321
▁líbají	-11.6321
Duši	-11.6325
▁změnila	-11.6326
▁hlubině	-11.6329
▁orli	-11.6329
ckých	-11.6329
▁nazí	-11.6329
břeh	-11.6329
ovic	-11.633
chor	-11.6331
manit	-11.6332
▁zubů	-11.6335
▁zahrádce	-11.6335
▁pěvci	-11.6335
▁mystické	-11.6335
▁don	-11.6335
▁porod	-11.6335
▁inkoust	-11.6335
▁hádky	-11.6335
▁ptáku	-11.6335
▁David	-11.6335
▁vzpírá	-11.6336
▁nitrem	-11.6336
▁rač	-11.6336
▁skutkem	-11.6336
rií	-11.6337
▁vítám	-11.6339
▁pěknou	-11.6339
vadnou	-11.634
▁citliv	-11.634
▁druží	-11.6343
▁brav	-11.6343
▁strunách	-11.6343
nčí	-11.6343
noci	-11.6344
▁zahalí	-11.6344
rostl	-11.6346
▁spustil	-11.6348
▁táhl	-11.6348
jediná	-11.635
▁skvrny	-11.6351
▁žá	-11.6353
▁zvolil	-11.6353
▁paláci	-11.6355
▁vteřina	-11.6356
▁smíru	-11.6357
Nějak	-11.636
▁doprovází	-11.6361
stih	-11.6362
▁široký	-11.6363
skříp	-11.6363
Temno	-11.6364
▁temnota	-11.6364
▁osln	-11.6366
rol	-11.6367
▁krčmě	-11.6369
▁tklivá	-11.6369
▁časech	-11.6369
▁skříň	-11.6369
kypěl	-11.6369
sadím	-11.6369
▁vlahé	-11.6371
out	-11.6373
Sil	-11.6374
▁žul	-11.6375
▁nebudem	-11.6375
▁Su	-11.6375
▁litovat	-11.6375
▁znik	-11.6376
▁pohnut	-11.6378
ňu	-11.6379
▁bohužel	-11.638
▁hloubí	-11.638
▁strmí	-11.6382
▁hučel	-11.6383
▁shýbá	-11.6383
pálit	-11.6383
Stará	-11.6384
▁lehkým	-11.6385
▁Gi	-11.6385
▁druhému	-11.6387
ovitý	-11.6388
▁dostala	-11.6388
níčku	-11.6388
▁snaze	-11.6389
modrý	-11.639
novi	-11.6392
▁vodil	-11.6393
▁nohoum	-11.6396
▁umdlen	-11.6397
▁arch	-11.6398
▁vichry	-11.6398
cené	-11.64
▁dráždí	-11.6402
▁dělají	-11.6402
▁poezie	-11.6402
▁bronz	-11.6403
▁vzplá	-11.6403
▁rtové	-11.6403
▁koket	-11.6405
▁nechápe	-11.6406
dobré	-11.6406
▁vaším	-11.6408
▁svůdný	-11.641
▁nevděčn	-11.641
▁vření	-11.641
▁radostné	-11.6411
▁útěku	-11.6411
▁větvemi	-11.6412
...)¬	-11.6412
▁kůry	-11.6414
▁hustá	-11.6414
▁vola	-11.6414
▁čer	-11.6414
▁hříš	-11.6415
▁hněvy	-11.6417
▁rýh	-11.6418
mistr	-11.6418
jíti	-11.6419
▁pláštěm	-11.642
▁zvolá	-11.642
▁jho	-11.6421
▁slzám	-11.6423
natý	-11.6423
▁zásluh	-11.6424
mocný	-11.6425
▁komnaty	-11.6426
Prší	-11.6426
ismu	-11.6427
▁zván	-11.6428
▁narozen	-11.6428
▁slané	-11.643
▁maska	-11.6431
▁cep	-11.6431
▁sklenice	-11.6431
bé	-11.6433
▁borů	-11.6436
▁záplavě	-11.6436
▁vzácná	-11.6437
▁strhl	-11.6437
▁klopot	-11.6437
nivě	-11.6438
des	-11.6438
▁doteku	-11.6439
▁úle	-11.6441
▁opál	-11.6442
Bled	-11.6442
▁upomínky	-11.6443
▁osudů	-11.6445
rým	-11.6447
dovat	-11.6447
▁pavučiny	-11.6448
paluje	-11.6448
▁sbory	-11.6449
▁prospěch	-11.6449
▁oper	-11.645
▁básníci	-11.6451
▁prostorem	-11.6453
▁holo	-11.6454
olu	-11.6455
olog	-11.6456
▁hradní	-11.6457
ndi	-11.6458
▁tí	-11.6458
skok	-11.6458
Ježíš	-11.6459
▁neznámou	-11.646
▁marnosti	-11.646
▁slavnost	-11.646
▁mnohým	-11.6462
▁zjevem	-11.6463
▁čeří	-11.6466
▁marnou	-11.6466
Líbá	-11.6468
▁nazývá	-11.647
▁dálkách	-11.647
Loď	-11.647
takhle	-11.647
▁Ctirad	-11.6471
▁líbezné	-11.6471
uši	-11.6471
Přítel	-11.6472
▁zřídla	-11.6473
▁vznítí	-11.6473
mráz	-11.6474
▁šance	-11.6474
spa	-11.6477
rmut	-11.6477
▁milovaný	-11.6477
▁osudy	-11.6478
čeho	-11.6478
▁hlod	-11.6478
▁brouk	-11.6479
▁příčin	-11.6479
▁/¬	-11.6479
▁modlím	-11.6479
▁toužíš	-11.6479
zač	-11.6479
dotek	-11.648
▁skane	-11.6481
chystal	-11.6481
▁hluše	-11.6482
Kouk	-11.6483
Boh	-11.6485
▁chotě	-11.6485
půjde	-11.6488
▁zvednou	-11.6489
▁nabíd	-11.6492
▁Pří	-11.6492
jakou	-11.6492
hodno	-11.6494
▁tísně	-11.6494
▁bouřil	-11.6494
měřil	-11.6494
Více	-11.6497
▁spím	-11.6498
▁dun	-11.6498
unaven	-11.65
▁vrána	-11.6501
▁Milost	-11.6501
▁jízda	-11.6501
ečkem	-11.6504
▁osamění	-11.6505
▁bližší	-11.6505
▁otvírají	-11.6505
▁psot	-11.6506
▁zadíval	-11.6506
▁duš	-11.6506
klopí	-11.6507
slza	-11.6507
▁kamenný	-11.6509
▁skučí	-11.6509
▁tenké	-11.6509
▁jedni	-11.6512
▁překoná	-11.6513
▁ponořen	-11.6514
▁dálný	-11.6514
děje	-11.6516
▁zrakům	-11.6516
rú	-11.6517
žívám	-11.6518
▁Ná	-11.6519
▁medem	-11.6519
▁věrní	-11.6519
▁muset	-11.6519
▁zapomeň	-11.6521
▁energie	-11.6521
▁sír	-11.6521
▁zvěře	-11.6522
▁zkažen	-11.6523
▁připravil	-11.6524
▁vrhla	-11.6524
▁nestane	-11.6525
▁hi	-11.6526
líbej	-11.6526
▁rajských	-11.6527
▁hloh	-11.6528
chtít	-11.6529
▁rajský	-11.6529
▁rodiče	-11.6529
▁holku	-11.6529
viny	-11.6531
▁kolíb	-11.6532
lidské	-11.6535
▁vítězí	-11.6539
▁dětská	-11.6539
▁žlutá	-11.6539
▁šlechtic	-11.654
▁cnost	-11.6541
přísah	-11.6542
▁rozumím	-11.6542
▁velitel	-11.6543
Dále	-11.6543
▁nebeskou	-11.6543
▁nekonečně	-11.6546
▁slavnostní	-11.6546
▁šlehl	-11.6547
▁vnik	-11.6548
kvap	-11.6548
Nebes	-11.655
▁šťáv	-11.655
▁bory	-11.655
▁smyl	-11.6551
Bohu	-11.6552
▁mátoh	-11.6552
praven	-11.6552
chytá	-11.6553
hlídá	-11.6554
▁dvoru	-11.6555
▁hlučné	-11.6556
Smutek	-11.6557
zvláštní	-11.6557
▁taneční	-11.6557
▁kalu	-11.6557
letý	-11.6558
breč	-11.6558
▁májové	-11.6558
▁klavíru	-11.6558
▁násilí	-11.6558
▁zářit	-11.656
▁účast	-11.656
nepře	-11.6561
▁hladím	-11.6562
dcer	-11.6563
▁vnímat	-11.6563
▁obrázek	-11.6565
večerní	-11.6568
▁prohlub	-11.657
▁projel	-11.6571
▁místy	-11.6571
▁labutě	-11.6574
▁štědrý	-11.6574
▁bubny	-11.6574
▁mracích	-11.6574
▁rudém	-11.6574
//	-11.6574
▁báně	-11.6574
blo	-11.6574
▁Há	-11.6577
▁pláčeš	-11.6577
▁nosu	-11.6579
Mluví	-11.658
▁znavené	-11.658
▁zahyne	-11.6581
tlum	-11.6582
vádět	-11.6582
▁tvoj	-11.6582
▁kovový	-11.6583
tuje	-11.6583
víjí	-11.6585
▁muku	-11.6585
klon	-11.6586
nikl	-11.6587
▁osiřel	-11.6588
▁hedbáv	-11.6589
▁zlomený	-11.659
placen	-11.6592
▁hněd	-11.6593
▁stanou	-11.6593
▁poklek	-11.6594
▁písních	-11.6595
hrůz	-11.6595
▁utek	-11.6596
kdybys	-11.6597
▁výčitky	-11.6599
▁vnímám	-11.6599
pletené	-11.6599
prsty	-11.6599
noří	-11.6602
▁Bílé	-11.6603
hlahol	-11.6603
mýt	-11.6604
stroje	-11.6604
vodu	-11.6606
▁trápit	-11.6608
▁sliboval	-11.6609
▁hymny	-11.6609
▁bohové	-11.6609
▁mluvím	-11.6609
▁bažin	-11.6611
▁tlak	-11.6611
▁stolku	-11.6611
▁učit	-11.6612
dral	-11.6612
točit	-11.6613
otevřel	-11.6613
trhnu	-11.6613
▁věncem	-11.6614
▁mrazivý	-11.6615
vrz	-11.6616
▁snivou	-11.6616
▁nevěsta	-11.6617
▁provázel	-11.6617
sedm	-11.6618
sobě	-11.6618
▁poutá	-11.6621
▁nikoli	-11.6622
▁šeřík	-11.6623
▁počítá	-11.6624
▁šíré	-11.6624
vaná	-11.6624
pili	-11.6626
▁kotě	-11.6627
opil	-11.6627
lům	-11.6628
žku	-11.6629
▁hýčká	-11.6632
oslav	-11.6632
▁pliv	-11.6632
▁hraj	-11.6632
▁Slávy	-11.6633
tvrze	-11.6633
▁smaragd	-11.6633
kaj	-11.6636
věšen	-11.6637
▁schýlí	-11.6637
hlédneš	-11.6639
▁vrz	-11.6639
▁zrána	-11.664
▁prac	-11.664
▁pěla	-11.6642
▁úplňku	-11.6643
▁armád	-11.6643
▁mnohém	-11.6643
dechnout	-11.6643
▁bludy	-11.6643
▁prát	-11.6644
▁svůdné	-11.6644
▁polibcích	-11.6644
▁brnění	-11.6644
▁bezedné	-11.6645
▁groš	-11.6646
▁bedra	-11.6647
▁sester	-11.6648
zbyl	-11.6649
▁naopak	-11.6652
▁Ce	-11.6654
▁modliteb	-11.6655
▁děda	-11.6655
▁oblakům	-11.6655
▁strží	-11.6655
▁zobák	-11.6656
▁háda	-11.6656
▁zahřeje	-11.6656
lú	-11.6657
stem	-11.6658
star	-11.6658
▁hvězdná	-11.6658
▁šatem	-11.666
▁die	-11.666
vzhůru	-11.6662
▁zůstaly	-11.6664
čítá	-11.6664
▁nalezen	-11.6664
pučí	-11.6664
▁skonu	-11.6665
Hněv	-11.6666
Šťastn	-11.6667
Dříve	-11.6667
niknout	-11.6668
mývá	-11.6668
voněl	-11.6669
▁správné	-11.6669
▁ovlád	-11.667
ostatní	-11.667
▁uslyší	-11.6671
vějí	-11.6671
▁vládnout	-11.6671
▁brus	-11.6671
▁kladl	-11.6672
vítat	-11.6673
klamán	-11.6673
▁zlostí	-11.6674
▁oblečen	-11.6675
▁nenávidím	-11.6676
ovnice	-11.6677
dlouhé	-11.6678
Půl	-11.6678
▁stezku	-11.6678
Píšu	-11.668
▁pevnost	-11.668
▁najdou	-11.668
▁hanba	-11.6681
▁vláhu	-11.6681
▁devět	-11.6682
▁škola	-11.6683
laděn	-11.6684
▁odcházel	-11.6685
Hy	-11.6686
▁ohrad	-11.6686
▁mostu	-11.6687
▁kalný	-11.6687
▁koruna	-11.6688
▁plesy	-11.6688
stie	-11.6688
▁klekl	-11.6689
pka	-11.6689
▁všechněm	-11.669
▁snět	-11.669
fá	-11.6691
ryl	-11.6692
▁činem	-11.6692
▁osamělá	-11.6694
puštění	-11.6696
rozený	-11.6696
▁baru	-11.6697
▁usmíváš	-11.6698
▁doposud	-11.6698
▁příjde	-11.6698
▁roman	-11.67
▁slídí	-11.6701
▁Lazar	-11.6701
▁hledy	-11.6703
▁zrazen	-11.6703
▁Venuše	-11.6704
▁rež	-11.6706
▁oddych	-11.6708
▁hleďte	-11.6709
hostil	-11.671
Takhle	-11.6711
▁páně	-11.6712
▁skutečně	-11.6713
▁letím	-11.6713
▁srdíčko	-11.6713
▁vzňal	-11.6713
bab	-11.6714
▁přátele	-11.6714
▁klika	-11.6714
křivá	-11.6716
▁vlastenec	-11.6716
▁lavin	-11.6717
▁vodami	-11.6717
▁upřímný	-11.672
tajil	-11.6722
▁hany	-11.6723
bírám	-11.6724
vzácn	-11.6724
▁fre	-11.6725
▁bojíš	-11.6726
▁lačné	-11.6726
▁šu	-11.6726
▁haluz	-11.6727
létl	-11.6727
lovat	-11.6728
▁křiž	-11.6729
▁železné	-11.6732
kosti	-11.6732
▁ublížil	-11.6732
vůbec	-11.6733
snít	-11.6734
▁mýlí	-11.6734
▁srdc	-11.6737
▁rozlévá	-11.6738
▁zbytečně	-11.6739
pky	-11.6743
▁hrdou	-11.6743
▁Miluji	-11.6743
děsí	-11.6747
Věčný	-11.6748
Raději	-11.6748
▁božskou	-11.6748
▁spirál	-11.6748
▁nepomůže	-11.6749
▁bába	-11.6749
▁nástrah	-11.6749
▁neleká	-11.6751
▁seč	-11.6753
▁sytí	-11.6754
Mráz	-11.6754
▁pozdravil	-11.6754
plať	-11.6754
▁neřesti	-11.6754
▁reku	-11.6755
tmou	-11.6756
lými	-11.6757
Miláčku	-11.6759
služ	-11.6759
▁rychlo	-11.6759
▁sestru	-11.676
▁trik	-11.676
▁sivý	-11.676
▁kolen	-11.676
tiší	-11.676
▁mravy	-11.6761
▁proměněn	-11.6762
▁nepřichází	-11.6763
▁perlí	-11.6763
▁mrazivé	-11.6763
odhal	-11.6765
▁lilií	-11.6766
▁vřelou	-11.6767
▁celičký	-11.6768
▁zmůže	-11.6769
▁pochval	-11.677
Snažím	-11.6773
▁tát	-11.6774
▁rytíře	-11.6774
hodná	-11.6775
▁divným	-11.6775
▁kaz	-11.6775
▁tekou	-11.6777
▁mozol	-11.6779
▁ničemu	-11.6779
očima	-11.6779
Tře	-11.6781
▁pozdraví	-11.6781
▁vkročil	-11.6782
šer	-11.6782
▁koleje	-11.6782
▁pergamen	-11.6783
▁snídani	-11.6783
▁lístků	-11.6783
▁rouškou	-11.6783
▁divadla	-11.6785
▁snaž	-11.6785
▁svíčka	-11.6785
▁roztál	-11.6786
ivého	-11.6787
Slza	-11.679
onů	-11.679
„	-11.6791
[...]
