<unk>	0
<s>	0
</s>	0
<pad>	0
,	-3.1894
▁the	-3.29847
,¬	-3.43059
¬	-3.69161
'	-3.93677
▁and	-4.03615
s	-4.04649
▁of	-4.23125
▁to	-4.35698
.¬	-4.37059
▁a	-4.46331
And	-4.52694
▁in	-4.64524
;¬	-4.70861
▁I	-4.9688
-	-5.02414
The	-5.02582
▁his	-5.11296
▁that	-5.11444
.	-5.12592
▁with	-5.14058
d	-5.17526
▁	-5.21733
▁my	-5.38484
▁is	-5.41073
▁he	-5.46431
▁her	-5.48027
▁on	-5.55508
▁all	-5.56757
▁for	-5.63238
▁it	-5.7295
▁as	-5.73615
!¬	-5.73817
▁me	-5.74693
▁from	-5.75887
▁was	-5.76352
!	-5.77319
▁not	-5.77399
▁be	-5.79456
▁you	-5.80637
I	-5.81417
;	-5.85133
To	-5.93638
▁their	-5.94144
▁by	-5.94481
But	-6.01523
▁they	-6.01672
:¬	-6.0353
▁at	-6.06858
er	-6.0772
A	-6.1178
--	-6.12671
▁are	-6.12819
▁thy	-6.14473
▁we	-6.16325
▁so	-6.19188
That	-6.21321
▁she	-6.23864
▁this	-6.26224
▁or	-6.26636
▁him	-6.27364
In	-6.289
?¬	-6.32031
▁your	-6.33046
With	-6.34987
▁have	-6.35836
ed	-6.36036
▁no	-6.36441
▁"	-6.38337
For	-6.38871
ing	-6.40275
▁one	-6.41864
--¬	-6.42135
Of	-6.42585
▁our	-6.43083
▁will	-6.43242
e	-6.46095
▁love	-6.46248
▁'	-6.47335
▁but	-6.48503
He	-6.48871
▁heart	-6.49852
▁when	-6.50634
▁like	-6.51431
t	-6.54298
▁thou	-6.55587
▁shall	-6.57235
▁there	-6.57454
▁had	-6.57839
▁day	-6.58355
▁were	-6.59168
▁more	-6.60013
▁thee	-6.61173
▁now	-6.62859
▁who	-6.64848
When	-6.6797
▁its	-6.71132
:	-6.71702
As	-6.72702
’	-6.73069
▁them	-6.7331
▁an	-6.73319
▁o	-6.738
▁see	-6.77976
▁what	-6.79763
▁man	-6.82152
▁may	-6.83414
▁can	-6.84096
▁eyes	-6.84431
▁life	-6.85891
▁would	-6.86216
▁And	-6.86621
▁still	-6.87814
▁where	-6.89628
▁night	-6.9035
▁us	-6.91798
▁through	-6.92004
▁out	-6.92558
▁which	-6.92605
▁if	-6.94629
▁up	-6.95386
▁then	-6.96007
▁little	-6.96639
▁old	-6.97651
▁some	-6.98832
O	-6.99139
ll	-7.02016
▁light	-7.0209
▁long	-7.02193
▁upon	-7.02288
▁down	-7.02733
▁The	-7.02815
Then	-7.04681
_	-7.0502
▁never	-7.05145
▁know	-7.05641
So	-7.06316
Where	-7.07054
▁away	-7.08644
▁do	-7.10015
?	-7.1002
▁said	-7.11527
▁sweet	-7.12463
▁_	-7.13037
▁hand	-7.14369
▁men	-7.15911
His	-7.16138
▁did	-7.16358
▁come	-7.16708
▁fair	-7.17006
▁yet	-7.17617
My	-7.17771
They	-7.17986
Or	-7.18893
▁has	-7.18901
Who	-7.19598
From	-7.20479
She	-7.21116
▁soul	-7.22379
▁could	-7.22438
What	-7.23795
▁well	-7.24038
▁must	-7.24191
▁world	-7.24207
▁such	-7.24794
▁way	-7.25411
ly	-7.25756
▁again	-7.25866
▁sea	-7.26257
▁each	-7.26623
▁God	-7.26722
▁too	-7.26993
▁every	-7.27657
▁go	-7.27924
▁good	-7.28241
We	-7.28804
▁here	-7.29139
▁should	-7.30502
▁than	-7.31259
▁face	-7.32089
▁made	-7.32704
It	-7.3441
.¬"	-7.34541
▁sun	-7.34672
▁own	-7.35272
."¬	-7.35969
▁time	-7.3654
▁these	-7.366
▁earth	-7.37344
▁many	-7.37677
No	-7.38252
▁ever	-7.38384
▁say	-7.38463
▁came	-7.38509
There	-7.38748
▁last	-7.38844
▁how	-7.39134
▁great	-7.39152
▁those	-7.39227
▁far	-7.39303
On	-7.4069
If	-7.42678
▁might	-7.42964
y	-7.43366
n	-7.45297
All	-7.45434
▁make	-7.45937
By	-7.46538
▁head	-7.47627
▁let	-7.48667
▁ye	-7.49114
▁before	-7.49819
▁round	-7.49978
▁O	-7.50568
Nor	-7.50741
▁dead	-7.51578
▁high	-7.52669
in	-7.53301
▁thought	-7.54224
▁once	-7.54258
How	-7.55344
▁land	-7.56293
▁death	-7.57187
▁nor	-7.57757
You	-7.58499
st	-7.58648
▁white	-7.58826
▁bright	-7.5907
▁air	-7.59416
▁first	-7.5999
▁dear	-7.60017
Now	-7.60939
Which	-7.61647
While	-7.62028
,¬"	-7.62082
▁back	-7.62384
m	-7.62516
▁while	-7.62821
Her	-7.62988
▁rest	-7.63198
▁hear	-7.64234
▁other	-7.64543
Yet	-7.64572
This	-7.65268
re	-7.65756
▁things	-7.66882
▁name	-7.66898
▁saw	-7.67802
,--¬	-7.68354
An	-7.6881
▁song	-7.68849
▁heard	-7.70161
ve	-7.70245
▁only	-7.70412
▁into	-7.70724
▁place	-7.71714
Like	-7.72416
▁mine	-7.72621
▁thus	-7.72663
▁tell	-7.72761
▁whose	-7.72881
▁lay	-7.73433
▁wind	-7.73472
▁deep	-7.74218
,"	-7.74305
▁sky	-7.74666
a	-7.74834
▁home	-7.74888
▁been	-7.76195
▁eye	-7.76421
▁take	-7.76455
▁though	-7.7679
▁joy	-7.76894
▁am	-7.77068
es	-7.77411
▁find	-7.78204
▁/	-7.78216
▁dark	-7.78766
▁wild	-7.78847
At	-7.79246
Is	-7.79846
▁mind	-7.80063
▁feet	-7.80233
▁look	-7.80619
▁new	-7.80673
▁alone	-7.80788
▁gold	-7.81914
▁fire	-7.81915
▁art	-7.82071
▁heaven	-7.82122
▁green	-7.82804
▁think	-7.82951
▁give	-7.83185
▁true	-7.83265
▁over	-7.83799
Oh	-7.84286
r	-7.84987
▁side	-7.86251
▁full	-7.86453
▁days	-7.87379
▁breast	-7.87463
▁years	-7.87498
▁care	-7.88317
▁young	-7.88778
Till	-7.88902
▁voice	-7.89144
▁hath	-7.89757
▁went	-7.89843
▁left	-7.89941
▁rose	-7.9047
▁He	-7.91157
▁But	-7.91588
▁found	-7.91742
▁fear	-7.92452
▁very	-7.9259
▁much	-7.93876
▁A	-7.9389
▁hands	-7.94673
▁vain	-7.94682
Thy	-7.95149
▁hour	-7.95803
en	-7.95815
▁red	-7.96
▁done	-7.9622
▁die	-7.97112
▁best	-7.97155
Their	-7.97473
▁free	-7.97536
Thou	-7.98101
▁above	-7.98475
▁two	-7.98568
▁mother	-7.98575
▁about	-7.98659
▁tears	-7.98669
."	-7.98878
!"¬	-7.99066
▁blood	-7.99179
▁thine	-7.99817
▁sight	-8.00145
▁thing	-8.00248
▁blue	-8.0108
▁fall	-8.01084
▁right	-8.01136
▁king	-8.01375
▁pain	-8.0165
▁knew	-8.02037
▁call	-8.02066
▁golden	-8.02355
▁sleep	-8.02501
▁sing	-8.0326
▁dream	-8.03765
▁near	-8.03853
▁till	-8.04723
▁hope	-8.04836
▁seen	-8.04949
Not	-8.05351
▁most	-8.0549
▁cold	-8.06441
▁words	-8.06915
Let	-8.07158
▁arms	-8.07548
▁doth	-8.07694
Though	-8.08405
and	-8.08538
▁flowers	-8.0854
▁soon	-8.09179
▁hair	-8.09522
▁child	-8.10213
▁live	-8.10358
▁stood	-8.10417
,--	-8.10907
▁lips	-8.11319
▁set	-8.12282
▁word	-8.12379
▁sound	-8.12517
▁whom	-8.12903
One	-8.13061
!"	-8.13065
▁within	-8.13151
▁half	-8.13688
▁Love	-8.13708
▁low	-8.13891
▁beauty	-8.1397
▁poor	-8.14036
▁just	-8.14121
▁friend	-8.14336
▁forth	-8.14406
▁keep	-8.15232
▁without	-8.15929
▁meet	-8.16182
▁pass	-8.1621
▁play	-8.16653
▁soft	-8.16782
▁gave	-8.17073
Tis	-8.17104
▁grace	-8.17326
▁breath	-8.17654
▁spirit	-8.1777
▁strong	-8.18196
▁sad	-8.18211
▁bear	-8.18464
▁stand	-8.18545
Was	-8.18562
▁gone	-8.18885
the	-8.19039
▁any	-8.19215
▁shore	-8.19245
▁lost	-8.19264
▁happy	-8.19318
Our	-8.19337
▁power	-8.19429
▁lie	-8.195
▁moon	-8.19605
Some	-8.19607
▁turn	-8.19685
▁(	-8.19939
▁youth	-8.22083
▁morning	-8.22767
▁son	-8.22804
▁past	-8.22946
Through	-8.23002
▁fell	-8.23096
▁un	-8.23169
▁wide	-8.23721
▁tree	-8.23803
▁around	-8.24549
Whose	-8.24696
▁skies	-8.25361
▁end	-8.26069
▁beneath	-8.26073
▁To	-8.26199
▁smile	-8.26363
:¬"	-8.27415
▁stars	-8.28241
Here	-8.28316
▁leave	-8.28494
▁bring	-8.28595
▁ground	-8.28608
Ah	-8.28704
▁summer	-8.28728
tis	-8.28938
▁clear	-8.29047
▁glory	-8.29092
▁part	-8.29103
▁kind	-8.29319
▁along	-8.29795
▁mighty	-8.30091
▁King	-8.30116
▁leaves	-8.30358
▁pride	-8.30654
▁bed	-8.30803
▁lies	-8.31666
▁hearts	-8.31828
▁same	-8.31981
▁none	-8.32008
▁peace	-8.32107
▁rise	-8.32335
▁Lord	-8.3257
▁off	-8.32729
▁sorrow	-8.33029
▁comes	-8.33402
▁door	-8.33544
▁plain	-8.34
▁both	-8.34124
▁cannot	-8.34339
▁took	-8.34726
▁star	-8.3488
▁war	-8.35201
▁His	-8.35248
▁loved	-8.3541
day	-8.35572
▁year	-8.35692
▁hold	-8.35928
▁grave	-8.35989
▁father	-8.3641
▁feel	-8.36659
▁cry	-8.37057
▁hill	-8.37281
Shall	-8.37995
▁black	-8.38119
▁music	-8.38275
▁ne	-8.3856
▁In	-8.38803
▁even	-8.38849
Are	-8.39126
▁after	-8.39721
"	-8.39866
▁snow	-8.40276
▁de	-8.40396
▁e	-8.40405
▁town	-8.40489
▁work	-8.40994
▁water	-8.41089
▁For	-8.41512
▁seem	-8.41638
▁rain	-8.41966
▁truth	-8.42175
th	-8.42184
ry	-8.42433
Your	-8.42627
▁wings	-8.42649
Why	-8.42741
▁woe	-8.43207
▁flame	-8.43492
▁show	-8.43665
)	-8.44591
Upon	-8.4509
▁children	-8.45209
▁fight	-8.45627
▁house	-8.45813
▁fate	-8.4596
▁race	-8.46037
▁spring	-8.46175
Thus	-8.46366
▁unto	-8.4668
▁flower	-8.46779
▁trees	-8.47303
▁.	-8.47535
est	-8.47544
Come	-8.47585
▁grief	-8.47865
Be	-8.48746
▁cried	-8.48992
▁Heaven	-8.49064
▁pale	-8.49307
eth	-8.49436
▁dreams	-8.49541
▁ere	-8.49662
▁behind	-8.49692
▁shade	-8.49852
▁below	-8.49953
Each	-8.50243
▁fly	-8.50353
▁run	-8.50404
▁kiss	-8.50962
▁three	-8.51079
▁woman	-8.51316
▁wood	-8.51318
▁friends	-8.51677
▁form	-8.52071
▁better	-8.52252
▁view	-8.52877
▁silent	-8.52973
▁brave	-8.5308
▁lady	-8.53093
▁told	-8.53096
▁wife	-8.53119
▁why	-8.53123
▁stream	-8.5338
▁bird	-8.53422
▁brought	-8.53562
▁praise	-8.53645
▁lord	-8.5366
▁close	-8.53759
▁mountain	-8.54074
▁weary	-8.54182
▁thousand	-8.54294
l	-8.5463
▁wise	-8.54635
▁strange	-8.54686
▁fast	-8.54943
Such	-8.55054
Than	-8.55333
▁delight	-8.55402
▁gentle	-8.55504
▁fame	-8.5588
▁stay	-8.56503
▁holy	-8.56898
▁laid	-8.56901
▁gay	-8.57177
▁another	-8.57341
▁silver	-8.57492
▁wine	-8.5751
Had	-8.57554
▁need	-8.57595
▁hast	-8.57648
Still	-8.57935
▁human	-8.58196
▁speak	-8.58196
▁seek	-8.58215
▁dim	-8.58398
▁proud	-8.5845
▁people	-8.58468
▁pray	-8.58648
▁blow	-8.58786
▁glad	-8.59177
S	-8.59336
▁Then	-8.59361
▁nothing	-8.59512
▁brow	-8.59552
▁morn	-8.59623
▁less	-8.59925
▁boy	-8.59941
less	-8.60094
▁grew	-8.60126
▁hard	-8.60153
▁sword	-8.60359
▁noble	-8.60566
▁seemed	-8.60705
▁crown	-8.60784
▁grow	-8.61689
▁thoughts	-8.62309
▁foe	-8.62575
▁wave	-8.62607
▁winds	-8.62977
▁maid	-8.63019
These	-8.63184
▁tender	-8.63576
▁battle	-8.63739
Will	-8.63933
▁rich	-8.63943
)¬	-8.63944
▁th	-8.64005
▁warm	-8.64032
▁read	-8.64069
▁field	-8.64094
▁dust	-8.64358
▁bold	-8.64792
▁age	-8.64993
▁known	-8.65142
▁strength	-8.65144
▁turned	-8.65704
▁small	-8.65865
▁waves	-8.65931
▁brother	-8.65982
c	-8.66066
▁shame	-8.66275
▁divine	-8.66462
▁bosom	-8.66922
▁ear	-8.67008
▁That	-8.67996
▁ill	-8.68053
▁won	-8.6809
▁hours	-8.68142
▁under	-8.68266
▁cast	-8.68406
▁cloud	-8.68428
▁hills	-8.68526
▁beside	-8.68643
▁wish	-8.68876
▁lovely	-8.69217
▁late	-8.69295
▁river	-8.69341
▁passed	-8.69444
."¬"	-8.69719
▁wonder	-8.69857
▁sure	-8.69971
▁bow	-8.70635
▁whole	-8.70734
▁birds	-8.7075
▁pure	-8.70865
▁dawn	-8.70942
▁living	-8.71323
▁grass	-8.71445
!--	-8.71671
▁flow	-8.71739
▁among	-8.71933
▁save	-8.7194
▁goes	-8.72015
▁died	-8.72044
▁stone	-8.7247
▁knows	-8.72477
¬(	-8.72799
▁makes	-8.72806
▁storm	-8.72828
▁silence	-8.72967
▁bore	-8.73021
▁clouds	-8.73168
▁prayer	-8.73317
▁since	-8.73638
¬"	-8.73708
▁faith	-8.73935
▁With	-8.74146
▁felt	-8.744
▁wrong	-8.74562
▁loud	-8.74609
▁himself	-8.7466
▁seems	-8.74783
▁born	-8.748
E	-8.75186
▁sigh	-8.75188
▁When	-8.7558
▁pleasure	-8.76123
▁against	-8.76129
▁So	-8.76182
▁put	-8.76369
▁country	-8.76395
▁watch	-8.76395
▁shine	-8.7686
▁tale	-8.77201
Were	-8.7731
▁open	-8.77323
▁strife	-8.77442
▁oft	-8.77639
▁touch	-8.77846
▁wait	-8.78386
▁spoke	-8.78477
▁--	-8.79091
ring	-8.79259
o	-8.79283
▁always	-8.79359
God	-8.79399
▁dew	-8.79756
al	-8.79985
▁break	-8.80171
▁sin	-8.80207
▁slow	-8.80412
▁bound	-8.80429
like	-8.80503
▁sought	-8.80652
▁held	-8.80768
▁calm	-8.81328
▁wall	-8.81538
▁fill	-8.81668
▁waters	-8.81901
▁gray	-8.81902
Have	-8.81921
Love	-8.82152
▁led	-8.82155
▁course	-8.82378
▁self	-8.82617
▁glorious	-8.82676
Would	-8.82689
▁garden	-8.82777
▁fled	-8.82799
▁fields	-8.82932
▁ask	-8.82935
▁quite	-8.83116
is	-8.83328
▁arm	-8.83488
▁Of	-8.83494
▁looked	-8.8372
to	-8.83784
▁together	-8.83979
▁moment	-8.83995
ers	-8.84083
▁got	-8.84093
▁city	-8.84277
▁spread	-8.84377
May	-8.84601
▁line	-8.84668
▁desire	-8.85085
Before	-8.85147
▁oh	-8.85212
▁body	-8.85363
▁mortal	-8.8541
▁dread	-8.85597
▁ancient	-8.85612
▁sent	-8.8566
▁beyond	-8.85985
▁tide	-8.86134
ness	-8.86146
▁few	-8.86236
▁does	-8.86256
▁get	-8.86885
▁She	-8.86903
▁gain	-8.8711
▁sat	-8.87311
▁began	-8.87401
▁times	-8.87427
▁doubt	-8.87711
▁being	-8.88084
▁Thy	-8.88108
▁ocean	-8.88143
▁darkness	-8.88181
▁broken	-8.8827
▁sit	-8.88505
▁knight	-8.89287
▁flight	-8.89294
▁lonely	-8.89374
▁sacred	-8.89471
Twas	-8.89556
▁change	-8.89796
▁weep	-8.89849
▁wi	-8.89927
▁tear	-8.90181
▁worth	-8.902
▁birth	-8.90234
▁winter	-8.90366
▁met	-8.90392
▁Nature	-8.90527
▁forest	-8.90765
▁evening	-8.90865
▁lives	-8.91299
▁souls	-8.91454
▁fierce	-8.91538
▁answer	-8.9155
▁train	-8.91569
▁between	-8.9174
;¬"	-8.91811
▁wing	-8.91823
▁shadow	-8.91933
▁secret	-8.91946
▁sense	-8.91992
▁road	-8.92177
▁state	-8.92409
▁glow	-8.92835
▁drink	-8.92872
▁maiden	-8.929
T	-8.93031
Ye	-8.93121
Since	-8.93173
▁drew	-8.93578
▁behold	-8.93668
Its	-8.93725
us	-8.93958
▁tongue	-8.93973
as	-8.9401
▁cause	-8.94055
▁gods	-8.94064
▁bliss	-8.94089
▁queen	-8.94094
▁nature	-8.94259
▁cheek	-8.94336
▁path	-8.94366
▁bloom	-8.94468
▁As	-8.94486
▁ring	-8.94757
▁looks	-8.94928
▁ways	-8.95022
▁toil	-8.95693
▁fresh	-8.95878
▁bare	-8.95945
▁passion	-8.95983
Can	-8.96046
▁fine	-8.96472
▁next	-8.9664
▁blind	-8.97101
an	-8.97127
▁lover	-8.9713
▁ran	-8.97235
▁return	-8.97321
▁others	-8.97812
▁gloom	-8.97851
▁across	-8.97985
it	-8.98029
▁follow	-8.98132
▁woods	-8.98456
▁rage	-8.98568
▁stands	-8.98737
▁May	-8.98792
▁Thou	-8.98805
Do	-8.98887
▁walls	-8.98925
▁win	-8.99066
man	-8.99157
▁Death	-8.99264
▁--¬	-9.00036
▁ago	-9.00684
▁master	-9.00876
▁forget	-9.00937
▁dare	-9.0094
▁often	-9.0094
▁swift	-9.01024
▁given	-9.0111
▁quiet	-9.01217
▁merry	-9.01472
▁What	-9.01493
▁don	-9.01599
▁There	-9.01644
▁We	-9.01664
▁lo	-9.01772
▁share	-9.02028
▁foot	-9.0251
▁beat	-9.02672
▁spake	-9.02751
▁force	-9.0313
Into	-9.0327
▁royal	-9.03525
▁walk	-9.03536
▁called	-9.03579
▁throne	-9.03602
▁reach	-9.03623
▁trust	-9.03625
;--¬	-9.03952
▁length	-9.04312
▁horse	-9.04341
▁brown	-9.04713
Those	-9.04735
▁They	-9.04752
▁wear	-9.04815
▁room	-9.05016
▁My	-9.05021
▁bitter	-9.05295
▁bent	-9.05441
▁hundred	-9.05511
?"¬	-9.05923
▁help	-9.06065
▁shining	-9.06069
▁band	-9.06191
▁want	-9.06486
▁coming	-9.06675
▁grey	-9.06681
See	-9.06902
▁god	-9.07091
▁cries	-9.07098
▁pay	-9.07139
on	-9.07379
▁gaze	-9.07383
▁least	-9.07575
▁sudden	-9.07642
▁short	-9.07665
▁pity	-9.07927
i	-9.08025
▁shadows	-9.0806
▁aid	-9.08178
▁lead	-9.08367
▁rock	-9.08575
▁gate	-9.08629
▁It	-9.08683
▁scorn	-9.0874
▁purple	-9.08824
▁street	-9.08861
▁longer	-9.09042
▁faint	-9.09082
▁distant	-9.09097
▁dying	-9.09131
▁learn	-9.09136
▁hate	-9.0926
em	-9.09405
▁No	-9.09516
▁says	-9.09639
▁cheer	-9.09721
Down	-9.09772
▁laugh	-9.09873
▁ride	-9.09883
▁beautiful	-9.0993
▁enough	-9.10219
▁S	-9.10309
▁burning	-9.10492
▁seas	-9.10518
▁bless	-9.112
▁kept	-9.1126
▁Oh	-9.11404
▁thro	-9.11405
▁sake	-9.11421
▁dwell	-9.11433
Has	-9.11454
▁despair	-9.11512
▁Time	-9.11545
▁appear	-9.11583
▁sons	-9.11884
▁burn	-9.12015
twas	-9.12252
▁Sir	-9.12255
Out	-9.12333
Far	-9.12383
▁weak	-9.12384
▁blest	-9.12512
?"	-9.12737
▁ship	-9.12863
▁dance	-9.13323
Sweet	-9.1337
▁slain	-9.13401
▁singing	-9.13452
▁breeze	-9.13557
▁hide	-9.1402
▁shalt	-9.14125
p	-9.14127
▁ease	-9.14144
▁heavy	-9.14252
▁heavenly	-9.14262
▁story	-9.1462
▁women	-9.15024
▁yellow	-9.15359
▁bid	-9.15412
▁welcome	-9.15901
or	-9.15944
▁nigh	-9.16171
▁space	-9.16266
▁-¬	-9.16528
▁memory	-9.16779
▁pleasant	-9.17001
▁mouth	-9.17012
▁hell	-9.17084
▁brain	-9.17255
le	-9.17317
▁bride	-9.17319
Ere	-9.17409
▁strain	-9.17566
Well	-9.17577
▁flew	-9.17595
▁early	-9.17649
▁honour	-9.17666
for	-9.17775
▁shed	-9.17923
More	-9.17929
but	-9.18164
,"¬	-9.18167
▁hopes	-9.1857
▁roses	-9.1868
ie	-9.18869
▁mark	-9.19112
▁thunder	-9.1918
▁please	-9.19321
▁quick	-9.19498
Beneath	-9.19583
▁broke	-9.19584
▁sail	-9.19662
▁yon	-9.19906
night	-9.20185
▁cruel	-9.20213
Go	-9.2024
▁sang	-9.20256
▁wealth	-9.2031
▁something	-9.20372
Just	-9.20409
▁trembling	-9.20474
▁hot	-9.2053
▁ears	-9.2081
▁wrought	-9.20949
▁tread	-9.21282
▁move	-9.21792
▁else	-9.22094
▁monarch	-9.22192
▁shield	-9.22203
Over	-9.22209
▁host	-9.22255
▁lands	-9.22558
▁send	-9.22721
▁fond	-9.22871
he	-9.22892
▁indeed	-9.22898
▁scarce	-9.22939
Un	-9.23028
!¬"	-9.2349
▁flies	-9.23671
▁eternal	-9.23855
▁speech	-9.23871
▁sings	-9.2416
▁doom	-9.24255
▁chance	-9.24315
▁common	-9.24677
▁try	-9.2485
▁flood	-9.25065
▁smiles	-9.25114
_,	-9.25136
▁height	-9.25248
▁hall	-9.25411
▁myself	-9.2543
▁dull	-9.25442
rs	-9.25449
▁grown	-9.2546
Because	-9.25514
▁chief	-9.25694
.'¬	-9.25918
▁crowd	-9.26012
▁Ráma	-9.26026
▁foes	-9.26051
Within	-9.26236
Up	-9.26304
▁grows	-9.26324
▁roar	-9.26417
▁talk	-9.26432
▁guide	-9.26555
▁fancy	-9.26568
▁angel	-9.26643
▁speed	-9.26791
▁joys	-9.26921
▁cross	-9.26954
▁yield	-9.26982
▁broad	-9.27279
▁ten	-9.27281
▁dost	-9.2729
▁hung	-9.27307
▁roll	-9.27398
▁draw	-9.27441
▁vast	-9.27655
▁tall	-9.27787
▁Spring	-9.2799
▁All	-9.28252
▁pretty	-9.28488
▁hero	-9.28489
▁sore	-9.28889
▁use	-9.28997
▁used	-9.28997
▁fears	-9.29146
▁loves	-9.2941
▁daughter	-9.2976
▁book	-9.29908
▁remember	-9.29919
▁Queen	-9.3017
▁straight	-9.30245
▁wound	-9.30269
▁charm	-9.30375
▁command	-9.30404
u	-9.30423
▁evil	-9.30484
▁poet	-9.3052
▁cool	-9.30546
▁lived	-9.3059
▁kings	-9.30931
▁Now	-9.30974
▁If	-9.31186
▁main	-9.31285
▁wit	-9.31468
▁Earth	-9.31472
Even	-9.31544
▁girl	-9.31583
▁scene	-9.31622
▁haste	-9.31708
▁mad	-9.31904
.”¬	-9.3192
Should	-9.31993
at	-9.32088
▁t	-9.32113
▁Christ	-9.32225
▁shone	-9.32239
▁sister	-9.3225
▁tomb	-9.32467
▁Man	-9.32703
▁reason	-9.32914
▁fail	-9.33013
▁deeds	-9.33116
▁streams	-9.33164
▁iron	-9.33208
▁charms	-9.3327
▁wake	-9.33275
:¬“	-9.33413
▁ray	-9.33694
▁sway	-9.33712
▁future	-9.33725
▁loving	-9.33941
▁store	-9.33946
▁waste	-9.33964
ne	-9.3418
▁rare	-9.34185
▁nest	-9.34369
▁tried	-9.34441
▁rather	-9.34493
▁wilt	-9.34772
▁law	-9.34806
▁spot	-9.34929
k	-9.35176
▁cup	-9.35179
▁ev	-9.35435
▁mean	-9.35443
▁gives	-9.35457
▁filled	-9.35652
▁solemn	-9.35687
Did	-9.3571
▁present	-9.35783
▁sand	-9.35802
de	-9.35819
▁prize	-9.35935
Nay	-9.35953
▁deed	-9.3596
▁throng	-9.36187
▁gleam	-9.362
▁reign	-9.36283
▁You	-9.36345
Lo	-9.36493
▁native	-9.36663
▁window	-9.369
,¬(	-9.36911
▁vision	-9.3695
▁steps	-9.3704
▁noon	-9.37094
▁limbs	-9.37243
▁simple	-9.37244
▁Or	-9.37558
▁midnight	-9.37622
Only	-9.37658
▁wrath	-9.37689
▁“	-9.37701
▁cease	-9.3771
▁lot	-9.37726
▁passing	-9.37745
Until	-9.37779
▁floor	-9.37976
▁amid	-9.3804
▁unknown	-9.38047
▁sees	-9.38166
▁brings	-9.382
▁Who	-9.38358
▁perfect	-9.38609
▁caught	-9.38621
▁re	-9.38636
▁afar	-9.39055
▁fruit	-9.39063
▁large	-9.39152
▁laughter	-9.39206
▁taught	-9.39291
▁mountains	-9.39349
▁mirth	-9.39399
▁feast	-9.3952
▁dry	-9.39541
Two	-9.3973
▁sire	-9.39793
▁fain	-9.39892
▁heat	-9.39897
▁Life	-9.40135
▁smiled	-9.40381
▁sign	-9.40605
Full	-9.40637
▁faithful	-9.4065
▁boys	-9.40662
▁ready	-9.40701
▁false	-9.40725
▁rising	-9.40883
▁eat	-9.41016
Never	-9.41049
born	-9.41121
▁big	-9.41141
Long	-9.41181
▁dame	-9.41216
▁raise	-9.41386
▁prove	-9.41457
▁Mary	-9.4147
▁empty	-9.41517
▁mist	-9.41628
▁stern	-9.41712
▁England	-9.4173
▁claim	-9.41773
▁warrior	-9.41785
▁stranger	-9.41957
▁falls	-9.4201
▁songs	-9.42011
▁bread	-9.42025
▁court	-9.42061
▁sung	-9.42162
▁leaf	-9.42542
▁smiling	-9.42883
▁Him	-9.42896
▁How	-9.42982
ic	-9.43078
▁due	-9.43113
▁single	-9.43236
.¬_	-9.43535
▁Thee	-9.43586
▁note	-9.43593
▁gift	-9.44137
▁remain	-9.44169
g	-9.44661
▁alas	-9.44689
▁From	-9.44718
▁lofty	-9.44815
morrow	-9.44958
▁takes	-9.44967
▁Where	-9.44969
▁guard	-9.45361
▁wander	-9.45378
ish	-9.45389
ion	-9.45461
▁sighs	-9.45472
▁baby	-9.45578
▁One	-9.45644
▁neither	-9.45738
▁sometimes	-9.45751
▁flesh	-9.45815
▁wondrous	-9.45817
Give	-9.45831
!--¬	-9.45885
▁steel	-9.45914
ful	-9.45926
▁This	-9.46013
Good	-9.46025
▁fit	-9.46115
▁neck	-9.46218
▁rocks	-9.46233
▁trace	-9.46246
men	-9.46268
Could	-9.46376
▁bade	-9.46409
▁dog	-9.46421
▁step	-9.46446
▁Her	-9.4647
▁west	-9.46516
▁yonder	-9.4658
▁either	-9.46811
▁smoke	-9.47033
▁turns	-9.4705
ling	-9.47126
Once	-9.47276
▁twilight	-9.47435
▁sick	-9.47718
--¬"	-9.47759
▁spell	-9.47762
▁chain	-9.47847
▁borne	-9.47892
▁sunshine	-9.48068
Old	-9.48259
▁foam	-9.48444
Alas	-9.48494
▁safe	-9.48519
▁softly	-9.4856
Look	-9.4869
▁lone	-9.488
▁fortune	-9.48904
▁hid	-9.48926
▁spent	-9.48961
▁bells	-9.48964
▁wandering	-9.493
▁An	-9.49306
▁bad	-9.49375
▁Jove	-9.49402
▁wet	-9.49493
▁task	-9.49687
Yes	-9.49908
▁blast	-9.50103
▁fool	-9.5019
;--	-9.502
▁taste	-9.50385
▁angels	-9.50394
▁immortal	-9.504
▁lift	-9.50482
▁virtue	-9.5074
▁glass	-9.50916
▁folk	-9.50972
▁steed	-9.51013
▁fingers	-9.51173
▁four	-9.51273
▁magic	-9.51415
▁comfort	-9.51587
▁rode	-9.51826
▁pine	-9.51851
▁glance	-9.51911
▁knee	-9.51936
▁awful	-9.52058
▁cut	-9.52129
▁clay	-9.52158
▁raised	-9.52166
▁prey	-9.5251
▁faces	-9.52551
▁thick	-9.52695
▁ships	-9.52712
▁content	-9.52878
▁hue	-9.52901
▁John	-9.52915
▁loss	-9.52919
▁itself	-9.53043
▁thin	-9.53137
▁duty	-9.53144
▁because	-9.53281
▁tho	-9.53416
▁Yet	-9.53438
▁skill	-9.53593
▁spear	-9.53749
▁keen	-9.53801
▁write	-9.53944
Too	-9.53978
▁hollow	-9.54086
▁matter	-9.54087
▁second	-9.54244
▁dies	-9.54284
▁nought	-9.54323
▁crimson	-9.544
▁lake	-9.54407
▁crew	-9.54409
▁slowly	-9.54456
▁ah	-9.54466
▁frame	-9.54517
▁fleet	-9.54564
▁fairy	-9.54591
▁brook	-9.54644
Under	-9.54652
▁spirits	-9.54727
▁rosy	-9.54814
▁humble	-9.54827
▁going	-9.54833
▁blessed	-9.54979
▁swell	-9.55028
Dear	-9.55102
no	-9.55192
▁blows	-9.55213
Must	-9.55286
▁drop	-9.55411
▁fires	-9.55453
▁eager	-9.55499
▁press	-9.5551
▁tower	-9.55584
▁ruin	-9.55609
able	-9.55726
▁bay	-9.55831
▁believe	-9.5587
▁palace	-9.56055
ment	-9.56087
▁bell	-9.5611
▁sunny	-9.56188
▁cares	-9.56205
:--¬	-9.56363
tree	-9.56408
▁Father	-9.56653
▁flying	-9.56751
▁slave	-9.56762
▁apart	-9.56861
▁surely	-9.56945
▁join	-9.57161
▁sunset	-9.5725
▁hidden	-9.57321
Take	-9.57405
▁prince	-9.57456
Without	-9.57524
▁weather	-9.57548
▁corn	-9.57804
▁wisdom	-9.57888
b	-9.58082
▁calls	-9.58116
▁weeping	-9.58232
ian	-9.58254
h	-9.58336
▁base	-9.5835
▁lose	-9.58563
?--	-9.58566
▁themselves	-9.58939
te	-9.59073
▁track	-9.59081
▁voices	-9.5914
▁darling	-9.592
▁game	-9.59223
▁bend	-9.59377
▁dress	-9.59387
▁greet	-9.59519
▁giant	-9.5958
▁blame	-9.59593
Life	-9.59717
▁smooth	-9.59742
▁church	-9.59777
▁forever	-9.59892
Above	-9.60078
▁shook	-9.60171
▁shrine	-9.60322
▁roam	-9.6042
▁gifts	-9.60431
▁grand	-9.60504
▁lad	-9.60963
▁arise	-9.60988
▁seat	-9.61197
that	-9.61421
▁vale	-9.61628
▁watched	-9.61642
▁steep	-9.61695
Against	-9.61816
▁i	-9.61896
▁food	-9.61979
▁replied	-9.62063
▁bit	-9.62071
Whom	-9.62299
▁rule	-9.62344
me	-9.62402
▁lovers	-9.62455
▁rude	-9.62467
▁English	-9.62508
▁fellow	-9.62547
Fair	-9.6303
▁mourn	-9.63054
▁bower	-9.63123
▁shades	-9.63124
▁aside	-9.63401
▁husband	-9.63518
▁honor	-9.63637
▁fed	-9.63683
so	-9.63807
▁wore	-9.63839
▁woes	-9.63864
▁earthly	-9.63909
▁springs	-9.6409
▁naught	-9.6411
ning	-9.64151
▁On	-9.64193
▁shape	-9.64209
▁tempest	-9.64365
▁treasure	-9.64472
▁curse	-9.64482
▁learned	-9.64654
▁guest	-9.64761
▁burst	-9.64796
▁pair	-9.64796
▁mild	-9.64941
▁whence	-9.6505
▁fury	-9.65106
▁shout	-9.65119
(	-9.6525
▁teach	-9.65282
▁sheep	-9.6529
ation	-9.65311
▁Fate	-9.65316
▁falling	-9.65578
▁cheeks	-9.65616
▁sounds	-9.6567
▁listen	-9.657
▁bark	-9.65797
▁repose	-9.6589
▁veil	-9.66035
▁vow	-9.66135
▁roof	-9.66183
be	-9.6619
▁desert	-9.6619
▁freedom	-9.6622
f	-9.66253
▁begin	-9.66426
▁Lady	-9.6659
▁dreadful	-9.66956
▁Ah	-9.66979
▁heads	-9.67022
Great	-9.6709
▁sped	-9.67143
▁equal	-9.67259
▁sharp	-9.67372
Soon	-9.67523
▁also	-9.67542
▁spare	-9.67569
▁wept	-9.67585
▁By	-9.67624
▁rhyme	-9.67687
▁blossom	-9.67898
▁serve	-9.67975
▁France	-9.68142
▁stately	-9.68261
▁tune	-9.68311
by	-9.68328
▁unseen	-9.68402
▁priest	-9.68419
▁rough	-9.6845
▁catch	-9.68501
time	-9.68527
▁array	-9.68626
▁beam	-9.68631
na	-9.68711
?"¬"	-9.68786
▁forgot	-9.68924
▁grim	-9.69036
▁until	-9.69048
▁nation	-9.69225
▁image	-9.69482
▁boughs	-9.69498
▁C	-9.69504
▁hail	-9.69574
ch	-9.69662
▁understand	-9.69732
▁start	-9.69757
um	-9.69841
▁anguish	-9.69978
red	-9.70121
▁point	-9.70292
▁car	-9.70295
▁idle	-9.7031
▁courage	-9.70341
eyed	-9.70433
Unto	-9.70493
▁sleeping	-9.70551
▁hence	-9.7058
▁stray	-9.7097
▁gates	-9.71005
▁pen	-9.71023
▁At	-9.71071
Save	-9.71145
▁fought	-9.71257
▁radiant	-9.71442
ce	-9.71477
▁daily	-9.71539
▁valley	-9.7159
▁promise	-9.71631
▁B	-9.71677
▁horn	-9.71738
▁presence	-9.71931
▁having	-9.72041
▁plan	-9.72123
im	-9.72166
▁worn	-9.72174
▁blossoms	-9.72267
▁trod	-9.72283
my	-9.72309
▁gently	-9.72337
Among	-9.72368
▁weight	-9.72381
High	-9.72388
▁foul	-9.72443
),¬	-9.72504
▁perhaps	-9.72574
--"	-9.72721
▁fold	-9.72726
▁worse	-9.72728
land	-9.7276
▁lip	-9.7279
▁whisper	-9.72808
▁clean	-9.72827
neath	-9.72919
▁needs	-9.73046
▁stain	-9.73088
▁kindly	-9.7313
▁nose	-9.73144
we	-9.73151
▁youthful	-9.73238
▁soil	-9.73336
Little	-9.73509
Came	-9.7378
Say	-9.73845
▁mercy	-9.74061
▁strike	-9.74088
▁rapture	-9.74103
Made	-9.74151
▁Christmas	-9.74182
▁lily	-9.74209
ies	-9.74244
▁holds	-9.74334
▁answered	-9.7434
▁feed	-9.74379
▁noise	-9.74445
▁sits	-9.74458
▁ghost	-9.74499
of	-9.74515
▁sage	-9.7473
▁struck	-9.74952
▁choose	-9.74973
▁awake	-9.74991
▁shut	-9.75135
▁fare	-9.75171
▁gazed	-9.75173
▁obey	-9.75238
▁endless	-9.7531
▁narrow	-9.75385
▁fiery	-9.75387
▁chill	-9.75562
▁gallant	-9.75747
▁page	-9.75846
▁played	-9.75913
▁journey	-9.75917
▁kissed	-9.75944
▁St	-9.76019
▁breathe	-9.76084
▁sweep	-9.76322
▁murmur	-9.76345
Behold	-9.76355
▁aye	-9.76368
▁tired	-9.76441
▁laughed	-9.76444
rous	-9.76488
▁grove	-9.76514
▁terror	-9.76573
▁beast	-9.76578
▁forms	-9.76631
▁kill	-9.76696
▁flames	-9.76701
▁notes	-9.76817
ia	-9.76908
▁honest	-9.76915
▁slumber	-9.76997
▁aught	-9.76998
▁shines	-9.77022
▁marble	-9.77218
▁powers	-9.7723
se	-9.77397
._¬	-9.77511
▁deck	-9.77516
▁triumph	-9.77516
▁slept	-9.77587
▁season	-9.77718
▁ladies	-9.77801
▁herself	-9.77894
▁swear	-9.7791
▁tone	-9.77963
▁beams	-9.78153
▁chase	-9.78199
▁paid	-9.78553
▁blaze	-9.78574
▁climb	-9.78603
▁shot	-9.78762
▁begun	-9.78783
▁certain	-9.78792
▁eve	-9.78814
▁torn	-9.78866
About	-9.78882
▁warriors	-9.79014
▁stir	-9.79063
▁soldier	-9.7907
▁pour	-9.79145
▁order	-9.79181
▁boast	-9.79339
▁case	-9.79482
▁laws	-9.79502
▁crystal	-9.79541
un	-9.79544
▁locks	-9.79614
Yea	-9.7966
▁front	-9.79685
▁West	-9.79718
▁altar	-9.79719
▁fade	-9.79977
Make	-9.80022
▁rush	-9.80092
▁throat	-9.80107
▁shake	-9.8016
▁fallen	-9.80179
▁Night	-9.8024
▁changed	-9.80264
▁worthy	-9.80314
▁Troy	-9.80317
▁naked	-9.80344
▁lines	-9.80456
▁almost	-9.80584
ter	-9.80588
▁growing	-9.80706
Across	-9.80837
▁oak	-9.80886
▁autumn	-9.80895
▁angry	-9.8091
▁moved	-9.81091
▁lean	-9.81124
▁Let	-9.8119
▁gather	-9.81288
▁ages	-9.81365
Hath	-9.81366
▁sir	-9.81418
led	-9.81585
▁Not	-9.81586
▁quickly	-9.81588
L	-9.81604
▁thence	-9.81773
w	-9.81778
Round	-9.82028
▁April	-9.82054
Lord	-9.82135
▁twenty	-9.82177
▁surprise	-9.82225
▁heavens	-9.82275
ity	-9.82348
▁precious	-9.82451
▁flee	-9.82459
▁easy	-9.82464
▁huge	-9.82536
▁starry	-9.8255
▁verse	-9.82574
D	-9.82607
▁charge	-9.82635
P	-9.82808
▁measure	-9.8295
▁towers	-9.82954
▁beauteous	-9.83007
▁purpose	-9.83015
▁lightning	-9.83056
▁drops	-9.83163
▁loose	-9.83218
▁boat	-9.83326
▁waiting	-9.83385
Tell	-9.83521
▁bee	-9.83667
▁flag	-9.83714
▁spray	-9.83746
▁reached	-9.83836
Three	-9.83926
▁flash	-9.83927
▁glee	-9.83952
▁glittering	-9.83955
▁service	-9.8414
▁sport	-9.84201
▁fragrant	-9.84242
▁sails	-9.84273
▁higher	-9.84311
▁bears	-9.84315
▁laughing	-9.84362
▁buy	-9.84384
▁asleep	-9.84437
▁farewell	-9.84496
▁bind	-9.84604
]	-9.84639
▁onward	-9.84669
▁health	-9.84748
▁seven	-9.85196
▁stop	-9.85219
▁looking	-9.85227
▁trouble	-9.85242
▁heed	-9.85284
▁sink	-9.85378
ty	-9.85397
▁taken	-9.85435
▁village	-9.85495
▁fro	-9.85852
Said	-9.85868
▁friendly	-9.85881
▁lights	-9.85906
▁heroes	-9.85917
▁school	-9.85964
▁awhile	-9.86019
Tho	-9.86084
v	-9.86093
▁Mother	-9.86126
▁kisses	-9.8629
▁branches	-9.86332
all	-9.86372
▁lamp	-9.86432
▁canst	-9.86469
▁fatal	-9.86474
▁reply	-9.8648
Around	-9.86536
▁decay	-9.86537
▁sort	-9.86568
▁mute	-9.86579
▁danger	-9.86649
ur	-9.86696
?¬"	-9.86707
▁firm	-9.86913
▁deadly	-9.86916
Along	-9.8703
▁grain	-9.87039
R	-9.87059
▁stroke	-9.87083
▁While	-9.87114
▁gale	-9.87266
ous	-9.87308
▁act	-9.87315
▁Nor	-9.87341
G	-9.87354
▁en	-9.87418
▁banks	-9.87432
▁bloody	-9.87488
Ne	-9.87564
▁busy	-9.87577
▁embrace	-9.8764
▁stirred	-9.87749
▁lying	-9.87841
▁books	-9.87874
▁threw	-9.87926
▁infant	-9.87945
▁lifted	-9.88192
▁moonlight	-9.88304
▁feeling	-9.88358
▁hears	-9.88426
B	-9.88573
▁afraid	-9.88628
Beyond	-9.88795
▁moan	-9.88813
▁wretched	-9.88827
▁alive	-9.88873
First	-9.88918
▁blew	-9.88984
▁spite	-9.89036
▁bones	-9.89077
▁dreary	-9.89137
▁appears	-9.89183
▁blown	-9.89348
ting	-9.89387
▁dart	-9.89401
▁bank	-9.89423
▁deem	-9.89439
▁nations	-9.89439
▁shows	-9.89512
▁drive	-9.89549
▁harm	-9.89625
Poor	-9.89637
▁fountain	-9.8964
▁pursue	-9.8982
▁sweetest	-9.89911
▁didst	-9.9016
▁labour	-9.90176
Me	-9.904
▁forlorn	-9.90438
▁delay	-9.90637
ah	-9.90646
▁ceased	-9.90667
▁wheel	-9.90703
▁miss	-9.90778
C	-9.90784
▁double	-9.90798
▁lust	-9.90877
▁hang	-9.90907
▁hush	-9.90949
▁frost	-9.90996
▁fearful	-9.91036
▁hat	-9.91096
▁mood	-9.91104
▁mid	-9.91108
ir	-9.91144
▁mankind	-9.91157
▁Here	-9.91197
▁glowing	-9.91213
mid	-9.91372
▁beheld	-9.91408
▁lore	-9.9141
▁sae	-9.91416
▁Rome	-9.91424
▁greater	-9.91451
▁depart	-9.91497
▁chamber	-9.91502
▁yore	-9.91515
▁tail	-9.91531
▁E	-9.91573
▁row	-9.91606
▁mournful	-9.91633
▁asked	-9.9194
▁choice	-9.92056
▁hither	-9.9209
Again	-9.92141
▁Muse	-9.92251
▁board	-9.92264
Men	-9.92311
ra	-9.92328
▁fairest	-9.9233
▁pipe	-9.92334
▁means	-9.92355
▁trade	-9.92642
▁leads	-9.92755
▁blade	-9.92898
▁honey	-9.92921
▁harp	-9.92997
▁march	-9.93003
▁bands	-9.93033
▁Day	-9.93071
▁meant	-9.93238
▁seed	-9.9325
▁sweetly	-9.93265
▁ain	-9.9329
▁Sun	-9.93293
ul	-9.93464
▁pace	-9.93592
▁leap	-9.93675
▁knees	-9.93738
▁brows	-9.93757
▁rays	-9.93817
▁virgin	-9.9382
.--	-9.94061
if	-9.94228
▁creature	-9.9424
▁restless	-9.94274
▁crime	-9.94349
▁shepherd	-9.946
▁sublime	-9.94642
▁Beauty	-9.94653
▁rear	-9.94697
▁strand	-9.94703
one	-9.94833
▁followed	-9.94907
▁fish	-9.94926
▁vengeance	-9.9496
▁stones	-9.95031
▁plains	-9.9505
▁crest	-9.95095
▁isle	-9.95184
▁beloved	-9.9534
▁toward	-9.95394
▁load	-9.95397
▁bar	-9.95458
▁ball	-9.95485
▁anger	-9.95491
▁walked	-9.95514
▁worship	-9.95597
▁meadow	-9.95629
▁frown	-9.95674
▁Christian	-9.95676
va	-9.95703
you	-9.95739
▁foreign	-9.95844
up	-9.95899
Both	-9.95902
▁thirst	-9.95904
▁worst	-9.95941
▁built	-9.95976
▁wan	-9.96023
▁patient	-9.96027
▁joyous	-9.96072
▁top	-9.96083
▁dreaming	-9.96097
▁fix	-9.96103
▁longing	-9.96267
▁saint	-9.96303
Man	-9.96308
▁happiness	-9.96352
!)¬	-9.9645
▁prayers	-9.96485
▁troubled	-9.96486
▁mate	-9.9651
▁flowing	-9.96719
▁sands	-9.9673
Deep	-9.96799
▁rolled	-9.96822
▁five	-9.96841
▁grieve	-9.96852
▁camp	-9.96862
▁twain	-9.96883
▁ice	-9.96921
▁throw	-9.96957
▁dearest	-9.96962
▁chair	-9.96979
▁savage	-9.96992
Lest	-9.96997
▁temple	-9.97056
not	-9.97097
▁milk	-9.97128
Death	-9.97224
▁coat	-9.97303
▁grant	-9.97336
side	-9.97375
▁flows	-9.97404
▁forward	-9.9742
▁count	-9.97467
▁keeps	-9.97699
▁fills	-9.97734
▁scenes	-9.97762
▁strive	-9.97771
▁drawn	-9.97876
._	-9.9792
▁castle	-9.97948
▁North	-9.98246
▁frail	-9.98281
▁dat	-9.98482
▁fashion	-9.98483
▁money	-9.98565
▁awe	-9.98613
▁dove	-9.98625
▁news	-9.98653
▁horses	-9.98692
▁flung	-9.98716
▁al	-9.98815
▁serene	-9.98834
!"¬"	-9.98892
▁valiant	-9.98935
▁Gods	-9.9896
▁pressed	-9.98971
▁steal	-9.99095
▁P	-9.99125
▁blush	-9.99189
▁table	-9.99233
▁build	-9.99284
▁shell	-9.99303
▁bowed	-9.99554
▁wounded	-9.99694
▁prison	-9.99703
▁further	-9.99854
▁dancing	-9.99883
▁blessing	-9.99966
▁shadowy	-10.0003
▁swept	-10.0009
▁June	-10.0014
▁jest	-10.0021
▁shores	-10.0021
▁rejoice	-10.0038
▁lowly	-10.0044
▁parting	-10.005
▁guess	-10.0056
▁crowned	-10.0057
▁wanton	-10.0062
After	-10.0065
▁endure	-10.0071
▁fun	-10.0071
▁azure	-10.0078
▁fer	-10.0083
Sir	-10.0086
▁gracious	-10.0098
▁splendid	-10.0105
.--¬	-10.0108
▁bough	-10.0116
▁ours	-10.0122
▁suddenly	-10.0123
▁gathered	-10.0129
▁mould	-10.0131
▁finger	-10.0133
▁Master	-10.0143
▁pomp	-10.0145
▁various	-10.0145
▁folly	-10.0145
▁placed	-10.0148
▁brief	-10.0165
▁abide	-10.0168
▁rent	-10.0173
▁scarcely	-10.0174
▁pause	-10.0177
il	-10.018
el	-10.0182
▁aloud	-10.0192
▁works	-10.0214
▁distance	-10.0226
▁hardly	-10.0228
▁creep	-10.0229
▁harvest	-10.0229
▁la	-10.0231
▁bowers	-10.0232
▁folks	-10.0235
▁teeth	-10.024
▁lion	-10.0248
Sing	-10.0258
Re	-10.0269
▁runs	-10.0272
▁dusk	-10.0274
▁forgotten	-10.0275
?--¬	-10.0275
Perhaps	-10.028
▁search	-10.0283
▁miles	-10.0286
▁bees	-10.029
Another	-10.0296
▁knights	-10.0303
▁east	-10.0312
▁foolish	-10.0329
ward	-10.0331
▁realm	-10.0332
▁Old	-10.0335
▁counsel	-10.0362
▁billows	-10.0364
▁ends	-10.0369
▁renown	-10.0372
▁lit	-10.0374
▁lyre	-10.0377
▁buried	-10.0378
▁gloomy	-10.0393
▁sphere	-10.0414
▁stole	-10.0419
▁lance	-10.0425
▁peaceful	-10.0449
▁dis	-10.0449
▁muse	-10.0461
▁careless	-10.0466
▁suffer	-10.0469
▁prime	-10.048
▁perish	-10.0482
▁touched	-10.0494
▁bids	-10.05
▁rank	-10.0501
▁dreamed	-10.0503
Time	-10.0504
▁mystery	-10.0514
▁sorrows	-10.052
▁distress	-10.0522
▁girls	-10.0545
ted	-10.0551
▁standing	-10.0553
▁brothers	-10.0556
▁thrown	-10.0569
▁closed	-10.0571
Wi	-10.0574
▁vows	-10.0575
▁Be	-10.0604
▁East	-10.0607
▁woo	-10.0608
▁mystic	-10.0619
▁ashes	-10.0631
▁devil	-10.0652
▁Ma	-10.0656
Think	-10.0656
▁stormy	-10.0662
▁turning	-10.0664
▁tyrant	-10.0664
▁names	-10.0669
ton	-10.067
▁declare	-10.0671
▁anew	-10.0676
▁thrill	-10.0677
▁friendship	-10.068
▁glide	-10.0683
▁wed	-10.0687
▁lightly	-10.0689
▁coast	-10.0693
▁gleams	-10.0694
▁woodland	-10.0696
▁rings	-10.0702
▁rolling	-10.0708
▁list	-10.071
▁gown	-10.0713
▁storms	-10.0718
▁Freedom	-10.072
▁feeble	-10.0737
▁goddess	-10.0737
▁lest	-10.0739
:--	-10.0756
▁y	-10.077
Every	-10.0775
▁south	-10.0784
what	-10.0785
▁disdain	-10.0785
▁sunlight	-10.0789
▁question	-10.0793
▁pleasures	-10.0799
▁fat	-10.0808
▁heav	-10.0831
▁intent	-10.0836
▁dire	-10.0847
▁truly	-10.0854
▁slay	-10.0856
▁wounds	-10.0858
▁enter	-10.0869
Back	-10.0871
Beside	-10.0875
▁realms	-10.0878
▁shrill	-10.089
with	-10.0892
▁twice	-10.0898
▁pleased	-10.09
▁M	-10.09
am	-10.0902
▁quoth	-10.0903
.”	-10.0906
et	-10.0912
▁shun	-10.0918
]¬	-10.092
light	-10.0923
▁picture	-10.0931
▁Thus	-10.0941
Between	-10.0945
▁float	-10.0952
▁thorn	-10.0956
▁Like	-10.0959
ant	-10.0961
▁lilies	-10.0968
▁bestow	-10.0969
▁echo	-10.0979
▁Summer	-10.0984
▁burden	-10.1011
None	-10.1018
▁suit	-10.1018
▁Prince	-10.1019
▁nice	-10.1027
▁fault	-10.1029
▁G	-10.1044
▁clasp	-10.1044
▁ought	-10.1045
▁showers	-10.1056
▁aim	-10.1057
▁streets	-10.1066
▁evermore	-10.1075
▁wreath	-10.1077
▁cat	-10.1077
white	-10.1085
▁feels	-10.1091
▁skin	-10.1095
▁nights	-10.11
▁cottage	-10.1102
▁Come	-10.1103
▁shelter	-10.1116
Might	-10.113
she	-10.1131
▁dome	-10.1147
▁Trojan	-10.1152
▁therefore	-10.1166
▁lords	-10.1168
▁maids	-10.1173
age	-10.1177
▁Which	-10.1179
▁din	-10.1191
▁attend	-10.1211
▁ho	-10.125
▁chains	-10.1251
▁trumpet	-10.1258
▁cheerful	-10.1267
▁wail	-10.1275
▁knowledge	-10.1283
▁display	-10.1285
▁hurt	-10.1297
ate	-10.1298
▁six	-10.1299
▁echoes	-10.1302
▁meadows	-10.1321
▁remains	-10.1324
▁burns	-10.1329
▁arose	-10.1336
▁steeds	-10.1347
▁palm	-10.1356
▁goal	-10.1368
▁cave	-10.137
▁tea	-10.1372
!'¬	-10.1373
▁flock	-10.1379
▁Do	-10.1383
▁different	-10.1386
▁week	-10.1391
la	-10.1414
▁breathing	-10.1422
Him	-10.1425
▁arrow	-10.1426
▁mount	-10.1426
▁strove	-10.1432
▁whether	-10.1434
▁shown	-10.1435
Earth	-10.1439
▁gleaming	-10.144
▁winding	-10.1447
Hark	-10.1469
▁bought	-10.1474
▁kin	-10.1483
▁nearer	-10.1483
way	-10.1499
De	-10.1503
▁thyself	-10.1516
▁walks	-10.1522
▁celestial	-10.1524
▁lend	-10.1529
▁cover	-10.1532
z	-10.1539
▁showed	-10.1542
rt	-10.1547
▁shower	-10.1547
▁apple	-10.1547
▁north	-10.155
▁footsteps	-10.1556
▁towards	-10.1557
▁Me	-10.1558
▁burned	-10.1559
▁fact	-10.157
▁smart	-10.157
▁South	-10.159
▁Our	-10.1592
our	-10.1612
▁aged	-10.1613
▁thinking	-10.1615
▁calling	-10.1616
▁bonnie	-10.1617
▁Indian	-10.1622
place	-10.1622
Bright	-10.1624
▁midst	-10.1629
▁motion	-10.1631
▁fathers	-10.1634
▁sleeps	-10.1638
lt	-10.1643
▁violet	-10.1647
▁drum	-10.1662
▁stout	-10.1672
New	-10.1672
▁generous	-10.168
▁tremble	-10.168
▁stretch	-10.1684
▁breaks	-10.1685
▁waits	-10.1696
▁painted	-10.1698
▁bowl	-10.1702
▁stayed	-10.1703
▁ta	-10.1709
▁third	-10.1716
▁ha	-10.1726
▁victory	-10.173
▁eagle	-10.1743
▁deer	-10.1753
▁complete	-10.1756
▁upward	-10.1768
▁gladness	-10.1783
▁Truth	-10.1792
▁lark	-10.1797
▁groan	-10.1805
▁abroad	-10.1808
▁dewy	-10.1812
▁furious	-10.1814
▁confess	-10.1817
Hear	-10.182
▁Hope	-10.182
▁depths	-10.1821
▁sank	-10.1821
▁Why	-10.1831
Lay	-10.1833
▁fray	-10.1843
▁vile	-10.1877
Half	-10.1878
M	-10.1882
▁spend	-10.1901
▁frae	-10.1904
▁hosts	-10.1909
▁scent	-10.1916
▁mien	-10.1918
▁wont	-10.1923
▁groves	-10.1926
▁prepare	-10.1931
▁airy	-10.1931
▁grateful	-10.1943
▁cost	-10.1945
▁ended	-10.1946
▁retreat	-10.195
▁salt	-10.1963
ar	-10.1963
▁control	-10.1969
▁prayed	-10.1969
▁Though	-10.1977
▁sunk	-10.1981
▁splendour	-10.1985
▁really	-10.1987
White	-10.1989
▁gladly	-10.1999
ma	-10.2007
▁slender	-10.2013
Many	-10.2015
off	-10.2021
▁vanished	-10.2027
▁ghosts	-10.2028
▁sacrifice	-10.2031
▁glories	-10.2033
▁sweetness	-10.2036
▁shoulder	-10.2037
▁shoulders	-10.2041
▁tells	-10.2051
▁shroud	-10.2069
▁sighed	-10.207
▁bud	-10.207
Whether	-10.2072
▁breathed	-10.2073
some	-10.2074
▁sweeter	-10.2074
▁making	-10.2078
▁circle	-10.208
▁faded	-10.2099
▁aloft	-10.2099
Most	-10.2107
▁dwelling	-10.2116
▁peer	-10.2121
▁string	-10.2127
li	-10.2129
▁mere	-10.2135
▁pearl	-10.2139
Amid	-10.2146
▁New	-10.215
▁Hell	-10.2156
▁lack	-10.2163
▁bridge	-10.2172
▁already	-10.2176
▁tent	-10.2188
ke	-10.2199
▁veins	-10.2203
▁anxious	-10.2203
ine	-10.2207
let	-10.221
▁babe	-10.2218
_.¬	-10.2219
▁goodly	-10.2226
▁silken	-10.2228
▁moving	-10.2232
▁beasts	-10.2235
ci	-10.225
▁barren	-10.2259
▁frozen	-10.2261
Don	-10.2263
▁meek	-10.2266
twixt	-10.2266
▁De	-10.2271
▁port	-10.2279
▁wretch	-10.2286
N	-10.2287
▁buds	-10.2295
▁cell	-10.2311
▁wandered	-10.2312
▁meat	-10.2313
▁desolate	-10.2325
▁snowy	-10.2328
house	-10.233
▁Till	-10.2333
her	-10.2338
▁curious	-10.2342
out	-10.2355
▁everywhere	-10.2362
▁paths	-10.2374
▁slew	-10.2375
▁haughty	-10.2375
hearted	-10.2377
▁waking	-10.238
▁breaking	-10.238
▁thank	-10.2381
▁pains	-10.2387
▁lawn	-10.2388
▁couch	-10.2392
Whilst	-10.2392
_.	-10.24
▁sullen	-10.2401
▁glare	-10.2403
▁vine	-10.2403
▁constant	-10.2404
▁finds	-10.2405
▁western	-10.2409
▁rang	-10.2413
Swift	-10.2432
▁fixed	-10.2434
▁saints	-10.2436
▁phantom	-10.2437
do	-10.2455
▁receive	-10.2462
▁nurse	-10.247
▁wicked	-10.2472
▁driven	-10.2474
Th	-10.2475
▁thrice	-10.2476
▁message	-10.2476
▁maidens	-10.248
Mid	-10.2481
▁childhood	-10.2494
▁thrust	-10.2513
▁worlds	-10.2514
▁robe	-10.2524
▁secure	-10.2529
▁root	-10.253
▁slaves	-10.2531
▁lays	-10.2532
Oft	-10.2537
Heaven	-10.2545
Y	-10.255
▁ranks	-10.2553
▁hunger	-10.2555
▁drove	-10.256
▁company	-10.2561
▁pious	-10.2561
▁hungry	-10.2567
▁D	-10.2581
▁lane	-10.2582
▁disgrace	-10.2593
▁thread	-10.2597
▁carry	-10.26
▁Jack	-10.2606
▁deeper	-10.2606
▁vessel	-10.261
▁fools	-10.2622
▁edge	-10.2625
▁forehead	-10.2628
▁design	-10.2628
▁instead	-10.2635
▁agree	-10.2637
▁month	-10.2648
▁hoary	-10.265
▁mock	-10.2651
▁linger	-10.2651
▁Venus	-10.2653
▁Fortune	-10.2656
▁balm	-10.266
▁perfume	-10.2664
ance	-10.2667
▁hay	-10.2677
Although	-10.2679
▁Sea	-10.2681
▁became	-10.2684
▁running	-10.2687
Soft	-10.269
▁places	-10.2694
▁thither	-10.2698
▁price	-10.27
lin	-10.27
Whence	-10.2701
En	-10.2713
bed	-10.2716
▁hearth	-10.2726
▁drank	-10.2733
▁draws	-10.2734
▁helm	-10.2735
▁cities	-10.2738
▁smote	-10.2751
▁plant	-10.2758
▁flown	-10.2761
▁captive	-10.2769
▁real	-10.2774
▁moves	-10.2789
▁lea	-10.279
▁whispered	-10.2798
▁poets	-10.2808
▁kingdom	-10.2808
W	-10.2815
▁gore	-10.282
King	-10.2826
▁level	-10.283
▁legs	-10.2831
▁gun	-10.2842
▁banner	-10.2844
▁tidings	-10.2856
▁thanks	-10.2864
▁knowing	-10.2868
▁bending	-10.2873
▁tiny	-10.2875
▁thinks	-10.2884
▁Their	-10.2885
▁dared	-10.2889
▁martial	-10.2891
▁wert	-10.2898
▁seize	-10.2898
x	-10.29
▁sparkling	-10.2911
▁ken	-10.2912
Away	-10.2916
▁graves	-10.2916
▁melancholy	-10.2926
▁language	-10.2927
▁relief	-10.2944
▁haunt	-10.295
.¬“	-10.2953
▁mingled	-10.296
▁numbers	-10.296
▁proper	-10.2962
▁...	-10.2968
▁deny	-10.2971
▁Winter	-10.2975
▁alike	-10.2976
▁parted	-10.2982
Thine	-10.2982
▁Jesus	-10.2983
▁repair	-10.2985
▁army	-10.2987
▁sell	-10.2988
▁envy	-10.2998
▁glen	-10.3002
▁limb	-10.3003
ive	-10.3016
F	-10.3022
▁spoil	-10.3024
▁Siegfried	-10.3036
▁Will	-10.3037
ier	-10.304
▁boon	-10.3041
▁speaks	-10.305
▁labor	-10.3064
▁wants	-10.3068
▁mill	-10.3078
▁heap	-10.3083
Light	-10.3087
▁denied	-10.3087
Alone	-10.3088
▁seeks	-10.3091
▁abode	-10.3094
Ever	-10.3094
▁rules	-10.3105
▁overhead	-10.3108
▁rod	-10.3113
▁drown	-10.3114
▁instant	-10.3116
▁public	-10.3122
▁sprang	-10.3125
▁stare	-10.3129
▁horror	-10.313
▁damsel	-10.313
▁murmuring	-10.3136
▁become	-10.3136
▁swords	-10.3139
ist	-10.3139
▁creatures	-10.3139
▁sovereign	-10.3141
Young	-10.3144
▁memories	-10.3149
ad	-10.3153
▁mass	-10.3158
▁fragrance	-10.3159
▁Spirit	-10.3163
▁modest	-10.3168
▁Lo	-10.3176
▁Rose	-10.3178
▁waving	-10.3181
▁brighter	-10.3183
▁restore	-10.3208
▁wished	-10.3211
▁F	-10.3212
▁hae	-10.3215
▁former	-10.3218
▁pool	-10.323
▁doors	-10.3247
▁con	-10.3249
▁rolls	-10.3252
▁nobler	-10.3254
▁wouldst	-10.3256
▁ones	-10.3261
ha	-10.3261
▁scattered	-10.3267
▁vainly	-10.3271
ow	-10.3278
▁bred	-10.3279
▁didn	-10.3287
▁bard	-10.3287
▁range	-10.3287
▁mistress	-10.3288
▁sold	-10.3289
▁Hector	-10.3291
▁sighing	-10.3295
▁bodies	-10.3302
they	-10.3305
▁Some	-10.3305
▁square	-10.3309
▁floating	-10.331
▁Art	-10.3314
▁tresses	-10.3325
▁flowery	-10.3325
▁betray	-10.3356
▁dwelt	-10.3361
▁complain	-10.3361
▁chosen	-10.3368
▁moss	-10.3371
▁visions	-10.3372
▁ample	-10.3378
go	-10.3379
Scarce	-10.3381
co	-10.3381
▁wonderful	-10.3386
▁quit	-10.339
▁shock	-10.3397
▁helpless	-10.3402
ta	-10.3405
▁strings	-10.3408
▁post	-10.3412
▁Paradise	-10.3418
▁clothes	-10.3419
▁beating	-10.3419
▁flaming	-10.342
▁forests	-10.3422
▁sins	-10.3424
▁clad	-10.3433
▁melt	-10.3433
▁glows	-10.3439
▁spoken	-10.3447
▁slight	-10.3448
▁woke	-10.3454
▁conquer	-10.3455
▁scarlet	-10.3473
▁ripe	-10.3474
▁letter	-10.3481
▁regret	-10.3491
▁adorn	-10.3495
Mine	-10.3499
▁highest	-10.3508
▁violets	-10.3512
▁London	-10.3513
▁lifts	-10.3519
▁Great	-10.3523
▁destroy	-10.353
▁robes	-10.354
▁toils	-10.3544
▁slaughter	-10.3549
▁fairer	-10.3557
▁plenty	-10.3566
▁auld	-10.3571
▁lap	-10.3578
▁beauties	-10.358
▁terrible	-10.3585
▁breezes	-10.3587
how	-10.3591
his	-10.3594
▁drear	-10.3598
▁strains	-10.3602
▁fling	-10.3604
▁pardon	-10.3606
▁misery	-10.3606
▁listening	-10.3619
▁chariot	-10.362
ey	-10.3624
▁parts	-10.3625
▁Spain	-10.3626
▁nay	-10.3626
▁plough	-10.3626
▁Go	-10.3634
▁match	-10.3644
▁hangs	-10.3649
▁hark	-10.3652
les	-10.3653
▁resign	-10.3663
▁brood	-10.3666
▁arrows	-10.3668
▁halls	-10.3674
▁spark	-10.3678
▁withered	-10.3681
Sleep	-10.3684
▁wondering	-10.3691
▁dogs	-10.3692
▁gem	-10.3693
ph	-10.3694
▁monster	-10.3698
▁swing	-10.3702
▁vanish	-10.3705
▁dusky	-10.3708
▁travel	-10.3709
▁na	-10.3713
▁lent	-10.3715
Close	-10.3722
▁liberty	-10.3739
▁reward	-10.374
▁perchance	-10.374
▁Autumn	-10.3745
▁seeing	-10.3745
▁unfold	-10.3747
▁wash	-10.375
▁silk	-10.3751
▁neighbour	-10.3757
▁troops	-10.3758
▁score	-10.3765
▁following	-10.3766
▁cap	-10.3766
▁opened	-10.377
▁wrote	-10.3776
▁crept	-10.3777
▁smell	-10.3779
▁wreck	-10.3781
▁windows	-10.3789
▁tones	-10.3793
▁cure	-10.3793
▁wintry	-10.3796
▁swore	-10.3796
▁sprung	-10.3799
▁hermit	-10.381
▁divide	-10.3817
ho	-10.3817
▁lass	-10.3817
▁void	-10.3819
▁homeward	-10.3824
▁glade	-10.3831
▁marriage	-10.3834
▁employ	-10.3835
▁passage	-10.3838
▁sitting	-10.3838
▁flocks	-10.3842
▁dainty	-10.3854
▁shapes	-10.3854
▁rites	-10.3863
▁brand	-10.3864
▁T	-10.3869
Bring	-10.3876
Next	-10.3877
▁feather	-10.388
▁morrow	-10.3894
▁gathering	-10.3905
▁witness	-10.3914
▁Church	-10.3916
▁figure	-10.3916
▁cursed	-10.3918
▁bars	-10.3918
▁See	-10.3924
▁possess	-10.393
▁sable	-10.3934
▁Lakshma	-10.3935
▁number	-10.3946
▁leafy	-10.3947
▁tumult	-10.3951
▁happier	-10.3952
Dark	-10.3963
▁earnest	-10.3965
▁judge	-10.3967
▁warning	-10.3969
▁funeral	-10.3971
▁innocent	-10.3972
▁grasp	-10.3982
▁senses	-10.3982
....¬	-10.3986
Farewell	-10.3996
▁sadly	-10.3996
▁promised	-10.4009
.¬(	-10.4022
▁victor	-10.4029
▁kindred	-10.4036
▁daring	-10.4037
▁swiftly	-10.4039
▁tales	-10.4044
▁Saint	-10.4049
▁sooth	-10.4052
▁drunk	-10.4069
▁patience	-10.407
▁pluck	-10.4076
▁nine	-10.4081
▁dusty	-10.4084
▁den	-10.4092
▁passions	-10.4093
▁rainbow	-10.4096
▁colour	-10.4105
▁genius	-10.411
▁delicate	-10.411
▁kneel	-10.4112
▁shy	-10.4112
▁written	-10.4112
▁Gunther	-10.4114
ri	-10.4119
▁arch	-10.4126
nt	-10.4131
Thro	-10.4133
▁danced	-10.4134
▁snows	-10.4135
▁bleed	-10.4141
▁pensive	-10.415
Behind	-10.4155
▁sinks	-10.4161
Comes	-10.4164
▁soar	-10.4165
▁paint	-10.4179
▁rushing	-10.4183
▁Light	-10.4189
Right	-10.4196
id	-10.4196
▁empire	-10.4197
Nothing	-10.4197
▁decree	-10.4201
▁mantle	-10.4206
▁cattle	-10.421
▁branch	-10.4212
▁wheat	-10.4212
▁mists	-10.422
▁backward	-10.4222
▁swelling	-10.4229
▁sadness	-10.423
▁fruits	-10.4232
▁Greece	-10.4235
▁crying	-10.4237
▁recall	-10.4242
▁crossed	-10.4244
▁yesterday	-10.4251
▁soldiers	-10.4254
▁dropped	-10.4257
bird	-10.4262
▁cunning	-10.4263
▁treasures	-10.4265
▁armed	-10.4265
▁misty	-10.4267
▁rhymes	-10.4267
▁tame	-10.4268
▁adore	-10.428
▁subject	-10.4281
▁wand	-10.4282
▁shaft	-10.4284
▁mile	-10.4287
▁amidst	-10.43
▁lingering	-10.431
lo	-10.431
▁gems	-10.4312
▁cock	-10.4317
▁heights	-10.4325
▁zeal	-10.4329
▁stuff	-10.4338
▁clock	-10.4339
▁Roman	-10.434
▁sate	-10.4342
▁waited	-10.4359
▁rein	-10.4361
▁blooming	-10.4364
▁gained	-10.4372
▁downward	-10.4373
▁months	-10.4374
▁Peace	-10.4374
▁Kriemhild	-10.4375
▁greatest	-10.4375
who	-10.4382
▁splendor	-10.4383
▁wears	-10.4386
▁bleeding	-10.4391
▁dinner	-10.4404
▁pink	-10.441
▁sole	-10.441
▁renew	-10.4412
Set	-10.4415
▁chin	-10.4424
▁pleasing	-10.4425
▁style	-10.4439
▁sends	-10.4442
▁impart	-10.4445
▁clime	-10.4447
▁swallow	-10.4449
▁cling	-10.4451
▁proved	-10.4451
▁island	-10.4454
Stood	-10.4455
▁wholly	-10.4458
▁Peter	-10.4464
Saw	-10.4464
▁heir	-10.4466
▁returning	-10.4467
Went	-10.4469
▁Good	-10.4483
▁begins	-10.4485
▁dews	-10.4485
▁supreme	-10.4496
▁fever	-10.4499
▁mortals	-10.4499
▁spears	-10.4513
▁marked	-10.4515
▁yoke	-10.4518
Sometimes	-10.4525
▁pulse	-10.4533
▁sober	-10.4534
▁enjoy	-10.4536
▁brink	-10.4537
U	-10.4548
▁lute	-10.4552
▁minute	-10.456
▁wee	-10.4565
▁cradle	-10.4568
▁nae	-10.4575
▁wars	-10.4576
▁chaste	-10.4579
▁Child	-10.4586
▁cloak	-10.4586
▁sheen	-10.4592
▁solitude	-10.4594
con	-10.4598
▁everything	-10.4602
▁forgive	-10.4602
▁Son	-10.4603
Rose	-10.4604
▁lustre	-10.4609
▁World	-10.4613
▁rue	-10.4613
Ha	-10.4613
Doth	-10.4618
▁melody	-10.4621
▁wight	-10.4622
▁descend	-10.4624
▁poison	-10.4626
▁hushed	-10.463
▁rivers	-10.4632
▁tangled	-10.4636
Turn	-10.4639
▁cow	-10.464
▁arts	-10.4645
▁gazing	-10.4648
▁whatever	-10.465
▁roaring	-10.4655
▁War	-10.466
▁wakes	-10.4666
▁advance	-10.4686
▁fondly	-10.4687
▁lads	-10.4693
▁weeds	-10.4695
▁temples	-10.4695
▁subtle	-10.4696
▁wheels	-10.4697
▁quivering	-10.47
▁blooms	-10.4703
pe	-10.4703
▁saying	-10.4704
▁warlike	-10.4718
▁dwells	-10.4721
▁passes	-10.4722
▁spreads	-10.4723
▁Your	-10.4724
▁bleak	-10.4727
▁chime	-10.4728
ca	-10.4729
▁fading	-10.4731
▁quest	-10.4733
▁writ	-10.474
▁infinite	-10.4741
lit	-10.4749
▁features	-10.4751
Unless	-10.4752
▁theme	-10.4753
▁madness	-10.4754
▁joyful	-10.4761
▁guests	-10.4762
▁’	-10.4764
▁feared	-10.4765
▁Rogero	-10.4765
▁sounding	-10.4776
▁valleys	-10.4778
▁chose	-10.4785
▁started	-10.4789
▁Was	-10.479
▁Well	-10.4795
▁Land	-10.4805
▁visit	-10.4814
▁rival	-10.4814
▁winged	-10.4815
▁wives	-10.4815
▁refuse	-10.4825
▁whispering	-10.4825
Red	-10.4829
▁drift	-10.483
▁familiar	-10.4834
▁justice	-10.4835
Fell	-10.484
▁soothe	-10.4847
long	-10.4848
▁pierce	-10.4851
tá	-10.4854
▁blithe	-10.4855
▁French	-10.4857
▁mirror	-10.4858
▁offer	-10.4863
▁scatter	-10.4865
Mother	-10.4866
▁remote	-10.4876
▁wasted	-10.488
▁hound	-10.4882
▁favour	-10.4885
ge	-10.4888
▁boundless	-10.4893
wind	-10.4896
▁stair	-10.4898
▁mellow	-10.4903
▁pile	-10.4906
▁velvet	-10.492
▁shoot	-10.492
▁ire	-10.493
mp	-10.4932
▁stock	-10.4933
Put	-10.4935
▁seldom	-10.4941
▁judgment	-10.4941
▁hues	-10.4942
▁seized	-10.4949
▁yourself	-10.495
▁Fancy	-10.4953
▁bends	-10.4957
▁seal	-10.4958
▁meaning	-10.4964
▁stage	-10.497
▁drooping	-10.4971
▁couldn	-10.4979
▁Eden	-10.4985
▁rocky	-10.4986
▁thousands	-10.4988
▁knife	-10.4989
Much	-10.4996
▁shady	-10.5006
.]¬	-10.5008
▁farm	-10.5014
Does	-10.502
▁cot	-10.5021
▁fret	-10.5024
▁stretched	-10.503
▁sailor	-10.5033
▁beard	-10.5033
▁quiver	-10.5044
▁luck	-10.5047
▁bone	-10.5049
▁nymph	-10.5056
▁forced	-10.5061
▁Ulysses	-10.5064
▁rapid	-10.5065
▁fancies	-10.5072
▁guns	-10.5081
▁Fair	-10.5089
▁fifty	-10.5095
▁deemed	-10.5103
▁utter	-10.5105
ro	-10.5113
oh	-10.5113
▁bridal	-10.5116
▁Miss	-10.5117
▁rout	-10.5121
▁etc	-10.5123
True	-10.5128
Ay	-10.5129
▁returned	-10.5129
▁guilt	-10.513
Peace	-10.513
▁shakes	-10.5136
▁conscience	-10.5138
▁virtues	-10.5148
▁ter	-10.5159
▁steady	-10.5163
▁fright	-10.5165
love	-10.5171
▁tight	-10.5201
▁ruddy	-10.5204
▁brass	-10.5206
ue	-10.5207
Leave	-10.5209
▁station	-10.521
▁guilty	-10.5211
▁blowing	-10.5214
▁folded	-10.5225
▁steer	-10.5225
▁bush	-10.5227
▁famous	-10.5227
▁source	-10.5227
▁opening	-10.5232
tide	-10.5236
Whatever	-10.5243
▁unhappy	-10.5249
▁blessings	-10.5253
▁Phoebus	-10.5255
▁beggar	-10.5256
▁pack	-10.5258
▁Through	-10.5266
▁span	-10.5269
▁carried	-10.5271
▁parents	-10.5274
▁mair	-10.5282
▁manly	-10.5288
.)¬	-10.5292
▁spouse	-10.5295
▁willing	-10.5302
well	-10.5305
▁anon	-10.5306
▁Fame	-10.5313
▁drowsy	-10.5316
▁underneath	-10.532
▁wot	-10.5322
▁treat	-10.5336
▁merit	-10.5343
▁stem	-10.5345
ck	-10.5347
"¬	-10.5349
▁sinking	-10.5352
▁poured	-10.5352
▁Angel	-10.5357
▁roots	-10.5366
▁Robin	-10.5373
▁hum	-10.5376
▁mail	-10.5377
▁passionate	-10.5386
▁paused	-10.539
▁dismay	-10.539
▁wishes	-10.5393
▁stronger	-10.54
wood	-10.5401
▁manhood	-10.5413
▁flashing	-10.5417
▁weapon	-10.5431
▁breathes	-10.5442
Better	-10.5445
▁beg	-10.545
▁fiend	-10.5466
▁Sweet	-10.547
▁torch	-10.5471
▁sting	-10.5471
que	-10.5474
▁desires	-10.548
▁sides	-10.5483
head	-10.5484
▁laurel	-10.5484
▁plays	-10.5486
Last	-10.5487
▁darts	-10.5488
▁kindness	-10.5495
!)	-10.5498
▁middle	-10.5498
▁hopeless	-10.55
▁success	-10.5504
▁heather	-10.5505
▁breed	-10.5506
K	-10.5508
...	-10.5508
Know	-10.5508
▁suffering	-10.5514
▁haunts	-10.5515
▁mar	-10.5516
▁beach	-10.5518
▁tranquil	-10.5521
▁sailed	-10.5522
▁defend	-10.5528
▁La	-10.5532
▁chiefs	-10.5533
▁market	-10.5541
can	-10.5543
▁twelve	-10.5544
Sad	-10.5544
▁size	-10.5546
,”	-10.5549
▁Little	-10.5551
ga	-10.5553
Night	-10.5555
▁Can	-10.5559
▁profound	-10.5565
▁drowned	-10.5568
▁tides	-10.5569
▁pines	-10.557
▁date	-10.5579
▁playing	-10.5587
▁daylight	-10.5589
Toward	-10.5594
▁Mr	-10.5597
▁mix	-10.5603
▁lov	-10.5603
▁ringing	-10.5603
▁L	-10.5605
this	-10.5608
▁bounds	-10.5619
▁R	-10.562
▁servant	-10.5627
▁dressed	-10.5639
▁sweat	-10.5645
▁hymn	-10.5647
▁wad	-10.5653
▁floods	-10.5653
▁shrink	-10.5656
▁manner	-10.5659
▁brim	-10.5664
▁setting	-10.5671
ru	-10.568
bye	-10.568
▁business	-10.5683
▁Da	-10.5684
▁served	-10.5684
▁Helen	-10.5689
ily	-10.5689
▁pre	-10.569
Art	-10.5691
▁corner	-10.5696
▁pow	-10.5698
Stand	-10.5706
▁watery	-10.571
▁watching	-10.5713
▁reveal	-10.5713
▁Co	-10.5717
▁stiff	-10.5718
▁saved	-10.5719
▁snare	-10.5721
▁minds	-10.5725
▁curtain	-10.5728
▁person	-10.5734
Gave	-10.5745
▁degree	-10.5745
▁Soul	-10.575
▁pierced	-10.575
.'¬'	-10.5753
▁key	-10.5754
▁crack	-10.5756
twere	-10.5758
▁meeting	-10.5759
▁mast	-10.5765
▁lang	-10.5776
▁tied	-10.5788
Wherein	-10.579
▁incense	-10.5796
▁dismal	-10.5801
▁whither	-10.5803
▁debt	-10.5813
▁crowded	-10.5817
▁tongues	-10.5822
▁estate	-10.5824
▁crave	-10.5826
Low	-10.5841
▁sisters	-10.5843
▁trim	-10.5843
▁dash	-10.5844
▁vest	-10.5849
▁inward	-10.5849
▁clover	-10.5849
▁check	-10.585
▁enchanted	-10.5853
▁These	-10.5856
▁Such	-10.5858
▁haunted	-10.5865
▁captain	-10.5866
▁jolly	-10.5871
▁understood	-10.5871
▁ma	-10.5876
▁charming	-10.5883
▁deal	-10.5884
▁Youth	-10.589
▁rugged	-10.5895
▁dares	-10.5895
▁wonders	-10.5897
▁farther	-10.59
trees	-10.5902
Forth	-10.5915
ig	-10.5916
ley	-10.5919
▁paper	-10.592
▁snake	-10.592
▁pull	-10.5923
ver	-10.5923
▁loveliness	-10.5924
▁owe	-10.5927
▁pledge	-10.5929
▁pearls	-10.5933
▁sever	-10.5939
▁K	-10.594
▁Greek	-10.5942
▁undone	-10.5944
▁silly	-10.5944
V	-10.5948
lie	-10.5948
Pale	-10.5951
▁trail	-10.5952
▁repeat	-10.5957
▁stick	-10.5959
gan	-10.596
▁pointed	-10.5965
▁express	-10.5965
▁Pan	-10.5967
▁fleeting	-10.5967
▁Moon	-10.5973
▁willow	-10.5982
▁yields	-10.5995
gainst	-10.6006
▁swim	-10.6011
▁creed	-10.6014
Pray	-10.6015
▁hides	-10.6017
▁married	-10.6018
▁combat	-10.602
▁seasons	-10.6025
Keep	-10.6027
▁moments	-10.6033
▁torrent	-10.6035
▁listened	-10.6035
▁visage	-10.6041
▁pole	-10.605
▁murder	-10.6063
Ten	-10.6063
▁everlasting	-10.6063
Ho	-10.607
▁majestic	-10.6083
▁horrid	-10.6088
▁Heav	-10.6099
▁swells	-10.6101
▁fountains	-10.6101
▁parent	-10.6109
▁doing	-10.6115
▁tossed	-10.6116
▁record	-10.6116
▁vice	-10.6116
▁daughters	-10.6123
Call	-10.6123
▁hurled	-10.6126
▁approach	-10.6128
▁bull	-10.613
will	-10.6134
bound	-10.6135
▁knelt	-10.6136
▁lamb	-10.614
▁widow	-10.6141
▁hurry	-10.6145
▁brake	-10.6148
▁struggle	-10.615
▁comrades	-10.6154
▁silvery	-10.6157
▁appeared	-10.6164
▁belong	-10.6164
worn	-10.6169
▁feelings	-10.6182
▁bearing	-10.6184
▁swain	-10.6185
▁increase	-10.6186
▁Saviour	-10.6187
▁Captain	-10.6192
▁fan	-10.6195
▁Achilles	-10.6197
▁troop	-10.6217
▁brazen	-10.6234
▁radiance	-10.6234
▁mischief	-10.6235
▁mead	-10.6235
▁weave	-10.6235
▁ween	-10.6241
same	-10.6241
▁hit	-10.6245
▁hem	-10.6246
▁shoes	-10.6247
▁Still	-10.6258
▁armies	-10.6263
ial	-10.6263
▁proudly	-10.6264
fu	-10.6267
▁dell	-10.6269
▁graceful	-10.6269
▁glimmering	-10.6271
▁rill	-10.6273
▁accents	-10.6274
▁moral	-10.6282
▁Rhine	-10.6283
▁pathway	-10.6286
▁altars	-10.6286
▁thrall	-10.6287
▁Paris	-10.6288
▁weed	-10.6294
▁wherein	-10.6294
▁riding	-10.6297
▁colours	-10.6301
▁giving	-10.6302
▁strangers	-10.6303
▁able	-10.6304
▁doubtful	-10.6314
▁mud	-10.6325
Hail	-10.633
Dead	-10.633
▁learning	-10.6336
▁stopped	-10.634
ol	-10.6344
▁marvel	-10.6358
▁utmost	-10.6359
▁minstrel	-10.6359
▁delights	-10.6363
St	-10.6364
ak	-10.6379
▁twine	-10.638
▁rides	-10.6383
▁sod	-10.6387
▁gardens	-10.639
▁Ocean	-10.6391
▁se	-10.6394
Hope	-10.6398
▁fearless	-10.64
▁desperate	-10.6409
▁survey	-10.6419
per	-10.642
▁slip	-10.6426
when	-10.643
▁British	-10.6434
▁safety	-10.6435
▁adieu	-10.6435
▁Vánar	-10.6436
▁guardian	-10.6438
▁gilded	-10.6443
▁murmurs	-10.6449
▁reap	-10.6456
▁hostile	-10.646
▁afford	-10.6462
▁raging	-10.6467
▁addressed	-10.6473
▁grassy	-10.6474
▁yer	-10.6482
po	-10.6487
▁per	-10.6488
▁entered	-10.6489
▁reed	-10.6492
field	-10.6494
▁hire	-10.6496
▁vague	-10.6503
▁banners	-10.6507
▁swung	-10.6512
▁toss	-10.6517
▁astray	-10.6518
▁returns	-10.6523
▁Dear	-10.6524
▁shouts	-10.6524
▁saddle	-10.653
▁languid	-10.6535
▁family	-10.6535
▁icy	-10.6536
;"¬	-10.6537
▁blazing	-10.6538
▁serpent	-10.6539
▁conquest	-10.6539
▁victim	-10.6539
there	-10.654
▁pillow	-10.6547
▁killed	-10.6551
▁jealous	-10.6554
▁yearning	-10.6556
▁Raghu	-10.656
▁ruined	-10.6561
▁replies	-10.6561
ned	-10.6569
▁Knight	-10.6572
▁noblest	-10.6582
▁shepherds	-10.6582
▁piece	-10.6584
▁strikes	-10.6586
▁Men	-10.659
▁lock	-10.6591
▁Jim	-10.6595
▁allow	-10.66
▁proof	-10.66
▁dine	-10.6604
▁freely	-10.6612
▁pilgrim	-10.6616
ns	-10.6617
▁blushing	-10.6618
▁solitary	-10.6637
▁ghastly	-10.6637
▁avail	-10.664
▁Grecian	-10.6643
Hence	-10.6647
▁mound	-10.6648
▁spy	-10.6652
Nature	-10.6661
▁saith	-10.6663
▁beats	-10.6663
▁throbbing	-10.6664
▁portion	-10.6665
▁Duke	-10.6668
then	-10.6673
▁oath	-10.6675
lier	-10.668
Wild	-10.668
ral	-10.668
▁wolf	-10.6694
▁comrade	-10.6695
Makes	-10.6696
▁shafts	-10.6703
▁deathless	-10.6705
▁drives	-10.6715
Strange	-10.6715
▁failed	-10.6728
▁fighting	-10.6736
▁Ho	-10.6737
▁sets	-10.6744
ite	-10.6745
▁Ye	-10.6749
▁somewhat	-10.6757
▁talked	-10.6759
▁lately	-10.6765
▁suppose	-10.6766
Hast	-10.677
▁wanted	-10.6775
▁million	-10.6776
▁letters	-10.6776
▁despise	-10.6784
Near	-10.6795
▁follows	-10.6797
ere	-10.6798
Rise	-10.6805
▁honours	-10.6814
ner	-10.6816
Black	-10.6817
▁refrain	-10.6818
▁imperial	-10.6818
▁liquid	-10.6818
▁hedge	-10.6819
▁vein	-10.682
▁vales	-10.6826
▁accord	-10.6828
▁ghostly	-10.6836
▁hapless	-10.6846
▁haply	-10.6849
▁sorry	-10.6852
▁Tom	-10.6853
nes	-10.6857
▁cloudy	-10.6861
▁damp	-10.6862
che	-10.6862
▁riches	-10.6866
▁meal	-10.687
▁creation	-10.6871
▁hunt	-10.6871
▁anything	-10.6874
ten	-10.6875
▁history	-10.6882
▁natural	-10.689
▁lamps	-10.6898
▁oil	-10.6907
▁affection	-10.6909
▁Bo	-10.6913
▁engage	-10.6915
▁craft	-10.6928
▁pinions	-10.6934
▁champion	-10.6935
▁rend	-10.6943
▁turf	-10.695
▁eastern	-10.695
▁therein	-10.6952
▁flush	-10.6952
▁beds	-10.6953
▁quench	-10.6961
sh	-10.6963
▁chant	-10.6964
▁tore	-10.6968
▁discover	-10.6982
▁wedding	-10.6984
▁eke	-10.6985
▁courser	-10.6987
▁box	-10.699
▁pursued	-10.6999
where	-10.7002
▁priests	-10.7002
▁majesty	-10.7003
▁W	-10.7005
▁bite	-10.7006
▁dale	-10.7007
▁thirty	-10.7007
▁bonds	-10.7019
▁smite	-10.7021
▁hurried	-10.7023
▁Song	-10.7029
▁influence	-10.703
▁ourselves	-10.703
os	-10.7045
▁eyelids	-10.7045
▁neat	-10.7046
▁Apollo	-10.7047
▁hole	-10.7048
▁escape	-10.7055
▁threshold	-10.7057
▁circling	-10.7059
▁Charles	-10.7066
▁Poet	-10.7069
▁p	-10.7083
▁raiment	-10.7083
▁agony	-10.7085
▁fellows	-10.7085
▁caves	-10.7095
ut	-10.71
▁signs	-10.7103
▁lesson	-10.7108
▁harmony	-10.711
▁headlong	-10.7117
▁marching	-10.7119
▁heal	-10.7123
▁Bill	-10.713
▁loyal	-10.7137
Something	-10.7138
ship	-10.7138
▁although	-10.7142
▁godlike	-10.7145
▁chest	-10.7146
▁fluttering	-10.715
▁worm	-10.7152
▁general	-10.7157
ple	-10.7157
▁sustain	-10.7158
wise	-10.7159
▁triumphant	-10.7159
▁taking	-10.716
▁curls	-10.7161
▁sceptre	-10.7163
▁vulgar	-10.7164
▁northern	-10.7164
▁guile	-10.7165
▁planned	-10.7167
▁conscious	-10.7168
▁stirs	-10.7169
▁tie	-10.7171
▁coward	-10.7173
▁bide	-10.7173
mo	-10.7174
▁received	-10.7178
▁harsh	-10.7184
da	-10.719
▁joined	-10.7191
▁zone	-10.7191
▁lower	-10.7193
tic	-10.7195
▁countless	-10.7195
ries	-10.7196
▁aching	-10.7199
▁State	-10.7202
▁startled	-10.7206
▁Are	-10.7215
▁eight	-10.7225
▁co	-10.7233
▁peep	-10.7235
▁action	-10.7245
▁leaps	-10.7245
Twixt	-10.7246
▁bonny	-10.7246
▁demand	-10.7248
Joy	-10.7252
▁shattered	-10.7255
▁hounds	-10.7255
▁warmth	-10.7263
▁helmet	-10.7264
▁outward	-10.7267
tin	-10.7269
▁fee	-10.7272
▁supply	-10.7273
▁forsake	-10.7274
▁William	-10.7281
▁streaming	-10.7284
▁Sunday	-10.7296
▁later	-10.7297
▁demon	-10.7301
▁named	-10.7303
▁Britain	-10.7307
▁whate	-10.7313
▁regions	-10.7313
Nea	-10.7313
▁bill	-10.7313
▁excuse	-10.7328
!¬_	-10.7331
Therefore	-10.7333
▁Shall	-10.7337
▁departed	-10.7339
▁female	-10.7348
ave	-10.7353
▁reverence	-10.7356
Sure	-10.7356
▁White	-10.7359
▁amber	-10.736
▁lament	-10.7366
▁latest	-10.7369
son	-10.7371
king	-10.7372
▁spheres	-10.7372
▁valour	-10.7383
▁Etzel	-10.7385
io	-10.7395
▁ba	-10.7399
▁object	-10.74
▁draught	-10.7403
au	-10.741
▁plight	-10.7422
▁garments	-10.7422
▁screen	-10.7423
▁outside	-10.7432
▁Holy	-10.7433
▁cliff	-10.7439
▁Thine	-10.744
Fresh	-10.744
kin	-10.7448
▁changing	-10.745
▁prevail	-10.7454
▁breasts	-10.7459
ary	-10.7463
▁whirl	-10.7467
▁thief	-10.7468
▁compare	-10.7469
▁social	-10.7469
▁armour	-10.7469
▁nook	-10.7481
▁alarm	-10.7483
▁haven	-10.7485
den	-10.7488
▁Past	-10.7488
▁pot	-10.7495
▁foaming	-10.7497
bell	-10.7499
▁chanced	-10.75
▁cliffs	-10.7501
á	-10.7501
▁mi	-10.7502
flower	-10.7503
▁weel	-10.7505
▁cherish	-10.7505
▁van	-10.7509
▁freed	-10.7511
▁rove	-10.7514
▁banquet	-10.7516
▁corpse	-10.7521
▁straw	-10.7521
▁household	-10.7523
▁proclaim	-10.7528
▁bled	-10.7537
▁Mars	-10.7537
▁Cupid	-10.7537
▁nightingale	-10.7545
▁safely	-10.7547
▁oar	-10.7557
▁Greeks	-10.7558
▁commands	-10.7558
ny	-10.7559
Speak	-10.7562
,)¬	-10.7562
▁erst	-10.7562
▁trembled	-10.7568
▁stoop	-10.7569
▁mourning	-10.7573
▁Law	-10.7574
▁Nay	-10.7577
▁guise	-10.7581
full	-10.7586
▁yes	-10.7595
▁whip	-10.7602
▁groans	-10.7606
▁mysterious	-10.7607
Making	-10.7614
▁Each	-10.7615
round	-10.7615
▁horns	-10.7619
▁token	-10.7625
ud	-10.7625
▁nightly	-10.7627
▁cavalier	-10.7631
▁heaps	-10.7637
Strong	-10.7638
▁solid	-10.7642
▁maintain	-10.7643
▁trow	-10.7645
tor	-10.7648
▁inside	-10.765
Rich	-10.7651
"--	-10.7654
▁disease	-10.7664
▁tribute	-10.7665
▁folds	-10.7671
H	-10.7678
▁wouldn	-10.7687
▁sex	-10.7692
▁whispers	-10.7698
▁thunders	-10.7702
▁High	-10.7709
▁crush	-10.7711
▁Ca	-10.7711
▁flat	-10.7715
▁Pa	-10.7716
ious	-10.7719
▁houses	-10.772
▁hir	-10.7722
▁sche	-10.773
Bot	-10.7732
▁walking	-10.7733
▁crow	-10.7735
▁whistle	-10.775
▁landscape	-10.7751
Meanwhile	-10.7752
▁regard	-10.7759
▁Faith	-10.7765
▁modern	-10.7778
drops	-10.7783
▁sum	-10.7785
▁mak	-10.7793
ac	-10.7798
Lost	-10.7803
,¬“	-10.7808
eus	-10.7811
▁City	-10.7815
....	-10.7817
ye	-10.7819
▁fits	-10.7821
▁lighted	-10.7827
▁matters	-10.7829
▁wel	-10.7832
▁plead	-10.7832
▁patriot	-10.7834
Loud	-10.7842
▁sailing	-10.7844
▁blissful	-10.7852
▁Right	-10.7856
▁arrayed	-10.7858
▁wildly	-10.786
▁stubborn	-10.7865
▁spied	-10.7865
▁wailing	-10.7868
▁hideous	-10.7868
▁joke	-10.7868
▁lassie	-10.7869
▁alarms	-10.7871
▁heel	-10.7875
Cold	-10.7876
▁net	-10.7886
▁bursting	-10.7887
Past	-10.7888
▁shop	-10.7894
▁waist	-10.7894
▁explore	-10.7895
▁marry	-10.7898
▁panting	-10.79
▁speaking	-10.7902
▁lordly	-10.7902
▁hurl	-10.7905
▁wax	-10.7909
▁Long	-10.7909
Fear	-10.7919
Fierce	-10.792
ex	-10.7921
▁despite	-10.7923
▁pallid	-10.7923
▁afternoon	-10.7923
ise	-10.7923
▁depth	-10.7925
▁Turnus	-10.7928
▁dye	-10.7931
ther	-10.7934
▁wield	-10.7937
▁nearly	-10.7946
Canto	-10.7952
▁beaten	-10.7954
▁wits	-10.7954
▁nobly	-10.7957
ti	-10.7958
▁grasses	-10.7959
▁pick	-10.7963
▁chimney	-10.7964
▁dawning	-10.7968
▁rises	-10.7969
▁peers	-10.7971
▁conceal	-10.7983
▁w	-10.7991
▁befall	-10.7998
Seemed	-10.7999
▁rung	-10.8001
ct	-10.8005
▁plumes	-10.8007
▁creeping	-10.8017
▁prophet	-10.8022
▁childish	-10.8023
Home	-10.8027
Bid	-10.8028
▁haze	-10.8039
▁brethren	-10.804
▁monstrous	-10.804
▁hearing	-10.8044
▁heathen	-10.8044
▁laughs	-10.8045
▁beguile	-10.8047
▁staff	-10.8047
▁forty	-10.8047
▁pours	-10.8056
top	-10.8062
▁curl	-10.8062
Left	-10.8075
▁tow	-10.8076
▁urn	-10.8086
▁throughout	-10.8088
▁revenge	-10.8091
▁burnt	-10.8095
▁doomed	-10.8097
▁hasten	-10.8099
▁bows	-10.8104
▁aright	-10.8107
▁party	-10.8113
▁dames	-10.812
▁rim	-10.8123
▁views	-10.8124
▁rustic	-10.8125
▁ills	-10.8125
▁leaving	-10.8131
▁ivy	-10.8131
ard	-10.8133
▁Scotland	-10.8133
▁purse	-10.8133
▁piteous	-10.8152
old	-10.8156
▁scale	-10.8157
▁cleft	-10.8159
▁homes	-10.8161
Enough	-10.8165
▁orchard	-10.8165
▁peril	-10.8168
▁balmy	-10.8169
ze	-10.8171
▁yard	-10.8172
▁leader	-10.8173
▁seeming	-10.8176
▁points	-10.8179
▁add	-10.8182
▁signal	-10.8184
▁Jane	-10.8186
ened	-10.8189
▁keeping	-10.8191
▁Court	-10.8195
Four	-10.8196
▁mouse	-10.8197
▁sinner	-10.8197
ab	-10.82
▁House	-10.8203
▁weapons	-10.8208
▁risen	-10.8208
▁growth	-10.8209
▁timid	-10.8212
▁plume	-10.8212
▁peak	-10.8213
▁color	-10.8213
▁moor	-10.8215
▁absent	-10.8219
▁amorous	-10.822
▁gang	-10.8222
▁hame	-10.8226
▁admire	-10.8227
▁fraught	-10.8228
▁obtain	-10.8232
▁nameless	-10.8233
▁pall	-10.8234
▁deepest	-10.8235
Says	-10.824
▁fence	-10.824
▁urge	-10.824
ent	-10.8242
▁brightest	-10.8242
▁leisure	-10.8242
▁kingly	-10.8245
▁fox	-10.8248
▁test	-10.8252
▁horizon	-10.8258
▁thereof	-10.8261
▁throws	-10.8266
▁drinking	-10.8268
fe	-10.8269
▁dun	-10.8271
▁cannon	-10.8271
▁quaint	-10.8273
▁southern	-10.828
▁struggling	-10.8281
▁Hagan	-10.8283
▁cloth	-10.8284
▁Pallas	-10.8287
▁bugle	-10.829
▁borrow	-10.8293
▁wearied	-10.8295
▁virtuous	-10.831
▁ardent	-10.831
▁wreaths	-10.831
▁offspring	-10.8311
▁lair	-10.8315
▁surge	-10.8315
▁dearer	-10.8315
▁elder	-10.8317
▁Devil	-10.8317
▁address	-10.8323
▁purest	-10.8325
Lie	-10.8327
▁treason	-10.834
▁brilliant	-10.8342
▁pangs	-10.8348
yet	-10.8351
▁current	-10.8352
▁Power	-10.8367
di	-10.8372
▁breathless	-10.8373
▁glances	-10.8377
▁rouse	-10.8378
Except	-10.8379
▁isles	-10.8379
▁windy	-10.838
▁missed	-10.8384
▁crowns	-10.8384
▁labours	-10.8385
ster	-10.8388
▁Br	-10.8394
▁steadfast	-10.8394
,--¬"	-10.8395
▁eternity	-10.8401
▁lazy	-10.8401
▁Red	-10.8403
▁matchless	-10.8405
▁Bharat	-10.8405
▁snatch	-10.841
▁mossy	-10.8411
▁maze	-10.8416
▁plate	-10.8417
▁mask	-10.8419
▁Re	-10.8426
nce	-10.8427
room	-10.843
▁Brown	-10.8435
▁Europe	-10.8436
nd	-10.8441
▁slope	-10.8457
▁bond	-10.8459
▁wilderness	-10.8459
Proud	-10.8464
▁wend	-10.8467
▁wonted	-10.8469
▁vex	-10.8469
▁nymphs	-10.847
Father	-10.8471
▁isn	-10.8474
▁aspire	-10.8476
▁tire	-10.848
▁sunbeams	-10.8485
▁organ	-10.8494
▁womb	-10.8495
▁Roland	-10.8502
▁descends	-10.8502
▁choir	-10.8505
▁cavern	-10.8505
▁axe	-10.8508
ius	-10.8511
▁advice	-10.8525
▁queer	-10.8538
▁seeking	-10.8546
▁princes	-10.8547
▁strayed	-10.8547
▁strew	-10.8552
▁shoe	-10.8553
▁centuries	-10.8556
▁git	-10.8558
▁beginning	-10.856
Free	-10.8563
▁echoing	-10.8565
▁link	-10.8565
▁tramp	-10.8567
▁boots	-10.8573
▁fruitful	-10.8574
▁Cross	-10.8578
▁temper	-10.8581
rie	-10.8582
▁Star	-10.8583
▁su	-10.8584
▁sow	-10.8584
▁reeds	-10.8584
▁Mrs	-10.8585
▁several	-10.8587
▁ivory	-10.8587
▁genial	-10.8587
▁sez	-10.8588
Less	-10.859
▁sleepy	-10.8592
tops	-10.8593
▁pit	-10.8593
▁Upon	-10.8595
▁harmless	-10.8595
▁tries	-10.8596
▁assail	-10.8598
▁wanderer	-10.8599
▁heath	-10.86
▁shew	-10.8605
▁fu	-10.8606
▁farmer	-10.8607
▁Whose	-10.8608
now	-10.8609
▁owl	-10.8611
▁Three	-10.8612
▁heels	-10.8616
▁Yes	-10.8618
▁hunter	-10.8628
▁somewhere	-10.8629
▁stairs	-10.8629
▁marks	-10.8631
--¬(	-10.8634
▁candle	-10.8636
▁faithless	-10.8644
▁rustling	-10.865
▁perished	-10.8657
fire	-10.8657
▁silently	-10.8659
▁trick	-10.866
▁knock	-10.8666
Whate	-10.8674
▁ambition	-10.8681
▁bravely	-10.8691
yard	-10.8691
▁greeting	-10.8691
▁climbed	-10.87
▁reigns	-10.8705
▁blight	-10.8711
▁lure	-10.872
▁pet	-10.8724
▁mo	-10.8724
nor	-10.8738
▁deceive	-10.874
▁flit	-10.874
▁lambs	-10.874
▁web	-10.8743
▁idly	-10.8746
▁boldly	-10.8746
▁herds	-10.8747
▁Po	-10.8748
▁rite	-10.8756
▁wherefore	-10.8758
▁gall	-10.8758
▁convey	-10.8759
▁region	-10.8761
▁toys	-10.8767
▁ties	-10.8767
hand	-10.8767
▁herald	-10.8768
▁wrongs	-10.8769
▁melting	-10.8772
▁apples	-10.8774
ham	-10.8776
▁spreading	-10.8779
▁suns	-10.8781
Happy	-10.8785
▁mis	-10.8787
▁famed	-10.879
▁claims	-10.879
▁quarrel	-10.8793
▁neighbor	-10.8793
▁tempests	-10.8799
▁gales	-10.8807
▁delicious	-10.8808
▁alien	-10.8808
▁possessed	-10.8809
▁Adam	-10.8815
flowers	-10.8815
▁disguise	-10.8816
▁retire	-10.8816
▁fo	-10.8821
La	-10.8822
▁obscure	-10.8824
▁tak	-10.8835
▁swan	-10.8837
▁rebel	-10.8838
▁scan	-10.8838
▁impatient	-10.8841
▁fades	-10.8841
Cast	-10.8841
▁leg	-10.8843
Pass	-10.8855
▁com	-10.8857
▁gan	-10.886
▁sooner	-10.8864
▁descending	-10.8865
▁princely	-10.8866
▁petals	-10.8866
▁witch	-10.8871
▁Sorrow	-10.8871
▁innocence	-10.8872
▁gear	-10.8879
▁servants	-10.8887
!_¬	-10.8887
▁rack	-10.8887
▁attire	-10.8887
▁core	-10.889
▁prepared	-10.8893
▁Heart	-10.8894
▁Wind	-10.8894
work	-10.8897
▁blank	-10.8904
▁pitch	-10.8905
▁ceaseless	-10.8905
▁mingle	-10.8913
▁weakness	-10.8916
▁gentleman	-10.8917
▁hint	-10.8918
▁daisies	-10.8923
▁hanging	-10.8924
▁Eve	-10.8926
▁ascend	-10.8926
Spring	-10.8927
▁aspect	-10.8932
▁gorgeous	-10.8936
▁Mo	-10.8938
?'¬	-10.8941
▁flute	-10.8942
▁garland	-10.8945
Green	-10.8947
▁heroic	-10.8947
▁meets	-10.8951
▁secrets	-10.8953
▁eggs	-10.8954
▁portal	-10.896
▁consent	-10.8967
▁science	-10.8972
▁however	-10.8973
▁fog	-10.8977
▁Le	-10.8979
▁slumbers	-10.8985
▁terrors	-10.8987
▁dragon	-10.899
▁shaken	-10.899
▁shriek	-10.8991
▁seeds	-10.8999
▁debate	-10.9001
▁whilst	-10.9002
▁haue	-10.9004
▁cam	-10.9004
▁rains	-10.9006
▁Joy	-10.9006
▁Sleep	-10.9006
▁provide	-10.9007
▁Liberty	-10.9008
dy	-10.9009
▁faintly	-10.9011
▁hoped	-10.9014
▁Al	-10.9016
▁griefs	-10.902
▁hurrying	-10.9025
▁warn	-10.9028
▁resting	-10.9042
▁airs	-10.9043
stone	-10.9045
▁courts	-10.9046
▁raven	-10.9048
pin	-10.9048
Dis	-10.9057
▁loue	-10.9071
Clear	-10.9077
▁forsaken	-10.9078
▁fetch	-10.9082
▁ale	-10.9091
▁thorns	-10.9097
▁acts	-10.9098
Quick	-10.911
▁caress	-10.9113
▁inspire	-10.9115
Spread	-10.9115
▁fur	-10.9122
▁Ben	-10.9128
ile	-10.9128
▁orb	-10.913
▁noisy	-10.9132
▁conquering	-10.9133
Bear	-10.9136
▁favor	-10.9138
Safe	-10.9138
▁centre	-10.9139
▁working	-10.9143
▁foeman	-10.9144
▁sweeps	-10.9152
▁Down	-10.9154
▁legions	-10.9159
▁dazzling	-10.9166
▁deeply	-10.9167
▁hoar	-10.9169
pa	-10.9173
▁relate	-10.9174
▁fa	-10.9177
▁prow	-10.9182
▁prest	-10.9188
▁feathers	-10.919
▁diamond	-10.919
▁weal	-10.919
▁remembered	-10.9195
▁pang	-10.9196
faced	-10.9197
cy	-10.9198
▁spacious	-10.9198
▁dripping	-10.92
▁Irish	-10.92
Stay	-10.921
though	-10.9212
▁covered	-10.9215
Fast	-10.9225
▁suppliant	-10.9231
▁enemy	-10.9231
▁merrily	-10.9231
▁J	-10.9236
ure	-10.9242
▁worldly	-10.9243
from	-10.9247
▁wiser	-10.9248
▁severe	-10.9255
▁...¬	-10.9255
▁fount	-10.9257
▁traitor	-10.9257
thou	-10.9259
▁yell	-10.9262
▁noght	-10.9275
Straight	-10.9277
▁longed	-10.9282
ped	-10.9282
▁praised	-10.9282
▁charmed	-10.9285
▁career	-10.9293
▁puts	-10.9298
▁bereft	-10.9298
▁Don	-10.93
▁George	-10.9305
▁loveliest	-10.9309
Besides	-10.9309
Remember	-10.9312
▁faster	-10.9312
▁crowds	-10.9314
ron	-10.9319
Awake	-10.9328
▁hardy	-10.9328
▁hunting	-10.9329
▁shouldst	-10.9331
▁supplied	-10.9332
▁remembrance	-10.9333
Wide	-10.9334
▁Hagen	-10.9334
Find	-10.9336
▁hawk	-10.934
▁strangely	-10.9341
▁leaping	-10.9343
Blue	-10.9345
bo	-10.9346
▁spun	-10.9347
▁kindled	-10.9348
▁pig	-10.9352
▁rail	-10.9355
▁conquered	-10.9362
▁floats	-10.9363
▁traveller	-10.9365
▁ecstasy	-10.9365
▁nimble	-10.9365
▁verdant	-10.9365
▁awoke	-10.9365
▁brightness	-10.9371
▁venture	-10.9378
▁deaf	-10.9387
▁healing	-10.9389
▁spoils	-10.9389
▁inmost	-10.939
▁drifting	-10.9391
▁grin	-10.9394
▁mansion	-10.9395
▁pictures	-10.9398
▁council	-10.94
▁lingers	-10.9402
▁singer	-10.9403
▁troubles	-10.9406
▁exile	-10.9406
▁tend	-10.9409
▁fulfil	-10.9412
vi	-10.9418
▁armor	-10.942
▁brute	-10.9429
▁pro	-10.9431
▁reel	-10.9436
▁bottom	-10.9437
▁spin	-10.9438
▁duly	-10.9439
▁tempt	-10.9445
▁grieved	-10.945
▁flashed	-10.9451
row	-10.9456
▁sly	-10.9463
Seem	-10.9465
Hush	-10.9465
▁request	-10.9467
▁wizard	-10.9467
▁foremost	-10.9467
▁louder	-10.947
▁restrain	-10.9471
▁Far	-10.9475
▁doe	-10.9475
▁tenderness	-10.9482
▁ca	-10.9486
▁sweeping	-10.9487
▁brush	-10.9487
▁millions	-10.949
cha	-10.9491
more	-10.95
▁fairly	-10.9501
▁universal	-10.9501
▁kitchen	-10.9501
▁discern	-10.9501
Ma	-10.9502
▁ache	-10.9502
War	-10.9503
▁flutter	-10.9504
Bound	-10.9505
▁fates	-10.9505
▁twin	-10.9505
ps	-10.9512
▁wedded	-10.9514
▁watchful	-10.9514
▁fails	-10.9518
▁dish	-10.9518
▁drawing	-10.9521
▁lull	-10.9522
▁darkened	-10.9522
Singing	-10.9523
▁scream	-10.9534
▁Italy	-10.9535
▁brine	-10.9536
song	-10.9537
▁straightway	-10.9538
▁coral	-10.9539
Am	-10.9541
▁Arthur	-10.9541
ee	-10.9543
Heart	-10.9544
▁hallowed	-10.9549
▁bier	-10.955
are	-10.9552
▁Moor	-10.9553
▁gets	-10.9553
▁tarry	-10.9554
▁sh	-10.9559
▁roads	-10.9564
▁respect	-10.9566
▁wha	-10.9567
▁foemen	-10.9578
sweet	-10.9585
▁harbour	-10.9587
▁da	-10.9588
▁manners	-10.9589
▁rushed	-10.959
Lies	-10.959
▁bath	-10.9597
▁clung	-10.9604
Leaving	-10.9605
▁earliest	-10.9605
gy	-10.9613
▁steam	-10.9613
▁olden	-10.9621
▁somehow	-10.9621
▁lively	-10.9623
vo	-10.9624
▁waken	-10.9626
Surely	-10.9628
▁bolt	-10.9631
Warm	-10.9639
▁frantic	-10.9639
▁adown	-10.9641
▁suffered	-10.9647
▁leagues	-10.9652
▁stricken	-10.9658
▁wo	-10.966
▁useless	-10.9664
▁believed	-10.9664
▁dearly	-10.9668
rest	-10.9682
▁roofs	-10.9687
Beauty	-10.9689
▁stillness	-10.9691
▁ate	-10.9695
twill	-10.9696
▁giants	-10.9696
▁goodness	-10.9698
▁bridle	-10.9708
▁rural	-10.9708
▁myrtle	-10.9709
▁chorus	-10.9709
▁private	-10.971
▁maun	-10.9711
▁title	-10.9714
▁Alas	-10.9717
▁trance	-10.9723
▁wast	-10.9724
▁vi	-10.9724
▁unrest	-10.973
▁failing	-10.973
▁viewed	-10.973
tter	-10.9734
line	-10.9734
oo	-10.9734
▁H	-10.9737
▁slim	-10.974
▁ahead	-10.9745
Live	-10.9745
▁glimpse	-10.9746
▁tuneful	-10.975
Heard	-10.975
▁Age	-10.9751
),	-10.9755
Hold	-10.976
ions	-10.977
ments	-10.9771
ble	-10.9773
most	-10.9781
▁Juno	-10.9782
▁pitying	-10.9783
▁shiver	-10.9786
Brave	-10.9788
▁Lion	-10.9793
▁upper	-10.9797
▁heaving	-10.98
Day	-10.9802
▁curled	-10.9807
▁martyr	-10.9817
▁selfish	-10.9819
▁leapt	-10.9819
▁planted	-10.982
▁Saxon	-10.9821
▁ruins	-10.9829
▁decline	-10.9835
Gone	-10.9836
Ask	-10.9848
▁glides	-10.9848
▁cherry	-10.9849
▁German	-10.985
▁destiny	-10.9851
▁sombre	-10.9852
▁profit	-10.9852
▁final	-10.9853
▁resound	-10.9854
▁blend	-10.9854
▁Book	-10.9859
▁crooked	-10.9862
▁nerve	-10.9862
▁climes	-10.9864
Thrice	-10.9865
Wilt	-10.9866
▁Ne	-10.9867
▁sheet	-10.987
▁attain	-10.9876
▁decreed	-10.9878
▁ole	-10.9879
Con	-10.9883
▁emerald	-10.9884
▁impious	-10.9885
▁sentence	-10.9886
▁homely	-10.9886
▁Pope	-10.989
▁fir	-10.9892
▁weeps	-10.9896
▁glitter	-10.9898
▁twisted	-10.99
pi	-10.9907
▁murmured	-10.9907
▁waft	-10.9909
don	-10.9914
▁le	-10.9914
ered	-10.9914
Brought	-10.9921
▁applause	-10.9921
Sat	-10.9923
▁orange	-10.9923
Hard	-10.9923
▁peasant	-10.9924
▁penny	-10.9927
▁Two	-10.9937
ach	-10.9939
▁trumpets	-10.9941
▁calmly	-10.9946
▁pin	-10.9948
▁pound	-10.9955
▁waved	-10.9957
ff	-10.9958
fold	-10.996
▁vital	-10.9966
Silent	-10.9967
▁ruled	-10.9967
▁fiddle	-10.997
▁Reason	-10.9972
▁Li	-10.9974
▁whirling	-10.9977
▁whereon	-10.999
▁jump	-10.9997
▁jaws	-10.9999
▁Vi	-11
▁laden	-11.0004
▁merely	-11.0008
green	-11.0014
▁fe	-11.0026
▁ragged	-11.0028
▁Un	-11.0028
▁brooks	-11.003
▁righteous	-11.0031
ris	-11.0043
▁banish	-11.0046
▁writing	-11.0056
▁mixed	-11.0058
▁crimes	-11.0059
▁odd	-11.0062
▁Indra	-11.0065
▁job	-11.0068
▁dozen	-11.0069
mer	-11.0073
Fly	-11.0081
which	-11.0082
▁Than	-11.0085
▁Trojans	-11.0089
▁starts	-11.0094
▁sturdy	-11.01
▁humbly	-11.01
▁mare	-11.0106
▁March	-11.0108
▁po	-11.0113
▁garlands	-11.0113
▁und	-11.0114
▁clings	-11.0115
▁wherever	-11.0115
▁compass	-11.0118
▁loom	-11.012
▁lakes	-11.0122
▁revel	-11.0124
▁require	-11.0125
▁dey	-11.0125
▁thundering	-11.0129
▁flags	-11.0132
Rest	-11.0133
gg	-11.0134
▁conflict	-11.0136
▁devotion	-11.0137
▁separate	-11.0138
;¬(	-11.0144
▁Out	-11.0149
▁palms	-11.0152
Perchance	-11.0155
▁Year	-11.016
▁revealed	-11.0163
▁drain	-11.0165
▁added	-11.0165
▁hated	-11.0174
▁flings	-11.0178
▁riot	-11.018
▁dried	-11.018
▁Ha	-11.0181
▁summit	-11.0182
▁purer	-11.0183
▁cart	-11.0184
▁olive	-11.0185
ities	-11.0187
▁Had	-11.0189
▁Dame	-11.0195
▁pages	-11.0198
▁garb	-11.0199
▁yea	-11.02
▁faults	-11.0203
▁changes	-11.0206
▁example	-11.0209
▁apace	-11.0209
▁nobody	-11.0213
▁knell	-11.0214
▁flourish	-11.0214
▁doubts	-11.0215
Yon	-11.0217
▁goblet	-11.0219
▁oars	-11.0219
▁Juan	-11.0219
▁Kings	-11.0226
▁stained	-11.0229
▁drums	-11.023
▁Home	-11.0231
▁crushed	-11.0231
▁scented	-11.0233
Pure	-11.0233
▁Maid	-11.0236
▁hare	-11.024
▁ben	-11.0241
▁render	-11.0242
▁cometh	-11.0242
▁urged	-11.0244
▁simply	-11.0246
▁vacant	-11.0246
ize	-11.0248
▁Just	-11.0254
▁custom	-11.0256
▁quarter	-11.0262
iest	-11.0263
▁cage	-11.0264
star	-11.0264
▁erect	-11.0268
▁lace	-11.0271
▁cherished	-11.0271
▁rat	-11.0273
ger	-11.0276
▁sp	-11.0281
▁cypress	-11.0283
▁tremulous	-11.0283
▁bonnet	-11.0283
▁fetters	-11.0283
▁Muses	-11.029
▁fired	-11.0294
▁hadst	-11.0296
Youth	-11.0298
▁oppress	-11.0298
▁succeed	-11.0299
▁peaks	-11.0312
▁shouted	-11.0314
▁wistful	-11.0316
▁praises	-11.0316
ence	-11.0324
▁Town	-11.0325
▁lotus	-11.0329
▁meads	-11.0334
John	-11.034
▁handsome	-11.0342
▁thei	-11.0342
Ev	-11.0346
▁formed	-11.0347
▁betide	-11.0347
▁springing	-11.0356
▁mutual	-11.0357
"--¬	-11.0359
▁yearn	-11.0359
tle	-11.0363
▁Grace	-11.0364
▁costly	-11.0373
▁verge	-11.0375
▁attack	-11.0377
▁closer	-11.0377
▁neglect	-11.0377
Himself	-11.0378
▁hoarse	-11.0387
▁scheme	-11.0388
▁destruction	-11.0394
low	-11.0396
▁lash	-11.0406
▁unkind	-11.0408
▁sincere	-11.0408
come	-11.0409
▁frosty	-11.0413
▁keys	-11.0414
▁Virtue	-11.0414
▁implore	-11.0416
▁careful	-11.0423
▁clearly	-11.043
▁hawthorn	-11.0432
▁rushes	-11.0435
▁Once	-11.0438
▁wanders	-11.0441
▁pond	-11.0447
down	-11.0451
▁leaned	-11.0454
▁Hall	-11.0455
▁alter	-11.0456
▁trip	-11.0459
▁office	-11.0459
▁occasion	-11.0459
▁colors	-11.0461
▁swinging	-11.0464
▁rash	-11.0467
▁plants	-11.0469
▁impulse	-11.047
▁ugly	-11.047
▁sheaves	-11.047
▁fainting	-11.0476
▁inclined	-11.0477
was	-11.0478
▁stealing	-11.0479
qui	-11.048
▁companions	-11.0482
▁howling	-11.0484
▁Mar	-11.0484
▁"_	-11.0486
▁rust	-11.049
Show	-11.0494
▁chap	-11.0498
▁Have	-11.05
Mark	-11.0503
ric	-11.051
▁settled	-11.0511
▁mony	-11.0511
▁f	-11.0514
▁Doctor	-11.0516
▁thrills	-11.0517
▁moaning	-11.0522
▁musing	-11.0529
Woe	-11.0532
▁plot	-11.0536
▁print	-11.0541
▁vault	-11.0543
▁mocking	-11.0543
ging	-11.0544
▁Black	-11.0547
▁languish	-11.0549
▁mend	-11.0558
▁sup	-11.056
▁kick	-11.0566
▁guards	-11.0569
▁Green	-11.057
▁unite	-11.0573
known	-11.0578
▁sympathy	-11.0583
▁parson	-11.0583
▁thrilling	-11.0589
▁towns	-11.0591
▁Na	-11.0594
▁shields	-11.06
Glad	-11.06
▁knave	-11.06
fore	-11.0607
▁spur	-11.0609
▁rave	-11.0611
▁ply	-11.0615
▁inner	-11.0616
Twi	-11.0619
▁issue	-11.0621
▁refuge	-11.0621
▁romance	-11.0621
▁vernal	-11.0621
▁homage	-11.0621
▁cook	-11.0622
▁Would	-11.0629
▁scar	-11.063
▁author	-11.0638
▁seated	-11.0639
▁myriad	-11.0639
Vain	-11.0641
▁entrance	-11.0642
▁gulf	-11.0644
▁Up	-11.0644
▁fiends	-11.0645
▁study	-11.0645
¬“	-11.0649
▁rested	-11.065
▁brooding	-11.0654
hi	-11.0656
▁im	-11.0657
▁nectar	-11.066
▁clever	-11.066
▁Joe	-11.0662
twould	-11.0666
▁Henry	-11.0667
rate	-11.0672
▁hook	-11.0677
▁protect	-11.068
ler	-11.0681
▁First	-11.0682
▁cheat	-11.0682
▁fane	-11.0685
▁support	-11.0685
▁glowed	-11.069
▁brightly	-11.0695
▁repay	-11.0698
▁stories	-11.0698
▁fashioned	-11.0701
▁Neptune	-11.0704
▁mayst	-11.0705
▁stops	-11.0707
▁tricks	-11.0708
▁defeat	-11.0712
▁Goddess	-11.0715
▁asks	-11.0729
▁stark	-11.0733
▁ending	-11.0736
▁bridegroom	-11.0737
▁push	-11.0737
▁canvas	-11.0737
▁favourite	-11.0738
▁gliding	-11.0741
▁crash	-11.0742
▁vent	-11.0742
▁Dead	-11.0744
▁chambers	-11.0748
▁abound	-11.0748
▁Boy	-11.0755
▁defy	-11.0759
Welcome	-11.076
▁approaching	-11.0763
clad	-11.0765
▁gie	-11.0768
▁figures	-11.0771
▁pie	-11.0773
▁absence	-11.0775
▁wuz	-11.0776
▁Priam	-11.0776
Watching	-11.0779
▁measured	-11.078
▁tops	-11.0784
▁piercing	-11.0785
▁ward	-11.0788
▁pane	-11.0791
▁explain	-11.0797
▁forbear	-11.0798
▁concealed	-11.0798
Teach	-11.0799
▁rills	-11.0808
!"--	-11.081
Thick	-11.0816
▁strait	-11.0816
▁goose	-11.0818
▁disclose	-11.0819
made	-11.0821
▁rattle	-11.0821
▁thrilled	-11.0823
▁wrapped	-11.0825
▁hart	-11.0826
▁weeks	-11.0831
▁Friend	-11.0834
▁doctor	-11.0836
ba	-11.0838
▁mention	-11.0842
▁N	-11.0844
▁plainly	-11.0845
▁loudly	-11.0848
▁dangers	-11.0853
▁consort	-11.0854
▁placid	-11.0854
▁victorious	-11.0854
▁anchor	-11.0859
▁torrents	-11.0861
▁cake	-11.0862
▁getting	-11.0864
▁wolde	-11.0867
▁heedless	-11.087
▁trunk	-11.0881
▁newly	-11.0883
thy	-11.0884
▁frequent	-11.0889
▁Va	-11.0891
till	-11.0893
).¬	-11.0893
▁sages	-11.0895
▁fern	-11.0896
▁shelf	-11.0897
Found	-11.09
Seems	-11.09
▁closing	-11.0905
▁await	-11.0905
▁twist	-11.0907
▁washed	-11.0908
▁rate	-11.0909
▁finished	-11.0912
▁desired	-11.0915
▁phrase	-11.0915
▁garment	-11.0916
▁porch	-11.0917
op	-11.0919
▁coursers	-11.0924
ER	-11.0925
▁lasting	-11.0927
▁Hill	-11.0934
▁dreamy	-11.0937
▁regal	-11.0943
▁trusty	-11.0945
▁pulses	-11.0946
▁lave	-11.0952
▁report	-11.0955
▁stride	-11.0955
▁talking	-11.0956
▁cleave	-11.0956
▁error	-11.0957
▁sprite	-11.096
▁cheap	-11.0965
ming	-11.0966
▁veiled	-11.0971
▁supplies	-11.0972
▁kinsmen	-11.0972
▁dauntless	-11.0973
▁Car	-11.0978
▁remained	-11.0982
Ca	-11.0986
▁wat	-11.0987
air	-11.0992
▁Earl	-11.0995
THE	-11.0996
▁tiger	-11.0996
▁flowed	-11.0998
▁fairies	-11.1002
▁solace	-11.1003
▁Ráva	-11.1005
▁elm	-11.101
▁defence	-11.101
▁prostrate	-11.1011
▁ethereal	-11.1011
Turned	-11.1014
ng	-11.1015
▁league	-11.1016
▁displayed	-11.1017
Drink	-11.1021
hood	-11.1023
▁swallows	-11.1028
▁wink	-11.1032
▁fiercely	-11.1034
▁Ga	-11.1046
▁arrived	-11.1047
▁towering	-11.1049
Sent	-11.1049
ik	-11.1049
▁serious	-11.1051
▁unconscious	-11.1051
▁mothers	-11.1055
▁hap	-11.1056
du	-11.1056
▁planet	-11.1062
ery	-11.1063
▁heave	-11.1064
▁triumphs	-11.1068
cul	-11.1068
▁woven	-11.1069
ht	-11.1069
▁sack	-11.1075
▁clothed	-11.1075
▁companion	-11.1081
tur	-11.1082
Al	-11.1085
▁pasture	-11.1086
▁border	-11.1087
▁te	-11.1088
▁sailors	-11.109
▁cheese	-11.1091
Open	-11.1093
▁thrush	-11.1094
▁thoughtful	-11.1099
...¬	-11.11
▁sires	-11.1104
▁chased	-11.1107
Help	-11.1112
▁Con	-11.1113
▁babes	-11.1114
▁yielding	-11.1114
ag	-11.1115
▁multitude	-11.1118
▁poem	-11.1119
ith	-11.112
ber	-11.112
▁plucked	-11.1128
▁gains	-11.1129
▁countenance	-11.1131
mon	-11.1132
▁melodious	-11.1133
▁repent	-11.1136
▁glancing	-11.1137
▁clasped	-11.1138
▁mounted	-11.1141
▁whan	-11.1144
▁happened	-11.1145
▁El	-11.1147
▁lain	-11.115
▁wasn	-11.1152
▁elf	-11.1155
▁conduct	-11.1156
▁expect	-11.1158
▁wondered	-11.1162
▁glimmer	-11.1165
▁abyss	-11.1167
▁eclipse	-11.1168
▁kneeling	-11.1168
▁succour	-11.1172
▁converse	-11.1172
▁knowest	-11.1175
Wha	-11.1178
▁du	-11.1178
▁steals	-11.1181
▁hut	-11.1189
▁thirsty	-11.119
▁bards	-11.1193
▁larger	-11.1193
Dim	-11.1194
Und	-11.1196
▁preach	-11.1197
▁domain	-11.1201
▁brains	-11.1205
▁honoured	-11.121
ni	-11.1211
▁varied	-11.1212
▁stuck	-11.1212
tes	-11.1214
▁hiding	-11.1215
▁yo	-11.1217
Send	-11.1219
▁swarm	-11.1226
ening	-11.1231
▁reared	-11.1231
▁oppressed	-11.1231
▁beer	-11.1231
▁finish	-11.1236
▁appeal	-11.1236
▁verses	-11.1238
▁threat	-11.1238
▁deplore	-11.1238
▁chieftain	-11.1242
boy	-11.1247
▁malice	-11.1253
▁droop	-11.1253
▁lame	-11.1256
▁Psyche	-11.1257
▁di	-11.1259
▁befell	-11.126
▁blot	-11.1264
▁rope	-11.1264
▁beware	-11.1268
▁needed	-11.1268
▁belt	-11.1268
Christ	-11.1282
▁torment	-11.1285
▁Bay	-11.1291
▁existence	-11.1294
other	-11.1294
▁sown	-11.1295
▁ash	-11.1295
▁attention	-11.1296
▁tenderly	-11.1297
▁vessels	-11.1298
▁Thomas	-11.1298
▁Caesar	-11.13
▁fitting	-11.1301
▁destined	-11.1302
▁stake	-11.1304
▁schal	-11.1306
Seeing	-11.1317
▁accept	-11.1317
▁Blue	-11.1318
Seek	-11.1321
Child	-11.1322
▁weigh	-11.1323
clock	-11.1323
▁tribe	-11.1328
▁split	-11.1334
▁prudent	-11.1335
▁Even	-11.1338
▁clan	-11.1338
▁forego	-11.1342
Hung	-11.1342
▁cheers	-11.1343
▁closely	-11.1347
▁awa	-11.1347
ice	-11.135
▁shuddering	-11.1351
Amidst	-11.1352
ide	-11.1355
▁ordain	-11.1359
▁mart	-11.136
▁hover	-11.1362
Held	-11.1363
▁release	-11.1365
▁Sin	-11.1366
▁messenger	-11.1367
ever	-11.1367
mus	-11.1368
▁summons	-11.1368
▁vowed	-11.1368
▁creeps	-11.1368
▁snug	-11.1368
▁mire	-11.1371
▁pillar	-11.1371
▁shells	-11.1373
:--¬"	-11.1373
▁confusion	-11.1376
▁grandeur	-11.1376
▁belief	-11.1376
▁sworn	-11.1377
▁Northern	-11.1379
▁rife	-11.1381
fl	-11.1382
gate	-11.1383
▁rob	-11.1386
Being	-11.1388
Born	-11.139
▁dyed	-11.1394
▁inter	-11.1397
▁Fates	-11.1399
ot	-11.1399
▁piled	-11.1405
tie	-11.1411
▁withstand	-11.1415
▁gaily	-11.1417
▁stony	-11.1417
Faint	-11.1419
▁chide	-11.142
▁greatly	-11.1426
▁dower	-11.1431
▁bat	-11.1438
▁hasty	-11.1441
Calm	-11.1442
▁India	-11.1442
▁blushes	-11.1444
▁girt	-11.1445
▁amain	-11.1446
▁goat	-11.1446
▁fore	-11.1449
bar	-11.1451
▁bravest	-11.1452
▁darker	-11.1453
▁battles	-11.1455
▁aloof	-11.1458
▁except	-11.146
Sit	-11.146
▁damn	-11.1463
▁freeze	-11.1464
▁wooden	-11.1466
▁wanting	-11.1467
▁lifeless	-11.1467
neas	-11.1469
▁spurn	-11.147
Mi	-11.1471
Po	-11.1471
Eyes	-11.1477
▁wold	-11.1486
ating	-11.1488
▁clinging	-11.1492
▁feature	-11.1493
▁reading	-11.1494
▁soaring	-11.1496
▁rows	-11.1497
▁sylvan	-11.15
pp	-11.15
▁corse	-11.15
▁gen	-11.1511
▁weird	-11.1517
▁transport	-11.1518
▁guarded	-11.1519
▁aware	-11.1521
▁frolic	-11.1522
▁rights	-11.1524
▁barn	-11.1525
▁commend	-11.1525
▁challenge	-11.1527
▁mistake	-11.1529
Rather	-11.1529
▁offering	-11.1533
▁hallow	-11.1534
▁wane	-11.1535
Wherefore	-11.1539
▁gaunt	-11.1542
▁Spanish	-11.1542
▁fen	-11.1544
pt	-11.1548
▁tribes	-11.1552
lu	-11.1552
▁lusty	-11.1563
too	-11.1564
Fall	-11.1569
▁sob	-11.1573
blown	-11.1574
▁V	-11.1577
▁primrose	-11.1578
▁column	-11.158
?¬_	-11.1581
▁pilot	-11.1584
▁reverend	-11.1584
▁withdrew	-11.1584
▁Lu	-11.1585
winged	-11.1587
▁contented	-11.1587
▁Look	-11.1588
▁stable	-11.1589
▁gin	-11.1591
▁scant	-11.1593
▁gentlemen	-11.1595
▁Tree	-11.1603
▁banished	-11.1604
▁trembles	-11.1605
▁lightnings	-11.1607
▁lovelier	-11.161
▁hood	-11.1613
.'¬"	-11.1613
▁plunge	-11.1613
▁dances	-11.1619
▁musical	-11.1619
▁wealthy	-11.1626
▁coal	-11.1628
▁drinks	-11.1629
Meet	-11.1633
Quo	-11.1635
▁Never	-11.1637
▁James	-11.1641
Content	-11.1642
▁billow	-11.1642
▁caused	-11.1646
▁withal	-11.1647
▁whim	-11.1651
▁interest	-11.1653
▁asunder	-11.1654
▁artist	-11.1654
▁wage	-11.1657
ean	-11.1659
ged	-11.166
▁pipes	-11.1663
▁earn	-11.1663
▁miracle	-11.1664
▁antique	-11.1669
▁gallop	-11.1678
▁coy	-11.1678
▁restored	-11.168
▁howl	-11.1682
bus	-11.1688
▁throb	-11.1688
foot	-11.1692
▁prisoner	-11.1695
▁robin	-11.1696
▁boar	-11.1699
▁chords	-11.1701
▁vines	-11.1703
▁Since	-11.1707
▁cur	-11.1717
Draw	-11.1717
av	-11.1718
▁bet	-11.1721
▁prompt	-11.1726
▁degrees	-11.1728
set	-11.1732
▁Pleasure	-11.1734
Slow	-11.1737
▁fawn	-11.1737
Blest	-11.1743
yn	-11.1749
▁intense	-11.175
▁falcon	-11.1754
▁plaintive	-11.1754
▁penance	-11.1755
▁holiday	-11.1756
▁bounding	-11.1759
wing	-11.1759
Fill	-11.1765
▁swoon	-11.1769
Aye	-11.1771
▁dropping	-11.1771
▁gleamed	-11.1773
▁union	-11.1778
▁wor	-11.1784
▁plague	-11.1787
Five	-11.1787
Ring	-11.1788
birds	-11.179
ping	-11.1796
▁sultry	-11.1797
▁bounty	-11.1797
▁telling	-11.1798
▁wove	-11.1804
▁proceed	-11.1804
Thought	-11.1805
▁greed	-11.1806
Co	-11.1808
▁crust	-11.1809
▁pearly	-11.1817
Grew	-11.1819
▁Chief	-11.182
▁subjects	-11.182
▁sealed	-11.1821
▁retain	-11.1821
self	-11.1821
▁expire	-11.1824
▁stays	-11.1826
▁pleas	-11.1828
heart	-11.1831
▁Glory	-11.1834
lan	-11.1835
bells	-11.1836
Forget	-11.1836
▁instinct	-11.1838
▁scroll	-11.1838
▁Sabbath	-11.184
▁foliage	-11.184
▁surface	-11.184
▁alway	-11.1841
▁dyes	-11.1841
▁dangerous	-11.1842
▁finest	-11.1847
▁islands	-11.1849
rose	-11.185
▁clang	-11.185
▁bane	-11.1851
▁hearken	-11.1852
▁granted	-11.1854
▁invade	-11.1855
ets	-11.1856
om	-11.186
▁graces	-11.1867
Haste	-11.1869
▁answering	-11.1869
▁reverent	-11.1876
aw	-11.1876
▁sandy	-11.1876
▁Before	-11.1879
▁feeds	-11.1882
▁strode	-11.1883
Follow	-11.1885
▁untold	-11.1886
▁ruby	-11.189
▁Genius	-11.189
grown	-11.1891
▁stalk	-11.1893
▁plunged	-11.1901
▁watches	-11.1905
▁wayward	-11.1906
▁laurels	-11.1908
Thence	-11.1912
▁shouting	-11.1917
ade	-11.1919
▁delightful	-11.1921
▁seer	-11.1923
▁cabin	-11.1925
▁text	-11.1925
▁Southern	-11.1927
▁bidding	-11.1927
▁beguiled	-11.1928
▁humming	-11.1929
▁masters	-11.1931
away	-11.1933
▁maybe	-11.1933
ated	-11.1933
▁sweetheart	-11.1934
▁lee	-11.1934
▁bottle	-11.1934
▁subdued	-11.1937
▁confessed	-11.1938
▁voyage	-11.1949
▁delighted	-11.1949
▁swayed	-11.1949
▁leaning	-11.195
Looked	-11.1954
▁sweets	-11.1957
your	-11.1958
Six	-11.1961
ors	-11.1962
▁effect	-11.1965
Methinks	-11.197
▁prowess	-11.1971
▁sickness	-11.1983
lay	-11.1985
▁demands	-11.1985
mb	-11.1988
▁imp	-11.1989
mong	-11.1995
▁pleading	-11.1995
▁answers	-11.1997
▁U	-11.2009
▁offered	-11.2009
▁betrayed	-11.2011
▁deeps	-11.2012
▁Virgin	-11.2012
▁infernal	-11.2014
▁prone	-11.2015
▁methinks	-11.2017
▁youths	-11.2018
▁December	-11.2019
▁building	-11.2026
▁perfection	-11.2026
tra	-11.2027
▁Satan	-11.2027
Saying	-11.2027
▁quo	-11.203
▁invite	-11.2036
▁highway	-11.2038
--_	-11.2041
▁circles	-11.2043
▁leaden	-11.2044
Gold	-11.2046
▁bathed	-11.2046
▁ope	-11.2051
▁beaming	-11.2053
▁stupid	-11.2058
▁envious	-11.2058
▁broom	-11.2059
▁margin	-11.2059
▁supper	-11.2059
▁trial	-11.2064
▁greedy	-11.2064
▁dip	-11.2067
▁fickle	-11.2067
▁Latin	-11.2068
▁frightened	-11.2068
▁coin	-11.207
▁Care	-11.208
▁Wisdom	-11.2081
However	-11.2082
▁Paul	-11.2085
▁naughty	-11.2086
▁spill	-11.2087
▁disturb	-11.2089
▁Bar	-11.209
ons	-11.209
Together	-11.2092
▁richer	-11.2093
▁victims	-11.2095
▁embers	-11.2101
▁dirge	-11.2102
▁religion	-11.2102
while	-11.2103
▁pe	-11.2105
▁dungeon	-11.2105
▁prospect	-11.2106
▁casement	-11.2108
▁winning	-11.2109
Cried	-11.2109
▁contend	-11.2113
▁squire	-11.2116
▁uncle	-11.212
▁slumbering	-11.2128
▁sorrowful	-11.2129
▁guides	-11.2134
▁fraud	-11.2147
▁henceforth	-11.2147
▁sunrise	-11.2149
▁pent	-11.215
Nought	-11.2152
▁richest	-11.2154
▁Memory	-11.2156
▁riven	-11.2157
ably	-11.2158
▁nod	-11.2159
▁tyrants	-11.2159
▁sap	-11.2163
▁prose	-11.2164
▁labouring	-11.2164
▁Shepherd	-11.2166
▁mane	-11.2167
▁wool	-11.2174
);¬	-11.2181
horse	-11.2184
drop	-11.2189
Instead	-11.2191
▁uncertain	-11.2191
▁sour	-11.2194
▁enfold	-11.2194
▁globe	-11.2196
▁emotion	-11.2197
▁rot	-11.2199
▁clash	-11.2203
▁orient	-11.2204
▁faire	-11.2204
▁mightier	-11.2207
Lift	-11.2208
▁painful	-11.2209
▁stall	-11.2209
▁tints	-11.2216
Arise	-11.2225
Already	-11.2227
Truth	-11.2227
Seven	-11.2228
▁slips	-11.2228
▁minutes	-11.2234
▁crop	-11.2235
▁mouths	-11.2236
▁funny	-11.2237
▁weariness	-11.2238
▁driving	-11.2241
▁nodding	-11.2246
▁Willie	-11.2249
▁wastes	-11.2249
und	-11.2251
▁poetry	-11.2251
▁fishes	-11.2252
▁traced	-11.2252
▁leaped	-11.2254
▁neglected	-11.2257
▁slack	-11.2262
Small	-11.2272
▁account	-11.2273
▁nerves	-11.2277
▁mysteries	-11.2281
Filled	-11.2283
▁floated	-11.229
▁dimly	-11.229
▁elate	-11.2293
▁wipe	-11.2295
▁sports	-11.2295
gi	-11.2297
▁Johnny	-11.2297
▁dealt	-11.2309
▁team	-11.231
▁affright	-11.231
▁obeyed	-11.2312
▁stead	-11.2313
▁balance	-11.2317
▁sinful	-11.232
▁par	-11.2321
▁senseless	-11.2321
▁comely	-11.2327
▁dig	-11.2331
▁beech	-11.2331
▁theyr	-11.2332
▁juice	-11.2333
Thank	-11.2335
Grow	-11.2336
▁bosoms	-11.2336
▁prefer	-11.2339
▁der	-11.234
▁appointed	-11.2341
▁champions	-11.2352
ap	-11.2362
▁hen	-11.2367
▁deserted	-11.2367
▁civil	-11.2371
▁unless	-11.2372
▁lingered	-11.2372
▁tough	-11.2379
▁herbs	-11.238
Forever	-11.2382
▁conqueror	-11.2382
fall	-11.2386
▁bays	-11.2388
▁pastures	-11.2389
▁mounts	-11.2389
blood	-11.2393
door	-11.2393
▁shivering	-11.2394
▁toiling	-11.2397
▁ordered	-11.24
haired	-11.24
ied	-11.24
Myself	-11.2402
▁Sa	-11.2406
Borne	-11.2407
▁scourge	-11.2408
▁drifted	-11.2409
▁crawl	-11.241
IN	-11.2411
▁troth	-11.2419
▁sair	-11.2419
▁weaves	-11.242
▁ponder	-11.2423
▁statue	-11.2427
▁Highland	-11.2428
▁doves	-11.2437
▁outer	-11.2439
▁chilly	-11.2444
▁doesn	-11.2446
▁quaff	-11.2447
▁ex	-11.2447
▁value	-11.2453
▁marsh	-11.2456
▁contain	-11.2457
▁dirt	-11.2458
▁Tell	-11.2459
▁shallow	-11.2461
▁festal	-11.2464
▁transient	-11.2464
Believe	-11.2464
▁scope	-11.2465
▁swings	-11.2467
!¬(	-11.247
▁bathe	-11.247
ON	-11.2472
Fer	-11.2473
▁wooed	-11.2474
▁thicket	-11.2476
▁reckon	-11.2481
▁block	-11.2482
ical	-11.2482
▁squadrons	-11.2488
Naught	-11.2502
▁attempt	-11.2503
▁steeple	-11.2505
Nae	-11.2505
▁deign	-11.2509
▁excellent	-11.251
crowned	-11.251
▁descended	-11.2512
▁stress	-11.2513
▁drunken	-11.2515
▁c	-11.2516
▁Fear	-11.2519
▁bitterness	-11.2523
▁fleece	-11.2523
▁Eastern	-11.2525
▁cord	-11.2526
▁fruitless	-11.2526
▁feign	-11.2528
Return	-11.2529
▁likewise	-11.2535
▁esteem	-11.2543
▁adored	-11.2551
▁Ere	-11.2553
Break	-11.2554
▁paradise	-11.2556
▁coffin	-11.2556
▁rippling	-11.2556
▁twinkling	-11.2558
▁madly	-11.2559
▁trump	-11.2559
▁j	-11.256
des	-11.2563
▁shudder	-11.2569
▁orders	-11.2571
▁grieves	-11.2571
▁drag	-11.2575
▁stolen	-11.2576
Knowing	-11.2583
Gleam	-11.2586
▁tumbled	-11.2598
oe	-11.2598
▁lids	-11.26
▁scornful	-11.26
▁universe	-11.2603
▁superior	-11.2603
▁clown	-11.2603
▁smoking	-11.2603
▁budding	-11.2603
▁crescent	-11.2605
min	-11.2605
▁potent	-11.2607
els	-11.2608
▁rapt	-11.2609
▁rags	-11.2611
▁torches	-11.2612
Quite	-11.2614
mi	-11.2617
▁non	-11.2622
▁tip	-11.2623
▁wrinkled	-11.2624
▁adventure	-11.2626
▁hoof	-11.2628
▁extend	-11.2629
▁sobs	-11.263
Watch	-11.2632
▁knot	-11.2634
▁trampled	-11.2639
▁whistling	-11.2649
▁ruthless	-11.2652
ties	-11.2653
bi	-11.2653
▁threads	-11.2655
▁knit	-11.2657
▁discord	-11.2662
▁clamour	-11.2662
▁phantoms	-11.2663
▁cups	-11.2667
▁justly	-11.2669
Get	-11.267
▁yew	-11.2673
▁Thought	-11.2677
▁bruised	-11.2678
▁prevent	-11.2679
▁vanquish	-11.2679
▁remove	-11.2688
▁fortunes	-11.2689
▁courteous	-11.269
▁ink	-11.2694
▁tedious	-11.2696
▁throats	-11.2696
▁noontide	-11.2698
Wherever	-11.2699
▁threats	-11.2709
▁cousin	-11.271
▁volume	-11.2711
▁clearer	-11.2725
▁sugar	-11.2726
▁mai	-11.2728
sick	-11.2729
▁ridge	-11.2732
rin	-11.2733
▁soothing	-11.2735
▁edition	-11.2743
cus	-11.2744
▁pastime	-11.2744
▁flashes	-11.2745
Having	-11.2746
▁hym	-11.2746
▁amiss	-11.2746
▁loosed	-11.2747
▁ladder	-11.2748
▁plied	-11.2749
▁stepped	-11.275
▁spared	-11.2751
Took	-11.2752
▁darken	-11.2754
▁scorned	-11.2754
iness	-11.2757
Others	-11.2758
▁younger	-11.2761
▁minister	-11.2762
▁sunbeam	-11.2762
▁blindly	-11.2766
Kind	-11.2771
▁tooth	-11.2777
▁firmament	-11.2791
Always	-11.2793
▁Si	-11.2794
▁richly	-11.2794
▁lifting	-11.2795
▁Brother	-11.2796
▁mused	-11.2805
▁wid	-11.2806
Wake	-11.2806
▁idol	-11.2808
▁united	-11.2814
▁aglow	-11.2818
▁hailed	-11.2827
▁preserve	-11.2829
its	-11.2834
▁Count	-11.2835
Grant	-11.2836
▁selfe	-11.2839
▁cream	-11.284
▁saving	-11.2846
▁sobbing	-11.2848
▁fowl	-11.2851
▁actions	-11.2857
▁waked	-11.2859
▁couple	-11.286
▁strives	-11.2863
▁kindling	-11.2863
▁measures	-11.2865
▁sorrowing	-11.2867
▁stings	-11.2867
▁plunder	-11.2869
▁scoff	-11.287
▁hoard	-11.2871
Fit	-11.2873
▁keel	-11.2876
liest	-11.2881
▁hearty	-11.2884
pre	-11.2884
▁marvellous	-11.2886
▁charity	-11.2886
▁David	-11.2891
▁ideal	-11.2892
▁trap	-11.2896
Listen	-11.2897
such	-11.2898
▁Am	-11.29
▁monk	-11.2901
▁planets	-11.2904
▁Into	-11.2904
▁moth	-11.2905
▁damned	-11.2906
here	-11.2908
Else	-11.2911
▁crook	-11.2917
▁el	-11.2918
▁direct	-11.2918
Wait	-11.2924
rus	-11.2928
Whither	-11.2928
▁credit	-11.2928
▁durst	-11.2934
▁liquor	-11.2934
▁treacherous	-11.2934
▁grievous	-11.2934
▁duties	-11.2935
▁shoots	-11.2935
▁likeness	-11.2937
▁Ireland	-11.2939
▁August	-11.2943
▁ban	-11.2944
▁flatter	-11.295
▁stores	-11.2952
▁poppies	-11.2952
Alike	-11.2953
▁finding	-11.2953
▁sleet	-11.2957
▁mission	-11.2958
▁shared	-11.2959
▁Lee	-11.2961
▁Ju	-11.2963
▁butter	-11.2964
▁older	-11.2966
▁twined	-11.2971
▁fourth	-11.2972
▁Yea	-11.2973
▁greatness	-11.2974
▁inspired	-11.2977
▁starting	-11.2978
▁tu	-11.298
▁valor	-11.2983
▁luminous	-11.2983
▁giddy	-11.2983
▁pencil	-11.2983
Gay	-11.2983
▁Fire	-11.2983
Stretch	-11.2987
▁Its	-11.2997
Part	-11.2999
▁nursed	-11.2999
▁shrieks	-11.2999
▁trifle	-11.3003
▁Sug	-11.3003
▁couldst	-11.3006
▁eyed	-11.3007
▁seats	-11.3013
▁worked	-11.3014
Dare	-11.3017
▁falter	-11.3017
▁abuse	-11.3024
▁ebb	-11.3024
▁bringing	-11.3026
▁sic	-11.3028
▁reproach	-11.3032
_--	-11.3032
▁active	-11.3033
▁flare	-11.3034
Shone	-11.3034
ney	-11.3035
▁cared	-11.304
vis	-11.304
▁Michael	-11.3041
▁tunes	-11.3045
▁sere	-11.3047
▁shifting	-11.3047
▁searching	-11.3048
▁effort	-11.3052
fer	-11.3054
▁Rinaldo	-11.3055
souled	-11.3062
▁harness	-11.3063
▁fully	-11.3065
▁fragments	-11.3067
▁darkly	-11.3073
▁softer	-11.3073
▁thrive	-11.3074
▁strokes	-11.3077
▁striving	-11.308
▁harbor	-11.308
Er	-11.3082
▁pageant	-11.3082
▁Emperor	-11.3082
▁drest	-11.3082
▁becomes	-11.3084
▁sorely	-11.3085
▁spotless	-11.3097
▁Se	-11.3098
▁renowned	-11.3099
▁holding	-11.31
▁knightly	-11.311
law	-11.311
▁carved	-11.3112
▁boot	-11.3113
Thither	-11.3123
▁Vánars	-11.3124
▁Eternal	-11.3125
▁bended	-11.3127
▁endeavour	-11.3129
▁furnace	-11.3129
▁substance	-11.3129
▁spider	-11.3129
▁swine	-11.3129
▁breakfast	-11.313
▁decent	-11.3131
Gainst	-11.3131
▁lonesome	-11.3131
▁bag	-11.3132
▁amazed	-11.3139
Whereon	-11.3145
▁kid	-11.315
ified	-11.3152
▁stirring	-11.3155
▁standard	-11.3156
▁stag	-11.3157
leaves	-11.3159
▁et	-11.3159
▁lodge	-11.3167
Pour	-11.3173
▁offence	-11.3178
▁aghast	-11.3178
▁manifold	-11.3178
▁peal	-11.3178
▁heritage	-11.3178
▁daisy	-11.3178
▁clerk	-11.3178
▁rarely	-11.318
▁Country	-11.3181
Slowly	-11.3181
▁leading	-11.3184
Blow	-11.3186
▁scanty	-11.3186
▁covert	-11.3187
_!¬	-11.3188
Shine	-11.3192
▁v	-11.3194
▁loth	-11.3196
▁hillside	-11.3196
▁decks	-11.32
▁darkest	-11.32
▁subdue	-11.3203
▁buckler	-11.3203
▁Cat	-11.3204
▁athwart	-11.3205
Count	-11.3207
▁More	-11.3208
▁helped	-11.3209
▁perform	-11.321
▁lavish	-11.3211
ched	-11.3213
gh	-11.3213
▁stared	-11.3221
Led	-11.3223
bright	-11.3224
▁pu	-11.3225
▁assault	-11.3228
▁eaves	-11.3228
▁risk	-11.3228
▁Street	-11.3232
▁reckless	-11.3233
▁combine	-11.3233
▁ranged	-11.3235
▁lucky	-11.3241
▁twa	-11.3242
qua	-11.3251
▁Those	-11.3258
▁plighted	-11.3259
▁trying	-11.326
Star	-11.326
▁learnt	-11.3263
▁sparkle	-11.3266
▁sneer	-11.3268
Sudden	-11.3271
▁suits	-11.3271
▁stamp	-11.3271
Children	-11.3273
▁shift	-11.3277
Struck	-11.3278
▁patron	-11.3278
▁Young	-11.3278
ug	-11.3279
▁gratitude	-11.328
nigh	-11.328
▁resolved	-11.3282
▁Maker	-11.3283
▁ra	-11.3288
▁ripples	-11.3288
RE	-11.3291
▁River	-11.3294
▁polished	-11.3295
▁Say	-11.3296
▁reins	-11.33
▁hymns	-11.3301
▁thereby	-11.3301
cht	-11.3301
▁symbol	-11.3303
▁cloudless	-11.3303
▁metal	-11.3305
▁caverns	-11.3308
▁log	-11.3309
▁certainly	-11.331
ations	-11.3311
Sound	-11.3311
▁beset	-11.3312
Stands	-11.3313
Sun	-11.3317
▁Head	-11.3317
rn	-11.3321
▁Were	-11.3324
tus	-11.3325
▁haggard	-11.3328
▁oblivion	-11.3328
▁ardour	-11.3328
▁special	-11.3328
▁hatred	-11.333
▁wolves	-11.333
sel	-11.3333
Tears	-11.3346
▁curtains	-11.3346
▁hie	-11.3348
ible	-11.3351
▁nuptial	-11.3353
▁cricket	-11.3357
board	-11.3358
▁moist	-11.3358
▁heaved	-11.3359
▁orphan	-11.336
▁remorse	-11.3361
▁bo	-11.3362
▁pulled	-11.3364
pen	-11.3369
nk	-11.337
▁grope	-11.3372
ub	-11.3372
Things	-11.3375
▁progress	-11.3378
▁shaggy	-11.3378
▁Thames	-11.3378
▁surf	-11.3379
▁cash	-11.3383
j	-11.3388
▁Bacchus	-11.3389
▁furrow	-11.3389
mis	-11.3389
▁aw	-11.339
par	-11.3392
Few	-11.3392
▁bust	-11.3392
Play	-11.3393
▁youngest	-11.3393
▁whirlwind	-11.3406
▁Mount	-11.3408
▁blackbird	-11.3411
▁Take	-11.3412
▁quail	-11.3412
▁kindle	-11.3419
Wind	-11.3426
▁perpetual	-11.3428
▁fancied	-11.3428
▁rotten	-11.3429
Short	-11.3429
▁create	-11.343
▁mounting	-11.3432
▁questions	-11.3435
▁Lake	-11.3435
▁trench	-11.3435
drawn	-11.3438
▁upright	-11.3438
▁possession	-11.3438
▁vie	-11.3445
▁noonday	-11.3446
ja	-11.3446
val	-11.3446
▁ruth	-11.3448
▁jet	-11.3449
Cut	-11.3449
ome	-11.3449
▁monarchs	-11.3452
ran	-11.3453
▁bury	-11.3456
headed	-11.3461
▁chapel	-11.3467
▁sinners	-11.3469
▁ox	-11.3469
Seeking	-11.3471
cut	-11.3477
▁fertile	-11.3479
▁incline	-11.3483
Dat	-11.3485
▁Over	-11.3486
▁Alfred	-11.3486
▁habit	-11.3487
▁tortured	-11.3489
lar	-11.3497
Weary	-11.3501
▁extended	-11.3502
▁een	-11.3504
▁Te	-11.3508
▁basket	-11.3509
▁pat	-11.3513
▁partner	-11.3514
▁graced	-11.3514
▁hoofs	-11.3516
▁Julia	-11.3516
▁prop	-11.3521
right	-11.3522
▁roused	-11.3523
▁wire	-11.3525
▁happen	-11.3527
▁ane	-11.353
▁designed	-11.353
▁procession	-11.3531
▁falsehood	-11.3531
▁murderous	-11.3531
▁hereafter	-11.3533
▁Within	-11.3534
▁outcast	-11.3536
▁wrung	-11.3536
▁park	-11.3539
▁fay	-11.354
ium	-11.3542
Called	-11.3547
▁claws	-11.3548
▁amaze	-11.3549
▁pools	-11.3556
Ex	-11.3559
ju	-11.3565
▁boats	-11.3567
Miss	-11.3568
▁Give	-11.3571
▁event	-11.3575
▁Bell	-11.3577
▁heaped	-11.3579
▁sheath	-11.358
▁leather	-11.3581
Smooth	-11.3581
Neither	-11.3581
▁owre	-11.3581
▁pursuit	-11.3582
under	-11.3584
▁strip	-11.3599
▁withering	-11.3602
▁chat	-11.3603
▁quietly	-11.3603
▁lots	-11.3605
▁type	-11.3614
▁wavering	-11.3614
▁taint	-11.3616
▁Honour	-11.3619
▁uttered	-11.3621
▁Ro	-11.3626
▁convent	-11.363
built	-11.3631
▁beak	-11.3632
Below	-11.3633
▁horrible	-11.3633
▁illustrious	-11.3633
▁semblance	-11.3633
▁vigour	-11.3633
▁vengeful	-11.3633
▁device	-11.3634
▁westward	-11.3636
bs	-11.3637
▁nearest	-11.3639
bow	-11.3639
▁otherwise	-11.3642
▁counted	-11.365
▁charged	-11.3653
ay	-11.3654
▁nat	-11.3655
▁beads	-11.3656
▁True	-11.3656
▁whit	-11.3658
▁Only	-11.366
ip	-11.3663
▁blinded	-11.3665
▁slopes	-11.3666
▁tossing	-11.3672
▁fervent	-11.3678
▁mourned	-11.3678
post	-11.368
Looks	-11.3682
▁settle	-11.3684
▁guerdon	-11.3685
▁impetuous	-11.3685
▁courtesy	-11.3685
▁cadence	-11.3685
▁purity	-11.3685
▁bland	-11.3686
▁sleek	-11.3686
dis	-11.3688
Hither	-11.3688
bb	-11.3699
Dream	-11.372
▁spice	-11.3721
▁sue	-11.3725
▁curb	-11.3726
gle	-11.3727
▁painter	-11.3731
▁decide	-11.3732
Hang	-11.3734
▁grip	-11.3735
ft	-11.3736
▁resort	-11.3737
▁churchyard	-11.3738
why	-11.3738
▁spells	-11.3741
▁comprehend	-11.3744
tte	-11.3745
Bearing	-11.3745
▁greenwood	-11.3748
ath	-11.3756
glass	-11.3756
▁toes	-11.3756
▁sa	-11.3758
▁choicest	-11.376
▁spire	-11.3761
▁shatter	-11.3761
Fate	-11.3762
▁lawless	-11.3763
▁tents	-11.3768
▁Sire	-11.3771
Trust	-11.3772
▁deceit	-11.3774
▁inherit	-11.3777
▁thi	-11.3779
Mo	-11.3783
▁experience	-11.3784
Immortal	-11.3787
▁fitful	-11.3787
▁girdle	-11.3788
▁lullaby	-11.3789
▁disaster	-11.3789
▁devour	-11.3791
Twer	-11.3795
Mary	-11.3796
god	-11.3797
nin	-11.3798
▁herte	-11.3799
▁starlight	-11.3801
▁guessed	-11.3804
▁wooing	-11.3805
▁glisten	-11.3811
▁vanquished	-11.3812
▁candles	-11.3818
ynge	-11.3819
▁heaves	-11.3825
▁kingdoms	-11.3837
▁est	-11.3839
Indeed	-11.384
▁numerous	-11.3842
ky	-11.3846
▁seraph	-11.3846
▁Lucy	-11.3846
▁dirty	-11.3848
▁stains	-11.385
▁quake	-11.3853
▁Hand	-11.3854
▁wisely	-11.3856
Sea	-11.3869
▁term	-11.3871
AN	-11.3873
▁torture	-11.3874
▁deliver	-11.3877
▁grate	-11.3878
▁hateful	-11.3878
▁toiled	-11.388
▁Bear	-11.388
▁matron	-11.388
Faith	-11.3882
▁group	-11.3883
▁dar	-11.3888
Shut	-11.3894
▁Atlantic	-11.3895
▁gaudy	-11.3895
▁flitting	-11.3896
▁ver	-11.3897
▁slipped	-11.39
▁soften	-11.39
▁shaking	-11.3902
▁muffled	-11.3904
tail	-11.3905
▁cows	-11.3909
▁threatening	-11.3909
▁Ba	-11.3915
▁needle	-11.3921
▁entertain	-11.3928
horn	-11.3932
▁thereon	-11.3933
▁renewed	-11.3939
far	-11.3939
▁quell	-11.394
gar	-11.394
▁exquisite	-11.3941
▁club	-11.3944
▁sapphire	-11.3948
▁tragic	-11.3948
▁stung	-11.3948
▁bondage	-11.3949
pit	-11.3949
▁groaning	-11.395
▁comb	-11.3955
▁unfurled	-11.396
cur	-11.3961
▁utterly	-11.3965
▁weighed	-11.397
▁nails	-11.3974
▁climbing	-11.3977
▁hight	-11.398
▁beacon	-11.3987
▁flank	-11.3988
Strike	-11.3989
▁locked	-11.3998
▁resist	-11.4
▁Could	-11.4001
▁paynim	-11.4001
▁easily	-11.4001
▁latter	-11.4002
▁usual	-11.4004
▁powerful	-11.4004
▁piping	-11.4004
▁cheered	-11.4012
▁pillars	-11.4013
▁willows	-11.4013
Whene	-11.4017
▁sunlit	-11.4018
Onward	-11.4028
▁Rock	-11.4029
▁spurs	-11.4031
▁Woman	-11.4037
▁annoy	-11.4037
▁jes	-11.4044
▁baron	-11.4049
wrought	-11.4051
▁melted	-11.4051
▁duck	-11.4052
▁appetite	-11.4055
▁scythe	-11.4055
Twould	-11.4056
▁fantastic	-11.4056
▁wur	-11.4057
▁resistless	-11.4057
still	-11.406
▁satisfied	-11.4062
▁speck	-11.4062
end	-11.4063
Laid	-11.4063
▁suck	-11.4063
▁Uncle	-11.4066
▁deserve	-11.4076
▁marched	-11.4077
▁rests	-11.4079
vy	-11.408
cing	-11.4084
▁Baby	-11.4084
ven	-11.409
▁moans	-11.4091
▁smother	-11.4093
▁Sam	-11.4093
▁condemn	-11.4095
▁confined	-11.4096
▁gust	-11.4097
▁wreathed	-11.41
▁condition	-11.4101
▁ripple	-11.4104
Per	-11.4105
▁chivalry	-11.4109
▁farthest	-11.4109
▁sprightly	-11.4111
▁wiles	-11.4112
▁mimic	-11.4112
▁Olympus	-11.4112
▁Douglas	-11.4116
▁exulting	-11.4117
Drew	-11.4117
▁gild	-11.4119
▁toast	-11.4119
▁Orlando	-11.4125
▁hied	-11.4127
▁melts	-11.4128
ute	-11.4129
net	-11.4129
▁purchase	-11.413
Softly	-11.4131
▁hovering	-11.4131
▁Justice	-11.4132
hu	-11.4134
)¬"	-11.4134
▁darkling	-11.4138
▁THE	-11.4143
Sail	-11.4144
Often	-11.4146
▁wa	-11.4147
▁Ka	-11.4148
▁bubble	-11.415
▁wig	-11.4152
Wher	-11.4153
▁lions	-11.4153
Weep	-11.4154
Goes	-11.4158
▁venom	-11.4163
▁cuckoo	-11.4164
▁butterfly	-11.4164
▁behest	-11.4164
▁brimming	-11.4164
▁loneliness	-11.4164
Summer	-11.4164
Lady	-11.4164
cup	-11.4165
deep	-11.4167
▁elfin	-11.4171
tion	-11.4172
▁charger	-11.4174
▁lesser	-11.4176
▁alight	-11.4178
▁Too	-11.418
▁Name	-11.4187
Gives	-11.4191
ED	-11.4195
▁horrors	-11.4196
▁err	-11.42
past	-11.4206
▁Mind	-11.4208
▁Did	-11.4209
say	-11.421
▁elephant	-11.421
Friend	-11.4211
▁frank	-11.4212
▁forge	-11.4212
▁ez	-11.4213
▁taper	-11.4213
▁Word	-11.4218
▁defied	-11.4218
▁lattice	-11.4218
▁dight	-11.4219
▁ponderous	-11.4219
▁eldest	-11.4219
▁reluctant	-11.422
▁elsewhere	-11.422
▁Israel	-11.4223
▁combined	-11.4231
▁wasting	-11.4233
▁roars	-11.4234
ire	-11.424
▁redeem	-11.424
od	-11.4248
▁rag	-11.4253
▁prolong	-11.4256
▁dashing	-11.4256
▁Full	-11.4257
▁betwixt	-11.4264
▁pounds	-11.4266
▁Bu	-11.4271
▁grind	-11.4271
gen	-11.4271
Twice	-11.4274
Sorrow	-11.4274
▁Nile	-11.4274
com	-11.4277
▁Ri	-11.4278
▁luckless	-11.4278
▁forbid	-11.4281
skin	-11.4283
▁braid	-11.4284
▁asking	-11.4288
▁lawns	-11.4293
med	-11.4293
▁coo	-11.4295
▁vote	-11.4296
▁affairs	-11.4297
▁bronze	-11.43
▁cooling	-11.4301
▁mob	-11.4303
▁Prophet	-11.4303
▁links	-11.4304
war	-11.4306
▁Poor	-11.4306
AL	-11.4307
Forgive	-11.4307
▁discontent	-11.4311
▁roast	-11.4311
▁polish	-11.4311
▁confound	-11.4311
▁pretend	-11.4312
▁dreamt	-11.4314
▁swam	-11.4318
ki	-11.4319
▁Behold	-11.4322
▁strict	-11.4324
▁hale	-11.4326
▁poverty	-11.4328
▁discourse	-11.4328
▁Scottish	-11.4329
▁miser	-11.4329
▁vanity	-11.4329
Run	-11.4331
▁boyhood	-11.4331
▁robber	-11.4335
▁oppose	-11.4336
ches	-11.4336
Bo	-11.4339
their	-11.4342
pro	-11.4343
▁approve	-11.4345
▁nut	-11.4348
▁meed	-11.4349
▁stored	-11.435
▁attends	-11.4363
▁blossoming	-11.4368
▁powder	-11.4368
▁glassy	-11.4368
▁surges	-11.4369
▁advise	-11.4371
▁rears	-11.4375
▁receives	-11.4375
▁riddle	-11.4376
▁cedar	-11.4377
▁oaks	-11.4378
▁Ann	-11.4379
▁perch	-11.4382
▁eloquence	-11.4384
▁shirt	-11.4384
▁Pe	-11.4384
▁swelled	-11.4386
▁g	-11.4388
▁slide	-11.4389
▁drifts	-11.439
▁Jones	-11.4392
▁Monarch	-11.4392
▁peerless	-11.4394
hold	-11.4394
▁Ph	-11.4399
▁teacher	-11.44
▁plans	-11.4401
did	-11.4401
▁uv	-11.4405
----	-11.4411
ste	-11.4411
▁Ilion	-11.4413
ks	-11.4417
▁allowed	-11.4422
▁encounter	-11.4422
▁treads	-11.4424
▁useful	-11.4431
▁footstep	-11.4435
▁Ta	-11.4435
▁mourns	-11.4437
▁sheds	-11.4437
▁duke	-11.4438
▁mocked	-11.444
▁enemies	-11.444
▁essence	-11.444
▁forsook	-11.444
▁descry	-11.444
▁divinely	-11.4441
▁stripling	-11.4441
hen	-11.4442
▁vesture	-11.4442
▁Water	-11.4442
world	-11.4442
blue	-11.4442
▁holly	-11.4442
▁difference	-11.4443
▁doleful	-11.4444
▁cheering	-11.4444
▁jar	-11.4448
car	-11.4453
▁Mu	-11.4453
▁darksome	-11.4454
▁spires	-11.4459
▁relieve	-11.446
▁profane	-11.4462
▁lu	-11.4463
▁plea	-11.4464
lets	-11.4466
▁stooped	-11.4474
▁brier	-11.448
▁hinder	-11.4484
▁Ida	-11.4484
▁framed	-11.4486
▁ay	-11.4492
▁Tuscan	-11.4496
▁kirk	-11.4496
▁turtle	-11.4496
▁doubly	-11.4496
▁tawny	-11.4496
▁tumbling	-11.4496
▁crisp	-11.4496
▁barley	-11.4497
▁kine	-11.4497
▁Bethlehem	-11.4497
▁rejoicing	-11.4498
▁lustrous	-11.4499
said	-11.4499
▁lyric	-11.4502
Lean	-11.4503
mar	-11.4504
▁reflected	-11.4509
▁rider	-11.4509
pot	-11.4512
▁dem	-11.4513
▁blink	-11.4515
▁unborn	-11.4516
▁pattern	-11.4518
Waiting	-11.4518
▁worthless	-11.4519
▁darkening	-11.4522
Late	-11.4528
▁blasts	-11.4528
▁firmly	-11.453
sar	-11.4531
▁quenched	-11.4533
▁ef	-11.4533
▁hind	-11.4535
▁strewn	-11.4539
ole	-11.454
▁que	-11.4542
strings	-11.4544
▁pressing	-11.4549
▁diadem	-11.4552
▁sordid	-11.4552
▁linnet	-11.4553
▁Bob	-11.4553
▁perilous	-11.4553
▁earlier	-11.4556
▁monsters	-11.4557
Thinking	-11.4565
▁wins	-11.4568
ka	-11.4571
▁carol	-11.4571
▁Temple	-11.4571
▁paw	-11.4573
▁portals	-11.4573
▁veils	-11.4575
▁Pain	-11.458
Land	-11.4582
fish	-11.4583
▁vexed	-11.4584
▁Pride	-11.4585
ugh	-11.4586
▁crags	-11.4596
Won	-11.4598
▁flushed	-11.4599
▁boom	-11.4599
▁notice	-11.4599
▁fig	-11.46
▁listless	-11.46
▁rightly	-11.4603
▁Franks	-11.4608
gra	-11.4609
▁Dog	-11.4609
▁atmosphere	-11.4609
▁rattling	-11.4609
▁glossy	-11.4611
▁skilled	-11.4613
Bless	-11.4614
▁sleepless	-11.4615
gue	-11.4615
Looking	-11.4615
▁sights	-11.4617
just	-11.4618
▁dole	-11.4624
mes	-11.4626
▁glove	-11.4631
▁thyme	-11.4633
▁expand	-11.4633
▁writes	-11.464
Ar	-11.4647
Any	-11.4649
▁wisest	-11.4652
cloud	-11.4654
▁Mi	-11.4655
▁coil	-11.4655
Read	-11.4656
▁hey	-11.4661
▁hop	-11.4661
▁Dardan	-11.4663
▁carpet	-11.4664
▁unaware	-11.4664
▁vapour	-11.4664
▁austere	-11.4666
▁endeavor	-11.4666
▁grudge	-11.4666
.)	-11.4667
▁suffice	-11.4667
▁pocket	-11.4668
▁Italian	-11.4669
▁belly	-11.467
▁crows	-11.4671
▁AEneas	-11.4677
▁wrapt	-11.4679
nly	-11.4679
▁Divine	-11.4679
▁erring	-11.4686
▁raw	-11.469
▁shrines	-11.469
▁tin	-11.469
▁mourner	-11.4692
▁dee	-11.4697
▁snatched	-11.4699
▁Nation	-11.4699
▁ce	-11.47
▁artless	-11.4703
▁crag	-11.4704
▁classic	-11.4707
▁decked	-11.4712
▁dominion	-11.4722
▁merchant	-11.4722
▁afloat	-11.4724
▁dispute	-11.4724
▁breach	-11.4724
▁devise	-11.4725
▁neighbours	-11.4725
▁unjust	-11.4727
▁pore	-11.4727
Fain	-11.473
ght	-11.4733
▁Ar	-11.4733
Told	-11.4734
▁Homer	-11.4735
▁distressed	-11.4737
▁Garden	-11.474
▁Wi	-11.4741
▁plump	-11.4741
ls	-11.4742
▁rub	-11.4742
▁waning	-11.4742
▁depend	-11.4747
coloured	-11.4753
▁Su	-11.4755
▁reader	-11.4761
bit	-11.4761
▁fetter	-11.4765
▁Ni	-11.4766
--¬_	-11.477
▁loath	-11.4773
▁presents	-11.4774
▁hissing	-11.4774
ized	-11.4775
▁resigned	-11.4776
▁javelin	-11.4781
▁dagger	-11.4782
▁excess	-11.4782
▁crumbling	-11.4782
▁maple	-11.4782
.”¬“	-11.4783
▁ilka	-11.4784
black	-11.4786
▁Erin	-11.4787
▁sward	-11.4788
▁balls	-11.4789
▁columns	-11.4789
Adown	-11.4791
▁flickering	-11.4791
▁Music	-11.4792
Wherewith	-11.4793
▁butcher	-11.4797
thus	-11.4799
▁glistening	-11.48
▁games	-11.4802
▁shameful	-11.4805
▁scared	-11.4806
rg	-11.4808
▁Di	-11.481
▁Cor	-11.4813
Learn	-11.4813
▁Soon	-11.4813
▁seaward	-11.4815
▁whirled	-11.4818
▁hunted	-11.482
Blind	-11.4821
yne	-11.4822
▁scold	-11.4824
▁scare	-11.4829
▁numb	-11.483
▁dwarf	-11.4839
▁spleen	-11.484
▁Tri	-11.484
▁wond	-11.484
Chorus	-11.4844
lus	-11.4846
▁Aurora	-11.4849
Dance	-11.4851
▁exalted	-11.4852
▁wearing	-11.4853
have	-11.4857
▁followers	-11.4862
ell	-11.4864
loved	-11.4869
rent	-11.487
▁damsels	-11.4875
▁hammer	-11.4875
▁poetic	-11.4876
▁bursts	-11.4877
look	-11.4885
Da	-11.4889
▁mates	-11.489
Sits	-11.4891
Them	-11.4892
Bold	-11.4897
▁luxury	-11.4898
Secure	-11.4899
▁creek	-11.4899
▁admit	-11.4899
Sees	-11.4902
▁partake	-11.4903
Eternal	-11.4903
Felt	-11.4904
Praise	-11.4905
▁Shakespeare	-11.4906
▁wakeful	-11.4906
ore	-11.4906
▁cleared	-11.4906
▁stalks	-11.4907
▁Eternity	-11.4908
▁bubbles	-11.491
▁qui	-11.4921
▁blended	-11.4927
Bent	-11.4927
▁soothed	-11.4928
▁Fairy	-11.4929
use	-11.4932
▁dive	-11.4935
▁rais	-11.4936
?”¬	-11.4939
▁refused	-11.4941
mit	-11.4941
▁reck	-11.4942
▁disappear	-11.4943
▁moons	-11.4945
▁forces	-11.4953
▁strained	-11.4955
▁whereof	-11.4957
▁dignity	-11.4957
▁butterflies	-11.4957
Caught	-11.4958
▁earthquake	-11.4958
Smiling	-11.4959
▁advancing	-11.4959
▁accursed	-11.496
▁swains	-11.4962
▁provoke	-11.4963
water	-11.4963
▁burnished	-11.4964
rew	-11.4965
▁Saturn	-11.4965
▁July	-11.4966
▁crosses	-11.4973
▁triple	-11.4975
cry	-11.4975
▁barred	-11.4978
three	-11.4981
▁thistle	-11.499
Broke	-11.4995
▁shrouds	-11.4997
▁coats	-11.4998
▁roared	-11.4999
▁tombs	-11.5001
▁fared	-11.5005
▁Under	-11.5007
ld	-11.501
▁em	-11.5012
▁pictured	-11.5016
▁coarse	-11.5016
▁terrace	-11.5017
▁fleecy	-11.5017
."--	-11.5017
▁confidence	-11.5018
▁spectre	-11.502
▁legend	-11.5021
Cease	-11.5021
▁guiltless	-11.5022
▁ware	-11.5023
▁arches	-11.5024
▁clouded	-11.5024
▁nun	-11.5025
▁resolve	-11.503
▁terms	-11.5033
▁atone	-11.504
▁echoed	-11.5041
▁princess	-11.5041
▁Voice	-11.5043
▁chatter	-11.5043
▁altered	-11.5043
▁han	-11.5044
▁shaped	-11.5044
▁Pat	-11.5051
▁gross	-11.5053
▁b	-11.5055
▁beef	-11.5058
Scatter	-11.5059
sea	-11.5059
▁bald	-11.5065
▁scents	-11.5066
Burst	-11.5068
▁sickly	-11.507
▁coach	-11.507
▁Golden	-11.5072
rick	-11.5075
▁surmise	-11.5076
▁visible	-11.5076
▁liberal	-11.5076
▁odorous	-11.5076
▁swimming	-11.5076
Sang	-11.5077
▁zest	-11.5077
▁meanwhile	-11.5077
▁feathered	-11.5077
▁pays	-11.5078
▁perceive	-11.5079
▁oxen	-11.508
▁Bard	-11.5081
▁sparks	-11.5081
▁apt	-11.5083
laden	-11.5084
worm	-11.5086
▁wider	-11.5089
▁berries	-11.509
▁hive	-11.5094
pane	-11.5094
ill	-11.5098
Off	-11.5101
folk	-11.5102
▁wildest	-11.5103
cat	-11.5104
cle	-11.5107
Laugh	-11.5112
hall	-11.5117
▁Christians	-11.5119
▁Silence	-11.5122
bu	-11.5125
▁lanes	-11.5125
AS	-11.5126
▁glanced	-11.5133
▁tearful	-11.5135
two	-11.5135
▁opposite	-11.5136
▁famine	-11.5136
▁melodies	-11.5136
▁unheard	-11.5137
▁aft	-11.5137
Join	-11.5139
Faust	-11.5141
▁halt	-11.5142
▁partial	-11.5142
▁salute	-11.5143
▁fable	-11.5147
▁fist	-11.5149
wa	-11.5151
▁rake	-11.5155
▁soars	-11.5155
▁perfumed	-11.5156
Throughout	-11.5157
▁blazed	-11.5158
▁freshness	-11.5158
▁thorny	-11.516
▁inch	-11.5161
brown	-11.5164
Flowers	-11.5165
ear	-11.5166
Midst	-11.5183
▁prophetic	-11.5183
ates	-11.519
▁bubbling	-11.5196
▁travail	-11.5196
▁enormous	-11.5196
▁vagrant	-11.5196
▁favorite	-11.5197
▁punishment	-11.5197
▁eagles	-11.5198
▁unbroken	-11.5198
▁pyre	-11.5198
▁assist	-11.5199
▁strung	-11.5206
▁lick	-11.5207
▁survive	-11.5207
▁uplifted	-11.5207
▁smitten	-11.5208
▁Gold	-11.5208
▁exclaimed	-11.5212
▁baffled	-11.5216
▁fortress	-11.5216
▁Judge	-11.5219
▁forgiven	-11.5221
▁linked	-11.5229
ast	-11.5236
▁ob	-11.5238
▁woeful	-11.5239
▁offend	-11.524
▁rooms	-11.5243
▁ding	-11.5244
▁patch	-11.5248
▁Y	-11.5249
▁courtly	-11.5253
▁changeful	-11.5256
▁Titan	-11.5256
▁Lanká	-11.5257
▁jocund	-11.5257
▁trophies	-11.5257
▁descent	-11.5257
▁owne	-11.5258
▁compassion	-11.5258
▁happiest	-11.5258
▁vn	-11.5258
▁mace	-11.5259
fully	-11.526
ick	-11.526
▁tattered	-11.526
Ga	-11.5263
Cause	-11.5263
England	-11.5263
Huge	-11.5264
▁gaping	-11.5267
▁Angels	-11.5268
▁clod	-11.5269
▁reeking	-11.527
▁denies	-11.5271
▁deserts	-11.5279
ending	-11.528
▁counter	-11.5283
▁staring	-11.5286
▁lurk	-11.5293
▁plum	-11.5295
Sp	-11.5297
▁dam	-11.5298
▁freight	-11.53
▁clatter	-11.5301
▁leans	-11.5305
▁pieces	-11.5306
Falls	-11.5308
▁giv	-11.5315
cher	-11.5316
▁mode	-11.5316
▁groom	-11.5318
har	-11.5319
tho	-11.5321
▁thoughtless	-11.5322
▁Jenny	-11.5324
▁Bird	-11.5325
▁November	-11.5325
▁moonlit	-11.5326
▁hazel	-11.5326
Queen	-11.5327
▁sheltered	-11.5327
▁bushes	-11.533
▁Mac	-11.533
Sae	-11.5335
▁frowning	-11.5336
ters	-11.534
▁Horse	-11.534
▁sheets	-11.5341
▁cleaves	-11.5342
▁breakers	-11.5346
";¬	-11.5347
▁Bull	-11.5348
▁efforts	-11.5352
▁lances	-11.5353
▁waxed	-11.5354
▁engine	-11.5359
▁threaten	-11.536
▁Gray	-11.5364
▁finer	-11.5368
Work	-11.5374
▁sunless	-11.5377
Bow	-11.5378
Swept	-11.5379
▁obedient	-11.5379
▁peculiar	-11.5379
▁uncouth	-11.5379
▁dense	-11.538
▁chaff	-11.538
▁aims	-11.538
▁owner	-11.5381
▁quicken	-11.5382
▁observe	-11.5383
Care	-11.5384
▁burthen	-11.5386
ative	-11.5388
▁ether	-11.5388
▁prairie	-11.5389
▁vassal	-11.539
Golden	-11.5391
▁sticks	-11.5393
▁varying	-11.5393
▁mon	-11.5394
▁tap	-11.5401
▁En	-11.5405
▁pursues	-11.5411
yle	-11.5415
Fire	-11.5416
Weak	-11.5418
▁summon	-11.5419
pan	-11.542
▁Way	-11.543
▁consider	-11.5437
▁admired	-11.5439
Music	-11.544
▁desolation	-11.5441
▁undaunted	-11.5441
▁tumultuous	-11.5441
▁reft	-11.5442
▁plow	-11.5442
▁mice	-11.5442
▁warbling	-11.5442
▁sip	-11.5447
▁dragged	-11.5448
▁Smith	-11.5449
▁reaches	-11.5451
▁Almighty	-11.5451
▁bestowed	-11.5452
▁amongst	-11.5452
▁meteor	-11.5453
▁creeds	-11.5453
▁facts	-11.5454
▁Passion	-11.5454
ture	-11.5455
cho	-11.5458
Beat	-11.5459
▁binds	-11.546
▁Jo	-11.546
▁turrets	-11.5464
▁gal	-11.5465
mother	-11.5468
▁notion	-11.547
▁Ra	-11.5473
▁Wine	-11.5479
fly	-11.5484
▁dashed	-11.5486
ai	-11.5486
▁serves	-11.5491
▁sickle	-11.5497
▁tropic	-11.5501
▁plenteous	-11.5503
▁breezy	-11.5503
▁plac	-11.5503
▁doughty	-11.5503
▁utterance	-11.5504
▁elements	-11.5506
▁mocks	-11.5507
▁Susan	-11.5509
nie	-11.551
▁humour	-11.551
Press	-11.5515
▁rustle	-11.5515
▁devils	-11.5521
▁aflame	-11.5521
▁Ruth	-11.5522
▁reads	-11.5526
tre	-11.553
▁vaulted	-11.5531
▁curling	-11.5539
port	-11.5539
▁Sing	-11.554
ea	-11.5541
Whenever	-11.5541
ans	-11.5543
▁orbs	-11.5544
ang	-11.5549
ray	-11.5551
▁retired	-11.5555
▁wist	-11.5563
▁forsooth	-11.5565
▁cautious	-11.5565
▁lurid	-11.5565
▁random	-11.5566
Firm	-11.5569
▁pavement	-11.5579
ara	-11.558
▁removed	-11.5585
▁faltering	-11.5587
af	-11.5587
▁bi	-11.5588
book	-11.5589
▁soup	-11.5592
▁injured	-11.5592
footed	-11.5595
▁castles	-11.5596
ax	-11.5601
▁chord	-11.5602
▁liv	-11.5607
▁surround	-11.5608
▁pan	-11.5611
▁undo	-11.5616
▁gathers	-11.5616
▁honors	-11.5618
Very	-11.5619
rum	-11.5619
bra	-11.5624
Li	-11.5625
▁needful	-11.5626
▁ignorance	-11.5628
▁falchion	-11.5628
▁lucid	-11.5628
▁presume	-11.5628
Speed	-11.5628
▁Phrygian	-11.5629
▁untrue	-11.5629
▁spies	-11.563
▁mold	-11.563
▁expression	-11.5633
▁spoon	-11.5634
▁Bow	-11.5635
▁Richard	-11.5635
▁Harry	-11.5636
▁revere	-11.5636
Fame	-11.5636
Glory	-11.5637
▁cauld	-11.5638
Jove	-11.5639
▁touching	-11.5642
ground	-11.5643
▁Bishop	-11.5647
▁palaces	-11.5648
▁Pen	-11.5649
rian	-11.5651
lands	-11.5659
Passed	-11.5662
▁toy	-11.5665
▁Because	-11.5667
▁uns	-11.5668
▁Said	-11.5674
▁braw	-11.5682
▁peach	-11.5689
ina	-11.569
Va	-11.5691
▁owned	-11.5691
▁benign	-11.5691
Mephistopheles	-11.5691
▁century	-11.5691
▁unworthy	-11.5692
▁Bible	-11.5692
▁tumble	-11.5693
▁villain	-11.5694
▁trout	-11.5697
▁boasts	-11.5698
▁October	-11.5701
▁bits	-11.5701
▁sparkles	-11.5702
_"	-11.5705
▁Mayor	-11.5707
▁Lamb	-11.5708
▁woodlands	-11.5709
▁speechless	-11.5712
▁Turk	-11.5712
Mong	-11.5716
▁clutch	-11.5717
▁pear	-11.5719
▁displays	-11.5726
Holding	-11.5726
▁dy	-11.5726
▁thumb	-11.5727
▁Echo	-11.5729
▁Morning	-11.573
▁shrinking	-11.5736
▁monument	-11.5737
▁launch	-11.5738
▁class	-11.5739
▁dismayed	-11.574
▁furnish	-11.5742
▁bang	-11.5746
▁softest	-11.5755
▁review	-11.5755
▁yourselves	-11.5755
▁blent	-11.5755
▁thieves	-11.5756
▁honored	-11.5757
▁sixty	-11.5757
Beheld	-11.5759
▁intend	-11.5762
▁glades	-11.5762
▁failure	-11.5764
▁escaped	-11.5767
▁loosened	-11.5768
▁withdrawn	-11.577
▁satin	-11.5771
▁Castle	-11.5772
▁trusting	-11.5772
▁talks	-11.5772
rite	-11.5773
▁manger	-11.5774
▁struggled	-11.5775
▁character	-11.5776
Lead	-11.5777
▁lid	-11.5779
▁rifle	-11.5779
Tall	-11.5784
▁linen	-11.5786
tell	-11.5788
▁Er	-11.5798
gin	-11.5801
▁curses	-11.5802
▁Th	-11.5809
▁preacher	-11.581
▁fin	-11.5812
call	-11.5814
▁Ja	-11.5818
▁gude	-11.5819
▁wrecks	-11.5819
town	-11.5819
▁Abbot	-11.5819
▁dizzy	-11.5819
▁harmonious	-11.5819
▁mingling	-11.5819
▁granite	-11.5819
▁saddest	-11.582
▁bolts	-11.5821
▁surrender	-11.5821
▁verdure	-11.5822
▁conceit	-11.5824
▁unmoved	-11.5826
Almost	-11.5826
▁praying	-11.5826
▁wrack	-11.5826
▁mangled	-11.5827
▁demons	-11.5829
▁stirr	-11.583
▁thankful	-11.5832
▁muttered	-11.5832
Stop	-11.5833
▁seest	-11.5833
▁snakes	-11.5838
Whi	-11.5839
▁ribbon	-11.5839
▁blushed	-11.5839
▁blinding	-11.585
▁drip	-11.5851
ally	-11.5856
Pull	-11.5856
fa	-11.5859
▁whiteness	-11.5863
▁yielded	-11.5864
Proclaim	-11.5867
▁deceived	-11.5874
pped	-11.5875
?)¬	-11.5881
▁applied	-11.5884
▁bashful	-11.5884
▁eloquent	-11.5884
Kept	-11.5884
▁warfare	-11.5885
▁shorn	-11.5885
ways	-11.5886
▁halo	-11.5886
▁lowest	-11.5886
▁Persian	-11.5887
▁clamor	-11.5887
▁wus	-11.5888
▁Ajax	-11.589
▁downcast	-11.589
ism	-11.5891
▁conspire	-11.5895
Water	-11.5895
El	-11.5898
Arm	-11.5901
▁opens	-11.5901
jo	-11.5901
▁increased	-11.5906
▁dimmed	-11.5908
bri	-11.5909
▁reigned	-11.5913
▁Has	-11.5919
▁clothe	-11.592
high	-11.5921
even	-11.5922
▁warms	-11.5924
Shot	-11.5925
▁tasks	-11.5926
stained	-11.5929
Yield	-11.5932
▁feller	-11.5936
▁Tartar	-11.5941
▁dimpled	-11.5947
▁strongest	-11.5947
▁stomach	-11.5949
▁bounteous	-11.5949
▁snuff	-11.5949
▁scars	-11.5949
▁fellowship	-11.5951
▁ram	-11.5953
never	-11.5954
▁tasted	-11.5955
▁trained	-11.5956
Sharp	-11.5957
▁gas	-11.5958
▁roving	-11.5959
▁Morn	-11.5959
▁Babe	-11.5959
Master	-11.596
good	-11.5961
▁bin	-11.5968
▁chestnut	-11.597
▁loaded	-11.5972
ual	-11.5972
Bloom	-11.5982
▁knaves	-11.5985
ead	-11.5993
▁bleeds	-11.5993
iff	-11.5994
▁bait	-11.5997
▁Col	-11.5998
▁repeated	-11.6001
▁Isle	-11.6001
ration	-11.6001
may	-11.6009
▁polite	-11.6013
ui	-11.6013
▁clarion	-11.6014
▁fragile	-11.6014
▁Gernot	-11.6014
▁wol	-11.6015
▁boil	-11.6017
Fond	-11.6019
Large	-11.602
▁nests	-11.602
▁yit	-11.602
▁blasted	-11.6023
Gentle	-11.6023
Beautiful	-11.6025
had	-11.6028
▁messengers	-11.6028
▁leafless	-11.603
▁rescue	-11.6031
▁Deep	-11.6039
▁trot	-11.6041
▁lantern	-11.6042
unt	-11.6044
▁contest	-11.6045
▁People	-11.6047
▁prays	-11.605
▁lime	-11.6055
▁eaten	-11.6056
▁counsels	-11.6057
▁merits	-11.6059
wall	-11.6061
mark	-11.6062
▁odours	-11.6063
Flow	-11.6065
▁worms	-11.6065
▁ringlets	-11.6066
▁perils	-11.6068
Cheer	-11.6071
▁minstrels	-11.6073
▁bulk	-11.6074
▁skilful	-11.6077
▁pitiful	-11.608
▁pitiless	-11.608
▁tavern	-11.608
▁tinkling	-11.608
▁chalice	-11.608
▁Empire	-11.608
▁Tyrian	-11.608
▁woodbine	-11.608
▁laddie	-11.6082
▁Brunhild	-11.6084
zz	-11.6086
▁teeming	-11.6086
▁anywhere	-11.6087
▁hy	-11.609
Meantime	-11.6091
▁relics	-11.6093
▁builds	-11.6094
▁gushing	-11.6096
”	-11.6096
▁searched	-11.6097
nny	-11.61
▁Fall	-11.6102
▁wary	-11.6102
▁Wood	-11.6103
▁tryst	-11.6103
band	-11.6105
▁tax	-11.6109
▁circled	-11.6112
▁begged	-11.6113
Whan	-11.6113
▁refined	-11.6114
▁Being	-11.6114
▁fights	-11.6116
Touch	-11.6117
▁Hark	-11.6121
▁speeches	-11.6127
▁qua	-11.6135
▁dearth	-11.6136
▁bale	-11.6136
▁hi	-11.6137
fo	-11.6145
▁divided	-11.6146
▁stature	-11.6146
▁rumour	-11.6147
▁presently	-11.6147
▁Giselher	-11.6149
ren	-11.6151
▁prosper	-11.6152
▁assuage	-11.6152
▁exclaim	-11.6154
▁mightiest	-11.6157
Rogero	-11.6159
Le	-11.6159
▁ch	-11.616
▁tha	-11.616
▁mental	-11.616
▁tapers	-11.616
Nine	-11.6161
▁gat	-11.6161
▁boiling	-11.6163
▁nevermore	-11.6163
▁objects	-11.6164
▁Away	-11.6166
child	-11.6168
▁meanest	-11.6168
TH	-11.6168
Soul	-11.6169
za	-11.6172
▁sounded	-11.6173
part	-11.6175
▁entreat	-11.6179
▁gra	-11.6185
Spirit	-11.6186
▁ashamed	-11.6186
▁Should	-11.619
Sin	-11.6193
▁extends	-11.6194
▁arrive	-11.6195
▁rover	-11.6195
Calling	-11.6196
▁proffer	-11.6196
▁Dawn	-11.6197
▁brew	-11.6197
▁exist	-11.6206
▁Last	-11.6208
▁virgins	-11.6209
each	-11.6211
▁slander	-11.6212
▁ditty	-11.6213
Accept	-11.6213
▁Lusian	-11.6213
▁Stygian	-11.6213
▁loftier	-11.6213
▁topmost	-11.6214
▁surging	-11.6214
▁thrones	-11.6216
yes	-11.6218
▁mouldering	-11.622
▁forbidden	-11.6221
▁speeds	-11.6224
▁Beneath	-11.6225
Rain	-11.6226
ilke	-11.6227
False	-11.6227
mongst	-11.6228
▁forgetting	-11.6232
▁streak	-11.6233
▁whale	-11.6233
▁claimed	-11.6234
Turns	-11.6236
▁departing	-11.6237
▁emblem	-11.6239
▁trusted	-11.6239
▁flakes	-11.6241
▁doo	-11.6241
▁skirts	-11.6243
Wise	-11.6243
midst	-11.6246
▁Ten	-11.6246
▁expected	-11.6248
▁saintly	-11.625
March	-11.625
▁sparrow	-11.625
▁ge	-11.6251
▁vo	-11.6253
▁Hun	-11.6254
▁curve	-11.6257
▁trailing	-11.6259
▁ni	-11.6259
Die	-11.626
▁countries	-11.6261
▁quarters	-11.6261
▁forfeit	-11.6262
▁Tam	-11.6266
▁straining	-11.6269
tch	-11.627
Seen	-11.6274
▁feat	-11.6275
▁shrunk	-11.6276
▁frenzy	-11.628
▁tyranny	-11.628
▁gae	-11.6281
▁Asia	-11.6281
▁hadde	-11.6283
▁spurred	-11.6284
▁egg	-11.6286
▁nets	-11.6286
▁gait	-11.6288
▁twinkle	-11.629
▁guiding	-11.6294
▁Alpine	-11.6294
nesse	-11.6294
▁fulfilled	-11.6295
Roll	-11.6298
▁brag	-11.6299
▁Billy	-11.6302
Di	-11.6305
▁stopp	-11.6311
▁pinch	-11.6312
▁loiter	-11.6314
▁Clo	-11.6315
▁sch	-11.6318
▁Ver	-11.6319
Brother	-11.6322
ude	-11.6326
▁hew	-11.6332
mor	-11.6342
▁feasts	-11.6343
▁woful	-11.6344
▁languor	-11.6347
▁tremendous	-11.6347
▁vivid	-11.6347
▁Nestor	-11.6347
▁rigid	-11.6347
▁copse	-11.6348
▁petty	-11.6349
▁mamma	-11.6351
▁carriage	-11.6353
▁wrap	-11.6353
▁wholesome	-11.6354
Blood	-11.6356
ddle	-11.6357
▁rehearse	-11.6358
struck	-11.6361
▁driver	-11.6365
cap	-11.6376
▁ripen	-11.6377
han	-11.6377
▁neighbors	-11.6378
▁lessons	-11.6382
▁doorway	-11.6385
kind	-11.6389
▁tint	-11.6391
ung	-11.6397
Mar	-11.6397
▁hopeful	-11.6398
▁rid	-11.6398
Fix	-11.6402
▁brighten	-11.6405
▁sho	-11.6411
▁ditch	-11.6411
▁porter	-11.6412
▁lets	-11.6414
▁invisible	-11.6415
▁rapturous	-11.6416
▁navy	-11.6416
▁miserable	-11.6416
▁heavily	-11.6417
Sitting	-11.6418
▁noiseless	-11.6421
Throw	-11.6421
del	-11.6421
▁lists	-11.6431
Beloved	-11.6438
▁shortly	-11.6439
▁sways	-11.6441
▁gush	-11.6446
▁rabbit	-11.6446
▁insect	-11.6447
▁shal	-11.6452
▁tri	-11.6454
Ill	-11.6454
▁streamlet	-11.6454
▁Gar	-11.6456
▁lak	-11.6458
Cool	-11.6458
▁l	-11.646
▁allure	-11.646
bloom	-11.6462
▁bolder	-11.6465
▁sk	-11.6468
▁slime	-11.6479
▁truce	-11.6484
▁dug	-11.6486
▁perfumes	-11.6489
▁gladsome	-11.6492
Crown	-11.6492
Stern	-11.6493
Suddenly	-11.6494
▁Edward	-11.6496
rry	-11.6496
▁chimes	-11.6497
hill	-11.6497
Ran	-11.6498
▁climbs	-11.6499
▁rocked	-11.65
cra	-11.65
Shame	-11.65
▁papers	-11.6504
▁cells	-11.6514
nic	-11.6514
▁opinion	-11.6516
▁ravish	-11.6517
▁zephyr	-11.6517
▁squadron	-11.6517
▁unco	-11.6522
▁gladden	-11.6524
▁piles	-11.6525
rel	-11.6525
▁wherewith	-11.6531
▁advanced	-11.6534
▁cards	-11.6537
▁lends	-11.6543
cent	-11.6544
ried	-11.6547
▁scandal	-11.6552
▁unequal	-11.6552
▁chaos	-11.6553
▁primal	-11.6554
haunted	-11.6555
Sick	-11.6559
▁overthrown	-11.6562
▁fabric	-11.6564
Self	-11.6568
▁produce	-11.6569
▁severed	-11.6582
▁milky	-11.6584
▁tempting	-11.6587
▁kissing	-11.6589
bred	-11.659
▁awaken	-11.6591
▁glasses	-11.6591
▁printed	-11.6592
▁fleets	-11.6592
▁domestic	-11.6594
▁gane	-11.6595
▁Priest	-11.6605
▁bask	-11.6609
▁doubting	-11.661
▁prick	-11.6616
▁musk	-11.6616
found	-11.6617
▁Afric	-11.6619
▁Dietrich	-11.6622
▁difficult	-11.6622
▁collar	-11.6623
▁ambush	-11.6626
▁fuss	-11.6629
▁cheery	-11.663
▁chiefly	-11.6631
▁elephants	-11.6635
▁goin	-11.6639
▁diamonds	-11.6639
▁Flag	-11.6641
Please	-11.6642
▁lasses	-11.6646
Feel	-11.6647
▁devoted	-11.6647
▁misfortune	-11.6657
▁cent	-11.6658
tar	-11.6658
▁myriads	-11.666
OR	-11.6668
▁coldly	-11.667
pie	-11.6671
▁murdered	-11.6672
tan	-11.6673
Kiss	-11.6674
▁Dark	-11.6674
bee	-11.6676
▁sheer	-11.6679
▁nail	-11.668
US	-11.6684
▁Arab	-11.6685
▁shares	-11.6689
Wear	-11.6692
▁Burgundy	-11.6692
▁festival	-11.6692
▁possible	-11.6692
▁practice	-11.6692
▁remnant	-11.6692
▁untimely	-11.6692
▁spilt	-11.6692
▁limpid	-11.6692
▁vapours	-11.6695
▁dreaded	-11.6697
▁spots	-11.6697
▁After	-11.6697
Other	-11.6697
▁grieving	-11.6699
▁throbs	-11.67
▁stile	-11.67
▁k	-11.6702
▁mansions	-11.6702
▁buck	-11.6702
▁comforts	-11.6703
Brings	-11.6703
▁mit	-11.6703
▁scales	-11.6711
▁agreed	-11.6713
filled	-11.6714
▁Robert	-11.6718
▁ascends	-11.6719
▁shaded	-11.6722
Canst	-11.6723
▁swans	-11.6723
▁vigil	-11.6728
▁ornament	-11.6729
▁daffodils	-11.6732
▁belongs	-11.6733
Mix	-11.674
▁stems	-11.674
fed	-11.6743
▁rudely	-11.6747
▁spit	-11.6748
▁loveth	-11.675
▁fiercer	-11.6753
▁allied	-11.6756
igh	-11.6756
▁tan	-11.6759
▁excel	-11.6762
AEsAEs	-11.6763
▁avenging	-11.6763
▁persuade	-11.6763
▁espied	-11.6763
▁nonsense	-11.6763
▁bargain	-11.6763
▁burial	-11.6763
▁dank	-11.6764
▁mandate	-11.6764
▁sorts	-11.6764
Built	-11.6765
▁rebound	-11.6765
,(	-11.6765
▁machine	-11.6767
fires	-11.6768
▁aisle	-11.6769
▁traces	-11.6769
▁worshipped	-11.6769
crown	-11.6769
▁menace	-11.6769
▁hospitable	-11.6771
▁forgets	-11.6771
▁Yankee	-11.6772
▁livelong	-11.6773
▁rainy	-11.6773
▁voiceless	-11.6773
▁quill	-11.6774
▁swims	-11.6777
Silence	-11.6779
swept	-11.6779
▁Maiden	-11.678
Winter	-11.678
Sister	-11.6781
▁Crown	-11.6782
▁Cup	-11.6782
▁spar	-11.6785
▁besides	-11.6789
ient	-11.6792
won	-11.6796
▁Royal	-11.6798
J	-11.6798
▁strays	-11.6799
▁strengthen	-11.6802
Loose	-11.6802
▁vase	-11.681
▁frowns	-11.6812
▁monkey	-11.6812
▁summits	-11.6816
▁skirt	-11.6816
▁usurp	-11.6817
▁wanderings	-11.6817
▁embraced	-11.6828
▁Marmion	-11.6834
▁manifest	-11.6834
▁unwilling	-11.6834
▁snail	-11.6834
▁friar	-11.6834
Enjoy	-11.6835
▁fanned	-11.6839
▁cuts	-11.6841
die	-11.6841
▁sheltering	-11.6842
▁deserved	-11.6842
▁deity	-11.6848
ene	-11.6849
▁slavery	-11.6852
▁skip	-11.6852
▁fra	-11.6856
▁paints	-11.6858
▁borders	-11.6858
cold	-11.6865
Frae	-11.687
▁critic	-11.6871
bout	-11.6874
▁clap	-11.6876
▁errand	-11.6877
▁papa	-11.6878
act	-11.688
▁cats	-11.6881
▁Pagan	-11.6881
▁lured	-11.6891
▁jo	-11.6894
▁ribs	-11.6895
Shines	-11.6895
▁showing	-11.69
▁wrathful	-11.6903
Whereat	-11.6903
Guard	-11.6906
▁exceeding	-11.6908
▁Lincoln	-11.691
▁envied	-11.6911
▁declared	-11.6912
Ready	-11.6912
▁Horn	-11.6913
▁rusty	-11.6916
▁motions	-11.6916
▁battered	-11.6916
▁scorching	-11.6918
▁Minerva	-11.6919
tal	-11.6923
▁assembled	-11.6924
▁spotted	-11.6925
▁dazzled	-11.6935
▁aff	-11.6935
see	-11.6939
▁reeling	-11.694
▁jail	-11.694
ez	-11.6944
▁knocked	-11.6944
▁psalm	-11.6946
▁system	-11.6946
▁wayside	-11.6948
▁tenderest	-11.695
▁thigh	-11.695
▁rats	-11.6956
stead	-11.6958
Spare	-11.696
▁allay	-11.6963
▁overthrow	-11.6968
Pleased	-11.6969
▁Hero	-11.697
gone	-11.697
▁Par	-11.697
Trembling	-11.6977
▁fifteen	-11.6977
▁russet	-11.6977
▁sepulchre	-11.6977
▁pagan	-11.6977
▁copper	-11.6977
▁poppy	-11.6978
▁latch	-11.6981
▁holier	-11.6981
▁sew	-11.6982
ria	-11.6991
?'¬'	-11.6991
▁gayly	-11.6993
▁puff	-11.6993
winds	-11.6994
fashioned	-11.6999
▁Gu	-11.7002
▁ashore	-11.7002
▁domes	-11.7005
▁conveyed	-11.7016
▁gory	-11.7018
ory	-11.7019
▁enchantment	-11.7019
▁vulture	-11.702
▁Woe	-11.7021
▁pinion	-11.7022
▁moonbeams	-11.7025
Change	-11.7027
▁dropt	-11.7028
sent	-11.703
Didst	-11.7031
▁regain	-11.7032
Pe	-11.7034
ux	-11.7035
▁snap	-11.7036
ack	-11.7045
▁alternate	-11.7049
▁servile	-11.705
▁tempestuous	-11.705
▁aerial	-11.705
▁piety	-11.705
▁repine	-11.7051
▁withhold	-11.7053
)--¬	-11.7055
▁blades	-11.7056
▁Flora	-11.7057
uch	-11.706
▁bonie	-11.7061
shed	-11.7064
nder	-11.7065
▁serving	-11.7066
▁lurking	-11.7069
leaf	-11.707
▁moods	-11.7074
CH	-11.7076
▁Dream	-11.7082
Answer	-11.7089
Began	-11.7089
uring	-11.7089
▁froth	-11.7091
▁flaw	-11.7093
▁viewless	-11.7094
▁turret	-11.7095
Whereby	-11.7099
Steal	-11.71
▁truths	-11.7101
▁Nothing	-11.7101
▁bloomed	-11.7102
▁Saints	-11.7106
▁cane	-11.7116
▁submit	-11.7122
aratha	-11.7122
▁immense	-11.7122
▁recompense	-11.7122
▁eighteen	-11.7122
glow	-11.7123
Gently	-11.7123
▁mickle	-11.7123
▁Walter	-11.7123
▁loathsome	-11.7123
▁cotton	-11.7124
▁assign	-11.7125
▁spiritual	-11.7126
▁lye	-11.7126
Hot	-11.7128
▁goad	-11.7129
▁remark	-11.7134
ddy	-11.7139
▁Dove	-11.7141
Saint	-11.7142
him	-11.7142
▁covers	-11.7142
through	-11.7143
were	-11.7144
▁floors	-11.7146
▁mariners	-11.7147
Hand	-11.715
dew	-11.7151
▁doubtless	-11.7154
▁shrieking	-11.716
▁heeds	-11.716
▁downy	-11.7166
▁weighty	-11.7166
▁warring	-11.7167
▁consume	-11.7168
▁wrist	-11.7168
ford	-11.7169
▁reef	-11.7169
▁fisher	-11.7171
▁hev	-11.7174
▁serpents	-11.7184
▁starved	-11.7185
▁expressed	-11.7185
▁rede	-11.7186
▁changeless	-11.7188
▁reek	-11.7192
yl	-11.7194
▁lighter	-11.7195
Bud	-11.7196
▁absurd	-11.7196
▁Báli	-11.7196
▁felon	-11.7196
▁Western	-11.7196
▁celebrate	-11.7196
▁protection	-11.7197
▁fitted	-11.72
▁Vulcan	-11.7201
▁stew	-11.7202
Afar	-11.7203
▁lineage	-11.7203
▁broods	-11.7203
▁horsemen	-11.7207
Best	-11.7211
▁whirls	-11.7213
Honour	-11.7216
oc	-11.7216
weed	-11.7217
clouds	-11.7218
▁playful	-11.722
Pity	-11.7221
▁sunken	-11.7224
▁Again	-11.7227
▁delayed	-11.7227
▁Per	-11.7229
▁proves	-11.7236
▁boasted	-11.724
▁rounded	-11.7241
▁greets	-11.7242
Gather	-11.7243
▁instrument	-11.7244
▁schemes	-11.7245
▁channel	-11.7246
▁ribbons	-11.7248
▁claw	-11.7249
▁images	-11.7253
Rush	-11.7258
▁Mor	-11.7259
pic	-11.726
Heav	-11.7262
▁Ay	-11.7267
ians	-11.7269
▁argument	-11.727
▁stalwart	-11.727
▁adverse	-11.727
▁cough	-11.727
▁simmer	-11.7271
▁venerable	-11.7271
▁holiest	-11.7271
▁landlord	-11.7272
Turning	-11.7275
▁sadder	-11.7275
▁immortality	-11.7275
:-¬	-11.7275
▁choke	-11.7278
▁bowls	-11.7278
illa	-11.728
Grown	-11.7281
▁Jean	-11.7282
▁withdraw	-11.7282
▁joint	-11.7283
nay	-11.7285
▁si	-11.729
▁eating	-11.7293
▁starve	-11.7294
▁willingly	-11.7296
▁amang	-11.7297
▁whenever	-11.7298
dog	-11.7298
▁witches	-11.7301
cross	-11.7304
ress	-11.7305
take	-11.7307
back	-11.7308
Ride	-11.7311
▁promis	-11.7312
▁hug	-11.7316
▁Cock	-11.7321
▁Ship	-11.7321
dom	-11.7321
ev	-11.7322
bble	-11.7323
thwart	-11.7324
▁flowering	-11.7327
Feed	-11.7328
▁Next	-11.7328
▁inspires	-11.733
Hearts	-11.7331
scape	-11.7332
▁ty	-11.7333
Br	-11.7336
▁Field	-11.734
▁tails	-11.734
▁portrait	-11.7343
▁Mag	-11.7344
▁salvation	-11.7345
▁jovial	-11.7345
▁kettle	-11.7345
▁scholde	-11.7345
Anon	-11.7346
uk	-11.7346
▁Tho	-11.735
Mourn	-11.735
▁burdens	-11.7351
▁Jamie	-11.7351
▁blaw	-11.7354
▁shimmering	-11.7357
▁humanity	-11.7357
▁offerings	-11.7357
▁beau	-11.736
▁matrons	-11.7366
▁today	-11.737
five	-11.7372
▁Easter	-11.7372
▁snares	-11.7373
▁conceive	-11.7373
Enter	-11.7374
Bare	-11.7374
▁reflect	-11.7375
▁wag	-11.738
▁Sage	-11.7384
▁milder	-11.7385
▁stooping	-11.7389
▁odors	-11.7389
lings	-11.7389
▁upland	-11.7391
▁journeyed	-11.7393
▁mat	-11.7394
rant	-11.7395
▁Graces	-11.7395
Ri	-11.7396
Betwixt	-11.7396
▁assured	-11.7396
▁earned	-11.7396
▁themes	-11.74
boo	-11.74
▁bugles	-11.74
▁unfurl	-11.7403
▁ape	-11.7406
Words	-11.7411
▁deems	-11.7413
▁haunting	-11.7414
▁Mal	-11.7417
.]	-11.7419
▁Saracen	-11.742
▁carnage	-11.742
▁ceiling	-11.742
▁cordial	-11.742
▁plumage	-11.742
▁massive	-11.7421
▁sportive	-11.7422
▁Colonel	-11.7423
▁brotherhood	-11.7423
▁mole	-11.7423
▁harder	-11.7424
▁bearded	-11.7424
▁Eu	-11.7425
▁lodging	-11.7427
▁scorns	-11.7432
▁stoops	-11.7432
▁yow	-11.744
lv	-11.744
piece	-11.7441
Grief	-11.7441
stream	-11.7442
▁securely	-11.7451
▁wronged	-11.746
▁hedges	-11.7461
Fled	-11.7462
▁Desire	-11.7463
▁paced	-11.7463
Vi	-11.7467
▁lawyer	-11.7473
▁Dis	-11.7475
▁nothin	-11.7479
▁blossomed	-11.748
▁odds	-11.7481
Smile	-11.7481
▁abandon	-11.7482
▁warmer	-11.7484
▁touches	-11.7486
▁birch	-11.7488
vin	-11.7491
▁tack	-11.7491
▁herb	-11.7492
▁sternly	-11.7492
▁knoweth	-11.7492
▁follies	-11.7496
▁ignorant	-11.7496
▁grandsire	-11.7496
▁havoc	-11.7496
▁margrave	-11.7496
▁wheresoe	-11.7496
▁vigorous	-11.7496
▁deride	-11.7499
▁shadowed	-11.7501
▁Sc	-11.7504
▁canna	-11.7504
▁lashes	-11.7505
▁waxen	-11.7505
▁struggles	-11.7505
▁attended	-11.7507
▁gi	-11.7508
▁yawning	-11.7508
▁Pilgrim	-11.7508
▁Jimmy	-11.7508
▁Bradamant	-11.7509
▁babies	-11.7514
▁describe	-11.7515
Twelve	-11.7517
uff	-11.7519
Mr	-11.7519
▁created	-11.7519
cock	-11.7522
▁ebbing	-11.7523
▁fated	-11.7532
▁fluttered	-11.7534
shall	-11.7535
cri	-11.7537
▁pouring	-11.7537
▁Bee	-11.7539
EL	-11.7542
▁wakened	-11.7542
▁monks	-11.7543
▁assay	-11.7546
▁succeeds	-11.7549
▁whiter	-11.7549
▁extreme	-11.7553
▁nods	-11.7553
▁steers	-11.7556
path	-11.7557
▁Dan	-11.7558
▁pant	-11.7561
Vainly	-11.7564
van	-11.7566
Dreams	-11.7568
tu	-11.757
▁recollect	-11.7571
▁Pity	-11.7571
▁Sultan	-11.7572
▁expense	-11.7572
▁ignoble	-11.7572
▁acclaim	-11.7572
▁canopy	-11.7572
▁tilt	-11.7577
▁winsome	-11.7578
▁stealthy	-11.7579
▁nether	-11.7579
▁govern	-11.7579
▁Betty	-11.758
ou	-11.7586
▁Stars	-11.7586
ae	-11.7587
▁barb	-11.7589
▁Wife	-11.759
Laughing	-11.7593
▁strongly	-11.7593
▁wilful	-11.7593
▁Mercy	-11.7594
▁fulness	-11.7595
Dawn	-11.7595
▁poems	-11.7597
▁swamp	-11.7597
▁softened	-11.7604
▁outspread	-11.7605
▁listens	-11.7606
put	-11.761
rock	-11.7613
▁perplex	-11.7614
▁scour	-11.7615
ane	-11.7616
▁picked	-11.7617
bas	-11.7617
Takes	-11.7618
▁smallest	-11.7619
▁straying	-11.7623
LE	-11.7623
▁hastened	-11.7624
▁detain	-11.7633
._¬_	-11.7636
▁Grand	-11.7646
Dreaming	-11.7646
try	-11.7647
▁festive	-11.7649
▁Future	-11.7649
▁choral	-11.7649
▁slice	-11.765
▁drone	-11.7654
▁Ellen	-11.7654
▁Above	-11.7658
▁motionless	-11.7658
Thanks	-11.7659
▁prized	-11.7661
▁gar	-11.7662
▁stealth	-11.7665
▁lump	-11.7666
▁plaid	-11.7666
▁lengthen	-11.7669
▁glean	-11.7671
Silver	-11.7674
▁stamped	-11.7676
▁necks	-11.7678
Sigh	-11.7678
▁ramparts	-11.7683
▁jumped	-11.7686
sie	-11.7688
▁tempted	-11.7688
▁blindness	-11.7692
▁tre	-11.7698
lia	-11.7698
▁chilled	-11.77
▁insult	-11.77
Mad	-11.7702
▁ark	-11.7702
▁bog	-11.7703
Lit	-11.7706
▁beseech	-11.771
Leaves	-11.7711
▁gasp	-11.7713
▁nostrils	-11.7715
▁grasped	-11.7716
▁sub	-11.7718
▁ballad	-11.7718
maid	-11.7721
▁sanguine	-11.7726
Eager	-11.7726
▁flout	-11.7727
▁Tiber	-11.7727
▁novel	-11.773
▁Hy	-11.773
▁Ned	-11.773
▁Russian	-11.7731
erthrown	-11.7735
▁rocking	-11.7735
▁Patroclus	-11.7738
▁Science	-11.7739
▁glooms	-11.7739
▁sloth	-11.7746
▁ple	-11.7746
hole	-11.7753
▁thronging	-11.7754
▁sall	-11.7762
▁logs	-11.7765
▁mornin	-11.7776
int	-11.7776
▁rime	-11.7779
▁Think	-11.778
▁scratch	-11.7783
girt	-11.7783
▁timber	-11.7786
▁reflection	-11.7787
Walk	-11.7791
▁cherub	-11.7804
▁audience	-11.7804
▁barbarous	-11.7804
▁briny	-11.7805
▁requite	-11.7805
▁mockery	-11.7805
▁copy	-11.7807
▁eastward	-11.7807
▁dross	-11.7808
▁worry	-11.7809
▁avenge	-11.781
▁fife	-11.7812
las	-11.7817
▁Bride	-11.7819
▁ower	-11.7819
▁forthwith	-11.782
▁tick	-11.7821
▁archer	-11.7824
Lives	-11.7825
▁Ly	-11.7825
▁builded	-11.7829
▁massy	-11.783
▁sainted	-11.7832
Thoughts	-11.7833
Gray	-11.7833
▁awaits	-11.7838
▁critics	-11.7839
▁members	-11.7839
rid	-11.784
▁wafted	-11.7842
▁croak	-11.7849
▁tools	-11.7851
Raised	-11.7853
▁pebbles	-11.7853
▁humbled	-11.7862
▁punish	-11.7865
▁smil	-11.7867
▁jaw	-11.7868
mine	-11.7869
gged	-11.787
▁acres	-11.7872
▁movement	-11.7875
▁slaughtered	-11.7876
▁pail	-11.7876
Song	-11.7878
▁trials	-11.7878
▁Sal	-11.7879
▁whistled	-11.7882
▁permit	-11.7883
▁religious	-11.7883
▁pilgrimage	-11.7884
▁squall	-11.7887
▁vpon	-11.7888
Reach	-11.789
▁tar	-11.7891
▁shawl	-11.7893
▁travelled	-11.7894
▁flour	-11.7895
▁fader	-11.7895
▁wiv	-11.7896
▁Godfrey	-11.7896
;"	-11.7897
arm	-11.7898
Burn	-11.7898
▁engaged	-11.7898
Heavy	-11.7902
▁frog	-11.7903
End	-11.7913
▁fy	-11.7913
four	-11.7918
▁wain	-11.7918
▁aisles	-11.7921
▁hadn	-11.7923
Wave	-11.7925
▁chairs	-11.7925
▁Ghost	-11.7926
▁eats	-11.793
dove	-11.793
Na	-11.7932
▁patter	-11.7936
wel	-11.7937
Moved	-11.7939
▁sometime	-11.7944
▁skim	-11.7945
▁gesture	-11.7947
▁poplar	-11.7947
▁shuts	-11.7948
▁orchards	-11.7948
▁bullet	-11.7949
▁cull	-11.7954
run	-11.7954
tern	-11.7957
!_	-11.7958
▁prophecy	-11.7963
▁drill	-11.7963
▁meditate	-11.7963
▁affliction	-11.7964
▁girth	-11.7964
▁Kate	-11.7965
▁afore	-11.7967
▁cloven	-11.7967
Shook	-11.7968
▁cutting	-11.7968
liness	-11.7968
▁Lucile	-11.7969
▁marred	-11.7971
▁bills	-11.7974
▁Louis	-11.7974
▁assume	-11.7974
▁tables	-11.7978
▁briar	-11.7981
ib	-11.7981
▁pa	-11.7982
dding	-11.7982
cal	-11.7985
▁cower	-11.7986
▁casts	-11.7987
box	-11.799
▁wheeling	-11.7992
▁pondered	-11.7993
Son	-11.7993
gent	-11.7994
▁swaying	-11.7996
▁counts	-11.7999
▁screaming	-11.8001
Drawn	-11.8001
ify	-11.8005
▁reaching	-11.8007
▁original	-11.8008
Hey	-11.801
bush	-11.8014
ition	-11.8016
▁labors	-11.8016
▁moat	-11.8017
▁swifter	-11.8018
mel	-11.8019
▁revels	-11.8025
shine	-11.8029
wn	-11.8031
▁bestows	-11.8035
Albeit	-11.8043
▁college	-11.8043
▁sumptuous	-11.8043
▁foretold	-11.8043
▁motley	-11.8043
▁rascal	-11.8043
Henceforth	-11.8043
▁inspiration	-11.8044
▁relentless	-11.8044
▁slake	-11.8044
eve	-11.8047
Knew	-11.8047
▁stripped	-11.8048
Shining	-11.8048
▁York	-11.8049
▁September	-11.8049
▁cruelty	-11.805
▁guid	-11.8053
▁chariots	-11.8054
▁blur	-11.8054
Sought	-11.8058
▁maketh	-11.8058
▁despised	-11.806
life	-11.8061
▁droops	-11.8064
▁summoned	-11.8065
▁Air	-11.8065
Rejoice	-11.8066
▁consecrate	-11.8066
Stretched	-11.8071
poor	-11.8073
▁Margaret	-11.8074
roll	-11.8075
▁resume	-11.8076
▁ordained	-11.8076
▁bench	-11.8076
▁spurned	-11.8076
▁meekly	-11.8077
Met	-11.8077
▁concern	-11.8078
▁ar	-11.8079
vent	-11.808
▁ascending	-11.8084
face	-11.8088
▁essay	-11.8092
▁braes	-11.8095
▁proudest	-11.8095
Bids	-11.8095
▁Anna	-11.8096
▁reclined	-11.8096
▁unlike	-11.8096
ker	-11.8097
▁widowed	-11.8099
ken	-11.8102
▁impress	-11.8104
▁glint	-11.8106
Build	-11.8108
▁bishop	-11.811
nch	-11.8113
▁adorning	-11.8114
▁entire	-11.8116
▁spout	-11.8117
▁End	-11.8118
▁Olaf	-11.8123
Haply	-11.8123
▁hates	-11.8123
▁resplendent	-11.8123
▁advantage	-11.8123
▁screw	-11.8124
▁despairing	-11.8125
▁warrant	-11.8126
ces	-11.8128
▁witty	-11.813
▁dells	-11.813
▁Park	-11.8131
Hid	-11.8131
hung	-11.8134
eg	-11.8135
▁wages	-11.8136
▁chained	-11.8138
▁trodden	-11.8139
gie	-11.8146
▁ledge	-11.8146
Unseen	-11.815
▁inland	-11.8151
▁blameless	-11.8151
▁crawling	-11.8153
▁bot	-11.8153
aunt	-11.8153
▁Dun	-11.8155
▁crashing	-11.8158
▁pushed	-11.8159
▁furrows	-11.816
▁sto	-11.816
▁Himself	-11.8161
▁splendors	-11.8162
Dull	-11.8162
read	-11.8163
▁bared	-11.8164
▁remind	-11.8168
▁Might	-11.8171
▁decrees	-11.8174
▁stilled	-11.8177
Breathe	-11.8178
Fling	-11.8179
yr	-11.8179
▁currents	-11.8181
▁hag	-11.8181
▁Grief	-11.8181
▁Cy	-11.8187
mond	-11.8187
▁suitors	-11.8189
Car	-11.819
▁awakes	-11.8191
▁lurks	-11.8192
▁peacock	-11.8193
▁lilac	-11.8193
▁Briton	-11.8193
Standing	-11.8195
▁Round	-11.8196
lice	-11.82
▁inform	-11.8202
▁raptures	-11.8204
Thereto	-11.8204
Dread	-11.8204
▁censure	-11.8205
▁indignant	-11.8205
▁romantic	-11.8205
▁fearing	-11.8205
▁Latian	-11.8205
▁geese	-11.8205
▁assistance	-11.8205
▁brick	-11.8207
▁southward	-11.8207
▁unawares	-11.8208
rer	-11.8208
▁Alice	-11.8209
ef	-11.8211
▁trenches	-11.8212
▁Ser	-11.8213
▁scarf	-11.8214
Tread	-11.8216
Rough	-11.8218
▁thereto	-11.8219
Touched	-11.8222
▁pier	-11.8223
▁boyish	-11.8224
▁curst	-11.8226
▁bounded	-11.8227
▁pants	-11.8228
▁paws	-11.823
Adieu	-11.8232
Apollo	-11.8232
Woman	-11.8233
lock	-11.8233
▁flattering	-11.8235
▁ruler	-11.8236
▁miller	-11.8236
▁timely	-11.8237
▁craven	-11.8237
▁frightful	-11.8237
?”	-11.8239
▁assent	-11.8246
▁Wild	-11.825
▁complaint	-11.8257
▁tracks	-11.8263
▁checked	-11.8264
Ju	-11.8265
ely	-11.8265
▁reject	-11.8269
▁exalt	-11.8269
▁divers	-11.8271
▁trample	-11.8271
▁Ci	-11.8273
▁feud	-11.8276
▁va	-11.8277
▁speedy	-11.828
▁exact	-11.828
Attend	-11.8283
▁hermits	-11.8286
new	-11.8286
▁propitious	-11.8287
▁Clare	-11.8288
▁homestead	-11.8291
oun	-11.8293
tting	-11.8295
si	-11.8297
▁Joseph	-11.8297
▁sufficient	-11.8297
▁longest	-11.8298
▁travelling	-11.8298
:"¬	-11.8302
▁dancers	-11.8303
Add	-11.8305
▁lithe	-11.8306
tro	-11.8309
▁hairs	-11.831
▁mov	-11.831
▁aboard	-11.8311
▁comin	-11.8311
▁captains	-11.8312
▁Lily	-11.8316
▁accident	-11.8316
!”¬	-11.8316
▁hints	-11.8319
▁masts	-11.8319
cake	-11.832
leg	-11.8322
▁growl	-11.8322
ttle	-11.8323
▁bro	-11.8323
stones	-11.8331
▁borrowed	-11.8333
▁fam	-11.8334
▁breeds	-11.8335
▁lighten	-11.8335
EN	-11.8338
ges	-11.834
rag	-11.8342
art	-11.8344
▁Hear	-11.8346
▁cracked	-11.8347
▁hose	-11.8347
▁oaths	-11.8348
Hurl	-11.8348
▁muster	-11.835
▁murderer	-11.8353
▁gorge	-11.8358
▁limits	-11.8358
Coming	-11.8361
▁ly	-11.8361
▁Nine	-11.8364
dee	-11.8364
Calls	-11.8365
▁anthem	-11.8369
▁sentiment	-11.8369
▁awkward	-11.8369
▁pretence	-11.8369
▁satisfy	-11.8369
▁shelves	-11.8369
▁Babylon	-11.8369
Yonder	-11.8372
▁Gate	-11.8372
▁Elysian	-11.8373
▁violin	-11.8374
▁Lilith	-11.8375
▁humor	-11.8377
hair	-11.8378
iment	-11.8378
▁flattery	-11.8382
▁Burns	-11.8382
▁Anne	-11.8386
ware	-11.8387
▁mosses	-11.8389
rri	-11.8392
▁feathery	-11.8394
▁rebuke	-11.8395
▁brace	-11.8397
Freedom	-11.8399
Cross	-11.8401
▁errors	-11.8403
▁released	-11.8404
▁drenched	-11.8405
▁mote	-11.8406
▁thronged	-11.8407
▁dropp	-11.841
reign	-11.841
▁mutter	-11.841
▁revive	-11.8412
Si	-11.8414
▁aunt	-11.8417
▁peeping	-11.842
▁gird	-11.8421
uer	-11.8422
ule	-11.8423
Search	-11.8424
mas	-11.8427
▁volumes	-11.8427
Bringing	-11.8429
▁poised	-11.8431
▁male	-11.8432
lost	-11.8433
▁drench	-11.8435
hour	-11.8436
voiced	-11.8437
▁holes	-11.8438
▁Dane	-11.8439
▁rooks	-11.844
▁fixt	-11.8441
▁skull	-11.8444
▁alley	-11.8445
▁roamed	-11.8446
Te	-11.845
▁jokes	-11.8451
▁caution	-11.8452
▁hurricane	-11.8452
▁turmoil	-11.8452
▁swarthy	-11.8453
▁crocus	-11.8453
▁repaid	-11.8453
▁despot	-11.8453
onian	-11.8453
▁farms	-11.8456
▁ambitious	-11.8458
▁clusters	-11.8459
Hearing	-11.8459
Rang	-11.8459
▁wroth	-11.8461
▁About	-11.8462
▁Milton	-11.8463
▁pitcher	-11.8464
▁billowy	-11.8464
▁Annie	-11.8465
▁marrow	-11.8465
▁fulfill	-11.8466
▁myrrh	-11.8468
▁bullets	-11.8469
▁traitors	-11.847
▁gentler	-11.8473
▁coasts	-11.8473
Crowned	-11.8475
▁guided	-11.8478
Cha	-11.8478
▁swerve	-11.8479
▁heavenward	-11.848
Suppose	-11.8482
▁loop	-11.8482
▁fireside	-11.8484
ella	-11.8485
eous	-11.8486
▁pledged	-11.8486
▁avoid	-11.8488
ix	-11.849
▁clos	-11.8491
▁sale	-11.8493
▁blighted	-11.8498
▁dales	-11.8499
▁thicken	-11.8502
Chill	-11.8503
▁bump	-11.8505
▁abodes	-11.8506
▁cluster	-11.8508
Grave	-11.8509
▁Know	-11.8512
Observe	-11.8512
alas	-11.8515
dale	-11.8517
chi	-11.8517
▁Port	-11.8521
▁clasps	-11.8521
ich	-11.8522
▁luve	-11.8525
▁flint	-11.8531
▁seamen	-11.8531
Songs	-11.8535
unce	-11.8536
▁deluge	-11.8537
▁Pluto	-11.8537
▁brutal	-11.8537
▁chalk	-11.8537
▁studied	-11.8537
▁siege	-11.8537
▁livid	-11.8537
▁twig	-11.8539
▁pressure	-11.8539
Spake	-11.8539
▁pockets	-11.854
Gazing	-11.854
▁colder	-11.8541
▁enters	-11.8541
▁shrouded	-11.8541
▁outstretched	-11.8543
▁exactly	-11.8544
▁hourly	-11.8544
▁overcome	-11.8546
▁records	-11.8547
wed	-11.855
▁robbed	-11.8551
▁outright	-11.8553
Years	-11.8555
▁vocal	-11.8556
▁Dr	-11.8559
ked	-11.856
▁Marphisa	-11.856
▁endured	-11.856
▁model	-11.8562
▁conclude	-11.8564
▁inquire	-11.8564
▁frowned	-11.8567
Brown	-11.8567
▁missing	-11.8569
Sore	-11.8578
Herself	-11.8581
▁plaint	-11.8582
Sings	-11.8582
▁wishing	-11.8589
Move	-11.859
▁Without	-11.8598
crib	-11.8599
▁chirp	-11.8601
▁vassals	-11.8606
▁cape	-11.8607
Deem	-11.8613
▁element	-11.8616
▁lapse	-11.8616
▁scholar	-11.8617
▁captives	-11.8618
▁gaed	-11.862
▁Providence	-11.8621
▁cherries	-11.8621
▁spectral	-11.8621
▁terrific	-11.8621
▁traffic	-11.8621
▁unafraid	-11.8621
▁filial	-11.8621
▁exercise	-11.8622
Shal	-11.8623
▁carries	-11.8623
▁poisonous	-11.8623
▁Wit	-11.8624
▁lieth	-11.8624
▁Santa	-11.8625
▁screams	-11.8627
▁Philip	-11.8629
lies	-11.863
▁Orpheus	-11.8631
▁Lethe	-11.8635
▁weaker	-11.8638
Ow	-11.8638
pose	-11.8643
▁prate	-11.8643
lest	-11.8645
Hangs	-11.8648
Women	-11.8652
mist	-11.8655
▁sculptured	-11.8656
▁handle	-11.8657
▁pined	-11.8657
could	-11.8658
▁doctors	-11.866
▁blending	-11.8661
▁drained	-11.8661
ale	-11.8663
▁cri	-11.8665
Rock	-11.8669
beat	-11.867
▁rends	-11.867
List	-11.8672
▁Throne	-11.8678
ball	-11.868
▁Farewell	-11.8685
▁waltz	-11.8687
▁suspect	-11.8689
▁buzz	-11.869
▁hain	-11.8691
▁Bright	-11.8694
grass	-11.8695
▁Make	-11.8696
▁unbound	-11.8699
▁brisk	-11.87
form	-11.87
tel	-11.87
▁doon	-11.8703
Hide	-11.8704
fields	-11.8706
▁molten	-11.8707
▁huntsman	-11.8707
▁gwine	-11.8707
alyá	-11.8707
▁spinning	-11.8708
▁bigger	-11.8709
▁pop	-11.8709
▁declining	-11.871
▁pursuing	-11.8711
▁cellar	-11.8711
▁losing	-11.8712
▁sicken	-11.8712
▁gospel	-11.8713
▁Baron	-11.8715
shore	-11.8715
▁parched	-11.8717
▁Ch	-11.8717
▁painting	-11.8717
Ro	-11.8718
▁flake	-11.8719
Bade	-11.8719
▁lordship	-11.872
Com	-11.8721
▁hip	-11.8722
Begin	-11.8724
▁maw	-11.8727
▁wretches	-11.873
▁Aunt	-11.8731
Finds	-11.8732
▁endear	-11.8732
▁sheaf	-11.8734
west	-11.8734
Cr	-11.8735
Echo	-11.8738
Ulysses	-11.8739
▁fringe	-11.8739
▁afresh	-11.874
▁baleful	-11.874
▁pathless	-11.8741
Somewhere	-11.8747
▁Most	-11.8748
breathing	-11.8751
shot	-11.8751
▁dispel	-11.8752
▁queenly	-11.8753
▁insects	-11.8753
▁blackness	-11.8753
ville	-11.8755
--(	-11.8756
▁kinder	-11.8759
▁gravel	-11.876
dar	-11.876
▁warned	-11.8761
dia	-11.8768
pon	-11.8769
▁someone	-11.8771
▁angelic	-11.8772
these	-11.8774
▁nourish	-11.8775
▁thickets	-11.8775
▁Beloved	-11.8776
▁enjoyed	-11.8778
▁engines	-11.8779
Pre	-11.878
▁soared	-11.8781
pat	-11.8785
▁adorned	-11.8786
▁legends	-11.8787
▁dips	-11.8788
▁galley	-11.8793
▁Rudeger	-11.8793
▁expanse	-11.8793
▁opprest	-11.8793
▁defiance	-11.8793
▁energy	-11.8793
▁wreak	-11.8793
Choose	-11.8793
▁saucy	-11.8793
▁violence	-11.8793
▁boding	-11.8793
▁babble	-11.8793
▁hilt	-11.8793
▁trice	-11.8794
▁mither	-11.8794
▁Road	-11.8794
Unhappy	-11.8795
▁loaf	-11.8795
▁pausing	-11.8797
▁improve	-11.8798
ured	-11.8801
▁minstrelsy	-11.8801
▁Nick	-11.8801
▁coals	-11.8803
Methought	-11.8803
▁Pole	-11.8805
▁fuel	-11.8807
▁elves	-11.8809
would	-11.881
▁bustle	-11.8813
▁Many	-11.8813
press	-11.8817
▁Ti	-11.8818
Weeping	-11.8818
▁harps	-11.8819
._"¬	-11.8819
must	-11.882
log	-11.882
World	-11.8826
robed	-11.8829
▁completely	-11.8832
▁heralds	-11.8832
▁cakes	-11.8833
▁comp	-11.8833
Big	-11.8833
coming	-11.8834
▁mus	-11.8834
▁harms	-11.8835
Pro	-11.8839
▁slid	-11.884
▁Cal	-11.8848
ob	-11.8849
▁cle	-11.8851
Filling	-11.8856
▁ashen	-11.8857
hot	-11.8857
Breaks	-11.8857
rit	-11.8859
▁affect	-11.8862
▁joyless	-11.8863
▁embraces	-11.8867
ica	-11.8873
handed	-11.8875
▁spoiled	-11.8876
▁ioy	-11.8877
▁fathom	-11.8878
▁amethyst	-11.888
▁disgust	-11.888
▁possest	-11.888
▁tradition	-11.888
erbino	-11.888
▁descried	-11.888
▁trifling	-11.888
▁writhing	-11.888
▁fugitive	-11.888
▁resolute	-11.888
▁pelf	-11.888
▁smells	-11.888
cause	-11.888
▁stubble	-11.888
▁alms	-11.8881
▁dice	-11.8883
▁crackling	-11.8883
▁feverish	-11.8883
▁stale	-11.8884
▁somebody	-11.8884
▁carven	-11.8886
▁bramble	-11.8887
▁contentment	-11.8887
▁slightest	-11.889
▁confused	-11.889
▁bewildered	-11.8892
▁downe	-11.8895
▁jug	-11.8895
▁Hercules	-11.8896
Dry	-11.8897
▁opal	-11.8899
▁masses	-11.8902
▁stab	-11.8904
Become	-11.8906
Pursue	-11.8911
▁Rest	-11.8911
Cry	-11.8912
▁prisoned	-11.8913
Blown	-11.8913
Jack	-11.8914
▁Line	-11.8916
▁determined	-11.8916
▁reveals	-11.8917
hin	-11.8917
Prince	-11.8918
lights	-11.8921
▁giveth	-11.8923
▁remembering	-11.8925
Outside	-11.8927
▁yearned	-11.8929
Loved	-11.8933
▁tress	-11.8935
▁empires	-11.8936
▁hovers	-11.8937
▁omen	-11.8939
Bar	-11.894
rist	-11.8942
▁sandals	-11.8943
▁scathe	-11.8946
▁upbraid	-11.8952
▁lisp	-11.8952
▁eagerly	-11.8953
Birds	-11.8956
▁Bel	-11.896
nis	-11.8964
Us	-11.8964
sum	-11.8965
▁confide	-11.8967
▁assert	-11.8967
▁poke	-11.8967
▁distraught	-11.8968
▁genuine	-11.8968
▁nervous	-11.8968
▁privilege	-11.8968
▁Jacob	-11.8968
nde	-11.8969
▁jig	-11.897
▁Scripture	-11.897
▁visionary	-11.897
▁cars	-11.8976
▁baith	-11.8977
▁Hymen	-11.8977
▁dishes	-11.8979
▁contrive	-11.898
ides	-11.898
▁Seven	-11.8983
▁plies	-11.8984
▁ro	-11.8986
▁manage	-11.8988
Stole	-11.899
ST	-11.8994
▁Frank	-11.8996
▁continue	-11.8999
Grim	-11.9002
▁States	-11.9005
▁chang	-11.9006
▁Je	-11.9006
lum	-11.9009
▁issued	-11.901
▁shivered	-11.9011
▁dresses	-11.9012
▁Fly	-11.9015
▁gulfs	-11.9015
LI	-11.9016
▁Flower	-11.9017
▁scorch	-11.9026
▁rev	-11.9028
▁exiled	-11.9031
Careless	-11.9032
ew	-11.9035
▁recover	-11.9039
arf	-11.9041
hor	-11.9041
year	-11.9042
Stars	-11.9043
▁thundered	-11.9048
▁drowning	-11.9048
ya	-11.9053
pers	-11.9053
▁tuck	-11.9054
Flash	-11.9054
▁perceived	-11.9056
▁cathedral	-11.9056
▁grumble	-11.9056
▁imperious	-11.9056
▁unheeded	-11.9056
▁annual	-11.9056
▁popular	-11.9056
▁prudence	-11.9056
▁concert	-11.9056
▁shilling	-11.9056
flame	-11.9056
▁Hugh	-11.9057
▁heavier	-11.9058
▁squirrel	-11.9059
▁gossip	-11.9059
▁Vivian	-11.9061
▁sinned	-11.9062
▁armes	-11.9063
▁tottering	-11.9066
!...	-11.9069
▁ripened	-11.908
▁ropes	-11.9081
▁befriend	-11.9082
gu	-11.9083
▁sleeper	-11.9086
▁Squire	-11.9087
▁Despair	-11.9087
Broad	-11.9091
Weigh	-11.9091
▁wilder	-11.9092
since	-11.9093
▁heirs	-11.9099
▁mystical	-11.91
▁truest	-11.9105
Swiftly	-11.9107
oon	-11.9109
▁vaunt	-11.9112
wheel	-11.9113
▁wily	-11.9114
mang	-11.9118
▁mess	-11.9118
sure	-11.9119
Lovely	-11.9119
▁Powers	-11.912
▁knots	-11.9121
lee	-11.9125
tted	-11.9127
▁conceived	-11.9128
Clasp	-11.9129
▁Sister	-11.9129
mal	-11.9129
Thrill	-11.9129
Pluck	-11.9131
▁homeless	-11.9132
▁roaming	-11.9132
▁Must	-11.9132
bling	-11.9134
▁Du	-11.9135
IT	-11.9138
▁prospects	-11.9138
Bending	-11.9142
Pr	-11.9143
▁vigor	-11.9145
▁smoky	-11.9145
▁groping	-11.9145
aEuro	-11.9146
▁blythe	-11.9146
▁perforce	-11.9146
▁kinsman	-11.9146
▁important	-11.9146
▁lacking	-11.9146
▁wedlock	-11.9146
Bitter	-11.9146
▁barque	-11.9147
▁undying	-11.9148
▁moorland	-11.9149
▁Whom	-11.9149
▁sermon	-11.915
▁ploughman	-11.9151
▁husk	-11.9151
▁mule	-11.9151
▁scanned	-11.9152
▁Agramant	-11.9154
▁wile	-11.9155
▁merciful	-11.9155
▁furled	-11.916
▁Ko	-11.9162
?)	-11.9163
▁op	-11.9163
▁questioned	-11.9163
▁Diana	-11.9165
▁canoe	-11.9167
▁summers	-11.9172
Fold	-11.9174
ching	-11.9175
bre	-11.9177
▁godly	-11.9181
▁galloped	-11.9182
iz	-11.9182
▁rebels	-11.9185
only	-11.919
uz	-11.919
▁file	-11.9193
▁killing	-11.9197
Smiles	-11.9198
bin	-11.92
Holds	-11.92
▁chart	-11.9201
Weave	-11.921
:¬_	-11.9211
▁Low	-11.9214
▁treated	-11.9214
tale	-11.9214
Write	-11.9218
▁distinguish	-11.9218
tain	-11.9218
▁Fa	-11.9227
Pa	-11.9228
▁fares	-11.9229
Tri	-11.9231
▁Perhaps	-11.9234
Crying	-11.9235
▁apparel	-11.9235
lly	-11.9235
Wrought	-11.9235
▁suspicion	-11.9235
▁brittle	-11.9236
▁idea	-11.9236
▁gilt	-11.9236
▁unceasing	-11.9236
▁gutter	-11.9236
▁marge	-11.9237
▁striking	-11.9238
▁particular	-11.9239
▁Pre	-11.924
▁plunging	-11.9241
▁whistles	-11.9241
▁continent	-11.9241
▁pirate	-11.9242
▁gloaming	-11.9244
think	-11.9245
▁alleys	-11.9246
▁weaving	-11.9252
▁muttering	-11.9253
▁Kaik	-11.9255
▁boss	-11.9258
▁torments	-11.9259
▁offended	-11.9261
▁goats	-11.9264
Ther	-11.9267
▁sta	-11.9269
▁jade	-11.9269
flies	-11.927
_¬_	-11.9271
Pierced	-11.9271
Cannot	-11.9272
free	-11.9274
▁gentleness	-11.9277
!"--¬	-11.9278
Vast	-11.9279
▁queens	-11.9281
▁screamed	-11.9281
▁therewith	-11.9285
Friends	-11.9285
▁patiently	-11.9286
▁affections	-11.9289
armed	-11.9291
Breathing	-11.9293
▁corners	-11.9294
▁Mill	-11.9295
Maybe	-11.9299
Whereof	-11.9304
▁ransom	-11.9305
▁Gra	-11.9308
▁assure	-11.931
▁swallowed	-11.9311
▁prepares	-11.9314
,--"	-11.9316
▁complaining	-11.9317
▁wy	-11.9317
rence	-11.932
VI	-11.9323
▁Mark	-11.9325
▁contempt	-11.9326
▁coronet	-11.9326
▁precipice	-11.9326
▁GENUS	-11.9326
▁faulchion	-11.9326
▁hazard	-11.9326
▁snaw	-11.9326
▁structure	-11.9326
▁dregs	-11.9326
▁Angad	-11.9326
▁impotent	-11.9326
▁regiment	-11.9326
▁storied	-11.9327
▁glided	-11.9327
▁communion	-11.9327
Stoop	-11.9327
Burning	-11.9328
Cla	-11.9328
rk	-11.9328
▁trampling	-11.9329
aries	-11.933
▁approved	-11.9331
▁plagues	-11.9332
▁enjoyment	-11.9336
▁doll	-11.9337
▁pigs	-11.934
▁pastoral	-11.9343
▁talent	-11.9344
Thin	-11.9345
▁mourners	-11.9348
▁yards	-11.9354
hr	-11.9355
▁sliding	-11.9356
CE	-11.9356
▁YOU	-11.9357
▁bitterly	-11.9361
▁ensue	-11.9361
▁instantly	-11.9362
▁bun	-11.9363
▁exchange	-11.9364
▁rind	-11.9365
Unknown	-11.9366
▁shrinks	-11.9369
Girt	-11.9369
▁Face	-11.937
▁loosen	-11.937
▁sprinkled	-11.9373
▁zephyrs	-11.9374
cast	-11.9375
▁cha	-11.9376
▁shod	-11.9378
ache	-11.9379
▁closes	-11.9379
▁abate	-11.9381
▁cheerless	-11.9381
▁confine	-11.9382
▁Girl	-11.9382
▁Sometimes	-11.9383
▁hunters	-11.9383
▁according	-11.9384
▁foster	-11.9385
Mute	-11.9386
rings	-11.9387
▁Tu	-11.9391
▁gu	-11.9393
▁wassail	-11.9397
▁lawful	-11.9399
▁mirrored	-11.94
▁ling	-11.9402
▁berry	-11.9403
Tha	-11.9407
▁martyrs	-11.9412
▁hairy	-11.9415
▁wring	-11.9415
▁nap	-11.9417
▁Francis	-11.9418
Sprung	-11.9418
▁Creator	-11.9418
▁pregnant	-11.9418
▁studious	-11.9418
▁noticed	-11.9419
▁Piper	-11.9419
▁parade	-11.942
mate	-11.9423
▁vp	-11.9424
▁filling	-11.9424
▁laud	-11.9425
▁grot	-11.9426
▁comforted	-11.9428
▁proportion	-11.9428
▁hamlet	-11.9428
Broken	-11.9428
▁rogue	-11.9428
▁Simon	-11.9429
▁temptation	-11.9429
▁Tommy	-11.943
▁ancestral	-11.9431
upon	-11.9431
▁gret	-11.9433
▁acted	-11.9433
Twin	-11.9434
▁recline	-11.9434
books	-11.9438
Dey	-11.944
▁thickest	-11.9442
▁nestle	-11.9442
pper	-11.9442
▁sc	-11.9447
▁Nymph	-11.9447
▁Pass	-11.945
▁ails	-11.9451
▁endures	-11.9453
▁clanging	-11.9454
▁drooped	-11.9457
Forward	-11.9462
▁reform	-11.9463
uld	-11.9463
Sink	-11.947
Followed	-11.9472
▁streamed	-11.9473
▁cou	-11.9477
▁farmers	-11.9478
Talk	-11.948
rd	-11.9481
nus	-11.9481
▁hou	-11.9481
▁hollows	-11.9483
▁consecrated	-11.9483
▁gentlest	-11.9485
▁beggars	-11.9489
▁fevered	-11.9495
Sunk	-11.9495
cia	-11.9501
ram	-11.9502
Peep	-11.9503
▁thatch	-11.9503
turn	-11.9503
▁devout	-11.9504
UN	-11.9505
▁magical	-11.9508
▁applaud	-11.9511
▁harmonies	-11.9511
▁shrank	-11.9511
▁loftiest	-11.9511
▁enterprise	-11.9511
▁tinkle	-11.9511
▁truant	-11.9511
▁respite	-11.9511
▁central	-11.9511
▁coax	-11.9511
▁Dante	-11.9512
▁calf	-11.9512
▁raves	-11.9513
xi	-11.9514
▁awry	-11.9515
▁dial	-11.9515
▁whereby	-11.9516
▁Dian	-11.9518
▁Dragon	-11.9519
▁afflicted	-11.952
▁correct	-11.952
▁euer	-11.952
▁enchanting	-11.9521
▁circumstance	-11.9522
▁Fred	-11.9522
▁Pi	-11.9525
▁limit	-11.9526
dle	-11.9526
▁eternally	-11.9526
▁generations	-11.9527
▁reside	-11.9528
▁nightingales	-11.9528
▁gilds	-11.953
ants	-11.9531
▁mun	-11.9533
▁Shadow	-11.9536
Fine	-11.9536
▁feasting	-11.9537
dent	-11.9537
ado	-11.9538
Step	-11.9538
rich	-11.9542
Win	-11.9544
▁meaner	-11.9544
worth	-11.9544
▁curly	-11.9545
▁cum	-11.9546
▁purr	-11.955
scented	-11.955
▁quote	-11.9552
▁fishing	-11.9552
▁succeeding	-11.9552
▁striven	-11.9553
colored	-11.9554
nish	-11.9554
Living	-11.9554
▁pining	-11.9555
dded	-11.9557
Lone	-11.9559
▁feeding	-11.9568
▁Bal	-11.9571
▁resounding	-11.9571
▁pointing	-11.9574
▁rhythmic	-11.9576
▁Alps	-11.9576
▁foamy	-11.958
:¬(	-11.9586
▁dishonour	-11.9587
▁usher	-11.9587
Await	-11.9588
▁Spartan	-11.9598
▁recess	-11.96
▁divides	-11.9601
▁Ball	-11.9602
▁Leave	-11.9603
ety	-11.9604
▁belfry	-11.9604
▁commerce	-11.9604
▁skeleton	-11.9604
▁boisterous	-11.9604
▁dispense	-11.9604
▁quarry	-11.9604
Spoke	-11.9604
▁staid	-11.9605
tent	-11.9605
▁oppression	-11.9607
▁filthy	-11.9608
▁dipped	-11.961
▁dawns	-11.9612
▁extremely	-11.9613
▁designs	-11.9613
TE	-11.9613
!”	-11.9614
▁bleating	-11.9616
▁nursery	-11.9616
▁putting	-11.9617
qu	-11.962
▁caresses	-11.9621
▁clustering	-11.9623
▁gap	-11.9623
▁whine	-11.9626
▁pudding	-11.9627
▁horseman	-11.9627
▁fume	-11.9629
▁graven	-11.9629
▁dearie	-11.9632
▁solitudes	-11.9632
▁Au	-11.9635
▁sham	-11.9636
▁inglorious	-11.9639
▁feigned	-11.9639
fair	-11.9641
▁invoke	-11.9641
Lifting	-11.9641
esse	-11.9641
mouth	-11.9642
lam	-11.9645
▁stifled	-11.9645
coat	-11.9646
▁ferns	-11.9647
Ef	-11.9649
▁scrub	-11.9649
ures	-11.9649
▁cope	-11.9652
▁witching	-11.9654
▁enclose	-11.9654
▁Cha	-11.9656
▁neigh	-11.9659
▁Beyond	-11.9659
▁feats	-11.966
thing	-11.966
▁chilling	-11.966
pray	-11.9664
Mon	-11.967
▁wooded	-11.9672
▁suff	-11.9675
▁shamed	-11.9678
▁blunder	-11.9678
Dan	-11.968
Lu	-11.9681
▁tether	-11.9682
▁Cause	-11.9689
▁destroyed	-11.969
.’¬	-11.9691
▁nowhere	-11.9692
laid	-11.9695
▁belov	-11.9696
Clean	-11.9698
▁sluggish	-11.9699
▁gallows	-11.9699
▁lewd	-11.9699
▁Denmark	-11.9699
Either	-11.9699
▁saffron	-11.9699
▁feebly	-11.9699
Taught	-11.9699
▁stirrup	-11.9699
▁clamorous	-11.9699
borne	-11.9701
▁ninety	-11.9701
▁Ruediger	-11.9701
▁bri	-11.9702
▁sinless	-11.9703
▁bunch	-11.9704
▁Army	-11.9704
▁Run	-11.9704
▁Friends	-11.9705
▁abhorred	-11.9708
▁brest	-11.9708
▁raged	-11.9709
▁achieve	-11.9711
▁winna	-11.9712
ace	-11.9713
▁position	-11.9714
▁kitten	-11.9714
▁suspended	-11.9717
▁infancy	-11.9718
▁likely	-11.9718
Feeling	-11.9721
▁gifted	-11.9724
▁nestling	-11.9726
▁graze	-11.9737
Pride	-11.974
oy	-11.974
▁artful	-11.9741
Got	-11.9743
▁vs	-11.9749
Bore	-11.9752
Ba	-11.9753
Drop	-11.9754
▁fateful	-11.9755
met	-11.9761
▁plates	-11.9764
▁waned	-11.9766
strewn	-11.9766
ette	-11.9771
▁Eyes	-11.9772
close	-11.9773
git	-11.9774
▁daunt	-11.9775
▁Glen	-11.9787
▁lag	-11.9788
tower	-11.9788
▁woody	-11.9791
▁Dutch	-11.9792
▁titles	-11.9792
▁Dauber	-11.9794
▁coffee	-11.9794
▁emperor	-11.9794
▁gigantic	-11.9794
▁grapple	-11.9794
▁palfrey	-11.9794
▁starving	-11.9794
▁prattle	-11.9794
▁instance	-11.9794
▁fiction	-11.9794
▁sha	-11.9794
▁Hood	-11.9794
▁prosperous	-11.9795
▁jam	-11.9796
▁schools	-11.9797
ret	-11.9797
▁direction	-11.9799
▁travels	-11.98
▁longings	-11.9801
▁warmed	-11.9802
▁Moses	-11.9802
▁General	-11.9805
know	-11.9807
▁wailed	-11.9808
▁tokens	-11.981
▁pal	-11.9811
Pain	-11.9811
▁gateway	-11.9812
▁rooted	-11.9812
last	-11.9812
▁roseate	-11.9817
▁draughts	-11.982
▁ripening	-11.9821
▁Phil	-11.9824
Breathes	-11.9825
▁sunder	-11.9826
▁Among	-11.9829
▁elms	-11.983
▁fettered	-11.983
▁Ring	-11.9831
▁frighten	-11.9832
▁entwine	-11.9833
anthus	-11.9833
ep	-11.9834
Hurrah	-11.9835
Desire	-11.9836
stricken	-11.9836
Returning	-11.9837
Dame	-11.9838
mu	-11.9838
▁giver	-11.9841
▁kills	-11.9845
▁serenely	-11.9846
Den	-11.9851
▁boldest	-11.9853
Lightly	-11.9859
▁mostly	-11.9863
▁pest	-11.9866
▁scattering	-11.9867
▁bra	-11.987
▁Until	-11.987
▁statues	-11.9871
Push	-11.9873
▁rally	-11.9874
fi	-11.9875
."_¬	-11.9876
▁overflow	-11.9877
▁offers	-11.9879
ithil	-11.988
▁adds	-11.988
▁brands	-11.9884
▁fort	-11.9886
▁wher	-11.9889
▁commit	-11.989
▁spicy	-11.989
▁smelt	-11.989
▁grisly	-11.989
▁Gr	-11.989
▁clue	-11.989
▁cloister	-11.989
▁ardor	-11.989
▁untried	-11.9891
▁unwearied	-11.9892
Showed	-11.9893
▁lovingly	-11.9893
▁whilom	-11.9894
▁surly	-11.9895
▁sloping	-11.9896
▁Guard	-11.9898
▁diff	-11.9898
▁lightest	-11.9901
Rising	-11.9903
▁ful	-11.9903
▁Hermes	-11.9903
▁leaders	-11.9905
▁vesper	-11.9908
▁Romance	-11.9909
▁frogs	-11.991
▁withstood	-11.991
yth	-11.9912
▁springtime	-11.9913
zar	-11.9916
▁suitor	-11.9916
▁sleeve	-11.9918
▁angle	-11.9919
ago	-11.9921
▁cor	-11.9921
ckle	-11.9924
▁barks	-11.9925
sse	-11.9926
▁seiz	-11.993
▁fangs	-11.993
▁Nurse	-11.9931
▁Darkness	-11.9931
▁appease	-11.9932
▁ste	-11.9935
Swell	-11.9941
▁teares	-11.9942
iel	-11.9945
Su	-11.9947
▁min	-11.9947
word	-11.9949
▁crowding	-11.9949
▁rum	-11.9951
▁throes	-11.9953
▁Sound	-11.9957
Knows	-11.9959
▁ravage	-11.996
▁heeded	-11.9961
▁elders	-11.9962
▁glitt	-11.9962
Sweeter	-11.9964
dying	-11.9968
bud	-11.9968
▁poisoned	-11.9969
▁twitter	-11.997
▁foil	-11.9972
▁willed	-11.9974
▁shrubs	-11.9974
▁viol	-11.9976
▁tips	-11.9977
▁clove	-11.9979
▁incessant	-11.998
▁protest	-11.9984
▁welcomed	-11.9984
▁pies	-11.9985
▁perfectly	-11.9986
Conceal	-11.9987
▁attentive	-11.9987
▁craving	-11.9987
▁parlour	-11.9987
▁recoil	-11.9987
▁apron	-11.9987
▁rice	-11.9988
▁repast	-11.9989
▁Siegmund	-11.9989
▁revolving	-11.999
▁freezing	-11.999
▁gardener	-11.999
▁Crow	-11.9993
▁warmly	-11.9994
▁covering	-11.9995
▁anvil	-11.9996
▁lined	-11.9996
▁qu	-11.9998
▁singers	-12
▁autumnal	-12
▁Hu	-12.0001
▁n	-12.0002
Taking	-12.0002
▁suited	-12.0004
▁stretching	-12.0005
Doubt	-12.0006
▁period	-12.0007
▁horde	-12.0009
tum	-12.001
ight	-12.001
▁forc	-12.0012
Resolved	-12.0012
▁wiped	-12.0016
▁una	-12.0018
▁neet	-12.0019
Gaze	-12.0021
▁bass	-12.0022
▁paces	-12.0026
▁fainter	-12.0026
rat	-12.003
Ráma	-12.0031
Fancy	-12.0031
▁cre	-12.0032
great	-12.0032
▁Fo	-12.0032
▁tinge	-12.0033
▁dad	-12.0035
▁Back	-12.0038
▁healthy	-12.0038
▁paddle	-12.004
▁sparrows	-12.0045
▁lamenting	-12.0046
Lonely	-12.0047
Der	-12.0049
Aw	-12.0052
▁Mine	-12.0054
Mind	-12.0057
▁packed	-12.0062
▁pilgrims	-12.0064
▁Sons	-12.0065
▁grasps	-12.0067
lor	-12.0068
▁contract	-12.0068
▁shimmer	-12.0069
Catch	-12.0072
▁Play	-12.0073
▁softness	-12.0074
▁dreamer	-12.0078
blin	-12.0083
▁Majesty	-12.0085
▁Washington	-12.0085
▁conclusion	-12.0085
▁nicht	-12.0085
Reveal	-12.0085
▁whet	-12.0086
▁rubies	-12.0086
▁loathe	-12.0086
▁Across	-12.0086
▁womankind	-12.0088
▁bray	-12.0089
▁musket	-12.0091
▁Dido	-12.0092
▁afterwards	-12.0093
▁Virgil	-12.0093
▁wraith	-12.0093
▁Har	-12.0096
▁compared	-12.0097
▁Roger	-12.0098
▁reaper	-12.0098
▁Mistress	-12.0098
Gro	-12.0106
Receive	-12.0106
▁veer	-12.0106
▁sentinel	-12.0107
▁jealousy	-12.0108
▁tailor	-12.0108
gn	-12.0111
▁cocks	-12.0113
▁priv	-12.0114
▁highly	-12.0114
stand	-12.0116
▁friendless	-12.0119
▁sling	-12.012
▁brightening	-12.0122
▁robed	-12.0122
Sounds	-12.0123
▁hu	-12.0124
wife	-12.0128
▁bla	-12.0128
clu	-12.013
▁deserves	-12.0131
▁flits	-12.0132
▁Cow	-12.0133
▁faced	-12.0133
string	-12.0133
▁pence	-12.0134
Gazed	-12.0143
Head	-12.0143
▁thaw	-12.0143
Year	-12.0145
Raise	-12.0145
nine	-12.0146
dear	-12.0146
▁pur	-12.0148
;)¬	-12.015
▁croon	-12.0152
Cries	-12.0154
Roses	-12.0155
▁pad	-12.0155
▁poise	-12.0161
▁wae	-12.0162
▁coloured	-12.0164
▁nobles	-12.0166
ister	-12.0166
▁relent	-12.0166
▁harden	-12.0168
▁trans	-12.0168
▁warder	-12.0173
tend	-12.0173
Recall	-12.0173
▁yawn	-12.0174
▁matched	-12.0175
▁talents	-12.0175
▁wren	-12.0176
▁Marsil	-12.0178
Keen	-12.0179
▁flicker	-12.0182
▁Brahmá	-12.0184
▁citadel	-12.0184
▁glamour	-12.0184
▁hauberk	-12.0184
▁prodigal	-12.0184
▁vintage	-12.0184
▁paltry	-12.0184
▁Janak	-12.0184
▁treachery	-12.0184
▁parlor	-12.0184
▁Athens	-12.0184
▁craggy	-12.0184
▁faery	-12.0185
▁eyeballs	-12.0187
▁natal	-12.0187
▁lacked	-12.0189
▁smites	-12.0194
▁nuts	-12.0194
▁Atrides	-12.0196
▁Folly	-12.0199
▁canker	-12.0199
cie	-12.0201
,"¬"	-12.0203
▁howls	-12.0207
▁invites	-12.021
▁fragment	-12.021
▁odour	-12.021
▁intended	-12.0211
▁Pro	-12.0211
bon	-12.0212
▁modesty	-12.0216
Hands	-12.0217
▁Lover	-12.0219
▁delays	-12.0223
▁thighs	-12.0226
▁breadth	-12.0228
Grey	-12.023
▁humbler	-12.023
Chief	-12.023
arch	-12.0233
hear	-12.0235
Mere	-12.0235
▁sich	-12.0236
▁losses	-12.0239
name	-12.0239
▁ony	-12.024
watch	-12.0246
▁owes	-12.0247
▁fasten	-12.0249
▁wyll	-12.0251
Rode	-12.0253
dust	-12.0255
▁ventured	-12.0258
stick	-12.0258
Sa	-12.0258
▁sinews	-12.0259
elle	-12.0262
▁Self	-12.0263
▁mow	-12.0267
fit	-12.0271
Leap	-12.0271
▁whene	-12.0272
▁hump	-12.028
▁froze	-12.028
▁Unto	-12.0282
looking	-12.0283
▁pi	-12.0284
▁pistol	-12.0284
▁ungrateful	-12.0284
▁attitude	-12.0284
▁obscene	-12.0284
▁respond	-12.0284
Pretty	-12.0284
▁hurries	-12.0284
▁sixteen	-12.0284
▁locust	-12.0284
▁Morgan	-12.0285
▁supple	-12.0285
▁pony	-12.0285
▁kith	-12.0285
▁prance	-12.0285
▁ruffian	-12.0285
▁owd	-12.0286
▁Deity	-12.0287
▁glorified	-12.0288
▁revelry	-12.029
Hi	-12.0291
▁pill	-12.0292
▁Scotia	-12.0293
▁godhead	-12.0294
▁School	-12.0294
▁spaces	-12.0295
▁Karl	-12.0297
▁woof	-12.0298
▁Joan	-12.0298
Whispering	-12.0299
Wan	-12.0301
ille	-12.0302
▁dappled	-12.0304
▁covet	-12.0305
▁nooks	-12.0307
pha	-12.0311
▁gotten	-12.0312
▁groups	-12.0313
▁requires	-12.0314
▁receiv	-12.0314
Underneath	-12.0315
sha	-12.0318
▁Sword	-12.0319
ES	-12.0319
py	-12.0321
▁Religion	-12.0322
▁pert	-12.0325
▁Sense	-12.0328
▁chafe	-12.033
Beware	-12.0333
▁petal	-12.0333
oak	-12.0333
▁shifts	-12.0334
▁reasons	-12.0337
Prepared	-12.0337
▁waver	-12.0338
▁reserve	-12.0339
▁loads	-12.0342
sail	-12.0345
cor	-12.0348
▁discovered	-12.035
▁Fe	-12.035
▁ambrosial	-12.0353
▁unfit	-12.0353
▁continued	-12.0354
▁courtiers	-12.0356
▁characters	-12.0357
▁sandal	-12.0358
▁Cain	-12.0366
▁bre	-12.0367
▁ven	-12.0367
▁Part	-12.0368
▁tangle	-12.0369
Wheel	-12.037
ease	-12.0371
Grows	-12.0371
▁choked	-12.0372
▁wrecked	-12.0374
▁dismiss	-12.0375
Lull	-12.0378
▁marvels	-12.0381
▁memorial	-12.0385
▁urchin	-12.0385
▁Argive	-12.0385
▁Peggy	-12.0385
▁rabble	-12.0385
▁Harold	-12.0385
▁muckle	-12.0386
▁speckled	-12.0386
▁Bot	-12.0387
▁minor	-12.0387
▁thong	-12.0388
▁dinna	-12.039
▁nane	-12.039
▁theft	-12.039
Float	-12.039
Patient	-12.0391
▁edges	-12.0396
▁Norman	-12.0396
▁Telemachus	-12.0398
▁serv	-12.0399
Du	-12.0399
ads	-12.04
Law	-12.0401
▁astonished	-12.0402
▁remaining	-12.0403
▁fallow	-12.0403
Nobody	-12.0409
▁Maria	-12.0409
▁accustomed	-12.041
▁attest	-12.041
▁Vision	-12.041
▁rumor	-12.0413
▁mermaid	-12.0414
▁hoping	-12.0415
lipped	-12.0418
▁courtier	-12.0419
ator	-12.0425
Fo	-12.0426
dead	-12.0426
fac	-12.0428
tine	-12.043
ston	-12.0432
Storm	-12.0433
twenty	-12.0433
Baby	-12.0433
drift	-12.0434
▁wade	-12.0436
▁beholds	-12.0436
▁indulge	-12.044
▁caressed	-12.0442
▁wraps	-12.0443
Age	-12.0443
Rare	-12.0444
▁assailed	-12.045
thought	-12.0451
▁Fox	-12.0453
▁drips	-12.0456
▁sleigh	-12.046
▁bruise	-12.0462
test	-12.0464
▁rarest	-12.0465
mie	-12.0468
▁allows	-12.047
Flutter	-12.047
▁flaunt	-12.0471
▁Tra	-12.0473
▁ME	-12.0474
▁bewail	-12.0475
▁numbered	-12.0475
▁diviner	-12.0478
wards	-12.0478
play	-12.0483
Bind	-12.0486
Breathed	-12.0487
▁obedience	-12.0487
▁issuing	-12.0487
▁eddies	-12.0487
▁bluff	-12.0487
▁ermine	-12.0487
▁Boston	-12.0487
▁fourteen	-12.0488
▁Thracian	-12.0488
▁Union	-12.049
▁silks	-12.049
?_¬	-12.049
▁fifth	-12.0493
▁sal	-12.0494
▁groaned	-12.0496
▁confession	-12.0497
▁deform	-12.0497
▁scorning	-12.0498
▁thrushes	-12.0499
▁Gospel	-12.0499
▁brutes	-12.05
▁bloomin	-12.0503
▁creaking	-12.0503
▁uphold	-12.0505
shade	-12.0508
▁crafty	-12.051
▁des	-12.051
▁Creation	-12.0511
mmer	-12.0514
▁rivulet	-12.0518
▁oaken	-12.052
Early	-12.0521
▁mu	-12.0522
nest	-12.0523
▁channels	-12.0523
▁forgetful	-12.0524
Present	-12.053
▁curs	-12.0531
▁Tower	-12.0532
▁Sone	-12.0535
uns	-12.0536
Pleasure	-12.0536
wild	-12.0537
▁brushed	-12.0539
Buy	-12.0539
▁Daughter	-12.054
once	-12.054
▁peals	-12.0541
beam	-12.0548
nna	-12.0548
▁composed	-12.055
Received	-12.0552
▁robb	-12.0554
▁wends	-12.0554
▁stroll	-12.0556
▁mou	-12.0557
▁compose	-12.0562
iv	-12.0563
Grand	-12.0564
▁Host	-12.0564
dra	-12.0566
▁blocks	-12.0567
emon	-12.0572
Angels	-12.0573
▁howe	-12.0577
▁rescued	-12.0578
▁tamed	-12.058
gun	-12.0581
Winds	-12.0581
▁fleck	-12.0581
▁None	-12.0582
than	-12.0584
▁distil	-12.0586
▁bloke	-12.059
▁duteous	-12.059
▁indifferent	-12.059
▁shirk	-12.059
▁society	-12.059
▁frugal	-12.059
▁linden	-12.059
▁swollen	-12.059
Whirl	-12.059
▁racing	-12.059
▁undefiled	-12.059
▁foretell	-12.0591
▁jacket	-12.0591
▁Gaul	-12.0591
▁slippery	-12.0593
▁Odin	-12.0593
▁warp	-12.0595
▁jasmine	-12.0596
▁Chloe	-12.0597
▁frock	-12.0598
til	-12.0598
▁scatters	-12.0599
▁Judgment	-12.0599
▁Children	-12.06
▁beckoning	-12.0604
▁travellers	-12.0608
Serve	-12.0609
▁siller	-12.0609
friend	-12.061
▁stainless	-12.0611
immer	-12.0615
▁Britons	-12.0617
▁mindful	-12.0618
▁threatened	-12.062
▁smoked	-12.062
▁invited	-12.062
▁peck	-12.0621
point	-12.0622
chin	-12.0623
▁spangled	-12.0624
▁dispose	-12.0624
Fu	-12.0625
▁fondest	-12.0626
▁tug	-12.0627
▁vnto	-12.0629
gling	-12.063
▁Hours	-12.0632
felt	-12.0632
▁seaman	-12.0639
Virtue	-12.064
▁Mountain	-12.064
Dust	-12.0641
ame	-12.0643
▁moo	-12.0644
?¬(	-12.0644
mont	-12.0645
▁shrieked	-12.0645
plain	-12.0648
burn	-12.0651
▁seals	-12.0652
give	-12.0654
▁chaps	-12.0654
▁creak	-12.0661
Fortune	-12.0661
▁begs	-12.0664
▁frighted	-12.0671
▁skins	-12.0672
▁yearns	-12.0674
▁gravely	-12.0675
lon	-12.0675
▁dint	-12.0675
▁astonish	-12.0676
▁bribe	-12.0676
▁kittens	-12.0677
▁disorder	-12.0677
▁carve	-12.0683
▁soundless	-12.0685
▁Strong	-12.0685
▁Chi	-12.0687
Loving	-12.0687
▁thanne	-12.069
▁limp	-12.0692
▁outline	-12.0692
▁restor	-12.0693
▁Geraldine	-12.0694
▁bespake	-12.0694
▁defies	-12.0694
▁gnaw	-12.0694
▁presage	-12.0694
▁material	-12.0695
▁unexpected	-12.0695
▁forgetfulness	-12.0697
▁Tory	-12.0699
▁proceeds	-12.0699
▁scaly	-12.0699
▁lowing	-12.0699
▁erewhile	-12.0699
▁puny	-12.07
▁wearily	-12.07
ison	-12.07
▁joins	-12.0702
▁Cynthia	-12.0703
;¬“	-12.0704
▁poles	-12.0704
▁remembers	-12.0705
eld	-12.0705
▁Anchises	-12.0707
▁Ayodhyá	-12.0707
▁li	-12.0711
▁noo	-12.0711
▁mirk	-12.0712
▁dere	-12.0713
▁dot	-12.0715
▁unbounded	-12.0715
▁gusts	-12.0717
▁abandoned	-12.0718
▁seide	-12.0719
▁card	-12.072
buds	-12.0722
▁Friendship	-12.0722
▁posts	-12.0725
▁amends	-12.0726
▁Wall	-12.0727
ists	-12.0728
▁cataract	-12.073
▁cloy	-12.073
▁project	-12.0731
▁bygone	-12.0733
pes	-12.0734
aine	-12.0735
▁Forth	-12.0738
▁persons	-12.0738
Robin	-12.0738
any	-12.074
browed	-12.0741
Also	-12.0741
peak	-12.0742
▁stumble	-12.0743
▁Trade	-12.0743
Command	-12.0745
Daughter	-12.0745
▁hurts	-12.0746
eal	-12.075
▁matin	-12.075
▁beholding	-12.0758
▁sov	-12.0758
sses	-12.076
nut	-12.0763
▁belle	-12.0767
▁winging	-12.0769
▁piper	-12.077
▁stra	-12.0771
Thereat	-12.0775
▁intrude	-12.0776
Kings	-12.0777
▁sweeten	-12.0779
▁harvests	-12.0781
▁prim	-12.0781
over	-12.0782
▁suspend	-12.0782
Mild	-12.0783
▁squeak	-12.0783
▁battlements	-12.0785
▁urns	-12.0786
▁mettle	-12.0786
Strive	-12.0786
▁crops	-12.0787
▁onset	-12.079
Fleet	-12.079
▁pout	-12.0793
▁Place	-12.0796
tress	-12.0799
▁Spaniard	-12.08
▁fatigue	-12.08
▁heretofore	-12.08
▁Gawayne	-12.08
▁ooze	-12.08
▁drought	-12.08
▁lurch	-12.08
▁pauper	-12.08
▁Camelot	-12.08
▁breeches	-12.08
▁happily	-12.08
▁Kitty	-12.08
▁tourney	-12.08
▁represent	-12.08
▁glaring	-12.0801
spire	-12.0801
▁statesman	-12.0801
ised	-12.0801
Consider	-12.0802
Hearken	-12.0802
▁footfall	-12.0802
Giving	-12.0803
▁impression	-12.0804
▁seventy	-12.0805
erhead	-12.0805
▁pup	-12.0807
▁wrinkles	-12.0808
▁adoring	-12.081
▁sect	-12.081
nge	-12.0811
▁deepening	-12.0812
▁Author	-12.0815
▁Ge	-12.0818
Appear	-12.082
▁plank	-12.0821
▁tuned	-12.0822
▁pricked	-12.0826
▁weighs	-12.0826
▁methought	-12.0833
▁practised	-12.0837
▁sabre	-12.0838
▁Bráhman	-12.0838
▁cowslip	-12.0838
▁shuddered	-12.0839
▁quits	-12.0839
▁sedge	-12.084
▁moonbeam	-12.0841
az	-12.0843
Nearer	-12.0846
▁throned	-12.0847
Grace	-12.0848
▁Ambition	-12.0849
▁propose	-12.0849
▁ramble	-12.0849
chen	-12.0849
Wisdom	-12.0852
▁Hi	-12.0852
▁reeled	-12.0853
▁Cur	-12.0854
storm	-12.0854
blade	-12.0855
▁tended	-12.0855
▁bags	-12.0858
rod	-12.0861
▁fiddler	-12.0865
▁achieved	-12.0867
▁pawn	-12.0867
▁cowslips	-12.0868
AND	-12.0871
▁Both	-12.0871
lid	-12.0871
▁drags	-12.0879
▁Every	-12.088
▁stretches	-12.0881
▁shooting	-12.0881
▁obeys	-12.0881
▁teaching	-12.0882
ild	-12.0882
▁Papa	-12.0884
Eat	-12.0887
teen	-12.0888
▁enrich	-12.0889
▁fringed	-12.0893
Eye	-12.0894
Listening	-12.0895
▁quicker	-12.0895
▁Fool	-12.0896
▁loathed	-12.0898
▁Ab	-12.0898
▁squires	-12.0899
▁import	-12.0905
Hell	-12.0906
gre	-12.0906
Flew	-12.0906
▁fervid	-12.0906
▁merriment	-12.0906
▁simplicity	-12.0906
▁sojourn	-12.0906
▁turban	-12.0906
▁harlot	-12.0906
▁sprout	-12.0906
▁stanza	-12.0906
▁renounce	-12.0906
▁apply	-12.0906
▁Canada	-12.0906
Slain	-12.0906
sailing	-12.0907
▁snore	-12.0907
Brief	-12.0907
▁repentance	-12.0907
▁unbidden	-12.0907
Dying	-12.0907
▁History	-12.0908
Flung	-12.0908
▁preside	-12.0908
▁banishment	-12.0908
▁crowning	-12.0908
▁victories	-12.0909
▁Norway	-12.091
▁Balen	-12.091
Died	-12.0915
▁priceless	-12.0917
▁needless	-12.0918
▁Dankwart	-12.092
▁Molly	-12.0923
Melt	-12.0924
▁trill	-12.0925
Trail	-12.0927
▁bulwarks	-12.0927
▁chi	-12.0927
▁wordes	-12.0927
▁ravished	-12.0933
▁carefully	-12.0933
▁gout	-12.0936
seat	-12.094
▁crouch	-12.094
▁whelm	-12.0942
wide	-12.0944
▁stump	-12.0946
▁barrier	-12.0947
▁accent	-12.0947
ros	-12.0947
bber	-12.0948
▁flea	-12.0948
▁chicken	-12.0949
▁puzzled	-12.0951
▁chasm	-12.0951
▁Jock	-12.0951
▁clo	-12.0954
cin	-12.0956
weary	-12.0956
mad	-12.0959
▁Cape	-12.0961
▁vapors	-12.0965
lived	-12.0969
ope	-12.097
▁Save	-12.0971
▁Che	-12.0971
▁kite	-12.0974
Sug	-12.0974
▁yeh	-12.0975
▁Sh	-12.0977
▁healed	-12.0977
boys	-12.0979
▁surveyed	-12.0979
▁soiled	-12.0982
▁Happy	-12.0982
▁batter	-12.0983
got	-12.0983
Shake	-12.0985
ours	-12.0987
▁yearly	-12.0987
▁Came	-12.0987
▁thane	-12.0987
▁spak	-12.0995
▁pillows	-12.0995
▁Act	-12.0999
▁Alban	-12.1005
pale	-12.1005
Shows	-12.1005
▁gradual	-12.1006
▁m	-12.1007
▁races	-12.101
▁feare	-12.1013
▁pavilion	-12.1014
Themselves	-12.1014
▁curving	-12.1014
▁bundle	-12.1014
▁pump	-12.1014
▁scout	-12.1014
▁climate	-12.1014
▁carcase	-12.1014
▁Crete	-12.1014
▁easier	-12.1014
Awhile	-12.1015
▁acquaintance	-12.1016
Naked	-12.1016
▁bucket	-12.1018
▁enraptured	-12.102
▁plash	-12.102
Wrapped	-12.1021
▁bob	-12.1021
▁pry	-12.1023
▁purchased	-12.1023
spread	-12.1024
▁marshes	-12.1024
Shed	-12.1028
fin	-12.1029
Wandering	-12.103
uf	-12.103
▁extremes	-12.103
▁sally	-12.1031
▁worthier	-12.1033
).	-12.1033
▁Astolpho	-12.1034
▁Andrew	-12.1034
▁mite	-12.1036
uen	-12.1037
pping	-12.1038
▁corpses	-12.1038
▁prisoners	-12.1038
ders	-12.1039
▁cleanse	-12.104
▁Iron	-12.104
▁toad	-12.1041
▁surrounding	-12.1042
▁rhythm	-12.1046
Backward	-12.1047
▁Godhead	-12.1047
lent	-12.1047
▁brawl	-12.1048
▁lorn	-12.105
gleam	-12.1052
▁braver	-12.1052
Wish	-12.1054
▁affrighted	-12.1055
▁elbow	-12.1055
▁tulip	-12.1056
▁swarming	-12.1058
rap	-12.1062
▁moaned	-12.1063
▁Tim	-12.1063
▁events	-12.1065
▁Work	-12.1066
People	-12.1068
should	-12.1068
▁sen	-12.1074
▁foundations	-12.1074
▁abhor	-12.1074
▁brae	-12.1074
Bears	-12.1074
▁crested	-12.1075
▁speeding	-12.1078
sheet	-12.1079
▁truer	-12.1081
▁required	-12.1081
▁humblest	-12.1083
TO	-12.1083
minded	-12.1088
▁wares	-12.1089
rig	-12.1089
Heigh	-12.109
▁revealing	-12.109
Wander	-12.1092
▁cradled	-12.1094
▁Van	-12.1099
cate	-12.1104
▁pebble	-12.1105
▁noises	-12.1106
▁dough	-12.1111
▁Ty	-12.1114
▁barter	-12.1114
▁slighted	-12.1115
Ja	-12.1117
▁Ru	-12.1119
mber	-12.1119
▁stocks	-12.1119
lim	-12.1121
▁(_	-12.1122
▁august	-12.1122
▁conversation	-12.1122
▁luxurious	-12.1122
▁Circe	-12.1122
▁gossamer	-12.1122
▁Florence	-12.1122
▁Another	-12.1122
▁mazy	-12.1122
bby	-12.1123
▁bullock	-12.1123
▁verily	-12.1123
▁China	-12.1123
▁ither	-12.1123
▁peering	-12.1123
▁panther	-12.1123
▁solemnly	-12.1124
▁cupboard	-12.1124
▁Swift	-12.1126
Smote	-12.1126
▁everybody	-12.1126
▁Mon	-12.1127
▁deftly	-12.1128
▁womanhood	-12.1128
▁unlock	-12.1128
▁tripping	-12.1128
▁Adonis	-12.1129
Prove	-12.113
▁whatsoe	-12.1131
▁admiring	-12.1131
LY	-12.1133
▁maddening	-12.1133
▁maddened	-12.1134
▁foresee	-12.1135
og	-12.1135
▁Rodomont	-12.1137
▁entering	-12.1138
ana	-12.1141
▁Wise	-12.1141
gold	-12.1142
glo	-12.1142
▁scarred	-12.1143
▁shapeless	-12.1144
▁finally	-12.1144
▁brooklet	-12.1144
▁bats	-12.1147
Abide	-12.1149
▁Human	-12.115
▁Allah	-12.115
▁hack	-12.1152
▁firelight	-12.1153
times	-12.1154
▁muses	-12.1155
▁beck	-12.1155
yde	-12.1157
▁hoarded	-12.1162
Woo	-12.1164
▁Maud	-12.1164
▁sud	-12.1166
▁furrowed	-12.1166
▁whiten	-12.1168
gging	-12.1169
▁laboured	-12.117
▁promises	-12.1171
Paint	-12.1171
▁attained	-12.1175
Rinaldo	-12.1178
oke	-12.1181
▁odor	-12.1181
▁Brownies	-12.1182
whose	-12.1183
▁paler	-12.1184
Known	-12.1184
▁lightsome	-12.1184
▁center	-12.1185
▁trifles	-12.1187
▁mint	-12.1187
▁splash	-12.1194
▁refresh	-12.1196
shell	-12.1197
aps	-12.1199
ben	-12.1205
▁vol	-12.1207
▁stagger	-12.1207
▁cords	-12.1208
▁strands	-12.1213
▁liege	-12.1213
▁destin	-12.1213
gates	-12.1214
days	-12.1217
▁stint	-12.1222
verse	-12.1227
▁GAMA	-12.1232
▁entrails	-12.1232
▁luscious	-12.1232
▁philosopher	-12.1232
▁staunch	-12.1232
▁regular	-12.1232
▁Lycian	-12.1232
▁compact	-12.1232
▁lumber	-12.1232
▁entice	-12.1233
▁gallery	-12.1233
▁invest	-12.1233
rra	-12.1234
Triumphant	-12.1236
▁rye	-12.1236
▁wagon	-12.1238
▁dunce	-12.1238
pass	-12.1238
▁gusty	-12.1244
▁thanked	-12.1244
tee	-12.1244
▁clip	-12.1246
▁fretted	-12.1246
▁dazed	-12.1247
Que	-12.1247
Flies	-12.1247
Frail	-12.1249
ING	-12.125
▁sparkled	-12.1251
Tender	-12.1251
▁treasured	-12.1251
▁stockings	-12.1252
▁Duty	-12.1252
pu	-12.1253
▁clustered	-12.1255
▁germ	-12.1256
rang	-12.1256
ko	-12.1258
Scorn	-12.1265
▁footing	-12.1266
▁condemned	-12.1267
tips	-12.1272
▁undertake	-12.1272
comb	-12.1273
▁fretful	-12.1274
cca	-12.1276
▁daffodil	-12.128
▁renews	-12.1282
bone	-12.1285
▁capture	-12.1287
Sublime	-12.1287
▁lulled	-12.1288
▁sed	-12.1288
bal	-12.1289
▁redress	-12.1289
Troy	-12.129
▁ru	-12.1291
▁Much	-12.1291
ock	-12.1292
▁Grey	-12.1293
▁clothing	-12.1293
Way	-12.1293
▁strewed	-12.1293
Gi	-12.1294
Alack	-12.1296
▁Present	-12.1298
▁landed	-12.1298
▁ti	-12.13
Parent	-12.1303
▁fowls	-12.1304
hy	-12.1306
_)¬	-12.1307
▁lungs	-12.1309
Murmur	-12.1309
▁constrain	-12.1312
Worthy	-12.1314
lot	-12.1316
▁steered	-12.1318
▁Shame	-12.132
Tells	-12.132
▁Cl	-12.132
▁akin	-12.1321
▁barefoot	-12.1322
▁Around	-12.1323
▁Lay	-12.1324
▁clink	-12.1327
▁scowl	-12.1327
▁button	-12.1328
▁Meg	-12.1329
Armed	-12.1331
▁visited	-12.1333
▁fry	-12.1333
bly	-12.134
▁churl	-12.1342
▁Scotch	-12.1343
▁labyrinth	-12.1343
Obedient	-12.1343
▁Rákshas	-12.1343
▁jungle	-12.1343
▁remedy	-12.1343
▁unearthly	-12.1343
▁uniform	-12.1343
▁Merlin	-12.1343
▁beans	-12.1343
▁Reader	-12.1344
▁Hath	-12.1345
▁shuttle	-12.1345
▁zealous	-12.1346
▁jarring	-12.1346
▁ende	-12.1348
▁TO	-12.135
▁espy	-12.135
▁Friar	-12.1351
▁pra	-12.1352
▁wallow	-12.1352
▁invent	-12.1352
▁eventide	-12.1355
▁uplift	-12.1358
▁mortality	-12.1358
▁thankless	-12.1358
▁craves	-12.1361
ique	-12.1364
▁fiercest	-12.1366
Whole	-12.1367
aeus	-12.1367
cro	-12.1367
Waves	-12.1368
Daily	-12.1369
▁bidden	-12.1369
▁heartless	-12.1371
▁hoot	-12.1371
▁Com	-12.138
▁stares	-12.1381
▁procure	-12.1382
Poured	-12.1385
Wound	-12.1385
▁cub	-12.1386
Sole	-12.1387
▁thwart	-12.139
▁vapor	-12.1393
▁binding	-12.1395
bid	-12.1395
▁barge	-12.1398
▁surest	-12.14
fowl	-12.1402
clo	-12.1402
▁presses	-12.1403
little	-12.1403
ride	-12.1404
▁Huns	-12.1405
▁kinds	-12.1407
▁owls	-12.1407
▁tease	-12.1408
ners	-12.1409
▁chanting	-12.1413
case	-12.1414
▁cra	-12.1415
oth	-12.1415
▁peopled	-12.1415
Passing	-12.1417
RA	-12.1417
▁ministers	-12.142
▁doze	-12.1421
▁dawned	-12.1422
▁sending	-12.1424
▁tub	-12.1429
live	-12.1433
▁inspir	-12.1437
▁reapers	-12.1438
▁arrest	-12.1439
▁stept	-12.1441
▁Tro	-12.1442
stain	-12.1443
▁ag	-12.1445
Wrap	-12.1448
▁spectres	-12.1448
▁discreet	-12.1448
Charm	-12.1449
gal	-12.145
▁sketch	-12.1451
▁diverse	-12.1454
▁glut	-12.1455
▁rebellious	-12.1456
▁disastrous	-12.1456
▁sensual	-12.1456
▁ultimate	-12.1456
▁voluptuous	-12.1456
▁forbade	-12.1456
▁morsel	-12.1456
▁exultant	-12.1456
▁charioteer	-12.1456
▁devious	-12.1456
▁matted	-12.1457
▁oftentimes	-12.1457
▁physician	-12.1457
▁philosophy	-12.1458
lis	-12.1459
▁gape	-12.1459
▁sightless	-12.1459
▁dock	-12.1459
▁accurst	-12.146
Tom	-12.146
▁bake	-12.146
▁Oxford	-12.1461
▁witchery	-12.1464
Regard	-12.1465
▁Mabel	-12.1466
▁eddying	-12.1467
▁chew	-12.1467
▁prov	-12.1468
▁imitate	-12.1469
▁daybreak	-12.1469
▁chronicle	-12.1469
▁stove	-12.147
▁Loue	-12.1471
hal	-12.1471
Whisper	-12.1473
▁Mass	-12.1475
▁enduring	-12.1475
HE	-12.1475
▁nodded	-12.1477
▁gainst	-12.1477
▁flu	-12.1478
▁gru	-12.1478
▁extra	-12.1478
▁lecture	-12.148
▁preserved	-12.1482
teth	-12.1483
▁neatly	-12.1486
Quickly	-12.1487
▁avow	-12.1488
▁lank	-12.1488
▁Whence	-12.1489
Tired	-12.149
▁quickened	-12.1491
▁powerless	-12.1492
comp	-12.1493
▁scr	-12.1493
▁shaw	-12.1495
Wonder	-12.1497
▁San	-12.1497
▁tra	-12.1497
Drive	-12.1501
▁auspicious	-12.1502
thee	-12.1505
▁illusion	-12.1508
▁hinges	-12.1511
Wit	-12.1512
ino	-12.1514
▁Oft	-12.1514
je	-12.1515
Thunder	-12.1516
Rome	-12.1517
▁console	-12.1518
loving	-12.1522
Lived	-12.1523
bury	-12.1523
Thyself	-12.1524
▁HE	-12.1524
Moon	-12.1527
▁slumbered	-12.1528
▁casting	-12.1528
note	-12.1528
▁Arm	-12.1532
▁dealing	-12.1535
Approach	-12.1535
▁slant	-12.1536
▁understands	-12.1537
▁glens	-12.1538
Remembering	-12.1542
neth	-12.1544
▁Poets	-12.1546
▁map	-12.1548
▁Close	-12.1548
▁Speak	-12.1548
Blessed	-12.1549
▁Forest	-12.1549
▁Beautiful	-12.1549
Holy	-12.1551
▁winters	-12.1552
▁bawl	-12.1553
▁spine	-12.1556
▁surveys	-12.156
▁Vale	-12.1561
Depart	-12.1563
▁leaven	-12.1566
▁Yarrow	-12.1569
▁embattled	-12.1569
▁paternal	-12.1569
▁unwonted	-12.1569
▁exhale	-12.1569
▁casual	-12.1569
▁dubious	-12.1569
▁midsummer	-12.1569
▁imagination	-12.1569
Bidding	-12.157
▁Therefore	-12.157
▁Gothic	-12.157
▁rely	-12.1571
▁senate	-12.1571
bat	-12.1572
▁theatre	-12.1573
▁Frederick	-12.1573
Despite	-12.1573
Fills	-12.1573
▁axle	-12.1574
▁succession	-12.1575
Knock	-12.1575
▁flowerets	-12.1575
▁saft	-12.1577
▁euery	-12.1578
▁Square	-12.1581
▁famished	-12.1582
▁plod	-12.1582
▁stool	-12.1584
Wail	-12.1584
▁Matilda	-12.1585
brow	-12.1586
▁shoals	-12.1588
▁repel	-12.1588
lac	-12.1589
▁Beside	-12.1591
rain	-12.1591
▁keenest	-12.1598
Strip	-12.16
get	-12.16
▁raising	-12.1602
▁dollars	-12.1602
Lock	-12.1603
▁differ	-12.1605
sive	-12.1606
▁multitudes	-12.1607
rim	-12.1612
▁prepar	-12.1616
▁Snow	-12.1622
Cor	-12.1624
Air	-12.1625
▁tendrils	-12.1625
▁efface	-12.1627
▁defiled	-12.1627
▁beetle	-12.1628
View	-12.1629
Power	-12.163
▁Dust	-12.163
▁authors	-12.1632
▁bumper	-12.1633
mini	-12.1634
might	-12.1636
hoo	-12.1639
▁gits	-12.1639
Wid	-12.1642
▁Dee	-12.1643
▁pint	-12.1646
▁disperse	-12.1647
▁Cre	-12.1647
Snatch	-12.1648
apple	-12.1649
▁chills	-12.1651
▁ravine	-12.1652
Climb	-12.1652
yse	-12.1654
rance	-12.1655
▁Ex	-12.1662
▁consumed	-12.1663
▁pas	-12.1666
▁Keep	-12.1666
▁fi	-12.1667
joy	-12.1669
▁survives	-12.167
▁rogues	-12.1671
▁Thetis	-12.1672
▁earl	-12.1674
▁Cloud	-12.1675
toe	-12.168
▁doubted	-12.1682
▁discuss	-12.1682
▁strut	-12.1683
▁observed	-12.1684
▁rafters	-12.1684
▁illume	-12.1684
Protect	-12.1684
Impatient	-12.1684
▁Solomon	-12.1684
▁benediction	-12.1684
▁gipsy	-12.1684
▁leopard	-12.1684
Disturb	-12.1684
▁roundelay	-12.1684
▁turkey	-12.1684
▁minster	-12.1684
▁liddle	-12.1684
▁tiptoe	-12.1685
▁relish	-12.1685
▁Cymrian	-12.1685
▁primeval	-12.1685
▁rotting	-12.1686
▁grinning	-12.1686
▁loyalty	-12.1686
▁morals	-12.1686
▁murky	-12.1687
▁cobbler	-12.1687
Dancing	-12.1687
▁shark	-12.1687
▁Daphnis	-12.1688
▁arched	-12.1688
▁Babel	-12.1688
▁northward	-12.1688
▁kindles	-12.1691
▁exhausted	-12.1691
▁molest	-12.1693
ua	-12.1693
▁shrewd	-12.1694
▁Parson	-12.1694
▁decided	-12.1695
▁cla	-12.1696
Lend	-12.1697
cept	-12.1698
▁clasping	-12.1699
▁rivals	-12.1699
▁gash	-12.1699
▁reels	-12.1701
▁kerchief	-12.1701
break	-12.1702
▁questioning	-12.1702
▁Hard	-12.1704
fam	-12.1704
▁sobbed	-12.1706
Descend	-12.1707
▁dan	-12.1708
ura	-12.1708
▁Bank	-12.1711
Pat	-12.1711
▁sav	-12.1712
▁trails	-12.1713
▁flanks	-12.1714
▁Ve	-12.1715
▁launched	-12.1715
Front	-12.1717
▁sty	-12.1717
Forbear	-12.1718
▁fav	-12.1718
▁vestal	-12.172
▁Half	-12.1723
▁whin	-12.1724
▁exceed	-12.1725
▁shocks	-12.1725
VIII	-12.1727
▁roe	-12.1728
NE	-12.1729
▁suggest	-12.1729
▁Turn	-12.1729
▁withheld	-12.1737
▁darting	-12.1739
▁animal	-12.1742
making	-12.1748
bie	-12.1749
une	-12.175
Hu	-12.1752
▁streaks	-12.1754
Divine	-12.1758
Shape	-12.1761
▁mills	-12.1761
pur	-12.1765
▁weaver	-12.1765
Runs	-12.1766
▁dote	-12.1769
▁py	-12.177
oli	-12.1772
phon	-12.1773
tween	-12.1773
▁evere	-12.1773
▁favouring	-12.1773
cell	-12.1774
▁avails	-12.1775
▁instruct	-12.1779
▁gloves	-12.1783
lk	-12.1784
▁fumes	-12.1784
Mock	-12.1786
Delight	-12.1788
len	-12.1788
▁Sign	-12.179
▁plane	-12.179
dream	-12.1791
▁ideas	-12.1792
chain	-12.1792
Pi	-12.1794
▁stilly	-12.1795
master	-12.1798
▁inhabit	-12.18
Shrink	-12.18
▁Sigurd	-12.18
▁dolorous	-12.18
▁unavailing	-12.18
▁stagnant	-12.1801
▁Charlie	-12.1801
▁sanction	-12.1801
▁volley	-12.1801
▁emerge	-12.1801
▁Tweed	-12.1801
▁moisture	-12.1801
▁plaster	-12.1801
▁welkin	-12.1801
▁unblest	-12.1802
▁muddy	-12.1802
▁click	-12.1802
▁raid	-12.1802
▁bacon	-12.1802
▁recent	-12.1802
▁declares	-12.1802
▁drave	-12.1803
▁loins	-12.1803
▁Monday	-12.1803
▁pension	-12.1803
▁moonshine	-12.1805
▁increasing	-12.1805
Bird	-12.1807
_)	-12.1807
▁pathos	-12.1807
▁lures	-12.1808
_."¬	-12.1808
▁impassioned	-12.1808
▁petition	-12.1811
▁miracles	-12.1813
▁Giant	-12.1814
▁unnumbered	-12.1814
▁girlish	-12.1814
▁farre	-12.1816
▁preferred	-12.1816
▁Sappho	-12.1818
lark	-12.1818
▁colored	-12.1818
▁ferry	-12.1819
▁Eagle	-12.1819
Forgetting	-12.182
pole	-12.1824
▁Victory	-12.1825
▁gasping	-12.1826
▁blackened	-12.1826
▁learns	-12.1829
▁lengthening	-12.1829
▁Marie	-12.1829
breath	-12.183
▁spat	-12.1833
▁quickening	-12.1835
▁tends	-12.1836
▁LOVE	-12.1838
dark	-12.1841
▁Fish	-12.1841
▁marches	-12.1843
▁clashing	-12.1844
▁reckoned	-12.1844
▁outworn	-12.1848
▁illumined	-12.1848
▁tastes	-12.1849
▁beckons	-12.1851
flow	-12.1852
▁darted	-12.1854
▁retires	-12.1855
Sweep	-12.1856
▁knocks	-12.1859
▁churches	-12.186
aving	-12.1862
▁flamed	-12.1864
Ambition	-12.1864
Reason	-12.1864
Achilles	-12.1864
first	-12.1864
Cupid	-12.1864
▁gulls	-12.1865
Eight	-12.1865
stroke	-12.1865
▁wean	-12.1866
▁Arch	-12.1869
▁mournfully	-12.187
▁gaz	-12.187
▁Call	-12.1874
ama	-12.1874
mouthed	-12.1874
▁acorn	-12.1875
Cur	-12.1876
▁dissolve	-12.1877
▁teaches	-12.1878
▁Cro	-12.1878
fast	-12.1879
▁throngs	-12.1881
▁hastening	-12.1883
Dearest	-12.1893
▁smoothly	-12.1894
▁blackest	-12.1895
▁stitch	-12.1896
▁Set	-12.1899
▁snort	-12.1902
▁thump	-12.1902
▁foundation	-12.1907
cart	-12.191
▁partly	-12.1911
▁quivers	-12.1912
▁greeted	-12.1912
has	-12.1913
▁surpass	-12.1913
Destroy	-12.1918
WAKE	-12.1918
▁abundant	-12.1918
▁capital	-12.1918
▁circus	-12.1918
▁petticoat	-12.1918
▁pinnacle	-12.1918
▁succor	-12.1918
▁transparent	-12.1918
▁unholy	-12.1918
▁flask	-12.1918
▁fortunate	-12.1918
▁permission	-12.1918
▁unerring	-12.1918
▁abiding	-12.1918
▁hurrah	-12.1918
▁violent	-12.1918
▁redoubt	-12.1918
▁flail	-12.1918
▁Qui	-12.1919
▁casket	-12.1919
▁Iris	-12.1919
▁Olympian	-12.192
▁sodden	-12.192
▁unsought	-12.192
▁trickling	-12.1921
▁skylark	-12.1923
▁bloodless	-12.1923
▁whoso	-12.1923
Tu	-12.1926
ain	-12.1926
▁honie	-12.1928
▁distracted	-12.1931
▁Madam	-12.1931
▁twigs	-12.1935
▁beckoned	-12.1935
▁quire	-12.1936
▁jay	-12.1936
▁crouched	-12.1937
▁passive	-12.1937
Strength	-12.1942
fal	-12.1943
▁Frost	-12.1945
Keeps	-12.1945
▁rulers	-12.1948
Fixed	-12.1948
▁soap	-12.1948
▁swarms	-12.1949
▁Blest	-12.1952
▁rejoiced	-12.1955
▁Evil	-12.1956
▁cal	-12.1958
lighted	-12.196
▁tigers	-12.1964
Bend	-12.1966
▁Years	-12.1971
▁quarrels	-12.1971
Days	-12.1973
▁blamed	-12.1975
▁startle	-12.1979
▁Speech	-12.1981
▁Lar	-12.1982
House	-12.1988
Shadows	-12.1989
▁directs	-12.1992
washed	-12.1994
▁Bráhmans	-12.1994
▁pike	-12.1996
vit	-12.1998
▁Ku	-12.1998
warm	-12.1999
▁pranks	-12.2005
▁ranges	-12.2006
Pan	-12.2009
late	-12.2011
▁inflame	-12.2016
▁thickly	-12.202
LL	-12.2022
▁nam	-12.2023
Betray	-12.2023
▁affords	-12.2024
▁h	-12.2025
▁helps	-12.2025
▁prophets	-12.2026
▁Sol	-12.2026
▁ance	-12.2026
▁dewdrops	-12.2027
▁resounds	-12.2027
Mount	-12.2034
▁rap	-12.2036
▁retrace	-12.2037
▁almighty	-12.2037
▁avarice	-12.2037
▁circuit	-12.2037
▁constancy	-12.2037
▁sympathetic	-12.2037
▁drowse	-12.2037
▁hulk	-12.2037
▁unused	-12.2037
▁skiff	-12.2037
eng	-12.2037
▁garret	-12.2038
▁thunderbolt	-12.2038
▁fayre	-12.2039
▁invention	-12.204
▁cu	-12.204
▁satire	-12.204
Moving	-12.204
▁panic	-12.2041
▁Charlemagne	-12.2041
▁Alone	-12.2042
▁America	-12.2044
▁herbage	-12.2045
!_"¬	-12.2046
▁ruling	-12.2046
▁Eye	-12.2046
▁Dryden	-12.2047
▁keeper	-12.2047
ban	-12.2047
Confess	-12.2048
▁strown	-12.2048
blind	-12.2049
▁debtor	-12.2051
▁barrel	-12.2052
▁neared	-12.2053
▁GOD	-12.2055
▁Says	-12.2055
Preserve	-12.2057
▁confer	-12.2057
▁slimy	-12.2057
▁Brook	-12.2058
▁chaunt	-12.2058
Floating	-12.206
▁poplars	-12.206
jist	-12.2062
lily	-12.2065
▁caps	-12.2065
berg	-12.2066
▁prevails	-12.2066
▁loitering	-12.2066
giving	-12.2067
▁barber	-12.2067
Honey	-12.2069
▁counting	-12.2071
Bri	-12.2071
Laughed	-12.2072
▁weedy	-12.2072
▁riders	-12.2074
dies	-12.2078
▁windless	-12.2079
▁leal	-12.2079
▁delve	-12.208
▁noses	-12.2082
make	-12.2082
seen	-12.2087
▁hails	-12.2087
▁taunt	-12.2088
▁ladye	-12.2089
▁Lip	-12.2089
▁kicked	-12.2091
Tear	-12.2093
▁steaming	-12.2095
▁knocking	-12.21
▁behave	-12.21
lde	-12.2102
▁doctrine	-12.2103
nel	-12.2104
▁Dad	-12.2104
eight	-12.2104
▁rampart	-12.2104
shut	-12.2105
▁crushing	-12.2107
▁plots	-12.2107
▁lashed	-12.2113
▁pauses	-12.2113
▁mazes	-12.2113
ust	-12.2116
hued	-12.2116
▁Grave	-12.2121
▁shoo	-12.2123
Clad	-12.2124
road	-12.2126
Burns	-12.2127
▁seemeth	-12.2129
Playing	-12.2129
▁Nan	-12.2129
maker	-12.2133
Whoever	-12.2134
Pick	-12.2136
roo	-12.2137
Sur	-12.2139
▁exult	-12.2139
▁confirm	-12.214
▁prowl	-12.2141
zon	-12.2141
Fallen	-12.2143
▁therewithal	-12.2143
▁chop	-12.2144
▁gran	-12.2145
bear	-12.2146
ounds	-12.2146
Sic	-12.215
Nigh	-12.2153
Serene	-12.2154
▁rightful	-12.2156
▁states	-12.2157
▁hearse	-12.2157
▁sulphur	-12.2157
▁Honor	-12.2157
▁Arcady	-12.2158
▁Gilpin	-12.2158
▁Parliament	-12.2158
▁babbling	-12.2158
▁maternal	-12.2158
▁paladin	-12.2158
▁timorous	-12.2158
▁reptile	-12.2158
▁emprise	-12.2158
▁Venice	-12.2158
▁proverb	-12.2158
▁extent	-12.2158
▁humility	-12.2158
▁recite	-12.2158
▁naething	-12.2158
▁diet	-12.2158
▁daddy	-12.2158
▁pitied	-12.2158
▁member	-12.2158
▁jerk	-12.2158
▁selves	-12.2158
▁swart	-12.2159
▁cruell	-12.216
▁alert	-12.216
▁desk	-12.2161
▁uproar	-12.2161
Worn	-12.2162
▁warld	-12.2163
Ta	-12.2164
▁Johnson	-12.2164
▁smouldering	-12.2165
table	-12.2165
▁blacken	-12.2165
▁reposed	-12.2166
▁Gryphon	-12.2168
▁revolve	-12.2169
▁visits	-12.2169
▁flutters	-12.2169
▁Tears	-12.2169
▁Nancy	-12.2171
Moves	-12.2172
"¬"	-12.2172
▁collected	-12.2175
▁lied	-12.2176
▁Roses	-12.2176
▁woolly	-12.2177
Strew	-12.2179
▁helping	-12.218
Fearless	-12.2183
▁Battle	-12.2183
▁tackle	-12.2186
▁furl	-12.2189
▁parties	-12.2189
Sighs	-12.2189
liv	-12.219
▁loathing	-12.2192
▁beckon	-12.2194
▁huts	-12.2195
▁ruffled	-12.2196
▁heigh	-12.2198
▁pealing	-12.2199
▁Princess	-12.22
▁heated	-12.2201
▁chum	-12.2203
Lips	-12.2203
dress	-12.2203
▁Scots	-12.2204
erspread	-12.2206
▁preaching	-12.2207
Forgot	-12.2209
▁politics	-12.2211
▁Bre	-12.2211
▁freemen	-12.2212
▁crickets	-12.2214
pel	-12.2218
Tick	-12.2219
▁ravening	-12.2221
ona	-12.2221
▁vouchsafe	-12.2222
▁caressing	-12.2223
▁che	-12.2224
nies	-12.2227
▁affair	-12.2228
▁ka	-12.2229
▁whiskers	-12.223
▁commanded	-12.2231
▁lamented	-12.2233
▁pate	-12.2234
▁inspiring	-12.2237
▁thinkin	-12.2242
key	-12.2242
▁runne	-12.2247
▁equally	-12.2251
▁contains	-12.2254
▁sips	-12.2257
▁pr	-12.2258
Rouse	-12.2259
▁biting	-12.2259
spring	-12.226
ien	-12.2262
▁twirl	-12.2262
▁elect	-12.2262
III	-12.2263
ita	-12.2265
▁Nymphs	-12.2266
▁hastens	-12.2271
Clo	-12.2271
Want	-12.2272
▁Hate	-12.2273
▁wrest	-12.2273
▁collect	-12.2274
▁savour	-12.2274
▁sans	-12.2275
Linger	-12.2277
▁wrapp	-12.2279
▁intellect	-12.2279
▁Jupiter	-12.228
▁contemplation	-12.228
▁frenzied	-12.228
▁maxim	-12.228
▁poesy	-12.228
▁copious	-12.228
▁joust	-12.228
Hidden	-12.228
▁confident	-12.228
▁admiration	-12.228
Dropped	-12.2281
▁Sicilian	-12.2281
▁untrodden	-12.2281
▁portent	-12.2281
▁resentment	-12.2281
▁holiness	-12.2281
leaved	-12.2281
Dart	-12.2282
▁eerie	-12.2282
▁untaught	-12.2282
Heave	-12.2283
▁knighthood	-12.2284
yea	-12.2285
▁Saturday	-12.2285
▁rewards	-12.2286
▁peered	-12.2287
▁bespoke	-12.2287
▁unclean	-12.2288
▁caper	-12.2288
▁quay	-12.2291
▁solve	-12.2291
▁Valley	-12.2292
▁bellowing	-12.2294
Flashed	-12.2294
▁Widow	-12.2294
ash	-12.2294
▁thereat	-12.2296
Telling	-12.2297
▁complaints	-12.2297
VE	-12.2297
Shoot	-12.2297
▁Ran	-12.2297
▁rails	-12.2297
mill	-12.2298
mat	-12.2298
pet	-12.2298
▁thru	-12.23
▁perplexed	-12.2307
▁assigned	-12.2309
▁hardened	-12.2309
▁fastened	-12.2309
▁rained	-12.2311
▁fang	-12.2311
Cloud	-12.2311
▁scorched	-12.2311
▁proffered	-12.2311
IS	-12.2314
▁shameless	-12.2315
▁dainties	-12.2318
▁haul	-12.2318
▁fashions	-12.2318
half	-12.2319
▁Und	-12.232
▁hoo	-12.2326
gon	-12.2326
▁footprints	-12.2327
▁hundreds	-12.2331
▁wheeled	-12.2332
ask	-12.2332
▁loveless	-12.2334
taught	-12.2338
▁scrap	-12.2338
▁ports	-12.2339
▁Things	-12.234
▁bon	-12.234
Quiet	-12.2342
▁suffers	-12.2345
▁Storm	-12.2345
▁excite	-12.2345
rl	-12.2347
▁rabbits	-12.2347
Courage	-12.2348
Flood	-12.2349
Wealth	-12.2349
Merry	-12.2349
Goddess	-12.2349
fellow	-12.2349
▁cigar	-12.2351
▁hyacinth	-12.2351
▁commence	-12.2351
▁Burgundian	-12.2351
▁crossing	-12.2352
▁sufferings	-12.2354
▁outrage	-12.2354
▁hardest	-12.2359
▁aspen	-12.2363
▁unde	-12.2364
▁Silver	-12.2366
▁Island	-12.2366
Floats	-12.2368
▁thumbs	-12.237
▁peas	-12.2371
sun	-12.2373
▁crests	-12.2375
▁victors	-12.2376
Springs	-12.2382
Prepare	-12.2383
▁thund	-12.2383
▁Along	-12.2384
▁Thing	-12.2384
▁whoop	-12.2386
▁unc	-12.2389
▁physic	-12.239
Wine	-12.239
▁Han	-12.2391
▁Roy	-12.2394
▁Guide	-12.2397
▁pleases	-12.2398
soul	-12.24
Hate	-12.2401
Companion	-12.2403
Rejoicing	-12.2403
▁crucified	-12.2403
▁dedicate	-12.2403
▁nephew	-12.2403
▁requiem	-12.2403
▁responsive	-12.2403
▁drouth	-12.2403
▁assurance	-12.2403
▁Admiral	-12.2403
▁result	-12.2403
▁defect	-12.2404
▁urgent	-12.2404
▁miseries	-12.2405
Direct	-12.2405
ola	-12.2406
▁gent	-12.2407
▁sapling	-12.2409
▁impending	-12.2409
▁expands	-12.2409
▁Gawaine	-12.241
▁Bring	-12.2411
▁Infant	-12.2411
▁dimples	-12.2413
▁opposed	-12.2413
list	-12.2413
cloth	-12.2417
▁abides	-12.2417
▁ridden	-12.2417
ull	-12.2418
wit	-12.2419
▁dre	-12.242
▁believing	-12.242
▁Aeneas	-12.242
▁bur	-12.2423
▁cumber	-12.2424
ida	-12.2425
Therewith	-12.2427
▁mastery	-12.2428
▁atom	-12.2431
lined	-12.2431
▁liver	-12.2431
▁Dean	-12.2435
Fool	-12.2436
▁lengthened	-12.2436
▁bothe	-12.2436
▁Scott	-12.2437
Aloft	-12.2439
race	-12.2439
▁Kingdom	-12.2441
▁confounded	-12.2442
▁spices	-12.2442
▁shin	-12.2443
Lifts	-12.2443
gli	-12.2444
▁faltered	-12.2447
▁reckoning	-12.2448
;--¬"	-12.245
▁glared	-12.245
▁Flo	-12.2453
▁Better	-12.2453
▁Form	-12.2455
Fight	-12.246
▁sentry	-12.2469
▁bree	-12.2469
▁Ke	-12.2469
▁handmaid	-12.2471
▁pew	-12.2473
WHEN	-12.2473
▁whitest	-12.2473
Health	-12.2474
Ven	-12.2475
▁chimneys	-12.2476
▁curves	-12.2477
score	-12.2478
Hushed	-12.2478
thin	-12.2479
rai	-12.2481
▁folding	-12.2483
Due	-12.2485
▁ridges	-12.249
six	-12.2493
▁bewilder	-12.2494
▁Ban	-12.2494
itie	-12.2495
▁sharply	-12.2495
Pay	-12.2498
▁splendours	-12.2499
Stir	-12.25
Toil	-12.25
nal	-12.2501
ero	-12.2503
▁crumbs	-12.2504
▁silv	-12.2505
Voices	-12.2507
▁frisk	-12.2508
▁blunt	-12.2511
▁enamour	-12.2511
▁consign	-12.2511
Ascend	-12.2511
▁sill	-12.2512
▁Arden	-12.2513
och	-12.2513
▁detest	-12.2514
▁eld	-12.2514
▁bean	-12.2514
▁Thor	-12.2515
▁dede	-12.2519
▁num	-12.2519
▁mules	-12.2521
▁flutes	-12.2522
FIELD	-12.2528
▁Troilus	-12.2528
▁brocade	-12.2528
▁ominous	-12.2528
▁puissant	-12.2528
▁roguish	-12.2528
▁unquiet	-12.2528
▁Claus	-12.2528
▁Naiad	-12.2528
▁exempt	-12.2528
▁mishap	-12.2528
▁casque	-12.2528
▁hazy	-12.2528
Watched	-12.2528
▁lichen	-12.2528
▁buoyant	-12.2528
▁balk	-12.2529
▁untroubled	-12.2529
Replied	-12.2529
▁wattle	-12.2529
▁disappointment	-12.2529
▁patent	-12.2529
▁unchanging	-12.253
▁description	-12.253
▁profession	-12.253
▁buffet	-12.253
▁brawny	-12.2531
▁underground	-12.2531
Waft	-12.2532
▁neuer	-12.2532
▁Arabian	-12.2534
▁consciousness	-12.2535
▁knives	-12.2536
▁Major	-12.2537
▁vantage	-12.2539
▁syne	-12.2539
▁clenched	-12.2539
gree	-12.2539
▁colt	-12.254
▁thereafter	-12.254
▁Arcadian	-12.2542
▁jars	-12.2542
▁awed	-12.2545
▁ga	-12.2545
▁Mont	-12.2546
▁published	-12.255
kes	-12.2555
▁Bess	-12.2556
▁guileless	-12.2557
▁trickle	-12.2561
▁clutched	-12.2562
▁chieftains	-12.2563
▁causes	-12.2565
▁seraphs	-12.2566
▁hats	-12.2567
▁whoever	-12.2568
Peer	-12.2568
▁checks	-12.257
▁leant	-12.2572
zi	-12.2575
▁tense	-12.2577
▁solar	-12.2579
▁gazes	-12.258
▁habits	-12.2582
▁dai	-12.2587
▁nicely	-12.2589
Lament	-12.2592
▁Scot	-12.2593
br	-12.2594
▁owed	-12.2595
▁boasting	-12.2596
Shepherd	-12.2601
step	-12.2603
ephyr	-12.2604
rows	-12.2604
▁broader	-12.2605
▁method	-12.2607
▁motive	-12.2607
nne	-12.2607
Snow	-12.2608
▁Leo	-12.2608
open	-12.2612
yng	-12.2613
▁Corn	-12.2616
Ver	-12.2616
▁resolv	-12.2618
▁slippers	-12.2622
ora	-12.2626
▁beamed	-12.2627
▁musician	-12.263
▁Inn	-12.2632
Nurse	-12.2633
Flower	-12.2633
▁Reg	-12.2636
▁gav	-12.2637
▁Pale	-12.2638
▁stalls	-12.2641
▁scaled	-12.2643
▁Soft	-12.2644
▁Orient	-12.2649
▁fabled	-12.265
torn	-12.2654
▁Druid	-12.2655
▁albeit	-12.2655
▁medicine	-12.2655
▁scribble	-12.2655
▁sculptor	-12.2655
▁Agnes	-12.2655
▁paramour	-12.2655
▁Chieftain	-12.2655
▁crumpled	-12.2655
▁Hebrew	-12.2655
▁chace	-12.2656
▁Danish	-12.2656
▁Something	-12.2657
Bowed	-12.2657
▁parley	-12.2657
bag	-12.2658
▁pompous	-12.266
According	-12.266
▁sexton	-12.266
▁wavy	-12.2661
▁Menelaus	-12.2661
Invite	-12.2663
▁Martin	-12.2665
▁crane	-12.2665
▁toilsome	-12.2666
▁crude	-12.2666
▁Banner	-12.2667
▁compelled	-12.2668
▁fans	-12.2668
Fail	-12.267
▁aimless	-12.2671
ology	-12.2672
▁hoop	-12.2672
cou	-12.2674
▁Wal	-12.2675
▁cargo	-12.2676
▁sla	-12.2678
▁spurns	-12.2679
▁stepping	-12.2679
▁overflowing	-12.268
▁rejected	-12.2681
earth	-12.2682
▁supposed	-12.2683
▁treble	-12.2684
Howe	-12.2684
▁Fer	-12.2684
▁rug	-12.2685
▁Hence	-12.2685
Shadow	-12.2686
orse	-12.2689
▁Loch	-12.2692
▁conquers	-12.2694
▁whips	-12.2694
zing	-12.2696
Angel	-12.2696
▁Mamma	-12.2698
▁wrestle	-12.27
▁frosts	-12.27
▁consult	-12.2701
tius	-12.2701
pence	-12.2701
▁pondering	-12.2701
mast	-12.2704
Following	-12.2705
▁vas	-12.2707
Mist	-12.2708
Keeping	-12.271
▁Flood	-12.2711
▁cheated	-12.2712
▁dissolved	-12.2716
▁-¬"	-12.2717
acious	-12.2722
▁stumbled	-12.2724
non	-12.2724
▁Mc	-12.2724
▁hies	-12.2725
▁jack	-12.2726
iver	-12.2726
ghne	-12.2726
forgotten	-12.2727
▁define	-12.2728
bro	-12.2728
▁obtained	-12.2728
▁lug	-12.273
▁journeying	-12.273
crow	-12.2731
Torn	-12.2736
▁Show	-12.2736
▁del	-12.2737
▁fre	-12.2738
knot	-12.2738
▁flap	-12.274
RY	-12.2743
Lying	-12.2744
▁Glug	-12.2746
Alive	-12.2746
▁confin	-12.2747
▁Cast	-12.2753
▁prints	-12.2755
ridge	-12.2758
▁mesh	-12.276
▁buttercups	-12.2763
▁flirt	-12.2765
▁attic	-12.2765
▁convert	-12.2765
Possess	-12.2766
▁publish	-12.2766
▁grunt	-12.2766
▁sneak	-12.2766
▁wav	-12.2767
▁peasants	-12.2768
▁shocking	-12.2769
▁halts	-12.277
Jest	-12.2771
Jes	-12.2772
▁courses	-12.2774
▁purely	-12.2775
Try	-12.2776
▁absolute	-12.2776
▁ail	-12.2777
ello	-12.2778
empt	-12.2782
▁tragedy	-12.2783
▁benefit	-12.2783
▁mammy	-12.2783
▁mutton	-12.2783
▁straggling	-12.2783
▁tissue	-12.2783
▁Ithaca	-12.2783
▁quality	-12.2783
▁rudder	-12.2783
▁altogether	-12.2783
▁pacing	-12.2783
bore	-12.2783
▁destinies	-12.2784
▁eleven	-12.2784
▁Faun	-12.2784
▁unclouded	-12.2785
▁parish	-12.2785
▁Libyan	-12.2785
▁imagine	-12.2786
▁steadily	-12.2787
▁againe	-12.2787
▁flapping	-12.2787
▁speedily	-12.2788
▁drunkard	-12.2789
▁warble	-12.2789
▁tripped	-12.279
▁forgiveness	-12.2792
Adorn	-12.2792
imp	-12.2794
▁Olivier	-12.2794
▁violate	-12.2796
▁anthems	-12.2796
▁bus	-12.2797
▁himselfe	-12.2798
▁unrolled	-12.28
▁meekness	-12.28
beams	-12.2801
▁grac	-12.2801
▁Endymion	-12.2803
▁surprised	-12.2805
▁unroll	-12.2805
▁surpassing	-12.2806
▁ph	-12.2807
▁haw	-12.2809
▁sonnet	-12.281
pac	-12.2812
much	-12.2813
▁ducks	-12.2814
▁barons	-12.2815
▁shear	-12.2816
ula	-12.2819
▁chattering	-12.2819
heard	-12.2821
▁deals	-12.2825
▁attendants	-12.2827
▁signed	-12.2828
▁Free	-12.2828
▁Willy	-12.2831
spect	-12.2834
▁pun	-12.2836
▁dose	-12.2844
VII	-12.2847
held	-12.2848
Arose	-12.2848
▁shears	-12.2849
▁Romans	-12.285
▁ascended	-12.2852
ante	-12.2852
▁discerned	-12.2856
Shakes	-12.2857
perhaps	-12.2859
hidden	-12.2859
seeing	-12.286
▁brightens	-12.2862
aean	-12.2862
▁purge	-12.2863
pool	-12.2865
▁peeped	-12.2865
▁handy	-12.2865
▁char	-12.2865
▁mariner	-12.2869
ior	-12.2869
lick	-12.2872
▁attendant	-12.2872
▁nestled	-12.2873
Showing	-12.2875
Sche	-12.2878
Need	-12.2879
▁actor	-12.288
closed	-12.288
▁childlike	-12.2882
Smiled	-12.2882
▁stripes	-12.2883
▁fri	-12.2884
train	-12.2886
▁nearing	-12.2888
Been	-12.2888
▁wanderers	-12.2888
▁fle	-12.2892
done	-12.2895
▁unveil	-12.2896
▁repress	-12.2897
toned	-12.2897
▁garner	-12.2897
[...]
