<unk>	0
<s>	0
</s>	0
<pad>	0
¬	-3.29427
,	-3.49492
.	-3.55537
▁	-4.29617
'	-4.29677
▁ve	-4.36611
▁bir	-4.50879
,¬	-4.83142
n	-5.08056
a	-5.25981
i	-5.3775
da	-5.39765
e	-5.41847
lar	-5.45753
de	-5.47597
▁bu	-5.57797
’	-5.59668
ler	-5.60372
▁de	-5.66493
in	-5.68354
m	-5.7042
▁"	-5.71604
▁da	-5.717
▁ile	-5.7372
"	-5.76031
▁olarak	-5.84532
nin	-5.91413
▁(	-5.92846
k	-5.93321
-	-5.94704
ın	-5.97894
nın	-5.98177
▁için	-6.0278
ı	-6.05051
)	-6.0661
▁gibi	-6.07203
▁olan	-6.1249
ya	-6.14908
ne	-6.2051
▁Bu	-6.20512
dan	-6.21688
:	-6.21689
ları	-6.2589
den	-6.27682
na	-6.3039
la	-6.31346
leri	-6.33369
dir	-6.3457
le	-6.40026
▁en	-6.41657
li	-6.42123
te	-6.44998
▁çok	-6.46446
dır	-6.53283
▁sonra	-6.53556
ye	-6.54268
▁daha	-6.56509
;	-6.60366
▁kadar	-6.60998
Bir	-6.6505
▁ne	-6.66453
si	-6.66542
▁yılında	-6.67307
▁ise	-6.67904
lı	-6.68645
▁ki	-6.71565
ta	-6.72485
▁her	-6.72611
u	-6.72702
un	-6.73296
ni	-6.75365
▁tarafından	-6.78728
▁ilk	-6.79258
t	-6.79504
ların	-6.79833
ki	-6.803
▁var	-6.81735
▁o	-6.84126
▁büyük	-6.854
s	-6.85759
lerin	-6.90188
nda	-6.92515
nde	-6.92857
z	-6.94258
▁yer	-6.95846
sı	-6.99755
an	-6.99907
di	-7.0204
▁oldu	-7.02942
r	-7.06311
▁sen	-7.06991
▁ya	-7.07497
▁ben	-7.07514
ma	-7.08456
▁iki	-7.08849
lik	-7.08934
!	-7.09917
nı	-7.12058
▁göre	-7.12863
▁Bir	-7.13867
sa	-7.1454
▁arasında	-7.15106
▁seni	-7.16667
l	-7.17404
lara	-7.17582
yi	-7.17832
▁zaman	-7.19553
yı	-7.20164
im	-7.21106
sin	-7.21893
▁gün	-7.22477
sın	-7.24285
ım	-7.24787
▁olduğu	-7.26844
▁beni	-7.27932
lere	-7.28184
?¬	-7.28549
en	-7.29854
tan	-7.31399
dı	-7.31592
yla	-7.3219
se	-7.32497
Bu	-7.32904
▁Türkiye	-7.33251
o	-7.33578
▁içinde	-7.33625
d	-7.34809
ken	-7.34903
!¬	-7.35703
▁olur	-7.35707
Ne	-7.36017
nun	-7.37469
O	-7.37717
yle	-7.38613
y	-7.40997
▁son	-7.41073
ca	-7.41264
me	-7.41539
;¬	-7.43278
daki	-7.44378
ten	-7.44419
p	-7.45872
▁yok	-7.46414
▁sana	-7.46669
▁Türk	-7.46856
▁mi	-7.47562
lık	-7.48684
▁önemli	-7.48926
▁yıl	-7.49747
?	-7.49777
▁değil	-7.50407
larda	-7.50426
bir	-7.51445
▁tek	-7.5181
▁veya	-7.51897
▁birlikte	-7.5276
▁diye	-7.53429
▁güzel	-7.53844
▁bana	-7.53973
▁yeni	-7.54278
▁karşı	-7.54447
ti	-7.55393
▁İstanbul	-7.55508
larını	-7.5595
ndan	-7.58533
),	-7.5879
▁vardır	-7.58884
▁diğer	-7.59264
Sen	-7.60004
”	-7.60148
▁benim	-7.61127
lerde	-7.6129
Ben	-7.61503
tir	-7.61929
▁aynı	-7.62598
▁bile	-7.62743
nden	-7.63784
deki	-7.64864
ce	-7.64923
lu	-7.65322
mış	-7.65586
ini	-7.67348
h	-7.69451
▁hep	-7.69726
▁A	-7.69948
▁hiç	-7.70279
Her	-7.71778
ü	-7.72083
▁gelen	-7.72342
lerini	-7.72527
▁tüm	-7.72539
tır	-7.73805
▁başka	-7.74409
▁mı	-7.75097
Ve	-7.75134
▁“	-7.7519
▁alan	-7.7608
tı	-7.76223
ve	-7.76382
er	-7.76384
mi	-7.77682
▁artık	-7.78992
▁olsun	-7.79002
▁O	-7.79115
▁kendi	-7.79571
▁bulunan	-7.79702
▁insan	-7.80144
▁önce	-7.81152
▁adı	-7.81276
▁gelir	-7.81731
▁üzerine	-7.82257
sen	-7.82258
dur	-7.82938
sız	-7.84675
▁etti	-7.84944
▁su	-7.85902
▁eski	-7.8611
▁birçok	-7.86576
▁Osmanlı	-7.86785
um	-7.86812
▁kabul	-7.86871
/	-7.86886
▁olup	-7.87111
ün	-7.87575
larına	-7.88172
▁1	-7.88635
▁-	-7.89245
▁doğru	-7.89765
larının	-7.89883
lardan	-7.90555
▁hem	-7.90838
b	-7.91142
▁olmak	-7.9178
ını	-7.91978
▁Dünya	-7.92219
▁S	-7.92241
▁an	-7.9255
siz	-7.93365
▁yine	-7.93451
▁iyi	-7.93762
al	-7.94088
▁tarihinde	-7.94356
▁Avrupa	-7.9456
lerden	-7.94845
ine	-7.9519
▁sahip	-7.95327
mak	-7.95509
f	-7.96295
▁gece	-7.96312
▁yapılan	-7.96619
miş	-7.97077
C	-7.9721
▁üç	-7.9787
▁bazı	-7.9818
▁kez	-7.98397
▁dünya	-7.98682
▁üzerinde	-7.98916
▁üzere	-7.99101
▁yol	-7.9913
▁2	-7.999
▁farklı	-8.00107
▁bin	-8.00214
▁eden	-8.01312
▁olmuştur	-8.01351
▁adlı	-8.01492
▁şey	-8.0209
iz	-8.02722
▁bütün	-8.02934
ş	-8.03009
ir	-8.03017
▁yüksek	-8.03117
c	-8.03538
san	-8.03938
▁3	-8.04066
▁fazla	-8.04118
ır	-8.04439
g	-8.04509
▁ortaya	-8.04646
larında	-8.04947
▁olduğunu	-8.05109
▁biri	-8.05695
▁şekilde	-8.05769
▁başladı	-8.05812
S	-8.05896
▁I	-8.06137
du	-8.06177
lerinin	-8.06551
ci	-8.0677
▁şu	-8.07395
▁ancak	-8.07492
▁senin	-8.07561
▁Ne	-8.07657
lerine	-8.07787
▁küçük	-8.07906
sun	-8.08455
▁bağlı	-8.09376
dım	-8.09386
▁kara	-8.09604
▁geri	-8.097
▁devam	-8.11194
▁sadece	-8.11566
▁az	-8.12081
▁aldı	-8.12109
▁Anadolu	-8.12469
▁Ayrıca	-8.126
▁uzun	-8.13107
▁ama	-8.13508
▁kaldı	-8.14078
lerle	-8.15511
larla	-8.15831
▁Ancak	-8.16655
▁can	-8.17169
▁eder	-8.17316
▁ana	-8.17915
▁çeşitli	-8.18345
dim	-8.18473
▁bulunmaktadır	-8.1882
lerinde	-8.19393
▁gül	-8.19396
▁aşk	-8.20572
ik	-8.20731
sam	-8.20844
▁Her	-8.20874
▁altında	-8.22041
▁böyle	-8.2216
▁4	-8.22696
▁ay	-8.23158
▁nasıl	-8.23213
▁süre	-8.23475
▁yakın	-8.2352
▁geldi	-8.23599
ar	-8.24025
lerinden	-8.24163
A	-8.25362
î	-8.25582
ına	-8.25812
2	-8.25962
▁bak	-8.25998
▁olsa	-8.26466
arak	-8.26549
▁mu	-8.2671
mı	-8.26951
▁neden	-8.27362
ıp	-8.27508
▁sıra	-8.27767
▁5	-8.28286
sini	-8.28386
K	-8.28779
yan	-8.28854
larından	-8.2898
▁kalan	-8.29506
at	-8.29788
▁al	-8.30123
▁km	-8.30273
▁yeniden	-8.30279
▁K	-8.3051
▁ardından	-8.30678
▁kan	-8.30703
▁C	-8.30896
M	-8.30935
▁boyunca	-8.31001
▁vardı	-8.3136
▁ele	-8.3143
▁Üniversitesi	-8.31613
su	-8.32328
liği	-8.32373
▁ikinci	-8.33004
acak	-8.33025
Seni	-8.33369
sını	-8.33851
▁devlet	-8.33927
lü	-8.33944
▁Savaşı	-8.34023
▁yerine	-8.34403
▁10	-8.34762
▁Allah	-8.35017
ur	-8.3526
▁B	-8.35594
▁el	-8.35647
el	-8.358
ında	-8.36539
sel	-8.36619
▁gel	-8.36851
maz	-8.37555
man	-8.37902
",	-8.37992
▁dört	-8.38345
▁gönül	-8.38381
ydi	-8.3859
▁E	-8.38737
▁15	-8.3917
ç	-8.39465
▁acı	-8.39534
▁iç	-8.39557
▁alır	-8.39908
▁şimdi	-8.40104
▁genel	-8.40421
▁nedeniyle	-8.40436
B	-8.40486
▁elde	-8.40519
I	-8.4115
▁onu	-8.41178
▁kişi	-8.41776
▁söz	-8.42146
▁Paşa	-8.4227
dür	-8.42372
▁edilen	-8.425
▁olmuş	-8.42683
cı	-8.43005
bu	-8.43312
▁İlk	-8.43348
▁Ben	-8.43454
▁savaş	-8.43558
▁M	-8.43666
▁Bey	-8.43899
▁zamanda	-8.44032
inde	-8.44112
▁rağmen	-8.44576
on	-8.4474
din	-8.4479
▁çocuk	-8.45147
▁Sen	-8.45215
▁açık	-8.45262
ız	-8.45328
ydı	-8.45538
▁olması	-8.45546
▁6	-8.45765
il	-8.45935
▁geçen	-8.4594
ip	-8.46275
▁ol	-8.46569
▁deniz	-8.46667
ka	-8.46738
▁göz	-8.46769
▁En	-8.47019
ri	-8.47262
x	-8.47506
▁kısa	-8.48071
▁II	-8.48132
▁çıkar	-8.48188
...	-8.48189
sal	-8.48292
▁T	-8.48567
T	-8.48665
sine	-8.4909
ıyor	-8.49632
v	-8.49673
▁ülke	-8.49705
▁Daha	-8.49747
▁geçti	-8.49976
re	-8.50027
▁yanı	-8.50049
tur	-8.50241
▁tekrar	-8.50327
ra	-8.50341
lığı	-8.50398
▁özel	-8.50781
ak	-8.5121
▁pek	-8.51331
nu	-8.51393
▁sırasında	-8.51568
▁Sultan	-8.51583
us	-8.51757
ktan	-8.51835
▁kar	-8.52082
ter	-8.52227
▁dil	-8.52322
▁ilgili	-8.52341
▁tam	-8.5253
▁onun	-8.52555
▁Doğu	-8.52686
P	-8.53058
▁yaptığı	-8.53487
mek	-8.53507
▁hayat	-8.53669
▁bulunur	-8.53875
bi	-8.53967
▁Ali	-8.53967
▁özellikle	-8.54476
▁yaptı	-8.54506
▁12	-8.54755
▁yaz	-8.55047
luk	-8.55097
▁yerde	-8.55435
▁zor	-8.55596
▁iş	-8.55945
▁yaklaşık	-8.57032
▁ait	-8.57109
▁17	-8.57141
▁çıkan	-8.57189
mıştır	-8.57223
▁içerisinde	-8.57265
▁sonunda	-8.57888
).	-8.58019
▁verdi	-8.58067
▁ara	-8.58429
lan	-8.58565
E	-8.58618
▁para	-8.58694
uz	-8.5885
▁Ankara	-8.59048
▁der	-8.59453
▁olmayan	-8.59511
D	-8.60149
▁dışında	-8.60168
▁dolu	-8.60198
▁dönemde	-8.60436
sına	-8.6061
▁at	-8.60818
be	-8.61079
▁et	-8.61223
▁karar	-8.61376
▁hemen	-8.61729
▁şehir	-8.61802
")	-8.61997
▁arasındaki	-8.62468
et	-8.62481
▁temel	-8.62509
G	-8.62543
▁Kasım	-8.62545
▁kadın	-8.63151
sinde	-8.6325
▁beş	-8.63355
▁baş	-8.63575
▁yanında	-8.63666
▁geniş	-8.63689
▁yar	-8.63749
sem	-8.63756
▁Eylül	-8.63826
▁beraber	-8.64161
▁günü	-8.64315
▁("	-8.64329
▁şiir	-8.65025
▁Mart	-8.65049
▁G	-8.65131
▁uzak	-8.65173
tu	-8.65245
ğ	-8.65343
▁ayrı	-8.65654
▁Mayıs	-8.6584
Ama	-8.6587
▁kat	-8.65972
▁döneminde	-8.65976
▁on	-8.6615
erek	-8.66264
oğlu	-8.66266
▁ifade	-8.66314
▁kullanılan	-8.66367
▁taş	-8.66517
▁güneş	-8.66585
▁Büyük	-8.66672
▁eğitim	-8.67031
▁adını	-8.67059
▁gider	-8.67081
▁üst	-8.67161
▁yana	-8.67282
▁çıktı	-8.67315
ben	-8.67553
▁hava	-8.67665
(	-8.6816
▁Temmuz	-8.68349
▁be	-8.68359
▁oluşan	-8.68394
tik	-8.68483
ge	-8.68521
ması	-8.68728
▁8	-8.68741
gi	-8.69047
ba	-8.69097
▁Bunun	-8.6913
▁olmaz	-8.69143
▁gitti	-8.69421
▁16	-8.69546
▁merkezi	-8.6955
▁Alman	-8.69575
va	-8.69915
▁Fransa	-8.70048
▁ses	-8.70378
3	-8.70468
▁tarihi	-8.70561
▁sevda	-8.70614
▁müzik	-8.70632
ecek	-8.70722
lama	-8.70849
▁7	-8.70882
En	-8.71165
len	-8.71174
▁ABD	-8.71518
▁sahiptir	-8.71723
▁kendini	-8.71839
▁F	-8.71961
is	-8.72196
Sana	-8.72389
▁yüz	-8.72499
▁Roma	-8.72507
▁D	-8.72643
▁yaş	-8.72916
▁ey	-8.7295
▁sevgi	-8.7306
▁edildi	-8.73308
yu	-8.73484
▁yılları	-8.735
▁beyaz	-8.73745
▁milyon	-8.73997
▁kız	-8.74289
▁ona	-8.74337
▁sonucu	-8.74426
▁Ocak	-8.74462
▁gerek	-8.74504
▁edilir	-8.74657
▁yere	-8.7497
▁Ekim	-8.74982
Ya	-8.75245
▁veren	-8.75555
▁verilen	-8.75718
to	-8.7588
ul	-8.75993
sında	-8.76013
kar	-8.76039
▁11	-8.76243
▁bugün	-8.76401
▁Aynı	-8.76429
▁yan	-8.76796
▁Almanya	-8.76974
▁Orta	-8.7708
▁Haziran	-8.7721
▁beri	-8.77372
inin	-8.77425
▁itibaren	-8.77456
▁biz	-8.77508
▁ağır	-8.77666
ol	-8.77729
▁bilinen	-8.77948
▁Ağustos	-8.78001
▁sık	-8.7831
▁Amerika	-8.78521
▁yoktur	-8.78566
▁""	-8.78755
▁görev	-8.78756
▁gerçek	-8.78777
ver	-8.78874
▁Çin	-8.79117
▁ilçe	-8.79162
L	-8.79268
▁18	-8.79425
F	-8.79481
▁yapan	-8.79573
▁İmparatorluğu	-8.79582
İ	-8.7973
▁Nisan	-8.80145
▁oğlu	-8.80152
▁dolayı	-8.80278
▁Batı	-8.80327
mez	-8.80337
▁toprak	-8.80543
▁ver	-8.80575
▁grup	-8.80608
kten	-8.80694
maktadır	-8.80792
▁La	-8.81007
Beni	-8.81195
▁başına	-8.81375
▁halk	-8.8151
▁ölüm	-8.81549
▁etme	-8.81703
▁anne	-8.81736
st	-8.81761
▁yıllarda	-8.81982
▁etmiştir	-8.81993
▁idi	-8.82048
▁20	-8.82334
▁değildir	-8.82424
▁derin	-8.82776
muş	-8.82816
▁ek	-8.82819
▁bilim	-8.82946
ran	-8.83034
▁birkaç	-8.83108
▁ak	-8.8313
▁işte	-8.83218
▁ışık	-8.83534
dığı	-8.83592
▁Aralık	-8.83673
▁bulunduğu	-8.83817
▁P	-8.8404
▁ince	-8.84072
▁hiçbir	-8.84131
lanır	-8.84139
ga	-8.84307
▁yalan	-8.84421
▁öyle	-8.84442
▁14	-8.84855
▁dönem	-8.84962
▁Kara	-8.85133
os	-8.85186
yim	-8.85411
her	-8.85613
4	-8.85637
ndeki	-8.85647
▁değer	-8.85677
▁oldukça	-8.85833
▁13	-8.86107
▁Şubat	-8.86149
▁genellikle	-8.86173
▁bizim	-8.86252
N	-8.86425
▁takım	-8.86525
▁din	-8.86866
▁Yeni	-8.86903
▁m	-8.8702
▁yağmur	-8.87264
▁belli	-8.87297
▁burada	-8.87353
▁İslam	-8.87507
▁Güney	-8.87661
▁mü	-8.87775
unu	-8.8803
▁%	-8.88085
▁geçer	-8.88377
▁Kuzey	-8.88401
mız	-8.88475
mektedir	-8.8871
ha	-8.8886
zi	-8.88881
▁başında	-8.88884
H	-8.88946
çe	-8.88981
▁kim	-8.89179
▁Al	-8.89432
▁yılı	-8.89501
▁ev	-8.89513
larım	-8.89757
▁dünyanın	-8.89815
nün	-8.89897
▁2.	-8.90216
▁Cumhuriyeti	-8.9069
it	-8.90759
▁haline	-8.90769
▁yapı	-8.90809
▁dünyada	-8.90866
▁Birliği	-8.90971
▁ayrıca	-8.91005
larıyla	-8.91032
▁Ay	-8.91068
inden	-8.91126
▁kullanılır	-8.91148
miz	-8.91244
▁9	-8.91424
▁Mustafa	-8.91489
▁dost	-8.91492
▁il	-8.91627
▁adam	-8.91786
ül	-8.91928
Al	-8.91973
miştir	-8.92139
▁Ak	-8.92247
leriyle	-8.92262
▁U	-8.92301
dik	-8.92313
▁bize	-8.924
▁almıştır	-8.92409
▁girdi	-8.92551
▁belki	-8.92553
up	-8.92585
▁Afrika	-8.92877
▁adıyla	-8.93044
Benim	-8.93128
▁yüzyılda	-8.93137
Gel	-8.93306
▁başlar	-8.93363
▁yazar	-8.93532
1	-8.93588
▁meydana	-8.936
▁kaç	-8.93776
▁yıllık	-8.93949
▁çoğu	-8.94069
▁Rusya	-8.94302
▁biraz	-8.94316
▁oldum	-8.94327
Allah	-8.94349
▁H	-8.94465
▁olma	-8.94488
▁alt	-8.94608
▁hakkında	-8.94619
▁toplam	-8.94647
▁MÖ	-8.94736
▁tür	-8.94791
min	-8.94806
▁etmek	-8.94885
""	-8.9491
▁verir	-8.94985
ça	-8.95255
▁güç	-8.95315
▁giden	-8.9541
ür	-8.95444
▁çiçek	-8.95621
▁yeri	-8.95628
▁yaşam	-8.95698
maya	-8.95998
▁fakat	-8.96053
▁of	-8.96185
▁sanki	-8.96216
▁Ve	-8.96227
▁parça	-8.96391
▁dağ	-8.96442
Çok	-8.96525
▁sağ	-8.96652
▁edilmiştir	-8.96675
U	-8.96913
▁--	-8.97097
landı	-8.97338
Hiç	-8.97364
▁yani	-8.97388
▁dahil	-8.97586
▁benzer	-8.97684
der	-8.97873
▁İl	-8.98028
▁yaşayan	-8.98297
▁bahar	-8.98704
▁yaygın	-8.98826
▁bilgi	-8.98828
üm	-8.98925
▁olacak	-8.99064
▁ülkenin	-8.99187
▁ateş	-8.99212
leme	-8.99376
▁yalnız	-8.99391
▁aldığı	-8.99517
▁ön	-8.9953
▁in	-8.99539
ıl	-8.99571
▁doğal	-8.99572
▁Genel	-8.99613
▁hasret	-8.99674
▁yara	-8.9968
▁kalır	-8.99717
dü	-8.9986
▁Birleşi	-8.99894
▁orta	-9.00222
kan	-9.00324
▁30	-9.00338
▁defa	-9.0045
▁Atatürk	-9.00515
Şimdi	-9.00665
iş	-9.00742
▁geç	-9.00828
▁boş	-9.00885
alım	-9.00945
za	-9.00945
▁sayı	-9.0113
iyor	-9.01317
ek	-9.01425
ke	-9.01612
▁(19	-9.01631
▁sende	-9.01804
▁bizi	-9.01826
▁askeri	-9.01949
iye	-9.02086
▁ünlü	-9.02146
Senin	-9.02289
▁uygun	-9.02365
▁sistemi	-9.02405
▁Mehmet	-9.02407
▁yolu	-9.02496
ro	-9.02516
▁söyle	-9.02523
lük	-9.0263
çi	-9.0271
R	-9.02712
dın	-9.02795
▁anda	-9.02867
▁aç	-9.02872
▁Güneş	-9.0294
▁iken	-9.02994
▁kır	-9.03395
▁dünyaya	-9.03443
▁damla	-9.03567
▁kurulan	-9.03568
▁hareket	-9.03721
▁ettiği	-9.0375
Hep	-9.03832
▁hala	-9.03942
▁R	-9.03955
▁dış	-9.04078
men	-9.04174
▁oluşur	-9.04292
▁sayısı	-9.04643
▁düştü	-9.04667
▁sırada	-9.04677
ndaki	-9.04677
▁insanlar	-9.04711
▁İ	-9.0476
liğe	-9.04805
do	-9.04925
▁ha	-9.05042
▁senden	-9.05216
▁varsa	-9.05595
▁bunu	-9.05734
▁İzmir	-9.05829
▁karanlık	-9.05953
cu	-9.05988
▁ayında	-9.05996
▁El	-9.06145
▁Er	-9.06228
▁genç	-9.06284
▁1.	-9.0632
son	-9.06404
▁kötü	-9.06471
ıyorum	-9.06507
▁tarih	-9.06641
▁yeşil	-9.06661
▁bilir	-9.06738
▁sabah	-9.0686
▁Ar	-9.06867
▁sanat	-9.07001
▁Su	-9.07125
▁Fransız	-9.07172
▁kitap	-9.072
▁hizmet	-9.07228
dum	-9.07323
▁ismi	-9.0739
▁Kupası	-9.07461
es	-9.07463
▁sıcak	-9.07473
teki	-9.07478
yım	-9.07501
vi	-9.07677
▁ta	-9.07945
Aşk	-9.08026
▁altı	-9.08073
suz	-9.08329
▁şeklinde	-9.08369
▁gol	-9.08385
lanmış	-9.08415
▁De	-9.0869
▁mavi	-9.08732
▁kısmı	-9.08777
▁baba	-9.08806
▁sezonunda	-9.09063
▁saat	-9.09077
sinin	-9.09087
▁mutlu	-9.09366
▁ah	-9.09493
▁Kemal	-9.09545
sün	-9.09644
▁akşam	-9.09649
layan	-9.09867
yen	-9.09953
â	-9.09991
▁sol	-9.10171
▁yabancı	-9.1038
▁seninle	-9.10389
▁hüzün	-9.10496
▁Mısır	-9.10545
▁benden	-9.10591
▁Devleti	-9.10975
▁döndü	-9.11009
▁sevdiğim	-9.1102
▁Son	-9.11062
▁aşkın	-9.11079
▁konusunda	-9.11114
Y	-9.11165
▁şarkı	-9.1128
▁e	-9.11286
mda	-9.11288
0	-9.11321
ından	-9.11414
▁deli	-9.11459
imi	-9.11508
▁Han	-9.11561
▁sonucunda	-9.11779
▁25	-9.11996
-19	-9.12118
▁türlü	-9.12133
▁dili	-9.1215
▁soğuk	-9.12161
▁nüfus	-9.12182
▁fark	-9.12472
▁yedi	-9.12505
▁bil	-9.12622
▁Bizans	-9.12731
▁başlayan	-9.12737
j	-9.12769
▁güçlü	-9.13155
ton	-9.13174
▁yüreğim	-9.13251
▁ekonomik	-9.13319
▁yavaş	-9.13382
▁durum	-9.134
▁gördüm	-9.13548
5	-9.13785
lanan	-9.13955
▁bunun	-9.13994
▁adet	-9.14058
mesi	-9.14138
▁ister	-9.14257
▁yoğun	-9.14421
▁kuş	-9.14439
▁sene	-9.1453
▁yürek	-9.14546
▁yarı	-9.14555
▁inan	-9.14583
▁bende	-9.1464
▁sayıda	-9.14864
▁Eski	-9.15127
çı	-9.15213
▁Fakat	-9.15299
tür	-9.15429
gen	-9.15501
lığa	-9.15581
▁içine	-9.15588
▁olabilir	-9.15758
▁göç	-9.15959
▁rol	-9.16011
▁bazen	-9.16135
▁İki	-9.16163
▁ömür	-9.16207
▁kültür	-9.16245
▁ilgi	-9.16378
ber	-9.16405
▁çift	-9.16468
▁almaktadır	-9.16646
▁iddia	-9.16655
▁ileri	-9.16835
▁yüzden	-9.16903
▁erkek	-9.16948
▁dile	-9.16952
▁kimse	-9.16963
▁sevdim	-9.16973
▁sesi	-9.17
▁sonraki	-9.17006
▁denir	-9.17062
▁İngiliz	-9.17118
▁gözlerin	-9.17343
ay	-9.17345
▁yayın	-9.17526
▁kal	-9.17558
iyle	-9.1766
Belki	-9.17689
▁resmi	-9.17699
diği	-9.17716
ış	-9.17924
▁ilan	-9.17949
▁kendine	-9.18174
mu	-9.18178
Bana	-9.18262
▁Ülke	-9.18394
▁inşa	-9.18416
▁vatan	-9.18446
ama	-9.18535
▁a	-9.18591
dık	-9.18655
▁Örneğin	-9.18721
▁uluslararası	-9.18727
▁yıllarında	-9.19011
▁enerji	-9.19097
ılır	-9.19261
Sevgi	-9.19398
▁kimi	-9.19434
tü	-9.19518
as	-9.19572
▁formula	-9.19608
lardır	-9.19713
ist	-9.19747
▁sahibi	-9.20044
▁eş	-9.2009
▁hak	-9.2017
▁Li	-9.20187
lerdir	-9.20441
▁dedi	-9.20621
▁yazı	-9.20642
▁Me	-9.20683
▁kış	-9.20813
▁üstüne	-9.20921
tin	-9.20963
▁takımı	-9.21107
▁kalmış	-9.21243
▁sensiz	-9.21265
▁batı	-9.2135
lenir	-9.21364
▁dur	-9.21445
▁Yunan	-9.21495
go	-9.21525
▁er	-9.21651
▁herhangi	-9.21679
▁mücadele	-9.21758
▁eğer	-9.21767
▁sevgili	-9.21796
▁Diğer	-9.21809
▁sarı	-9.21864
▁adım	-9.21936
ebilir	-9.2209
lo	-9.22313
fa	-9.22395
▁yönetim	-9.22471
▁merkez	-9.22482
Bak	-9.22558
th	-9.22839
▁3.	-9.2295
▁N	-9.2296
Ah	-9.23027
▁Se	-9.23225
▁ağaç	-9.23234
▁Kur	-9.23276
▁günümüzde	-9.23316
▁oyun	-9.23368
▁kazandı	-9.23547
▁kızı	-9.23608
▁etmiş	-9.23659
▁anlamına	-9.23722
▁yüzyıl	-9.23785
var	-9.238
han	-9.23836
▁verdiği	-9.2388
▁terk	-9.23944
▁Tanrı	-9.24025
▁izin	-9.24247
▁yardım	-9.24258
▁yıllar	-9.24301
▁teknik	-9.24337
▁şehri	-9.2443
▁Asya	-9.2444
▁Bazı	-9.24484
ck	-9.24564
nü	-9.24572
ze	-9.24663
▁siyah	-9.24688
▁başlamıştır	-9.24715
▁derece	-9.2472
van	-9.24738
▁yıldız	-9.24744
▁düş	-9.2479
▁eser	-9.24833
br	-9.24886
▁Ha	-9.24914
lerim	-9.25055
▁oy	-9.25079
Biz	-9.25101
w	-9.25157
▁Devlet	-9.25271
▁konu	-9.25576
▁di	-9.2563
sak	-9.2567
yor	-9.25826
▁ortak	-9.25844
▁altın	-9.2592
▁yeter	-9.25938
ö	-9.26013
▁amacıyla	-9.26091
▁isimli	-9.26158
▁futbol	-9.26314
6	-9.26392
▁oranı	-9.2646
▁İran	-9.26484
▁ticaret	-9.26509
▁İtalya	-9.26591
▁film	-9.26745
▁Ma	-9.26755
ey	-9.26765
Dünya	-9.26783
Ş	-9.26791
▁hal	-9.26805
▁kuzey	-9.26873
Ay	-9.27089
▁dizi	-9.27199
▁tatlı	-9.27281
▁zengin	-9.27354
▁modern	-9.27435
▁çevre	-9.2749
▁tamamen	-9.27638
▁nefes	-9.27703
▁Galatasaray	-9.27805
taki	-9.27815
▁dal	-9.2782
sının	-9.27918
▁hale	-9.28124
▁haber	-9.28132
abilir	-9.28174
lenen	-9.2838
▁ederek	-9.28381
▁başarılı	-9.2848
ımı	-9.28681
ının	-9.2872
▁yapar	-9.28951
▁nüfusu	-9.29023
lardı	-9.29045
▁Yine	-9.29064
▁yerleşim	-9.29089
▁etkisi	-9.29269
▁Ya	-9.29582
▁adına	-9.29747
▁sebep	-9.29748
İşte	-9.29802
▁kırmızı	-9.29857
imiz	-9.30073
▁gizli	-9.30133
▁boyu	-9.30281
▁Partisi	-9.30345
▁canım	-9.30403
Z	-9.30408
▁24	-9.3048
▁siyasi	-9.30492
▁git	-9.30495
▁Rus	-9.30593
é	-9.30671
izm	-9.30704
▁buna	-9.30744
▁ada	-9.30787
▁kent	-9.30818
ed	-9.30882
▁bölge	-9.30957
▁V	-9.31001
ah	-9.31071
▁Çok	-9.31148
▁çalışan	-9.31168
Nasıl	-9.31498
▁halinde	-9.31561
▁alanı	-9.31574
yken	-9.31638
meye	-9.31905
▁Ç	-9.31967
▁Türkçe	-9.32026
gu	-9.32038
▁Re	-9.32053
▁Beşiktaş	-9.3208
▁destek	-9.32104
▁sonrasında	-9.32186
▁sayesinde	-9.32209
▁Buna	-9.32329
gan	-9.32389
▁sonu	-9.3241
▁Le	-9.32421
▁biridir	-9.32453
tar	-9.32475
▁açısından	-9.32638
▁dair	-9.32704
▁22	-9.32766
▁Paris	-9.32783
▁bilgisayar	-9.32794
▁sezon	-9.32797
▁millî	-9.32871
▁hayal	-9.32874
▁metre	-9.32973
▁yerel	-9.33017
▁görülür	-9.33039
▁barış	-9.33069
▁arası	-9.33072
▁23	-9.33085
nca	-9.33136
▁üstünde	-9.33137
▁gelmiş	-9.33142
▁hazır	-9.33191
▁Ahmet	-9.3323
▁ayak	-9.33305
Ö	-9.33396
▁dar	-9.33492
▁Gül	-9.33577
▁dönemi	-9.33584
▁bunlar	-9.3359
ko	-9.33622
▁Deniz	-9.33729
El	-9.33737
pa	-9.33738
no	-9.3378
▁kere	-9.33835
▁altına	-9.33977
▁etmektedir	-9.34071
▁sosyal	-9.34217
▁istiyorum	-9.34223
▁Cumhuriyet	-9.34231
▁Sovyet	-9.34245
ınca	-9.34379
▁umut	-9.34395
liğin	-9.34434
Kim	-9.34546
▁asla	-9.34648
▁sürekli	-9.34666
▁örnek	-9.34696
co	-9.34711
ru	-9.34722
▁bi	-9.34741
▁dalga	-9.34777
▁Karadeniz	-9.34804
▁bal	-9.34824
▁Na	-9.34848
spor	-9.34883
▁Lig	-9.34899
▁çalışma	-9.34901
▁İlçe	-9.34942
madan	-9.34947
dar	-9.34969
▁isim	-9.34976
▁belediye	-9.3509
▁ülkede	-9.35156
Gül	-9.35159
▁kör	-9.35204
▁Ey	-9.35291
▁gözlerim	-9.35375
▁taşı	-9.35387
▁kalma	-9.35424
▁Fakültesi	-9.35478
▁kalp	-9.35504
▁Akdeniz	-9.3558
▁tarım	-9.35644
▁hızlı	-9.35653
id	-9.35659
Sonra	-9.35756
yum	-9.35813
▁/	-9.35814
▁spor	-9.35947
▁dini	-9.35947
▁sınırları	-9.35984
▁kendisine	-9.36002
ad	-9.36022
▁sonrası	-9.36043
▁babası	-9.36147
tim	-9.36371
▁olmasına	-9.36477
Kara	-9.36489
▁albüm	-9.36561
sinden	-9.36568
V	-9.36725
yse	-9.36831
▁dağlar	-9.36854
Gönül	-9.36866
▁kuru	-9.36966
▁hoş	-9.37017
▁öldü	-9.37156
▁madde	-9.37178
▁düşün	-9.37246
▁gök	-9.37285
▁mezar	-9.37325
▁dik	-9.37416
▁nedir	-9.37458
▁sev	-9.37507
▁üye	-9.37536
tım	-9.37627
fi	-9.37643
▁Muhammed	-9.37675
▁renk	-9.37746
▁Di	-9.37811
▁düşman	-9.37931
▁gurbet	-9.3798
▁bağımsız	-9.38011
▁Böylece	-9.38178
▁bas	-9.38252
▁gemi	-9.38382
▁birer	-9.3843
elim	-9.38501
▁temsil	-9.38512
▁maçta	-9.38571
▁top	-9.3864
▁şair	-9.38653
▁ser	-9.38724
▁Si	-9.38746
▁yalnızca	-9.38758
▁sakın	-9.38801
Gün	-9.38902
▁Ra	-9.39115
▁şehrin	-9.39165
▁the	-9.39281
▁ağ	-9.39291
▁erken	-9.39311
▁canlı	-9.39457
▁gülüm	-9.39562
▁içimde	-9.39581
▁nedenle	-9.39581
▁yaşında	-9.39621
▁başkanı	-9.39627
▁sistem	-9.39686
lenmiş	-9.3969
am	-9.39742
ch	-9.3987
müş	-9.39902
▁üçüncü	-9.39952
▁İkinci	-9.4017
ing	-9.40366
▁g	-9.40405
Şu	-9.40441
▁Ta	-9.40447
▁döner	-9.40565
▁üzerinden	-9.40567
lanma	-9.406
cık	-9.40638
▁aile	-9.40654
▁sanayi	-9.40899
▁yola	-9.40929
▁dikkat	-9.40961
▁rüzgar	-9.41158
▁önünde	-9.41177
İki	-9.41185
▁kolay	-9.41254
▁Sa	-9.4139
▁düşen	-9.41403
▁yük	-9.41471
ılan	-9.41564
▁düşünce	-9.41671
kal	-9.41673
▁edilmiş	-9.417
▁21	-9.41758
ıcı	-9.41793
▁ağlar	-9.41805
▁yüzyılın	-9.41807
▁demir	-9.41867
▁kul	-9.41891
▁İngiltere	-9.4212
▁anlat	-9.42132
▁ortalama	-9.4222
▁27	-9.42313
▁Müslüman	-9.42468
▁kurulmuştur	-9.4247
▁Te	-9.42502
Yine	-9.42668
▁19	-9.42711
ince	-9.42728
▁dert	-9.4274
▁te	-9.42857
▁işgal	-9.42904
▁hayatı	-9.42965
▁parti	-9.42987
ıyla	-9.43053
▁bölümü	-9.43069
em	-9.43138
▁aşkı	-9.43181
▁yılına	-9.43229
▁geçmiş	-9.43234
▁garip	-9.43281
▁edilmektedir	-9.43293
▁katıldı	-9.43298
▁28	-9.43357
▁etki	-9.43364
▁düşük	-9.43403
▁Lisesi	-9.43534
▁geliyor	-9.43725
▁gelmiştir	-9.43755
▁Eğitim	-9.43764
pe	-9.43818
▁öne	-9.43833
▁kanat	-9.43836
▁değişik	-9.43872
▁konusu	-9.43984
▁Seni	-9.43988
▁kon	-9.44165
▁bölgede	-9.44233
▁gitme	-9.44273
▁açtı	-9.44284
▁araştırma	-9.4431
▁misin	-9.44314
▁bırak	-9.44317
Bütün	-9.44419
▁b	-9.44433
▁hangi	-9.44593
▁doğu	-9.44803
▁saf	-9.44823
fe	-9.44909
acağım	-9.44944
▁uç	-9.44998
▁dedim	-9.45005
▁edip	-9.45008
▁gösterir	-9.45021
▁yazdığı	-9.4503
▁Ordu	-9.45319
▁yüzünden	-9.45328
▁tane	-9.45345
▁asker	-9.45404
▁gör	-9.4543
▁Be	-9.45434
▁korku	-9.45604
▁kurdu	-9.45642
▁tut	-9.45647
ser	-9.45679
▁Özellikle	-9.45681
liğini	-9.45705
▁durur	-9.45705
▁The	-9.4572
▁grubu	-9.4577
▁İngilizce	-9.45797
▁Ana	-9.45942
ret	-9.46024
▁dua	-9.46101
▁forma	-9.46129
▁An	-9.46138
başı	-9.46145
▁Günümüzde	-9.46231
▁almış	-9.46242
ilen	-9.46283
▁kor	-9.46288
mıştı	-9.46449
Kimi	-9.46572
▁kesin	-9.46597
ıldı	-9.46784
can	-9.4682
▁re	-9.47002
▁Krallık	-9.47072
▁Gün	-9.47078
▁düşer	-9.47101
Ç	-9.47223
lak	-9.47233
▁sal	-9.47332
▁zarar	-9.47367
▁yapmıştır	-9.47375
▁kitabı	-9.47419
▁yap	-9.47587
▁gir	-9.4763
İnsan	-9.47684
▁hesap	-9.47688
▁Osman	-9.47726
▁mevcuttur	-9.47913
sü	-9.47924
▁L	-9.47942
▁yerini	-9.47952
▁üzerindeki	-9.48012
▁çile	-9.48031
▁ayrılık	-9.48066
▁yanlış	-9.48122
ör	-9.48292
▁zorunda	-9.48294
▁yılından	-9.4832
▁selam	-9.48365
▁bilmez	-9.48377
▁bitti	-9.48444
▁okul	-9.48518
▁şöyle	-9.4859
▁kol	-9.4864
▁X	-9.48723
▁metal	-9.48727
▁olmadığı	-9.48821
az	-9.48929
▁sona	-9.48946
ysa	-9.48966
▁resmî	-9.49009
Ey	-9.49016
▁mümkün	-9.49061
▁üretim	-9.49085
▁yapısı	-9.49107
▁Spor	-9.49126
▁100	-9.492
▁köy	-9.49233
▁seviyorum	-9.49272
▁çünkü	-9.49349
▁insanların	-9.4935
▁gelecek	-9.49407
▁uyu	-9.49429
▁gaz	-9.49467
▁halde	-9.49538
▁Can	-9.49597
▁Arap	-9.49759
▁karşısında	-9.49796
▁çık	-9.49836
2'	-9.49852
mıyor	-9.4986
▁şeyi	-9.49896
lığın	-9.49909
sıyla	-9.49911
▁sahne	-9.49919
▁Ligi	-9.50092
▁bayram	-9.50146
▁açar	-9.50239
▁ruh	-9.50343
hane	-9.50377
▁İnsan	-9.50384
▁Mo	-9.50395
▁26	-9.50495
▁başta	-9.50502
▁Aşk	-9.50538
ünü	-9.50565
▁Halk	-9.50707
▁engel	-9.50874
mayı	-9.50986
▁elektrik	-9.50995
▁çalışmaları	-9.51026
▁yoksa	-9.51082
▁isyan	-9.51148
gün	-9.51201
▁Ülkenin	-9.51309
▁geldim	-9.51316
▁günler	-9.51376
W	-9.51388
▁Dağı	-9.51495
▁biçimde	-9.51497
▁Y	-9.51564
▁ordu	-9.51567
ği	-9.51587
Daha	-9.51673
▁süren	-9.51692
Öyle	-9.51773
ger	-9.5181
▁parçası	-9.51848
▁hayvan	-9.51857
▁silah	-9.51867
Türk	-9.5197
▁çalıştı	-9.51992
bil	-9.52006
▁yaşadığı	-9.52077
▁arkadaş	-9.52094
▁kale	-9.52105
▁alıp	-9.52136
gel	-9.52152
▁demek	-9.52174
üp	-9.52176
Son	-9.52179
uyor	-9.52193
Can	-9.52207
Su	-9.52238
▁söyler	-9.52351
▁eşi	-9.52371
▁Dil	-9.52443
▁Uluslararası	-9.52546
▁yazdı	-9.52557
amaz	-9.52668
▁İç	-9.52672
bo	-9.52729
yordu	-9.52767
▁elinde	-9.52815
▁iz	-9.52885
▁oyuncu	-9.52903
▁kül	-9.5299
▁Süleyman	-9.53016
▁Mi	-9.53024
▁kaynağı	-9.53071
una	-9.53088
▁Millî	-9.53105
amadım	-9.53183
▁bilimsel	-9.5322
▁19.	-9.53228
▁!	-9.5324
Güzel	-9.53243
▁içindeki	-9.53279
▁hatta	-9.53301
sından	-9.53332
▁iklim	-9.53375
▁kardeşi	-9.53391
lendi	-9.53458
▁insanın	-9.53589
▁bağ	-9.53693
miyor	-9.537
▁Ama	-9.53747
Kendi	-9.53944
Sanki	-9.53955
▁Pa	-9.53962
▁hafta	-9.53963
▁yapma	-9.54125
▁güney	-9.54127
▁birinci	-9.54218
▁J	-9.543
▁verildi	-9.54312
▁kelime	-9.54318
Sevda	-9.54394
▁alev	-9.54405
Artık	-9.54451
▁veri	-9.54539
▁Bölgesi	-9.54568
▁bitki	-9.54691
q	-9.54712
▁içi	-9.54733
▁–	-9.5477
▁mal	-9.54777
▁taşıyan	-9.54822
▁önem	-9.5484
▁alarak	-9.54876
▁kur	-9.54908
7	-9.55004
▁gönlüm	-9.55023
lim	-9.55024
Tek	-9.55036
kları	-9.55206
▁kuşlar	-9.55222
dığım	-9.55398
▁rüya	-9.55419
▁koy	-9.55533
▁kontrol	-9.55535
–	-9.5556
8	-9.55788
▁herkes	-9.55829
▁oluşturur	-9.55831
▁yaprak	-9.55868
▁aslında	-9.55954
▁kendisi	-9.5609
ımız	-9.56148
▁gösteren	-9.56183
iyet	-9.56277
▁29	-9.56278
▁arada	-9.56292
▁yönelik	-9.56304
ılmış	-9.5637
▁başarı	-9.56435
▁Hasan	-9.56486
▁s	-9.56487
▁Amerikan	-9.56495
▁2000	-9.56537
▁imza	-9.56595
▁aşık	-9.56638
▁çocuklar	-9.56653
▁Do	-9.56676
▁Ah	-9.56738
▁Fenerbahçe	-9.56765
▁diyor	-9.56767
▁yağ	-9.56856
▁tiyatro	-9.56919
▁içeren	-9.5703
▁tutar	-9.57093
`	-9.57187
Acı	-9.57215
▁suyu	-9.57277
▁dönemin	-9.57328
▁bulur	-9.57444
▁sıcaklık	-9.57485
▁sor	-9.57506
kullanılmaktadır	-9.5753
lığını	-9.57614
▁hepsi	-9.57739
▁kapı	-9.5774
▁albümü	-9.57974
▁kıyı	-9.58044
▁ayrıldı	-9.58131
▁ölü	-9.58164
▁başkenti	-9.58183
per	-9.5821
▁suç	-9.58278
▁Bursa	-9.58346
ner	-9.58413
▁özellikleri	-9.58441
mo	-9.58503
▁Burada	-9.58532
▁kuruldu	-9.58609
▁Bunlar	-9.58679
▁av	-9.58768
malı	-9.588
▁resim	-9.58944
▁Tarih	-9.58947
siyle	-9.59033
iyorum	-9.59052
▁alma	-9.59097
Ü	-9.591
▁kurban	-9.59108
▁birbirine	-9.59145
▁Ba	-9.59162
▁sert	-9.59227
▁yasa	-9.59229
ası	-9.59306
▁Dr	-9.59319
▁alanında	-9.59349
▁akan	-9.59409
▁50	-9.59417
▁gelip	-9.59619
▁Kültür	-9.59628
▁‘	-9.5971
▁vakit	-9.59721
meyen	-9.5977
ev	-9.59776
yo	-9.59842
▁faaliyet	-9.59843
ladı	-9.59905
9	-9.60064
▁Hak	-9.60084
makta	-9.60198
▁San	-9.60218
▁vakti	-9.60257
▁gördü	-9.60292
▁Kar	-9.60341
▁türü	-9.604
seni	-9.60401
▁konuşma	-9.60402
▁karşın	-9.60485
▁öğrenci	-9.60506
▁Yüksek	-9.60609
Ak	-9.60647
▁oluşturan	-9.60677
▁hasta	-9.60712
▁ka	-9.60787
▁serbest	-9.60841
▁önceki	-9.60903
▁olmadı	-9.60925
▁as	-9.6093
▁sevgilim	-9.60941
ayım	-9.6096
▁verme	-9.60974
▁hakkı	-9.61018
▁belirli	-9.61069
▁orada	-9.6115
▁Tarihçe	-9.61198
▁yaşamak	-9.6121
▁ö	-9.61223
▁uzay	-9.61236
Gece	-9.61262
▁asıl	-9.613
▁yaşama	-9.61529
):	-9.61548
▁kalmadı	-9.61558
▁yarar	-9.61696
dıkça	-9.61755
▁Merkezi	-9.61758
An	-9.61861
▁Sovyetler	-9.61861
▁günlük	-9.61869
oz	-9.62001
ot	-9.62135
▁getir	-9.6215
▁dava	-9.62154
▁tahmin	-9.62199
10	-9.62204
ə	-9.62287
▁üyesi	-9.62296
▁giren	-9.62301
▁temiz	-9.62405
▁katı	-9.62481
▁Baş	-9.62481
▁sessiz	-9.62628
▁bakımından	-9.62635
▁2005	-9.62737
▁ediyor	-9.62766
ap	-9.62771
▁Bugün	-9.62877
▁transfer	-9.629
X	-9.62945
Sensiz	-9.63028
acı	-9.63151
▁henüz	-9.63151
▁°	-9.6318
▁genelinde	-9.63193
▁nüfusun	-9.63222
Yeni	-9.63262
▁bilmem	-9.63264
mde	-9.63289
▁işi	-9.63294
▁Parti	-9.63356
▁dek	-9.63358
▁W	-9.63406
▁uyan	-9.63433
▁yapılır	-9.63513
▁sensin	-9.63598
▁mevsim	-9.63749
po	-9.63757
▁hayatını	-9.63791
▁On	-9.63805
▁yandan	-9.63817
▁pencere	-9.64034
▁tercih	-9.6409
▁misali	-9.64095
Sa	-9.6424
▁Başkanı	-9.64317
▁Man	-9.64368
▁itibarıyla	-9.64445
▁kardeş	-9.64589
▁nice	-9.64594
▁kendimi	-9.64609
▁gücü	-9.64609
▁başı	-9.64639
Çünkü	-9.64664
Hem	-9.64791
▁orman	-9.64909
ia	-9.64912
▁taşır	-9.64942
▁zamanı	-9.64971
▁gerekli	-9.65
▁çalışmalar	-9.65018
▁güven	-9.65057
amam	-9.65163
▁Küçük	-9.65189
▁tak	-9.65254
▁ölçüde	-9.65283
▁Öz	-9.65294
▁sürdü	-9.65299
▁olmalı	-9.65351
▁eline	-9.65357
Söyle	-9.65558
Bazen	-9.65595
▁rengi	-9.65641
▁doğdu	-9.65707
▁Bo	-9.65717
aç	-9.65733
medi	-9.65776
▁ortasında	-9.65794
▁hücre	-9.65817
▁yerinde	-9.65833
▁Ka	-9.65918
▁p	-9.65955
▁çay	-9.66018
▁yapmak	-9.66021
▁saygı	-9.66186
Var	-9.66208
asyon	-9.66302
cılık	-9.66303
ren	-9.66309
▁bunların	-9.66319
▁özelliği	-9.66437
leşme	-9.66482
▁yönetimi	-9.66555
ık	-9.66645
▁sır	-9.66675
▁sar	-9.667
▁eseri	-9.66727
▁sınır	-9.66785
leşmiş	-9.66831
▁tanı	-9.66941
▁c	-9.67
köy	-9.67018
kara	-9.6713
▁kararı	-9.67162
▁yılının	-9.67163
▁duman	-9.67174
▁yanımda	-9.67204
op	-9.67231
▁gözü	-9.67261
▁ordusu	-9.6731
▁oda	-9.67322
▁denilen	-9.67326
üz	-9.67353
>	-9.67462
▁kaynak	-9.67469
▁nedeni	-9.676
▁çizgi	-9.67606
▁yakar	-9.67617
▁Da	-9.6765
fer	-9.67682
layıp	-9.67704
▁çıkmıştır	-9.67742
▁aş	-9.67755
▁Yaz	-9.67844
▁bulundu	-9.67974
Kar	-9.68019
nce	-9.68024
har	-9.68029
Hayat	-9.68078
The	-9.68079
▁hız	-9.68117
Ma	-9.68128
▁görevi	-9.6824
tal	-9.68344
▁yapılmış	-9.68346
▁halkın	-9.68382
lıyor	-9.68429
▁maç	-9.68443
▁Şimdi	-9.68458
▁Ni	-9.68481
met	-9.68538
▁düz	-9.68553
▁akıl	-9.68584
▁üretimi	-9.68688
▁seven	-9.68742
20	-9.68742
▁tel	-9.68863
▁gelin	-9.68886
û	-9.68937
▁kurulmuş	-9.68951
▁2008	-9.68996
▁kalem	-9.69067
▁öğretim	-9.69098
meden	-9.69122
▁sonsuz	-9.69144
or	-9.6915
▁Merkez	-9.6916
▁üniversite	-9.69273
▁gündüz	-9.69287
let	-9.69299
▁alınan	-9.69309
kleri	-9.69333
ov	-9.6934
kı	-9.69366
▁Irak	-9.694
▁çocuğu	-9.69411
▁sağlık	-9.69452
madı	-9.69631
▁bol	-9.69651
▁şeyler	-9.69745
▁gelmez	-9.69787
▁yanar	-9.69917
▁sağlar	-9.69952
▁Or	-9.6998
▁onlar	-9.70001
▁Şah	-9.70016
▁onları	-9.70045
▁rahat	-9.70063
▁sınıf	-9.70072
ğı	-9.70086
eli	-9.70278
▁sa	-9.7028
▁yarım	-9.70447
▁konuş	-9.70584
ster	-9.70608
ıyordu	-9.70634
▁Tek	-9.70705
▁DNA	-9.70741
▁yüce	-9.70743
▁verilir	-9.70795
▁teslim	-9.70897
▁dakika	-9.70899
▁alanda	-9.70915
▁bakış	-9.70938
▁roman	-9.70991
▁esas	-9.71002
▁attı	-9.71107
▁giriş	-9.71125
▁Fatih	-9.71185
▁işaret	-9.71229
▁yaşar	-9.71238
▁takip	-9.71284
▁çeker	-9.71336
▁Efendi	-9.71353
▁gerekir	-9.71368
▁yanına	-9.71376
▁zamanında	-9.71387
▁yolunda	-9.71389
▁duvar	-9.71467
▁Hava	-9.71479
he	-9.71514
▁gözleri	-9.71545
▁Yunanistan	-9.71588
▁zamanlar	-9.7163
unda	-9.71649
▁gelmektedir	-9.71703
▁bilinir	-9.71719
▁liman	-9.71724
yer	-9.71792
▁araya	-9.71854
▁Kore	-9.71858
mü	-9.71888
▁uygulama	-9.7195
▁yerli	-9.72023
▁karşılık	-9.72034
▁Ödülü	-9.72218
▁kişinin	-9.72266
▁öte	-9.72286
▁Ko	-9.72292
▁kalbim	-9.72548
▁ziyaret	-9.72581
"),	-9.72615
▁sil	-9.72631
uk	-9.72668
▁Şu	-9.72668
Güneş	-9.7267
▁Co	-9.7272
▁yaşanan	-9.72723
▁kokusu	-9.72756
▁hükûmet	-9.72799
De	-9.728
▁kalmıştır	-9.72864
▁Güzel	-9.72886
▁sağlayan	-9.73007
▁Denizi	-9.73025
dun	-9.73041
ğa	-9.73127
▁diz	-9.73164
sana	-9.73259
▁durumda	-9.73266
▁kazan	-9.73362
larımız	-9.7347
▁keder	-9.73503
▁Bak	-9.73527
▁etkili	-9.73547
bey	-9.73555
lâ	-9.73556
▁böylece	-9.73572
Göz	-9.73634
unun	-9.73644
Kaç	-9.73696
▁Yahudi	-9.73697
▁plan	-9.73707
▁Nehri	-9.73731
Aç	-9.73733
▁görme	-9.73744
▁0	-9.73853
▁kurulu	-9.73866
▁sefer	-9.73915
▁Devletleri	-9.73962
▁Film	-9.74067
▁Sana	-9.74102
▁Uzun	-9.74117
Ha	-9.74182
▁nokta	-9.74195
lüğü	-9.74218
▁verilmiştir	-9.74265
▁almak	-9.74271
▁edilmesi	-9.74282
▁Şehir	-9.74325
▁Fransızca	-9.74341
19	-9.74381
ilir	-9.74482
▁buldu	-9.7451
▁yapılmıştır	-9.74532
▁New	-9.74551
▁Mehmed	-9.74554
▁biter	-9.74567
▁cennet	-9.74591
▁yardımcı	-9.74604
▁öncesi	-9.74612
▁kutsal	-9.74618
▁dışı	-9.74625
▁f	-9.74707
▁say	-9.74707
mayan	-9.74735
▁hedef	-9.74768
▁akar	-9.74796
▁sel	-9.74802
▁etmez	-9.74837
▁Yer	-9.74845
▁dolar	-9.74907
▁oluyor	-9.7492
▁denen	-9.7492
▁cam	-9.74946
ok	-9.74947
▁sözü	-9.74952
▁İtalyan	-9.74955
▁adlandırılan	-9.74989
▁getirdi	-9.75006
▁bundan	-9.75029
luğu	-9.7506
▁mutluluk	-9.75066
▁kurşun	-9.75077
▁hayata	-9.75116
▁yoluyla	-9.75134
laşma	-9.75138
▁arka	-9.7514
▁As	-9.75142
▁toplum	-9.75163
▁2006	-9.75191
▁31	-9.75224
ut	-9.75236
▁sabit	-9.75247
Neden	-9.75275
hi	-9.75296
▁Avusturya	-9.75317
▁Tüm	-9.75327
ara	-9.75346
bin	-9.75382
▁Çağ	-9.75416
▁yurt	-9.75458
▁4.	-9.75492
▁İbrahim	-9.75548
ılması	-9.75572
▁ar	-9.75662
▁kap	-9.75685
cü	-9.7587
▁yüzü	-9.75878
▁duy	-9.75882
▁Var	-9.75903
ağı	-9.75917
00	-9.75952
▁meyve	-9.75991
▁vermiştir	-9.7611
▁kuvvet	-9.76147
▁toprağa	-9.76205
▁Gazi	-9.76381
▁sevmek	-9.76382
▁Van	-9.76385
▁tespit	-9.76388
ley	-9.76422
emez	-9.76455
▁Belediye	-9.76481
oloji	-9.76507
▁yaşlı	-9.76514
▁Kan	-9.76646
▁20.	-9.76668
taş	-9.76676
▁millet	-9.76762
▁geçiş	-9.76772
▁bırakma	-9.76809
▁alın	-9.76817
mayın	-9.76828
▁sebebiyle	-9.76835
▁yoktu	-9.76842
tığı	-9.76864
▁Pi	-9.76909
▁edebiyat	-9.77024
▁kendisini	-9.77087
Ana	-9.77093
şi	-9.77129
▁oldun	-9.77176
▁Z	-9.77252
lanmıştır	-9.77357
tık	-9.77421
▁tahta	-9.77445
▁bulut	-9.77474
mar	-9.77495
Yer	-9.7751
▁birisi	-9.77516
▁darbe	-9.77678
▁ayı	-9.77694
▁gözler	-9.77728
▁Savaş	-9.77739
▁mısın	-9.77763
▁düzenlenen	-9.77817
▁Ke	-9.77826
▁yerlerde	-9.77859
▁ekmek	-9.77916
▁Bakanlığı	-9.7794
▁40	-9.7801
▁gören	-9.78048
▁sezonu	-9.78175
▁kullanılmıştır	-9.78222
▁asit	-9.78244
▁bakar	-9.78319
▁III	-9.7834
if	-9.78375
▁yorgun	-9.78397
▁yasak	-9.78412
▁UEFA	-9.78462
Tüm	-9.78479
▁zaten	-9.78483
▁yıldızlar	-9.78521
▁zalim	-9.78563
▁Hindistan	-9.78593
▁normal	-9.78598
şa	-9.78628
▁dostlar	-9.78684
▁doğrudan	-9.78755
mişti	-9.78755
Yaz	-9.78775
▁seçim	-9.78797
▁lig	-9.78797
▁sebebi	-9.78848
▁yangın	-9.78874
▁anlam	-9.78891
▁sinema	-9.78891
gin	-9.78892
▁bul	-9.78911
)"	-9.78915
▁yapmış	-9.7894
▁vur	-9.78943
▁olmadan	-9.78966
▁Selçuklu	-9.79009
▁2004	-9.79066
▁televizyon	-9.79119
▁güne	-9.7917
▁ettim	-9.79309
▁yaşa	-9.79315
larımı	-9.79315
▁Altın	-9.79325
▁(18	-9.79333
▁2007	-9.79418
▁bazıları	-9.79467
▁görüş	-9.79498
Böyle	-9.795
30	-9.79528
▁dinle	-9.7955
ucu	-9.79568
Hak	-9.79583
Yoksa	-9.7966
süz	-9.79717
cik	-9.79762
▁amacı	-9.79818
▁geçirdi	-9.79899
▁Müzik	-9.79914
ku	-9.79974
ho	-9.79977
▁Ege	-9.79993
▁kökenli	-9.80065
▁günde	-9.80087
▁yollar	-9.80162
▁To	-9.80172
▁olmasa	-9.80222
▁huzur	-9.80265
▁güller	-9.80352
rken	-9.80357
▁konser	-9.80394
▁hızla	-9.80408
▁kişilik	-9.80531
▁Okulu	-9.80584
▁anlamı	-9.80585
cilik	-9.8059
▁insanı	-9.8063
yar	-9.80632
▁basit	-9.80642
▁annesi	-9.80688
▁kimyasal	-9.8073
▁kalk	-9.80745
▁mevcut	-9.80809
▁kapalı	-9.8085
▁geldiği	-9.80869
▁geleneksel	-9.80892
▁yüzey	-9.80902
dığını	-9.80903
▁anlamda	-9.81008
▁Yusuf	-9.81083
mer	-9.8113
▁and	-9.81151
▁genelde	-9.81177
▁buz	-9.81178
Hangi	-9.81236
▁ilçesi	-9.81253
▁sıvı	-9.81254
▁noktası	-9.81306
▁Arapça	-9.81351
▁mahalle	-9.81365
▁günah	-9.81367
▁olay	-9.81389
▁yaka	-9.81399
▁beden	-9.81432
▁uyku	-9.81436
▁Bal	-9.8147
▁atan	-9.81483
Zaman	-9.81496
▁yak	-9.81499
▁k	-9.81501
▁değeri	-9.81505
bar	-9.81511
▁Futbol	-9.81534
▁ulusal	-9.81544
▁yılda	-9.81608
▁dön	-9.81616
▁göstermektedir	-9.81668
▁ismini	-9.81697
▁felsefe	-9.81768
▁civarında	-9.81784
▁Bununla	-9.81807
▁Tarihi	-9.81895
▁2009	-9.81932
▁Antik	-9.81982
▁filmi	-9.81986
▁renkli	-9.82053
▁dayan	-9.82063
▁kızıl	-9.82173
▁kaybetti	-9.82199
▁hafif	-9.82289
▁bölgesinde	-9.82416
▁seçildi	-9.82452
▁kaldım	-9.82477
▁tanrı	-9.82523
▁görülen	-9.8261
▁ders	-9.82611
▁Zaman	-9.82679
Senden	-9.82701
▁devre	-9.82704
▁İbn	-9.82745
▁durumu	-9.82779
▁kanun	-9.82788
dağ	-9.8279
▁doğum	-9.82854
meyi	-9.82869
sar	-9.82969
▁çiçekler	-9.83123
▁doğan	-9.83247
▁seri	-9.83262
yü	-9.83265
▁koca	-9.83282
Bil	-9.8329
▁türkü	-9.8329
arım	-9.83294
▁2010	-9.83319
▁Camii	-9.83371
▁Çanakkale	-9.83424
ize	-9.83524
▁bakan	-9.83591
▁Eğer	-9.83607
▁açılan	-9.83677
▁san	-9.8371
▁Krallığı	-9.83738
▁bekler	-9.83823
ân	-9.83899
▁Selim	-9.83946
gül	-9.84006
▁Bunların	-9.84015
▁Bar	-9.8402
▁Meclisi	-9.84026
▁başlıca	-9.84079
▁Ev	-9.84126
▁görür	-9.84173
▁kafa	-9.84242
net	-9.84251
▁Ca	-9.84253
▁Po	-9.84306
uş	-9.84453
sek	-9.8447
▁John	-9.84585
▁uzanan	-9.84599
eri	-9.84655
▁açan	-9.84678
▁yolda	-9.84701
ss	-9.84709
▁giderek	-9.84721
▁Dağları	-9.84796
▁köprü	-9.84835
▁durma	-9.8484
ng	-9.84936
▁yönünde	-9.85007
▁radyo	-9.85011
▁tedavi	-9.85047
▁sekiz	-9.85117
▁arkadaşı	-9.85162
▁cümle	-9.85164
▁Ro	-9.85174
¬“	-9.85203
▁gidiyor	-9.85225
▁baskı	-9.85233
▁iman	-9.85234
lılar	-9.8529
▁yapıldı	-9.85295
▁Ol	-9.8533
▁yuva	-9.85378
▁nerde	-9.85387
▁çekti	-9.85394
umu	-9.85427
▁kentin	-9.85437
Ta	-9.85461
▁popüler	-9.85464
▁kullanımı	-9.85535
▁kırık	-9.85573
▁yalnızlık	-9.85603
▁bölgesi	-9.85616
▁derdi	-9.85643
▁komşu	-9.85689
▁elbet	-9.85741
▁doğa	-9.85756
▁kahve	-9.85761
ağa	-9.85849
▁eyle	-9.85872
▁oyunu	-9.85942
▁sayılı	-9.86012
lenmesi	-9.86023
▁me	-9.86043
amıyorum	-9.86088
▁Kuvvetleri	-9.86106
Kan	-9.86166
▁vermiş	-9.86183
meli	-9.86235
▁kullanarak	-9.86384
▁maçında	-9.86419
masın	-9.86454
▁Ho	-9.86478
▁geçmiştir	-9.86481
▁değildi	-9.86545
▁boya	-9.86586
dil	-9.86587
▁şeker	-9.86602
▁Hacı	-9.8661
Yol	-9.86625
▁oynanan	-9.86689
▁başlarında	-9.86728
▁İspanya	-9.86788
▁internet	-9.86789
▁olduğundan	-9.868
=	-9.86817
▁ter	-9.86819
baş	-9.86854
▁öz	-9.86925
▁eşit	-9.86982
▁anlaşma	-9.87003
▁hece	-9.87033
liğine	-9.87034
▁çıkmış	-9.87037
yız	-9.87041
üyor	-9.87057
▁perde	-9.87077
▁yarış	-9.87134
Sev	-9.87223
▁savunma	-9.87284
▁birden	-9.87371
▁sanatçı	-9.87419
tepe	-9.87423
▁çıkardı	-9.87426
bet	-9.87508
40	-9.87539
▁iletişim	-9.87646
▁gazete	-9.87651
▁bulunmuştur	-9.87658
▁adamı	-9.87774
▁Baba	-9.87776
<	-9.87826
▁bahçe	-9.8786
esi	-9.87862
▁klasik	-9.8787
▁unut	-9.8792
▁petrol	-9.88081
▁aşka	-9.88198
▁milyar	-9.88229
▁mezun	-9.88293
▁duygu	-9.88308
▁dostum	-9.884
▁çeşit	-9.88423
▁ölümü	-9.88428
▁şekil	-9.8857
▁Ga	-9.88581
ji	-9.88621
▁köle	-9.88626
▁Japonya	-9.88667
lenme	-9.8877
Yağmur	-9.88771
▁gölge	-9.88784
▁pazar	-9.88931
▁kıl	-9.88964
▁cami	-9.88968
▁dolayısıyla	-9.88969
▁Londra	-9.88992
▁Mü	-9.89082
Yok	-9.89106
▁es	-9.8911
..!	-9.89146
▁gözlerini	-9.89156
▁Lo	-9.892
▁kulüp	-9.89343
▁hakim	-9.89356
▁gönder	-9.89372
▁boz	-9.89372
Baş	-9.894
▁bölgeye	-9.8951
Ölüm	-9.89539
rak	-9.8955
▁kenti	-9.89582
leyen	-9.89679
şe	-9.89692
res	-9.89707
▁antik	-9.89721
▁çare	-9.89731
▁köşe	-9.89767
▁gereken	-9.89833
layarak	-9.89856
▁Kızıl	-9.89878
▁Din	-9.89899
▁tepe	-9.89956
▁diyorum	-9.89984
Dost	-9.90001
▁ceza	-9.90049
ez	-9.90129
▁Windows	-9.90169
ici	-9.90189
▁ondan	-9.90208
İlk	-9.90254
muz	-9.90277
▁h	-9.90346
▁taraf	-9.90382
ry	-9.90434
▁toplumsal	-9.90584
▁ma	-9.90588
bit	-9.90638
▁koyu	-9.9067
▁Kurulu	-9.90703
▁So	-9.90752
▁gittin	-9.90753
▁gösterdi	-9.90769
▁zayıf	-9.90782
▁Özel	-9.90803
▁onların	-9.90834
▁etmeye	-9.90863
▁bıraktı	-9.90897
▁anı	-9.90904
▁hukuk	-9.9092
niz	-9.90929
▁binlerce	-9.90959
▁Hi	-9.9105
▁Hayatı	-9.91093
kat	-9.91142
▁Nüfus	-9.9116
▁futbolcu	-9.91179
Hani	-9.91244
▁Yol	-9.9128
▁sever	-9.91288
▁bilinmektedir	-9.91312
▁olursa	-9.91321
▁önüne	-9.91343
▁babam	-9.91392
▁Hint	-9.91393
▁göze	-9.91426
▁şehit	-9.91434
▁içer	-9.91439
▁gözlem	-9.91486
▁Marmara	-9.91534
▁gelişmiş	-9.91658
▁=	-9.91686
▁Ekonomi	-9.91715
▁oluşmaktadır	-9.91767
▁Fa	-9.91792
▁kültürel	-9.92034
eceğim	-9.92045
tum	-9.92134
Oysa	-9.92148
▁satın	-9.92179
▁yazma	-9.92192
Yalnız	-9.92209
▁dem	-9.92256
▁yay	-9.92272
▁yâr	-9.923
▁güle	-9.92309
İnan	-9.9232
lin	-9.92363
▁insanları	-9.92394
▁balık	-9.92426
▁etmesi	-9.92464
▁vermek	-9.92477
▁söyledi	-9.92522
so	-9.92536
▁günün	-9.92585
▁hayatın	-9.92605
▁işçi	-9.92608
▁ata	-9.92621
▁görmek	-9.92708
▁düzen	-9.9275
▁çek	-9.92803
ilmiş	-9.92807
▁rüzgâr	-9.9282
▁usta	-9.92835
▁bölüm	-9.92875
lanması	-9.92964
▁Hüseyin	-9.92964
▁Bütün	-9.9305
▁akım	-9.93104
▁dönüş	-9.93114
▁gümüş	-9.93143
▁eserler	-9.93213
▁anam	-9.93247
▁boy	-9.93262
▁Üç	-9.93264
▁fiziksel	-9.93276
▁arar	-9.93281
▁sap	-9.93355
yol	-9.93364
▁düşmüş	-9.9345
▁cevap	-9.93482
ll	-9.93502
▁Rum	-9.93521
▁diyerek	-9.93597
▁şiirler	-9.93647
▁He	-9.93653
▁boyun	-9.93745
▁esir	-9.93749
▁sürgün	-9.93786
▁ekonomi	-9.93811
▁kaya	-9.93831
gı	-9.93866
▁tutan	-9.93922
▁Azerbaycan	-9.93934
▁Berlin	-9.94024
Kır	-9.94028
ban	-9.94182
▁etnik	-9.94183
▁başa	-9.94232
▁Müzesi	-9.94254
▁tanesi	-9.9429
▁gelişme	-9.94303
▁vergi	-9.94383
▁varsın	-9.94447
▁unutma	-9.94458
▁güneyinde	-9.94534
▁denize	-9.94557
▁yemek	-9.94614
▁oldukları	-9.94625
▁eserleri	-9.94628
▁bey	-9.94689
tın	-9.94712
▁kana	-9.9475
▁derler	-9.94767
▁yazılı	-9.94785
▁özledim	-9.94801
▁isteyen	-9.94809
▁kral	-9.94856
▁yolcu	-9.94934
▁kullanım	-9.94964
▁oynadı	-9.9498
▁dilim	-9.94981
▁2003	-9.95013
▁bayrak	-9.95242
Yan	-9.9525
İyi	-9.95257
▁başkent	-9.95362
▁kalın	-9.95384
▁çevresinde	-9.95439
ydu	-9.95466
▁tarihli	-9.9556
▁aday	-9.95571
▁aşağı	-9.95584
▁2011	-9.95608
▁dahi	-9.95692
▁bugünkü	-9.95698
▁yapımı	-9.95753
▁İsviçre	-9.95783
▁grubun	-9.95856
▁Çünkü	-9.95865
Er	-9.95907
isi	-9.95959
▁gelme	-9.95963
▁Süper	-9.95965
▁arazi	-9.95992
▁ciddi	-9.96029
▁hüküm	-9.96063
eyim	-9.96078
▁üyeleri	-9.96126
▁ayrılır	-9.96132
▁sorun	-9.96153
▁yarısı	-9.96227
▁Ara	-9.96271
0.000	-9.96315
▁anlatır	-9.96329
▁Gölü	-9.96375
▁bitmez	-9.96396
ana	-9.96414
▁yüzde	-9.96456
▁bitirdi	-9.96459
lt	-9.96475
▁yüzüne	-9.96516
▁Gel	-9.96533
▁İyi	-9.96617
▁zehir	-9.96666
les	-9.96715
▁tren	-9.96739
▁sonuç	-9.96792
▁adında	-9.96826
acağı	-9.96906
▁ili	-9.9693
▁zamanla	-9.96943
▁arı	-9.96954
Herkes	-9.97048
par	-9.97053
▁2002	-9.97068
▁başlamış	-9.97104
▁yaşı	-9.97175
▁İsveç	-9.97189
▁5.	-9.97245
mekte	-9.97245
lem	-9.97303
▁ailesi	-9.97336
▁At	-9.97356
▁dünyayı	-9.97389
▁halkı	-9.97497
▁Kıbrıs	-9.9751
diğim	-9.97537
▁ad	-9.97557
▁ilişkin	-9.97563
▁fayda	-9.97575
▁şarkılar	-9.97635
▁kaldır	-9.97681
▁saç	-9.97712
▁nur	-9.97723
▁kilometre	-9.97761
▁aralarında	-9.97866
▁d	-9.97872
▁tanım	-9.97874
▁aracı	-9.97896
▁günleri	-9.97896
▁uğruna	-9.97919
▁x	-9.97922
mis	-9.98069
▁cm	-9.9809
▁kum	-9.98134
▁Ye	-9.98212
▁ton	-9.98216
▁geriye	-9.98242
▁ağla	-9.98269
▁devletin	-9.9827
wa	-9.98288
▁başını	-9.98308
sta	-9.98332
emedim	-9.98372
▁dün	-9.98379
▁Hu	-9.98404
▁neredeyse	-9.98406
▁6.	-9.98413
mekteydi	-9.98475
▁halka	-9.98479
▁Yunanca	-9.9854
▁ticari	-9.98558
Ara	-9.98562
▁beste	-9.98606
Aşkın	-9.98624
▁İş	-9.98636
▁2001	-9.98674
▁Mu	-9.98719
▁ısı	-9.98734
Yalan	-9.98746
▁serin	-9.98746
▁kazanmıştır	-9.98763
▁Ahmed	-9.98772
▁dokuz	-9.98801
nız	-9.98824
ly	-9.98825
▁Sanat	-9.9888
▁görülmektedir	-9.98897
▁Lu	-9.98971
lıdır	-9.99055
▁yayınlanan	-9.99064
▁Murat	-9.99146
▁kuzeyinde	-9.99178
▁u	-9.992
▁pul	-9.99204
▁kazanan	-9.99205
▁ulaş	-9.99214
lat	-9.99238
▁istedi	-9.99313
▁Hitler	-9.99368
▁dediğin	-9.99406
▁müziği	-9.99413
▁ağlıyor	-9.99416
▁eğitimi	-9.99451
▁çalış	-9.99517
lerimiz	-9.99521
▁istifa	-9.99528
▁oluşturduğu	-9.99568
▁deme	-9.99602
▁bekle	-9.99623
▁telefon	-9.99648
▁içerir	-9.9968
kâr	-9.99776
▁sesleri	-9.99793
Büyük	-9.99844
▁kırk	-9.99857
▁diyar	-9.99865
▁gözlerinde	-9.99893
▁saldırı	-9.99937
▁çoğunluğu	-9.99939
ris	-9.99942
▁bakma	-9.99975
▁zamanlarda	-10
Anne	-10.0007
▁geceler	-10.0007
▁çoğunlukla	-10.0009
▁yazılmış	-10.0016
▁ölür	-10.0018
▁neler	-10.0018
▁yağış	-10.002
şar	-10.0024
▁ettiler	-10.0026
11	-10.0029
sh	-10.0033
altı	-10.0038
▁Babası	-10.0041
tek	-10.0047
▁sayfa	-10.0052
DE	-10.0053
ğu	-10.0054
▁özlem	-10.0057
▁gözyaşı	-10.006
▁kıta	-10.0071
▁Ri	-10.0074
▁Birçok	-10.0074
▁sevme	-10.0075
▁sözleri	-10.0076
mızı	-10.0076
uyorum	-10.0079
▁alındı	-10.0088
▁Antlaşması	-10.0099
▁kader	-10.0107
dığın	-10.0114
lerdi	-10.0123
▁olsam	-10.0124
▁Beni	-10.0128
▁Kürt	-10.0129
İş	-10.0129
▁soru	-10.0131
▁ulaşım	-10.0134
▁has	-10.0141
▁gen	-10.0143
Deniz	-10.0143
Be	-10.0145
▁davet	-10.0145
▁tipi	-10.0147
yiz	-10.0154
düm	-10.0155
▁sular	-10.0156
▁sigara	-10.0156
▁dişi	-10.0157
▁gelsin	-10.0163
▁İsa	-10.0167
▁gülü	-10.0168
▁bölgelerde	-10.0174
▁Hoca	-10.0175
▁dilleri	-10.0183
▁giderken	-10.019
▁Ku	-10.0192
▁bilen	-10.0195
▁gam	-10.0196
▁yirmi	-10.0198
▁değilim	-10.0199
▁oku	-10.0202
▁onlara	-10.0203
▁özgü	-10.0204
▁Taş	-10.0206
▁yat	-10.0211
▁olurdu	-10.0213
▁Moskova	-10.0214
▁standart	-10.0215
▁gözüm	-10.022
25	-10.0221
▁Aydın	-10.0223
çok	-10.0225
▁lisans	-10.0228
▁doldu	-10.0231
▁musun	-10.0241
▁gelince	-10.0242
▁hat	-10.025
▁sınıfı	-10.0251
▁açı	-10.0251
▁işlem	-10.0253
▁götür	-10.0258
▁ortadan	-10.0265
60	-10.0266
Gözlerin	-10.0268
▁bulutlar	-10.0273
▁kopar	-10.0275
▁Timur	-10.0281
▁Kimi	-10.0283
▁öğren	-10.0286
▁nerede	-10.0289
▁elinden	-10.029
▁takımın	-10.0291
▁göster	-10.0292
▁No	-10.0297
▁yoksun	-10.0299
▁soy	-10.0301
abilecek	-10.0302
▁program	-10.0305
eceği	-10.0308
göz	-10.0311
▁sözler	-10.0317
ab	-10.0318
▁olduğuna	-10.0319
gar	-10.0332
dere	-10.0332
▁Va	-10.0333
▁getirildi	-10.0336
▁yolları	-10.0339
▁ölümünden	-10.0343
ova	-10.0344
▁bulunması	-10.0357
ilmesi	-10.0368
▁şehirde	-10.0371
ılarak	-10.0372
aj	-10.0373
laş	-10.0375
▁sarhoş	-10.0376
▁dönemlerde	-10.038
evi	-10.0382
▁toz	-10.0386
▁fi	-10.0387
▁Britanya	-10.0389
▁kes	-10.0391
▁olmadığını	-10.0392
▁se	-10.0394
▁girer	-10.0397
▁Araştırma	-10.0399
▁teknoloji	-10.0401
▁“"	-10.041
▁yaşadı	-10.0411
▁mor	-10.0411
Der	-10.0412
▁anla	-10.0417
bak	-10.0418
Bırak	-10.042
▁nefret	-10.0425
liyor	-10.0429
ment	-10.0429
▁derman	-10.0433
Bugün	-10.0435
▁Ata	-10.0449
▁oluşturmaktadır	-10.0451
▁Mer	-10.0454
▁sürü	-10.0456
▁hakları	-10.046
La	-10.0462
▁hastalık	-10.0463
lanıp	-10.0468
Se	-10.0469
tra	-10.0475
tma	-10.0476
▁ateşi	-10.0477
gerçekleştirilen	-10.048
▁Suriye	-10.048
▁gitmek	-10.0485
top	-10.0486
▁yorum	-10.0487
▁kuvvetleri	-10.0489
▁Ada	-10.0491
masını	-10.0498
ılmaz	-10.0501
▁dediler	-10.051
hat	-10.0511
▁yazarı	-10.0514
▁2019	-10.0514
▁Sivas	-10.0517
▁atom	-10.0517
yıp	-10.0519
▁ürünleri	-10.0527
▁sağladı	-10.0532
▁geldin	-10.0532
İstanbul	-10.0553
Gör	-10.0561
▁ihtiyaç	-10.0566
ard	-10.0569
▁ışığı	-10.0577
zu	-10.0578
"”	-10.058
▁kas	-10.0581
▁elektron	-10.0584
▁sesini	-10.0584
▁kilise	-10.0585
▁çözüm	-10.0586
▁1999	-10.0588
▁hali	-10.059
▁Fi	-10.059
▁kulak	-10.0593
▁batısında	-10.0594
▁Hanım	-10.0597
▁em	-10.0601
▁türleri	-10.0603
▁Demir	-10.061
pan	-10.0616
▁Coğrafya	-10.0618
▁siz	-10.0618
On	-10.0618
▁Ş	-10.0621
▁bırakıp	-10.0626
▁kod	-10.0629
▁Adaları	-10.0635
▁yapılmaktadır	-10.0641
▁süt	-10.0649
abı	-10.0651
▁Grup	-10.0656
▁politik	-10.0664
50	-10.0666
▁2012	-10.0674
lidir	-10.0679
▁vurur	-10.0679
▁kütle	-10.0685
▁arama	-10.0698
ildi	-10.0699
▁alış	-10.0701
▁isteği	-10.0702
▁Benim	-10.0704
▁yürü	-10.0706
▁doğusunda	-10.0707
▁Bil	-10.0712
▁dolan	-10.0717
▁yolunu	-10.0717
▁yazılım	-10.0719
80	-10.072
▁size	-10.0728
▁Biz	-10.0729
▁Sonra	-10.073
▁görevini	-10.0731
▁günümüze	-10.0734
▁yılın	-10.0736
▁suyun	-10.074
▁sonuna	-10.0741
▁sonbahar	-10.0753
▁savaşı	-10.0754
J	-10.0757
▁kariyeri	-10.0757
▁yerden	-10.0758
▁parlak	-10.076
▁oğul	-10.0765
▁Sarı	-10.0771
Si	-10.0772
▁Hristiyan	-10.0777
▁küme	-10.0777
▁aşırı	-10.0778
▁kalsın	-10.0779
▁dans	-10.0787
syon	-10.0788
hal	-10.0791
▁yapmaya	-10.0792
▁ağacı	-10.0793
▁is	-10.0794
▁Vi	-10.0795
▁fakir	-10.0796
▁artış	-10.0801
▁Har	-10.0803
ion	-10.0803
▁saklı	-10.081
▁yarın	-10.0811
▁bölgenin	-10.0819
▁kendime	-10.082
siniz	-10.0824
▁edecek	-10.0825
zer	-10.0826
▁gitar	-10.0826
▁Edirne	-10.0828
▁biliyorum	-10.0832
▁aşkım	-10.0832
▁Kral	-10.0834
Başka	-10.0837
At	-10.084
▁ok	-10.0842
hem	-10.0842
▁Orhan	-10.0846
▁Erzurum	-10.0846
▁60	-10.0852
yacak	-10.0856
▁yoluna	-10.087
▁hata	-10.087
▁zafer	-10.0872
12	-10.0873
medim	-10.0876
▁kişiler	-10.088
▁çocukları	-10.0884
90	-10.0888
ff	-10.0889
▁Ge	-10.0892
▁York	-10.0894
Vatan	-10.0896
▁Ulusal	-10.0899
Hasret	-10.0903
18	-10.0904
idir	-10.0905
▁dayanır	-10.0906
▁isterim	-10.0907
Sadece	-10.0907
▁ederken	-10.091
Biraz	-10.0914
▁yüreğime	-10.0916
▁2014	-10.0921
▁alanları	-10.0928
▁benzeri	-10.0928
▁bina	-10.0935
▁boşa	-10.0937
▁mm	-10.0938
▁hareketi	-10.0942
▁verdim	-10.0944
▁deprem	-10.0947
▁satış	-10.0956
▁başıma	-10.096
Seninle	-10.0961
▁dev	-10.0961
▁özgür	-10.0976
▁Ülkede	-10.0979
▁görüntü	-10.098
▁olmaya	-10.0981
▁çıktığı	-10.099
17	-10.0993
iki	-10.0998
▁gruplar	-10.1004
tor	-10.1005
▁nehir	-10.1005
▁yolun	-10.1007
▁Bunlardan	-10.1008
▁Çelebi	-10.1009
yorum	-10.1013
▁ağrı	-10.1013
▁kavga	-10.1015
▁olduk	-10.1017
▁ulaştı	-10.1018
cılar	-10.1019
▁durumunda	-10.1032
▁gecenin	-10.1035
▁müze	-10.1053
▁Adana	-10.1054
▁7.	-10.106
ham	-10.107
▁sokak	-10.1077
val	-10.1079
▁olmakla	-10.1082
emem	-10.1083
▁dalı	-10.1087
▁seviye	-10.1088
▁1991	-10.109
▁önde	-10.1091
Re	-10.1093
av	-10.1095
▁atar	-10.1095
▁kok	-10.1097
Din	-10.1097
▁işletim	-10.11
▁toprakları	-10.1109
▁yüzünü	-10.1112
▁Şiir	-10.1131
ic	-10.1133
ts	-10.1136
Bin	-10.1137
kçe	-10.1137
▁Birinci	-10.1138
Gözlerim	-10.1142
▁araba	-10.1143
▁gövde	-10.1145
▁dağları	-10.1151
▁saha	-10.1151
▁kelimesi	-10.1152
▁sonradan	-10.1153
▁üstü	-10.1153
▁tamamladı	-10.1153
▁aktif	-10.1158
▁doku	-10.1159
sil	-10.116
▁Tur	-10.1163
▁yöntem	-10.1164
▁2013	-10.1164
▁aşağıdaki	-10.1165
▁yüreğimde	-10.1165
▁Pe	-10.1167
Ka	-10.1167
▁Hayat	-10.1169
▁zamanın	-10.1171
▁haram	-10.1175
▁Ad	-10.1178
▁Kadın	-10.1179
▁gerçekleştiril	-10.118
▁proje	-10.1182
▁Beyaz	-10.1187
ğe	-10.1189
▁milletvekili	-10.119
▁kalabalık	-10.119
▁süresi	-10.1191
▁uyar	-10.1193
▁çalışır	-10.1193
Üç	-10.1194
▁girmiştir	-10.1197
ket	-10.1198
▁yaparak	-10.12
▁İsrail	-10.12
▁İn	-10.1209
bur	-10.121
mon	-10.1212
▁sorma	-10.1213
anlar	-10.1217
▁tat	-10.1218
▁piyasa	-10.122
▁bilimi	-10.122
▁diyen	-10.1223
kor	-10.1224
▁attığı	-10.1233
leştirme	-10.1233
▁ölçü	-10.1235
▁hayatta	-10.124
▁biçim	-10.1241
Söz	-10.1242
▁+	-10.1247
▁çeken	-10.1249
yon	-10.125
▁maçı	-10.1261
▁olmasın	-10.1262
Bizim	-10.1264
▁iktidar	-10.1264
▁fizik	-10.1267
▁Avustralya	-10.1267
ıdır	-10.1268
▁Milletler	-10.1273
▁Ti	-10.1274
▁kullandığı	-10.1274
▁fırtına	-10.1275
▁ilişkiler	-10.1278
rik	-10.1281
▁kay	-10.1283
▁gözlerine	-10.1285
hu	-10.1296
▁Sal	-10.1301
ladığı	-10.1303
▁ilaç	-10.1304
▁birimi	-10.1313
▁aksine	-10.1314
Kal	-10.1316
▁ola	-10.133
masına	-10.1331
▁Ermeni	-10.1331
▁birini	-10.1337
▁tadı	-10.1341
▁duran	-10.1347
rilerine	-10.1347
lam	-10.1349
▁Ömer	-10.1353
▁oynadığı	-10.1355
Yar	-10.1359
▁1980'	-10.1361
mur	-10.1363
lanarak	-10.1365
▁olsan	-10.1369
bel	-10.1369
aşk	-10.137
ral	-10.137
▁cinsel	-10.1373
▁diken	-10.1375
▁işler	-10.1377
▁Kudüs	-10.1382
▁Bana	-10.1387
▁bilirim	-10.1387
▁çöl	-10.1388
▁ilinin	-10.1391
▁orda	-10.1394
tiği	-10.1394
▁Ordusu	-10.1395
▁çıkış	-10.1396
lardaki	-10.1399
▁bilgiler	-10.1399
▁2015	-10.1402
Kimse	-10.1404
▁1992	-10.1406
▁sözcüğü	-10.1423
▁Es	-10.1428
▁sıkı	-10.1432
▁kökeni	-10.1438
muştur	-10.1443
▁Ser	-10.1447
▁olursun	-10.1447
▁sat	-10.1455
▁koyun	-10.1458
▁model	-10.146
▁kanıt	-10.1462
▁Enstitüsü	-10.1469
ER	-10.1474
▁dağı	-10.1476
▁satır	-10.1477
▁miktarda	-10.1479
▁Fe	-10.1483
▁beyin	-10.1487
lenmiştir	-10.1489
▁karmaşık	-10.1489
▁duyar	-10.1492
daha	-10.1492
▁kristal	-10.1496
▁yüklü	-10.1498
▁uzakta	-10.1502
▁niye	-10.1507
▁etrafında	-10.1507
▁oran	-10.1518
▁2016	-10.152
ram	-10.1523
▁ötürü	-10.1525
▁yüzün	-10.1531
▁Gece	-10.1532
▁yaşamaktadır	-10.1532
▁edebiyatı	-10.1533
▁gönlüme	-10.1534
▁destan	-10.1534
Ateş	-10.1536
▁güzeli	-10.1536
▁protein	-10.154
▁bağlar	-10.1543
rit	-10.1545
Di	-10.1546
Sabah	-10.1548
▁kuruluş	-10.1556
şu	-10.1557
lamış	-10.1557
▁ülkeler	-10.1558
▁öğretmen	-10.156
ıldığı	-10.1562
sk	-10.1563
▁teorisi	-10.1565
▁kavramı	-10.1566
▁işe	-10.1569
▁bit	-10.157
▁meclis	-10.1577
▁1970'	-10.1577
▁sağlamak	-10.1578
▁tip	-10.1578
gü	-10.1581
şı	-10.1584
▁büyüme	-10.1584
▁başladığı	-10.159
▁Trabzon	-10.1593
▁getiren	-10.1597
▁emir	-10.1598
▁tez	-10.1598
▁Cumhurbaşkanı	-10.1601
üş	-10.1602
ledi	-10.1602
▁miktarı	-10.1604
▁güzelim	-10.1605
▁Latince	-10.1605
▁anlar	-10.1609
▁hükûmeti	-10.161
▁desem	-10.1613
▁merkezinde	-10.1613
▁ağlama	-10.1617
ünün	-10.1622
▁dere	-10.1625
İçimde	-10.1625
üstü	-10.1625
▁yapmaktadır	-10.1629
ks	-10.1631
▁Gönül	-10.1635
▁deyip	-10.1635
eği	-10.1641
As	-10.1641
▁kurduğu	-10.1645
▁geçiyor	-10.1647
▁yaşamı	-10.1647
▁örneğin	-10.1651
Onlar	-10.166
▁şeytan	-10.1661
lerimi	-10.1664
▁alanlarda	-10.1667
▁eksik	-10.1668
▁Hal	-10.1676
til	-10.1677
▁bağlantı	-10.1677
+	-10.168
▁şirket	-10.1681
▁32	-10.1685
▁Türkler	-10.1689
▁t	-10.169
iyordu	-10.1696
muyor	-10.1696
Ar	-10.1702
▁çağ	-10.1703
▁şampiyon	-10.1712
▁adalet	-10.1719
insan	-10.1725
▁kısım	-10.1727
luğa	-10.1733
▁Du	-10.1735
▁yaşamış	-10.1738
ime	-10.1742
kim	-10.1742
▁göl	-10.1743
zan	-10.1746
sidir	-10.1748
▁içime	-10.1749
öl	-10.1754
hep	-10.1756
▁Barış	-10.1758
▁koru	-10.1762
▁getirir	-10.1766
▁lise	-10.1769
▁sür	-10.1771
▁kadınlar	-10.1773
▁1990	-10.1774
▁cinsiyet	-10.1776
Te	-10.1779
▁masa	-10.1785
Eski	-10.1786
▁çapında	-10.1789
▁1990'	-10.1794
▁dokun	-10.1797
▁uzat	-10.18
▁giy	-10.1806
▁düzenli	-10.1806
▁tur	-10.1808
▁sürede	-10.1809
Hepsi	-10.1815
▁kamu	-10.1821
mışlardır	-10.1824
▁manyetik	-10.1825
Tanrı	-10.1833
▁yeterli	-10.1835
▁Ö	-10.1838
▁ettin	-10.184
diğin	-10.1842
▁kullanan	-10.1845
▁çiçeği	-10.1847
yâ	-10.1848
▁tartışma	-10.1848
mam	-10.1849
▁to	-10.1849
ker	-10.1849
▁Konya	-10.1851
AN	-10.1852
16	-10.1852
▁adlandırılır	-10.1852
▁vb	-10.1855
▁Para	-10.1857
pi	-10.1861
▁Sistemi	-10.1864
rt	-10.1864
▁ederler	-10.187
iç	-10.1871
ıma	-10.1876
bat	-10.1882
rı	-10.1882
▁dinler	-10.1884
▁Per	-10.1887
hiç	-10.1891
▁Antalya	-10.1906
▁okur	-10.1906
▁Teknik	-10.1911
▁meydan	-10.1916
▁çalışması	-10.1917
duk	-10.1919
▁helal	-10.1929
▁ibadet	-10.193
▁Gu	-10.1931
▁Büyükşehir	-10.1931
▁sağlam	-10.1934
▁inat	-10.1934
▁modeli	-10.1938
▁yayımlandı	-10.1942
▁iste	-10.1947
-18	-10.1952
Canım	-10.1954
▁yöntemi	-10.1954
Sende	-10.1956
don	-10.1958
▁çal	-10.196
5'	-10.1962
▁Kırım	-10.1962
İç	-10.1964
▁Kal	-10.1964
▁sonlarında	-10.1966
▁şeyin	-10.1967
▁tasarım	-10.1968
▁Köyü	-10.197
▁dönen	-10.1971
▁edin	-10.1971
▁dilinde	-10.1978
▁Za	-10.198
▁fikir	-10.198
▁varlığı	-10.1983
yecek	-10.1983
▁sözleşme	-10.1986
▁okulu	-10.1986
▁aylarında	-10.1992
▁siyaset	-10.1994
▁yanan	-10.1994
▁çarp	-10.1995
▁hızı	-10.2004
▁konuda	-10.2004
▁ödül	-10.2011
▁yaralı	-10.2011
beni	-10.2013
amazsın	-10.202
▁Sarayı	-10.2025
▁fotoğraf	-10.2028
gör	-10.2029
▁bulun	-10.2031
▁eller	-10.2033
▁açıdan	-10.2034
▁Kütahya	-10.2036
▁bebek	-10.2039
▁vermez	-10.2042
kendi	-10.2042
▁giydi	-10.2046
▁doğar	-10.2046
▁dağıt	-10.2049
Onun	-10.205
ğını	-10.2052
▁Polonya	-10.2053
▁mümkündür	-10.2054
▁Ağa	-10.2055
▁Ja	-10.2055
▁çekirdek	-10.2056
▁büyü	-10.2059
▁art	-10.2061
▁ikiye	-10.2062
▁taşıma	-10.2062
▁atandı	-10.2064
▁kanı	-10.2068
▁çalışmaya	-10.2073
▁Az	-10.2077
je	-10.2079
▁tutun	-10.2083
▁ellerin	-10.2083
▁Japon	-10.2084
▁ömrüm	-10.2085
sınız	-10.2087
▁Kim	-10.2087
▁mektup	-10.209
▁80	-10.2091
▁Ki	-10.2097
▁şiddet	-10.2098
▁ihanet	-10.2103
▁ilçesinde	-10.2104
lerdeki	-10.2104
▁turizm	-10.2106
70	-10.2108
▁hikâye	-10.2108
▁olmuştu	-10.211
▁Hollanda	-10.2111
▁yetmez	-10.2111
ladım	-10.2115
▁etkin	-10.2117
▁kalmaz	-10.2119
▁yargı	-10.2121
dâ	-10.2126
▁bomba	-10.2131
lığına	-10.2132
▁tarihinin	-10.2133
Ev	-10.2135
▁saray	-10.2138
▁Kayseri	-10.214
▁bilin	-10.2144
diğini	-10.2149
▁Sevgi	-10.2153
▁sergi	-10.2155
▁değerli	-10.2164
land	-10.2169
▁Sağlık	-10.2169
vo	-10.2171
▁kralı	-10.2173
▁istedim	-10.2174
dayım	-10.2175
▁gidiyorum	-10.2175
Mi	-10.2176
▁mekan	-10.2176
▁Artık	-10.2177
▁1994	-10.2177
▁olunca	-10.2177
▁araç	-10.218
▁koruma	-10.2187
▁kaza	-10.2187
yip	-10.2187
▁dergi	-10.2189
▁Türkmen	-10.2189
▁sızı	-10.219
▁hediye	-10.219
▁buldum	-10.2192
dal	-10.2207
▁işlemi	-10.221
▁it	-10.2212
imin	-10.2215
▁tıp	-10.2224
ırken	-10.2226
▁gezegen	-10.2232
Kul	-10.2233
▁masum	-10.2234
▁güler	-10.2238
▁çaldı	-10.2239
▁çat	-10.2239
▁çıkmaz	-10.2241
tro	-10.2243
▁vurgu	-10.2243
▁Kendi	-10.2244
▁yıldır	-10.2247
▁ilişki	-10.2248
▁gibidir	-10.2249
▁almaya	-10.225
kon	-10.2251
▁tarihte	-10.2252
35	-10.2258
ılacak	-10.2261
_	-10.2261
Ellerim	-10.2261
▁Der	-10.2264
lanıyor	-10.2264
▁Sanayi	-10.2264
▁gayrı	-10.2264
▁makam	-10.2266
▁Bazen	-10.227
▁belge	-10.2271
liler	-10.2271
▁etkileri	-10.2275
▁idam	-10.2277
▁Kent	-10.228
▁vurdu	-10.2281
▁piyasay	-10.2281
▁görünür	-10.2282
▁devir	-10.2292
▁Kitap	-10.2293
▁eri	-10.2296
▁farkı	-10.2297
▁Festivali	-10.2298
▁fikri	-10.2299
rim	-10.2301
▁söylen	-10.2309
▁harf	-10.2311
▁toprağı	-10.2315
▁hâlen	-10.2315
▁Cengiz	-10.2319
▁görüşü	-10.2324
▁mühendisliği	-10.2326
▁yaşan	-10.2327
▁evlendi	-10.2328
▁han	-10.2329
▁zar	-10.233
▁yapılar	-10.233
▁seçimleri	-10.2333
Şiir	-10.2334
▁yel	-10.2336
▁bülbül	-10.2336
▁eli	-10.2338
▁örgüt	-10.234
▁anayasa	-10.2346
▁bakıp	-10.2351
▁denk	-10.2351
mişlerdir	-10.2352
▁birbirinden	-10.2355
▁St	-10.2355
▁çaresiz	-10.2356
▁karış	-10.236
zaman	-10.2368
▁yılların	-10.2371
▁içinden	-10.2371
▁yanım	-10.2374
▁belirgin	-10.2374
▁gözlü	-10.2379
Onu	-10.2386
▁Muharebesi	-10.2387
unca	-10.2387
▁okyanus	-10.2388
▁İsmail	-10.2389
▁Kralı	-10.2389
▁dersin	-10.2389
▁Kız	-10.2391
Dağ	-10.2395
lamak	-10.2397
sizlik	-10.2399
DA	-10.2401
▁tohum	-10.2401
▁bölümünde	-10.2402
▁ters	-10.2402
▁acılar	-10.2404
▁1993	-10.2406
▁kapat	-10.241
▁geçir	-10.2412
▁kubbe	-10.2415
▁bulan	-10.2416
mdan	-10.2416
▁200	-10.2416
▁insana	-10.2417
mın	-10.242
▁geçtiği	-10.2421
▁bunları	-10.2421
Cennet	-10.2423
Dal	-10.2425
▁anılan	-10.2426
▁Bundan	-10.2432
▁Beş	-10.2432
15	-10.2434
▁annem	-10.2435
▁aklıma	-10.2435
▁dönme	-10.2435
▁gıda	-10.2435
▁Gi	-10.2441
▁Söz	-10.2441
sev	-10.2442
yorsun	-10.2442
▁teori	-10.2446
▁derdim	-10.2446
Baba	-10.2446
▁yönetiminde	-10.2447
▁iklimi	-10.2448
▁pay	-10.2459
com	-10.2459
mışım	-10.2459
▁Modern	-10.2467
▁düştüm	-10.2469
▁denge	-10.2469
▁kıyısında	-10.2471
tüm	-10.2474
▁aydın	-10.2478
mesin	-10.248
▁Gök	-10.2482
▁neşe	-10.2483
▁süreci	-10.2484
Na	-10.2484
▁Genç	-10.2491
▁yön	-10.2492
▁yolculuk	-10.2495
▁men	-10.2499
▁yayımlanan	-10.2501
▁şiiri	-10.2502
▁Ver	-10.2502
▁hani	-10.2505
▁Adası	-10.2511
▁Hem	-10.2514
ırım	-10.2515
▁kucak	-10.2515
▁derim	-10.2518
▁avuç	-10.2518
▁aracılığıyla	-10.252
▁sisteminin	-10.2527
▁artan	-10.2534
▁har	-10.2535
▁uzan	-10.2535
▁oranda	-10.2536
lay	-10.2538
▁kızım	-10.2538
▁ikisi	-10.2545
▁arz	-10.2547
kaç	-10.2549
▁yükü	-10.2554
▁olaylar	-10.2556
Tut	-10.256
▁İşte	-10.256
▁baz	-10.2561
▁kaş	-10.2564
▁varlığını	-10.2566
yet	-10.2572
sevgi	-10.2577
▁bedenim	-10.2579
▁tekne	-10.258
dikleri	-10.2582
▁yaşta	-10.2584
maktaydı	-10.2584
▁çıkıp	-10.2587
▁yapılması	-10.2587
▁güneşi	-10.2602
gal	-10.2603
▁du	-10.2603
▁yüreğimi	-10.2607
▁Önce	-10.2625
▁çağdaş	-10.2631
▁nar	-10.2633
od	-10.2633
amadı	-10.2635
▁vazgeç	-10.2635
▁1998	-10.2638
▁durdu	-10.2639
▁sus	-10.264
▁Amerikalı	-10.2649
dy	-10.2655
las	-10.2656
▁tarzı	-10.2661
▁ye	-10.2666
▁derde	-10.2676
yarak	-10.2679
▁la	-10.2683
▁Bel	-10.2684
ud	-10.2686
ius	-10.2687
▁General	-10.2687
▁hidrojen	-10.2687
▁nüfusunun	-10.2687
▁bağlıdır	-10.2689
▁gökyüzü	-10.2694
▁şirketi	-10.2695
▁sinir	-10.2696
13	-10.2696
▁vermektedir	-10.2698
▁desen	-10.27
mamış	-10.2701
▁çaba	-10.2702
▁yazık	-10.2704
▁yemin	-10.2705
▁ağız	-10.2707
▁programı	-10.2707
kır	-10.2708
▁hâlâ	-10.2709
▁soluk	-10.2713
▁Yan	-10.2714
EN	-10.2715
▁cumhuriyet	-10.2718
▁sultan	-10.2723
▁hain	-10.2727
▁babasının	-10.2727
Yüreğim	-10.2728
▁sürer	-10.2731
▁şunlardır	-10.2732
deniz	-10.2738
ant	-10.2739
kta	-10.274
▁Mor	-10.2751
▁varlık	-10.2751
▁Başkanlığı	-10.2752
▁öldür	-10.2752
▁olmuyor	-10.2754
▁İlçenin	-10.2756
▁kapsamında	-10.2761
▁kazı	-10.2763
▁kuyu	-10.2764
gon	-10.2764
öz	-10.2764
▁yüreği	-10.2764
▁ağı	-10.2765
laştı	-10.2769
▁sivil	-10.2773
zar	-10.2775
Mutluluk	-10.2779
▁In	-10.2786
▁nesil	-10.2787
Bul	-10.2788
Mavi	-10.279
şimdi	-10.2797
▁Haçlı	-10.2797
▁geçirdiği	-10.2799
Sal	-10.2799
Kalbim	-10.2799
▁açıkladı	-10.2804
anı	-10.2807
75	-10.281
▁Alp	-10.2813
▁kayıp	-10.2813
▁idare	-10.2813
▁saz	-10.2816
▁başlandı	-10.2816
1'	-10.2817
▁sözcük	-10.282
▁kardeşim	-10.2822
▁yukarı	-10.2824
▁heyecan	-10.2825
▁Devrimi	-10.2826
gun	-10.2827
▁oynar	-10.2827
▁bel	-10.2828
ılıp	-10.2834
▁sarıl	-10.2834
▁TBMM	-10.2837
▁edilebilir	-10.2841
▁heves	-10.2841
▁ürün	-10.2845
▁duygular	-10.2849
▁arasına	-10.2853
▁ağaçlar	-10.2853
▁yazılan	-10.2856
▁yöre	-10.2859
yüz	-10.2862
▁okuma	-10.2865
▁durmadan	-10.2871
▁hakkını	-10.2872
tme	-10.2873
▁1980	-10.2874
Geç	-10.2877
▁pas	-10.2879
▁!¬	-10.288
▁Ter	-10.2882
▁elleri	-10.2884
▁deri	-10.2884
kül	-10.2884
▁adın	-10.2891
▁işleme	-10.2903
Gerçek	-10.2912
▁Hiç	-10.2913
▁gerektiğini	-10.2916
▁Hep	-10.2917
▁sistemleri	-10.2919
▁ayır	-10.2919
▁Sch	-10.2922
▁Jo	-10.2925
sim	-10.2925
▁şeye	-10.2926
▁taze	-10.2928
▁masal	-10.2933
▁adres	-10.2942
▁Go	-10.2942
▁aldım	-10.2945
▁Paul	-10.2946
▁<	-10.2952
Duy	-10.2956
geç	-10.2959
▁okun	-10.2962
▁1996	-10.2963
▁katılan	-10.2968
yerek	-10.2968
▁ölen	-10.2968
▁hazırlık	-10.2969
▁Bölümü	-10.2969
▁turnuva	-10.2973
▁Murad	-10.2973
▁Yıldız	-10.2976
▁Kor	-10.2978
▁Orman	-10.2979
▁Öyle	-10.2979
▁Hukuk	-10.2981
▁Ek	-10.2981
▁hayır	-10.2983
şan	-10.2984
▁dilin	-10.2989
▁park	-10.2992
▁terimi	-10.2998
▁şekli	-10.2999
▁yayınlandı	-10.3
▁melek	-10.3
▁geçerek	-10.3001
▁bo	-10.3003
▁romanı	-10.3003
▁mah	-10.3005
fil	-10.3006
ımda	-10.3006
▁kısmında	-10.3006
▁idari	-10.3011
▁Bi	-10.3013
▁şarkısı	-10.3014
Taş	-10.3016
▁politika	-10.3017
▁inanç	-10.302
▁sevdam	-10.302
▁kurulması	-10.3022
▁yumurta	-10.3024
▁kelimeler	-10.3025
▁kalacak	-10.3025
▁öfke	-10.3026
dılar	-10.3032
▁tarla	-10.3033
▁intihar	-10.3034
abilmek	-10.3034
▁Kurumu	-10.3034
▁do	-10.3037
▁ilim	-10.3039
▁Kurtuluş	-10.304
▁suya	-10.304
▁1960'	-10.3051
Le	-10.3052
fet	-10.3055
▁omuz	-10.3061
▁kolu	-10.3062
01	-10.3066
▁İklim	-10.3067
▁padişah	-10.3069
▁sahil	-10.307
▁araştırmalar	-10.3075
▁Ze	-10.3076
▁Pro	-10.3085
İn	-10.309
Kur	-10.309
▁Anne	-10.3096
▁kasaba	-10.3097
▁kimya	-10.3098
▁kodu	-10.3099
▁Gör	-10.3102
▁matematik	-10.3104
▁yandı	-10.311
▁öncesinde	-10.3114
▁özgürlük	-10.3122
▁eşcinsel	-10.3122
▁değişiklikler	-10.3126
ron	-10.3127
▁eğ	-10.3128
Bende	-10.3131
▁başardı	-10.3135
▁not	-10.3139
▁sözüm	-10.3139
▁1995	-10.3142
▁kullanıcı	-10.3142
Türkiye	-10.3144
▁Belçika	-10.3144
▁rahmet	-10.3144
▁olanlar	-10.3145
▁tarafı	-10.3147
▁tepki	-10.3148
▁makine	-10.3153
▁yetim	-10.3156
▁deney	-10.316
▁hattı	-10.3163
ulmuş	-10.3165
▁Sol	-10.3169
▁alacak	-10.3169
▁köyü	-10.317
ans	-10.3174
landığı	-10.318
casına	-10.3187
▁gitsin	-10.3188
Yeter	-10.3188
▁Bilim	-10.3188
▁değişiklik	-10.3188
▁Robert	-10.3189
meyecek	-10.3194
▁emek	-10.3203
Deli	-10.3204
▁ala	-10.3207
99	-10.3215
▁Kısa	-10.3216
▁Dar	-10.3217
LA	-10.322
▁bulunmaz	-10.3224
▁baştan	-10.3226
laşmış	-10.323
▁â	-10.3234
we	-10.3235
ja	-10.324
▁ip	-10.324
▁görmez	-10.3241
▁sanma	-10.3244
▁önceden	-10.3244
▁uçuş	-10.3245
▁zemin	-10.3245
▁Mar	-10.3246
▁tümü	-10.3247
▁indir	-10.3248
▁kişisel	-10.3249
▁Leyla	-10.3255
▁kurtar	-10.3255
▁profesyonel	-10.3256
▁doğrultusunda	-10.3256
24	-10.3256
▁paralel	-10.3257
▁Ce	-10.326
▁içim	-10.3264
▁Albüm	-10.3265
▁Vatan	-10.3268
▁çiçekleri	-10.3269
▁varken	-10.3271
▁bekleme	-10.3275
▁tarif	-10.3275
3'	-10.3276
▁Çek	-10.3277
▁yüzölçümü	-10.3278
▁yudum	-10.3279
▁yüreğin	-10.3279
▁görmüş	-10.3282
▁bekliyor	-10.3284
▁sayılar	-10.3288
▁birliği	-10.3289
▁Akademisi	-10.329
▁vefat	-10.3294
▁"(	-10.3296
mayacak	-10.3298
Az	-10.3301
▁İlçede	-10.3303
▁puan	-10.3303
▁yaklaşım	-10.3305
▁basın	-10.3308
▁aşı	-10.3315
▁memleket	-10.3317
▁ağırlık	-10.3317
▁varmış	-10.3318
acaksın	-10.3321
ft	-10.3323
▁Ju	-10.3324
▁Rumeli	-10.3325
▁Hani	-10.3331
Dil	-10.3332
▁uçak	-10.3333
▁Grubu	-10.3335
▁yazan	-10.3336
cak	-10.3337
▁kurak	-10.3338
▁teşkil	-10.334
kimi	-10.3345
▁gelişmeler	-10.3346
▁Katolik	-10.3346
▁sevinç	-10.3347
▁sine	-10.3349
▁başlanmıştır	-10.3351
yat	-10.3351
▁pro	-10.3354
aklı	-10.3356
▁belir	-10.3362
▁yaptıkları	-10.3365
▁Veli	-10.3366
▁hatırla	-10.3372
▁Almanca	-10.3372
Do	-10.3373
▁ucunda	-10.3375
▁değişim	-10.3377
▁Car	-10.3378
▁şah	-10.338
▁açıldı	-10.3386
▁devleti	-10.3386
▁Dış	-10.3388
▁kemik	-10.3388
kaya	-10.3391
▁Ticaret	-10.3392
zo	-10.3394
▁besin	-10.3395
▁örtüsü	-10.3395
▁ün	-10.3397
▁Bölge	-10.3404
madım	-10.3409
amayan	-10.341
▁derdin	-10.3411
▁öykü	-10.3413
▁otur	-10.3413
Yeşil	-10.3415
ros	-10.3417
ümü	-10.3418
Anlat	-10.342
▁sarar	-10.342
hir	-10.342
▁baktım	-10.3423
▁ayakta	-10.3427
▁ayrılan	-10.3431
▁taarruz	-10.3433
_1	-10.3435
Dön	-10.3435
▁Bayezid	-10.3437
▁düşme	-10.3438
Dört	-10.3438
▁işletme	-10.3438
▁geçici	-10.344
▁bilmeyen	-10.3442
Nice	-10.3445
▁çalar	-10.3447
istan	-10.3447
lendiği	-10.3448
▁kaleme	-10.3449
▁elektronik	-10.3452
▁Farsça	-10.3452
▁genetik	-10.3457
▁nazlı	-10.3462
°	-10.3462
28	-10.3467
▁70	-10.3468
hayat	-10.3473
▁35	-10.3478
▁geleneği	-10.3479
kadın	-10.3479
▁yörünge	-10.3479
▁Am	-10.348
▁şarkıları	-10.3483
abilmektedir	-10.3483
▁Kanada	-10.3484
dî	-10.3488
▁Kalesi	-10.3488
▁ba	-10.3493
▁doktor	-10.3495
▁Fer	-10.3496
▁16.	-10.3497
▁IV	-10.3497
▁ova	-10.3499
enler	-10.3499
▁Ci	-10.3503
▁Derneği	-10.3506
▁tabi	-10.3509
Aynı	-10.351
4'	-10.3513
▁izleri	-10.3521
▁pınar	-10.3522
▁Tarım	-10.3525
▁Gar	-10.3527
▁maden	-10.3529
▁kullan	-10.3532
▁polis	-10.3532
23	-10.3534
acağını	-10.3542
▁kök	-10.3542
▁alınması	-10.3545
▁Edebiyat	-10.3545
Ra	-10.3549
▁Portekiz	-10.3554
duğu	-10.3557
▁aydınlık	-10.3559
▁zincir	-10.356
▁liste	-10.3561
abilen	-10.3563
▁ardında	-10.3568
tiğin	-10.3571
mizi	-10.3571
benim	-10.3572
▁işin	-10.3575
▁çekip	-10.3579
▁sesin	-10.358
▁Ön	-10.358
leş	-10.358
▁dayalı	-10.3584
âh	-10.3589
▁amaçlı	-10.3594
lis	-10.3598
▁neticesinde	-10.36
leyerek	-10.3602
▁derken	-10.3606
▁özellikler	-10.3607
▁isimler	-10.3607
▁kurum	-10.3612
▁anti	-10.3615
AT	-10.3618
▁verimli	-10.362
▁Nur	-10.3622
▁dördüncü	-10.3622
▁Sar	-10.3623
▁yerleri	-10.3626
eddin	-10.3628
Kör	-10.3633
▁avcı	-10.3635
duğum	-10.3644
▁peygamber	-10.3647
larındaki	-10.3649
▁koydu	-10.3654
▁mimari	-10.3654
▁uğraş	-10.3655
▁gördüğü	-10.3657
▁düğüm	-10.3658
▁günden	-10.3662
▁Oğuz	-10.3662
Boş	-10.3667
▁1960	-10.3669
Ba	-10.367
▁sağlamıştır	-10.3672
▁yağar	-10.3673
▁yapılma	-10.3676
▁uzunluğu	-10.3676
▁33	-10.3677
▁Meclis	-10.3678
▁ayar	-10.3682
▁nesne	-10.3682
▁üstün	-10.3683
▁si	-10.3689
üşü	-10.3692
▁kimseye	-10.3694
▁yüzünde	-10.3696
likleri	-10.3699
▁tablo	-10.37
▁ci	-10.37
lıklar	-10.37
▁esen	-10.3701
▁Sosyal	-10.3704
▁savaşın	-10.3705
laşır	-10.3705
▁Dede	-10.3707
▁Sakarya	-10.371
▁kahraman	-10.3712
▁kanadı	-10.3713
▁mermer	-10.3717
▁geceleri	-10.3721
▁TV	-10.3721
▁şehre	-10.3723
▁kömür	-10.3725
AR	-10.3726
sonra	-10.373
Sakın	-10.3731
▁bünyesinde	-10.3733
MA	-10.3736
▁İskender	-10.3737
▁Açık	-10.3737
▁Nazi	-10.3738
▁James	-10.374
Ver	-10.3744
▁Komutanlığı	-10.3747
▁namaz	-10.3752
tun	-10.3754
▁MS	-10.3755
▁yiğit	-10.3756
▁bölgelerinde	-10.3757
dor	-10.3759
Çocuk	-10.3759
▁karbon	-10.376
▁ellerini	-10.3762
▁göstermiştir	-10.3768
▁zevk	-10.3769
▁tebessüm	-10.3769
▁18.	-10.3771
▁inci	-10.3771
▁yaşlar	-10.3774
▁sosyalist	-10.3775
¬(	-10.3776
▁kutlu	-10.3779
▁birlik	-10.3782
▁Köy	-10.3784
▁bağır	-10.3784
diler	-10.3787
▁Bulgaristan	-10.3787
▁sahipliği	-10.3789
▁dışındaki	-10.379
▁kitapları	-10.379
▁derecede	-10.379
▁bekleyen	-10.3791
kol	-10.3791
▁görünce	-10.3791
▁soldu	-10.3793
tel	-10.3794
Anla	-10.3794
65	-10.3797
▁olmaktadır	-10.3802
▁ardı	-10.3802
▁yapıldığı	-10.3805
▁kitabında	-10.3809
maktır	-10.3809
▁lazım	-10.3811
▁Av	-10.3811
▁final	-10.3813
▁kullanılarak	-10.3813
95	-10.3814
▁Cem	-10.3822
dem	-10.3824
ilmez	-10.3827
rat	-10.3828
▁izler	-10.383
▁esnasında	-10.3835
larca	-10.3835
▁Yapı	-10.3835
üs	-10.3835
kir	-10.3836
▁basınç	-10.3837
▁yaşındayken	-10.3837
▁edildiği	-10.3837
üyorum	-10.3838
▁maddeler	-10.3841
▁1997	-10.3842
▁Müdürlüğü	-10.3843
▁parçaları	-10.3844
▁yanıyor	-10.3848
▁yağma	-10.385
mesini	-10.385
▁çıkma	-10.3852
▁zamana	-10.3852
Umut	-10.3857
▁sürdürdü	-10.3858
▁çabuk	-10.3859
▁mağara	-10.3859
baba	-10.3859
▁Trabzonspor	-10.386
▁canı	-10.3861
▁yarim	-10.3865
▁laf	-10.3867
▁evinde	-10.3867
Yap	-10.3868
Karanlık	-10.3873
wi	-10.3877
▁kokan	-10.3878
Yaşa	-10.3879
▁ressam	-10.3883
ciler	-10.3883
▁Latin	-10.3883
yin	-10.3885
▁Ab	-10.3888
tt	-10.389
▁güvenlik	-10.389
▁sabır	-10.3891
▁Dört	-10.3894
likler	-10.3894
lek	-10.3896
▁adının	-10.39
▁yerlere	-10.3903
▁Sevda	-10.3904
▁kullanılması	-10.3904
▁ellerim	-10.3905
▁Kastamonu	-10.3906
▁hele	-10.3906
▁kadeh	-10.3907
▁meslek	-10.3908
▁talep	-10.391
▁kurucusu	-10.3912
▁antlaşma	-10.3922
▁seç	-10.3924
▁getirdiği	-10.3924
vet	-10.3926
▁17.	-10.3927
▁kanlı	-10.3928
▁pembe	-10.3929
▁koku	-10.3934
▁kuran	-10.3936
ılmıştır	-10.3939
▁taşlar	-10.3941
▁güzellik	-10.3942
▁dolaş	-10.3942
▁yapraklar	-10.3944
▁gibiyim	-10.3945
▁günlerde	-10.3945
14	-10.3946
ent	-10.3946
Hayal	-10.3949
Ayrılık	-10.3951
▁evde	-10.3952
Aşık	-10.3953
dıkları	-10.3953
▁Top	-10.3954
▁FIFA	-10.3955
kil	-10.3955
giller	-10.3958
mat	-10.3961
tr	-10.3963
▁bela	-10.3965
▁po	-10.3971
Ağla	-10.3971
ımın	-10.3971
▁ilişkileri	-10.3972
▁yerleşti	-10.3973
▁bağı	-10.3974
▁duruma	-10.3975
▁BWV	-10.3979
▁Kulübü	-10.3979
▁sanatı	-10.3981
rem	-10.3983
▁gezer	-10.3983
▁ruhum	-10.3986
Küçük	-10.3988
▁2018	-10.3989
▁çoktan	-10.399
▁imiş	-10.399
▁çocukların	-10.3991
▁tamamı	-10.3991
▁he	-10.3991
▁hey	-10.3992
▁Turan	-10.3992
▁gide	-10.3993
▁İslâm	-10.3994
Dur	-10.3998
▁benimle	-10.3998
▁bulma	-10.4002
▁oluşu	-10.4002
▁Kars	-10.4002
27	-10.4002
▁Ala	-10.4004
▁çekildi	-10.4008
Kadın	-10.4009
▁uzanır	-10.401
▁haz	-10.4018
IN	-10.4021
▁gösterdiği	-10.4022
▁çalışmalarını	-10.4023
dün	-10.4023
▁ülkesi	-10.4028
▁çalışmalarına	-10.4031
▁olun	-10.4031
▁olurum	-10.4038
şir	-10.4047
▁açtığı	-10.4048
▁Tra	-10.4048
▁gözün	-10.4051
▁olumsuz	-10.4051
▁Tan	-10.4051
Seven	-10.4055
işte	-10.4056
▁alınmıştır	-10.4059
▁elini	-10.4064
▁ülkelerde	-10.4066
▁alması	-10.4066
▁Adam	-10.4069
▁anlama	-10.4069
▁düşünülmektedir	-10.4076
▁mahkeme	-10.4077
▁boşuna	-10.4079
likten	-10.408
▁karakter	-10.408
Toprak	-10.4081
vâ	-10.4085
▁Pan	-10.4087
▁kaldığı	-10.4087
▁büyüdü	-10.4089
Ol	-10.409
▁Kul	-10.4091
ebilen	-10.4091
▁istiyor	-10.4093
▁müdahale	-10.4098
▁yetiştir	-10.411
likle	-10.4116
▁mevsimi	-10.4117
▁yaban	-10.4121
▁kalbime	-10.4122
▁üretilen	-10.4128
kça	-10.4129
▁gerçeği	-10.413
▁açıklama	-10.4132
▁derya	-10.4134
▁tabaka	-10.4134
▁karışık	-10.414
▁Yönetim	-10.414
▁Üniversite	-10.4144
▁dayanan	-10.4145
▁önemi	-10.4145
▁lider	-10.4149
▁buraya	-10.415
▁kullanılabilir	-10.4154
▁çınar	-10.4156
▁kısmını	-10.4156
uğu	-10.4158
▁arzu	-10.4164
luğunu	-10.4164
▁yarışma	-10.4167
▁yarat	-10.417
▁hayvanlar	-10.4171
▁yatar	-10.4171
Li	-10.4172
▁senle	-10.4175
▁Nobel	-10.4175
mızda	-10.4175
-2	-10.4178
▁yoksul	-10.418
ğında	-10.4181
Yüz	-10.4181
▁süreç	-10.4186
▁malzeme	-10.4186
▁bitir	-10.4193
▁içeri	-10.4196
▁sırt	-10.4199
▁yazdım	-10.4203
▁gerçekleşen	-10.4203
▁çocuğun	-10.4204
▁naz	-10.4205
öyle	-10.4208
Kapı	-10.4209
ışı	-10.421
▁Millet	-10.4211
Mutlu	-10.4215
▁Dal	-10.4222
▁Hakk	-10.4227
des	-10.4227
▁evlat	-10.4229
▁çak	-10.423
▁desteği	-10.4238
22	-10.4238
tti	-10.4238
▁Yıldırım	-10.4242
▁bakır	-10.4243
▁yılan	-10.4245
miyorum	-10.4245
mus	-10.4246
▁nereye	-10.4247
▁stüdyo	-10.4248
▁devrim	-10.4249
▁sonraları	-10.4251
▁tamam	-10.4251
▁olası	-10.4254
bay	-10.4256
▁dağların	-10.4257
▁Bor	-10.4257
▁çiz	-10.4259
▁cana	-10.426
▁yüksekliği	-10.4261
ih	-10.4261
▁ucu	-10.4264
▁kuruluşu	-10.4264
▁kayıt	-10.4271
Rüzgar	-10.4272
▁mantık	-10.4272
Me	-10.4272
▁Kaya	-10.4273
▁Ber	-10.4275
▁dalında	-10.4278
▁yayımladı	-10.428
▁isterdim	-10.4283
▁arasındadır	-10.4286
luğun	-10.4288
26	-10.429
▁insanlara	-10.4291
▁NATO	-10.4298
▁muhabbet	-10.4298
senin	-10.4299
▁kendilerini	-10.43
▁Norveç	-10.4303
▁kaz	-10.4305
-1	-10.4306
▁diller	-10.4308
▁ayna	-10.4317
▁Okul	-10.4317
▁Şehzade	-10.4318
▁9.	-10.4323
▁olmayı	-10.4323
hisar	-10.4324
▁yerler	-10.4328
▁ke	-10.4331
▁güz	-10.4332
▁kalbi	-10.4332
▁dersleri	-10.4334
▁kapısı	-10.4337
▁anılar	-10.4339
▁Eskişehir	-10.4342
▁lideri	-10.4346
▁diyorsun	-10.4347
▁layık	-10.4349
▁alem	-10.435
leyici	-10.4352
▁Mal	-10.4354
Ki	-10.4355
▁buğday	-10.4355
Ser	-10.4358
for	-10.4364
▁tanıştı	-10.4365
▁Yolu	-10.4369
▁dostu	-10.4374
▁hariç	-10.4374
▁olacaktır	-10.4374
▁zindan	-10.4374
▁maruz	-10.4375
▁erdi	-10.4377
▁altındaki	-10.4377
▁toprağın	-10.4381
▁önemlidir	-10.4382
▁derinden	-10.4384
▁emekli	-10.4385
ruk	-10.4386
▁diş	-10.4387
sto	-10.4388
▁Mars	-10.4395
çu	-10.4396
▁ot	-10.4396
ang	-10.4398
▁şarap	-10.4399
Bit	-10.4401
▁ulu	-10.4404
▁cephe	-10.4404
▁askerî	-10.4406
▁gez	-10.4406
▁düzey	-10.4407
dön	-10.4408
Bizi	-10.4421
▁gruba	-10.4424
▁numara	-10.4426
▁yüzüme	-10.4427
▁Tar	-10.4428
af	-10.443
von	-10.443
üne	-10.4432
▁kılıç	-10.4435
▁hasretin	-10.4436
▁dosya	-10.4438
▁sök	-10.4439
▁Kış	-10.444
▁yatan	-10.444
▁İsmet	-10.4441
▁değişken	-10.4441
▁çeviri	-10.4442
▁arasından	-10.4444
34	-10.4445
▁vicdan	-10.4446
rü	-10.4449
▁sorunu	-10.445
▁uyum	-10.4452
▁merkezine	-10.4453
▁kime	-10.4456
▁George	-10.4456
▁Erkek	-10.4467
▁koş	-10.4468
Yedi	-10.4472
▁Dönemi	-10.4473
▁Balkan	-10.4481
▁Pazar	-10.4482
tis	-10.4487
▁olayım	-10.4496
Gök	-10.4498
iği	-10.45
▁girmiş	-10.45
▁Genellikle	-10.4501
▁ligde	-10.4502
▁Sev	-10.4505
▁Konseyi	-10.4505
▁Boğaz	-10.4506
▁toplumun	-10.4506
▁yen	-10.4508
▁değin	-10.4517
▁duruyor	-10.4518
▁performans	-10.4519
▁(%	-10.4521
layıcı	-10.4522
▁ayrımı	-10.4522
▁hayran	-10.4526
▁motor	-10.4526
▁satan	-10.453
kte	-10.453
▁Fen	-10.453
▁ayrılmıştır	-10.4531
92	-10.4531
Biri	-10.4531
bana	-10.4537
▁merhamet	-10.4537
Har	-10.4537
▁yollara	-10.454
abileceği	-10.4546
Adam	-10.4547
▁500	-10.4547
▁mesafe	-10.4548
▁açmış	-10.455
lanabilir	-10.455
▁Michael	-10.4551
▁sıfır	-10.4551
▁usul	-10.4551
Huzur	-10.4553
▁Karaca	-10.4553
▁Marx	-10.4553
erim	-10.4556
▁tanımı	-10.4559
▁Hitit	-10.4561
sis	-10.4563
ME	-10.4566
deyim	-10.4568
gece	-10.4573
▁geçerli	-10.4575
▁amaç	-10.4576
▁hisse	-10.4576
▁90	-10.4577
sızlık	-10.4582
▁Çoğu	-10.4584
▁gibiydi	-10.4584
▁Yıl	-10.4586
▁yakınlarında	-10.4587
▁çıkart	-10.4587
Yak	-10.4588
▁pe	-10.4588
▁yazmaya	-10.4588
▁anlatan	-10.459
Unut	-10.459
▁değişir	-10.4592
▁kokulu	-10.4592
▁Ardından	-10.4597
▁sabahı	-10.4597
▁Aksu	-10.4604
▁Çayı	-10.4607
▁değişme	-10.4607
▁hakkındaki	-10.4608
Da	-10.4611
▁kaçar	-10.4611
▁takımının	-10.4612
Tarih	-10.4613
▁mum	-10.4616
▁mutlak	-10.4616
▁Stadyumu	-10.4621
▁gönlümde	-10.4621
Eğer	-10.4622
-5	-10.4624
▁disk	-10.4626
▁demokrasi	-10.4626
▁kut	-10.4627
▁otobüs	-10.4628
▁katkıda	-10.4628
▁Boğazı	-10.463
▁yönetmen	-10.4633
▁oysa	-10.4636
▁Yıllar	-10.4636
▁kalıp	-10.4638
▁yayla	-10.4655
▁adıdır	-10.4655
Zalim	-10.4657
▁pat	-10.4661
▁kütüphane	-10.4665
8'	-10.4667
imde	-10.4668
▁kalbimi	-10.4671
▁durumlarda	-10.4672
▁Şampiyonlar	-10.4673
▁Nasıl	-10.4675
▁konum	-10.4676
▁sınırı	-10.4678
▁sermaye	-10.468
▁alçak	-10.4681
▁sayılabilir	-10.4681
78	-10.4682
▁yumuşak	-10.4685
▁alınarak	-10.4685
mesine	-10.4687
▁Kanunu	-10.4692
Dağlar	-10.4693
▁tutmuş	-10.4697
▁yazmıştır	-10.4698
ğini	-10.4702
▁doğduğu	-10.4704
▁özellik	-10.4704
▁aşama	-10.4705
▁saniye	-10.4706
▁kendilerine	-10.4708
▁gereği	-10.4708
▁no	-10.471
▁300	-10.4713
▁bar	-10.4714
şır	-10.4714
▁farkında	-10.4717
▁içe	-10.4719
▁alanlar	-10.4719
▁kullanılmaya	-10.4721
paşa	-10.4722
▁efsane	-10.4723
▁mıdır	-10.4724
▁tuz	-10.4727
▁kuram	-10.473
Beyaz	-10.4733
▁ilham	-10.4734
▁yeme	-10.4734
▁Turizm	-10.4734
▁başlayarak	-10.4735
Doğru	-10.4736
layacak	-10.4736
anlam	-10.4738
mden	-10.4738
▁Gal	-10.474
çek	-10.474
▁ıssız	-10.4741
Es	-10.4741
Bahar	-10.4741
▁feda	-10.4743
▁biliyor	-10.4744
▁Yaşamı	-10.4744
▁bilinmez	-10.4747
sıdır	-10.475
▁uçar	-10.475
▁vererek	-10.475
▁Kilisesi	-10.4751
▁payı	-10.4751
râ	-10.4751
▁biçiminde	-10.4754
▁tarafında	-10.4755
▁ömrü	-10.4756
lerindeki	-10.4758
▁yerin	-10.4758
▁Viyana	-10.4758
500	-10.4765
▁sitem	-10.477
▁topraklarına	-10.4777
▁1982	-10.4779
▁verecek	-10.4783
tes	-10.4783
▁Google	-10.4784
▁bıçak	-10.4784
▁bağımsızlık	-10.4786
▁hastalığı	-10.4786
tri	-10.4786
emedi	-10.4787
▁8.	-10.4789
▁ü	-10.4789
▁arttı	-10.4791
▁işleri	-10.4791
▁bırakır	-10.4794
▁teklif	-10.4795
▁bağımsızlığını	-10.4796
Öz	-10.4796
lıktan	-10.4796
▁rapor	-10.4801
Çek	-10.4801
▁paket	-10.4803
▁gene	-10.4803
▁ilçeleri	-10.4805
bütün	-10.4805
▁Yani	-10.4806
leştir	-10.4807
gın	-10.4809
İnsanlar	-10.481
▁düşünür	-10.4811
▁Denizli	-10.4812
▁burda	-10.4814
leşen	-10.4815
▁değiştir	-10.4816
diye	-10.4819
lendirme	-10.482
SA	-10.482
▁bölümünü	-10.4822
Dar	-10.4827
▁seçme	-10.483
Korku	-10.4831
bas	-10.4832
▁sahte	-10.4833
düğüm	-10.4835
▁analiz	-10.4837
▁Erdoğan	-10.4837
▁vücut	-10.4841
▁birlikleri	-10.4841
sus	-10.4847
▁yaşıyorum	-10.4847
▁düşler	-10.4847
▁insanlık	-10.4848
▁dağlara	-10.4849
dikçe	-10.4849
-6	-10.4851
▁uzaktan	-10.4854
▁aslan	-10.4861
▁Onun	-10.4861
▁hatır	-10.4862
▁Yeşil	-10.4862
▁ifadesi	-10.4862
Bal	-10.4865
▁so	-10.4865
▁geliştirme	-10.4867
▁Çocuk	-10.4867
▁biçimi	-10.4868
▁olanak	-10.4869
▁gördüğüm	-10.487
▁konuşan	-10.4871
▁çekim	-10.4872
▁yazın	-10.4874
▁Bağ	-10.4876
Düşman	-10.4885
▁sema	-10.4888
▁don	-10.489
▁ortam	-10.489
▁Bay	-10.4892
▁basketbol	-10.4892
▁gri	-10.4898
Pa	-10.4898
▁sancı	-10.4903
ses	-10.4904
▁fil	-10.4905
▁başarısı	-10.4911
▁Nasreddin	-10.4916
▁bez	-10.4922
▁harita	-10.4926
▁İnternet	-10.493
▁kitaplar	-10.4931
stra	-10.4934
tre	-10.4935
▁dışarı	-10.4939
Hele	-10.494
▁kaynakları	-10.4942
ib	-10.4947
▁salın	-10.4948
▁algı	-10.4948
▁koşar	-10.4948
ük	-10.495
▁doldur	-10.4951
▁depo	-10.4956
▁dalları	-10.4957
▁kav	-10.4957
ras	-10.4958
▁ağa	-10.4958
▁ze	-10.4966
6'	-10.4966
▁dilde	-10.4966
▁ez	-10.4968
▁çalan	-10.4969
hr	-10.4969
▁oluşturulan	-10.497
▁ödülü	-10.4974
▁gelişen	-10.4975
▁Cephesi	-10.4976
Hadi	-10.4977
▁Osmanlılar	-10.4977
▁demektir	-10.4981
▁kir	-10.4981
Orta	-10.4985
Yüreğimde	-10.4986
sunu	-10.4989
▁duyu	-10.499
21	-10.4993
▁artar	-10.4995
İl	-10.4995
▁af	-10.4995
▁1950'	-10.4996
▁eyalet	-10.5004
▁peşinde	-10.5008
▁istemem	-10.501
▁sız	-10.5011
off	-10.5016
ön	-10.5016
ûr	-10.5018
▁buradan	-10.5018
▁giderim	-10.5019
Uyan	-10.5021
▁seçimlerinde	-10.5025
48	-10.5027
▁Cemiyeti	-10.5028
▁bağlayan	-10.5028
▁isimleri	-10.5029
▁daim	-10.503
55	-10.5036
kış	-10.5037
▁evrim	-10.504
97	-10.5042
▁unvanı	-10.5042
▁gülen	-10.5043
▁kurul	-10.5045
▁yılındaki	-10.5045
mba	-10.5048
▁Çağı	-10.5048
▁1973	-10.5048
▁tanınan	-10.5051
▁plak	-10.5051
rin	-10.5056
▁dök	-10.5056
-3	-10.5058
▁Şeyh	-10.5058
arı	-10.506
▁sırasıyla	-10.5061
▁kendisinin	-10.5061
▁havada	-10.5065
▁Bankası	-10.5066
▁v	-10.5066
▁zorunlu	-10.5069
▁Başka	-10.5069
LER	-10.5071
▁ümit	-10.5073
▁damar	-10.5073
▁sohbet	-10.5073
▁Vakfı	-10.5077
▁tehdit	-10.5077
▁ceylan	-10.5077
nasıl	-10.5079
▁oynayan	-10.508
▁Okyanusu	-10.508
▁ilişkisi	-10.5081
EK	-10.5081
▁medya	-10.5082
Mo	-10.5084
leşir	-10.5085
▁projesi	-10.5085
▁Dağ	-10.5087
zin	-10.5088
▁kaçtı	-10.509
acaktır	-10.5091
aş	-10.5097
▁gurur	-10.5098
▁Romanya	-10.5098
▁söyleme	-10.5099
▁yüzyıldan	-10.5099
▁haykır	-10.5099
▁gözlerime	-10.51
▁yerinden	-10.51
▁programları	-10.5102
▁yoldan	-10.5103
▁onunla	-10.5104
▁oksijen	-10.5104
lip	-10.5104
▁1920	-10.5105
mıyorum	-10.5112
▁başım	-10.5117
▁Ebu	-10.5117
▁Prof	-10.5119
▁yüzüm	-10.5121
tif	-10.5122
▁elin	-10.5125
▁hatıra	-10.5127
▁akraba	-10.5127
of	-10.5128
▁ortalaması	-10.5128
▁gibisin	-10.5129
▁lokma	-10.5131
▁NBA	-10.5131
▁Tu	-10.5134
▁%2	-10.5135
29	-10.5136
▁Tiyatrosu	-10.5138
dağı	-10.5138
▁sektör	-10.5139
▁Halil	-10.5141
▁Sam	-10.5148
▁biten	-10.5148
▁kesim	-10.5156
▁ağladı	-10.5157
pp	-10.5157
▁mineral	-10.5157
▁Klasik	-10.5158
▁nükleer	-10.5158
▁gonca	-10.5159
▁değiş	-10.5161
▁yas	-10.5161
▁Şehrin	-10.5163
09	-10.5163
▁değişti	-10.5164
▁çıkarılan	-10.5164
lanmaktadır	-10.5165
İM	-10.5166
Gir	-10.5167
Sar	-10.5168
İçinde	-10.5168
▁gitmiş	-10.5171
▁yayınladı	-10.5172
▁ham	-10.5172
▁tank	-10.5174
▁Diyarbakır	-10.5174
zı	-10.5177
▁etkiler	-10.518
▁yönde	-10.5183
▁tanınmış	-10.5183
▁birinin	-10.5183
▁1950	-10.5188
▁mikro	-10.5191
mik	-10.5194
▁tarihsel	-10.5195
lenerek	-10.5197
▁sardı	-10.5199
▁geride	-10.52
▁içimi	-10.5203
ilerek	-10.5207
▁ayet	-10.5211
▁dışına	-10.5211
▁sis	-10.5212
▁gar	-10.5212
ildiği	-10.5212
▁Basketbol	-10.5213
▁felsefesi	-10.5217
âr	-10.5219
▁ışığın	-10.522
▁hoca	-10.522
▁tesisleri	-10.522
▁coğrafi	-10.5224
Haydi	-10.5226
▁fabrika	-10.5228
daş	-10.5237
▁köyüm	-10.5239
▁Manisa	-10.5239
▁kullanma	-10.5241
leyip	-10.5244
Öl	-10.5245
ste	-10.5248
▁oyunları	-10.5252
Top	-10.5252
▁ger	-10.5253
eti	-10.5253
▁Park	-10.5253
▁alınır	-10.5255
▁açma	-10.5255
abilmesi	-10.5257
▁tok	-10.5258
▁ödeme	-10.5258
▁besteci	-10.5262
söz	-10.5265
▁ekonomisi	-10.5266
İN	-10.5267
▁Oyun	-10.5268
▁gemisi	-10.5268
liğim	-10.5269
▁köpek	-10.5269
▁filozof	-10.527
▁Tıp	-10.5275
▁yankı	-10.5276
▁üste	-10.5277
▁çöz	-10.5277
▁kanser	-10.5277
▁haricinde	-10.5281
▁kültürü	-10.5283
belki	-10.5287
ücü	-10.5291
▁üret	-10.5292
▁sistemin	-10.5293
Hüzün	-10.5294
▁konuşur	-10.5297
ışık	-10.5297
▁kalbin	-10.5297
laşan	-10.53
Önce	-10.5301
47	-10.5304
cil	-10.5305
▁ilçede	-10.5306
AL	-10.5306
▁ağladım	-10.5308
▁verdin	-10.5308
▁köz	-10.5309
ağaç	-10.5314
▁mana	-10.5318
▁divan	-10.5319
▁sınırlı	-10.5319
▁severim	-10.532
▁elden	-10.532
▁ayrıl	-10.5321
▁William	-10.5323
▁demiryolu	-10.5323
yak	-10.5323
▁kullanır	-10.5325
36	-10.5325
▁hayaller	-10.5326
▁uçurum	-10.5327
▁düşünme	-10.5328
▁gözle	-10.5328
64	-10.5328
▁açılmıştır	-10.5329
▁kare	-10.533
▁Dünyanın	-10.5331
▁güneşin	-10.5332
Siz	-10.5332
▁şampiyonluk	-10.5333
▁yaşamın	-10.5333
▁görevinde	-10.5333
▁boğaz	-10.5337
▁mıydı	-10.5337
▁Yunus	-10.5339
kapı	-10.534
▁çıplak	-10.534
dığında	-10.5344
▁kütlesi	-10.5346
▁kaydı	-10.5347
tör	-10.5348
▁ulaşan	-10.5349
▁kısmen	-10.5351
uma	-10.5351
▁dönüp	-10.5352
▁etmeyi	-10.5352
▁verip	-10.5357
▁aylık	-10.5357
▁eşlik	-10.5359
ep	-10.5367
kur	-10.537
▁isteme	-10.5371
▁katıldığı	-10.5371
▁kurtul	-10.5373
▁Musa	-10.5375
▁emri	-10.5377
▁zulüm	-10.5378
▁kupa	-10.5378
Po	-10.5379
▁anlamında	-10.538
▁faaliyetleri	-10.5383
▁Yedi	-10.5385
▁olgu	-10.5388
▁Göz	-10.539
mizde	-10.5391
uç	-10.5395
▁sorar	-10.5395
72	-10.5395
▁oldular	-10.5396
▁Ovası	-10.5397
▁kontrolü	-10.5399
▁sıklıkla	-10.5399
▁coğrafya	-10.5401
org	-10.5402
96	-10.5403
▁keskin	-10.5406
▁Uşak	-10.5407
▁gidiş	-10.5409
Hoş	-10.541
stan	-10.5411
▁toplu	-10.5416
oid	-10.5416
-4	-10.5416
sch	-10.5417
▁erkekler	-10.5419
Yarın	-10.5419
UN	-10.542
güzel	-10.5423
▁kıy	-10.5423
▁sunucu	-10.5426
Yaş	-10.5427
▁kalmak	-10.5427
bul	-10.5428
▁anlayış	-10.5433
▁İnönü	-10.5434
Aşkı	-10.5439
▁ırmak	-10.5439
▁dökülür	-10.5439
▁kişilerin	-10.5444
▁Abdullah	-10.5445
▁Cami	-10.5447
▁Venedik	-10.5456
ebilmek	-10.5458
▁ürünler	-10.5458
mem	-10.546
▁siyasal	-10.5462
▁dökülen	-10.5466
Bağ	-10.5468
▁kimin	-10.5468
▁Yağmur	-10.547
Mü	-10.5471
Unutma	-10.5472
▁fırsat	-10.5472
▁karıştır	-10.5473
Bekle	-10.5476
▁*	-10.5481
Ke	-10.5482
▁içten	-10.5485
cesine	-10.5488
▁bulmak	-10.5489
▁halini	-10.5493
▁çağrı	-10.5493
▁parmak	-10.5494
çık	-10.5495
▁dostluk	-10.5496
ct	-10.5497
▁ten	-10.5498
mes	-10.5498
▁Tam	-10.55
▁kalmasın	-10.5501
▁ila	-10.5503
▁150	-10.5504
▁oyna	-10.5505
▁düzeni	-10.5507
▁izi	-10.5508
▁Kon	-10.5508
▁dergisi	-10.5513
▁ülkelerin	-10.5515
▁ulaşır	-10.5518
▁götürdü	-10.5518
▁edilerek	-10.5518
bilim	-10.5521
misin	-10.5521
▁tutsak	-10.5521
Ömür	-10.5523
▁daima	-10.5527
▁Einstein	-10.5529
▁yakan	-10.5531
▁Com	-10.5534
▁âlem	-10.5536
▁%3	-10.5537
larıdır	-10.5537
▁girdiği	-10.5539
Yıllar	-10.5541
▁yasal	-10.5542
▁eserinde	-10.5542
nd	-10.5543
▁akciğer	-10.5547
▁fa	-10.5548
▁yarattı	-10.5548
▁38	-10.5548
Akşam	-10.5552
▁olayları	-10.5552
Tam	-10.5554
▁başlangıç	-10.5555
▁sınav	-10.5556
▁olacağı	-10.5556
▁gelişim	-10.556
gözlerin	-10.5566
liğinde	-10.5566
▁gençlik	-10.5568
▁kalbimde	-10.5571
7'	-10.5574
▁tarihten	-10.5574
▁oyuncusu	-10.5578
Kendini	-10.5578
▁giz	-10.558
Avrupa	-10.558
amadığım	-10.558
▁yardımıyla	-10.5582
▁Komünist	-10.5582
Büyü	-10.5584
▁orijinal	-10.5584
▁acısı	-10.5584
ıyorsun	-10.5586
▁geçme	-10.5588
▁ko	-10.5589
▁yarası	-10.5591
Bülbül	-10.5592
▁sarma	-10.5593
▁inşaat	-10.5594
▁söylenir	-10.5597
makla	-10.5597
▁yoğunluğu	-10.5597
▁etkisiyle	-10.5599
▁çığlık	-10.5601
yine	-10.5603
▁Stalin	-10.5604
▁Con	-10.561
bal	-10.561
▁eleştiri	-10.5614
mişim	-10.5615
▁mensup	-10.5626
So	-10.5627
▁İnan	-10.5629
▁iner	-10.563
▁piyano	-10.5632
▁döşe	-10.5632
▁Şampiyonası	-10.5632
▁gönderdi	-10.5636
▁çam	-10.5637
▁zeytin	-10.5642
▁vermeye	-10.5644
▁Bahar	-10.5645
▁merak	-10.5646
▁beter	-10.5647
▁görün	-10.5647
ülmüş	-10.5647
▁biyolojik	-10.565
▁istersen	-10.5652
▁gelse	-10.5653
▁par	-10.5655
lamıştır	-10.5655
▁düzeyde	-10.5656
▁Bin	-10.5657
76	-10.5657
yeni	-10.5658
ulur	-10.5658
▁değerleri	-10.5658
lit	-10.566
▁Mahmut	-10.566
nes	-10.566
▁katılma	-10.5662
▁evrenin	-10.5662
▁meclisi	-10.5662
39	-10.5663
▁Kale	-10.5677
▁bayrağı	-10.5679
▁1970	-10.568
▁bilsen	-10.5684
▁maddi	-10.5689
▁reklam	-10.5689
▁Charles	-10.5689
▁kaçır	-10.5689
▁video	-10.5689
▁Mes	-10.569
▁TRT	-10.569
▁Gerçek	-10.5691
ire	-10.5694
▁Beyliği	-10.5696
Rabbim	-10.57
▁Öte	-10.57
▁kokar	-10.5705
▁öğrencisi	-10.5706
lon	-10.5706
▁sorunları	-10.5707
Ğ	-10.5707
▁rolü	-10.5708
▁BİR	-10.5712
▁geceye	-10.5713
▁yüzyıla	-10.5714
▁Doğal	-10.5716
▁asır	-10.5716
▁kullanıldığı	-10.5717
▁halkının	-10.5717
▁seyahat	-10.5718
▁galibiyet	-10.5718
müştü	-10.5719
kü	-10.5722
Kız	-10.5722
▁şiddetli	-10.5724
▁Microsoft	-10.5724
▁Boy	-10.5724
▁değişimi	-10.5724
▁Bilgisayar	-10.5729
Altın	-10.573
▁çamur	-10.573
Hiçbir	-10.5732
▁yükseldi	-10.5734
▁sıcaklığı	-10.574
▁edebi	-10.5742
Ellerin	-10.5746
▁muhtaç	-10.5746
▁Amasya	-10.5747
▁şafak	-10.5747
37	-10.5749
▁Gür	-10.5751
▁kışın	-10.5751
sevda	-10.5751
ec	-10.5755
Yara	-10.5759
▁katkı	-10.5762
lıyorum	-10.5762
▁bunca	-10.5763
▁Belediyesi	-10.5765
▁Ölüm	-10.5768
▁anladım	-10.5772
▁konferans	-10.5775
Yollar	-10.5776
▁şiirleri	-10.5778
▁ölmek	-10.578
▁köylü	-10.5781
▁hareketleri	-10.5783
▁şehrinde	-10.5783
▁biç	-10.5784
▁veriyor	-10.5786
▁donanım	-10.5786
▁festival	-10.5787
▁yığın	-10.5788
▁Sabah	-10.5789
veya	-10.579
▁yalvar	-10.579
leşti	-10.5793
▁kesme	-10.5797
the	-10.5803
▁Arslan	-10.5804
▁terim	-10.5805
yaz	-10.5806
ska	-10.5807
▁del	-10.5808
▁çıkarma	-10.581
▁alkol	-10.5812
▁çoktur	-10.5813
▁element	-10.5815
▁İrlanda	-10.5815
▁Cha	-10.5821
▁şampiyonluğu	-10.5821
▁rakam	-10.5822
▁sürme	-10.5823
UR	-10.5825
▁ülkeleri	-10.5827
eceksin	-10.5829
▁meşhur	-10.5829
▁şüphe	-10.583
▁Toprak	-10.583
▁heykel	-10.5831
▁karşılıklı	-10.5835
05	-10.5835
▁olmasını	-10.5836
▁tutma	-10.5839
▁ihtiyacı	-10.5841
vur	-10.5843
gir	-10.5845
▁RNA	-10.5847
▁orkestra	-10.5848
▁ılık	-10.585
umuz	-10.5852
▁Pers	-10.5853
ven	-10.5854
ydü	-10.5856
▁Üçüncü	-10.5856
likte	-10.5857
▁grupları	-10.5858
▁eskiden	-10.5863
86	-10.5863
bol	-10.5866
▁yükselen	-10.5867
▁kedi	-10.5868
▁tacı	-10.5869
▁Senin	-10.587
▁Geç	-10.5872
▁savaşa	-10.5872
▁gerilim	-10.5873
▁yavru	-10.5877
▁Fu	-10.5879
ırdı	-10.588
▁bilgisi	-10.5881
▁Fo	-10.5881
▁umutlar	-10.5881
zade	-10.5882
▁Sadece	-10.5882
▁süreçte	-10.5884
ld	-10.5892
▁rekabet	-10.5892
▁Askeri	-10.5892
▁Temel	-10.5894
▁tarihleri	-10.5894
▁13.	-10.5894
▁elim	-10.5895
▁alana	-10.5897
▁uğradı	-10.5898
▁herşey	-10.5899
▁fe	-10.5902
▁ederim	-10.5902
▁hizmetleri	-10.5902
▁hu	-10.5902
İster	-10.5904
▁davranış	-10.5904
lıkta	-10.5905
yalım	-10.5908
▁kurucu	-10.5908
▁Gazete	-10.5915
▁taşın	-10.5916
▁çıkarak	-10.5918
▁versin	-10.5922
▁suçlu	-10.5923
▁Yerel	-10.5927
Koş	-10.5927
Bilmem	-10.5928
▁set	-10.5929
▁çıkışı	-10.593
▁ettir	-10.593
Sol	-10.5932
▁1989	-10.5935
▁ikili	-10.5935
▁bölümleri	-10.5936
▁olamaz	-10.5936
▁gücünü	-10.5938
▁Bas	-10.5941
▁Örnek	-10.5946
Zor	-10.5947
▁Kurt	-10.595
▁2000'	-10.595
▁Malatya	-10.5951
▁ruhun	-10.5951
▁yapay	-10.5953
▁kavram	-10.5953
▁matematiksel	-10.5954
▁hazan	-10.5954
▁sorumlu	-10.5955
▁pi	-10.5957
▁bilme	-10.5957
▁Ortodoks	-10.5958
Dayan	-10.5958
▁kov	-10.5961
ac	-10.5962
▁birine	-10.5965
▁Aziz	-10.5966
eder	-10.5967
▁filminde	-10.597
▁birimleri	-10.5971
▁oranında	-10.5972
▁aşkına	-10.5977
alı	-10.5981
sor	-10.5985
▁kala	-10.5985
▁karşılığı	-10.5991
ecektir	-10.5992
Dokun	-10.5993
▁kurar	-10.5994
▁döneme	-10.5995
Hala	-10.5995
▁uydu	-10.5996
▁çalıştığı	-10.5998
▁Oysa	-10.5999
▁ıslak	-10.6001
larken	-10.6003
02	-10.601
▁Meslek	-10.601
lerce	-10.6012
▁geldiğinde	-10.6013
yal	-10.6014
▁kulübü	-10.6014
Ni	-10.6015
▁candan	-10.6019
▁akademik	-10.602
▁sayıları	-10.6024
▁Wi	-10.6025
Tak	-10.6025
▁belde	-10.6028
▁oğlum	-10.6029
▁bölgeleri	-10.603
▁nerdesin	-10.6035
▁sok	-10.6036
ullah	-10.6036
▁düğün	-10.6037
▁Kılıç	-10.6037
▁Finlandiya	-10.6039
nos	-10.6049
▁kurma	-10.6049
▁ediyorum	-10.6051
rus	-10.6053
▁bizden	-10.6061
▁fakülte	-10.6062
▁Körfezi	-10.6062
rek	-10.6063
▁Roman	-10.6064
▁ettiğini	-10.6065
▁kalıntıları	-10.6066
▁rock	-10.6066
sik	-10.6066
▁%5	-10.6066
▁Gürcistan	-10.6069
▁yerleşme	-10.6069
▁sizi	-10.607
▁küs	-10.6075
▁tanıt	-10.6078
▁günümüz	-10.6082
▁sözlerin	-10.6083
▁vuran	-10.6083
▁Göl	-10.6083
▁dize	-10.6084
▁yetersiz	-10.6087
ation	-10.6088
▁sakla	-10.6088
▁Mahkemesi	-10.6091
81	-10.6092
▁Böyle	-10.6094
fik	-10.6095
eski	-10.6097
▁yaktı	-10.6097
▁Bağdat	-10.6099
▁getirilmiştir	-10.6103
▁nazar	-10.6103
eceğini	-10.6104
▁ufak	-10.6105
▁hayatına	-10.6106
▁İspanyol	-10.6106
74	-10.6107
▁tuttu	-10.6108
▁geçmektedir	-10.6109
Atatürk	-10.6113
▁Kat	-10.6114
▁yırt	-10.6114
çü	-10.6116
AK	-10.6118
▁buluş	-10.6119
▁güneyde	-10.612
erken	-10.6121
▁çektiği	-10.6121
ümüz	-10.6122
▁bilirsin	-10.6123
▁hesaplama	-10.6123
▁dizisi	-10.6124
masıyla	-10.6126
yıl	-10.6126
▁Reis	-10.6128
▁Ukrayna	-10.6129
▁dönemlerinde	-10.613
Düşün	-10.6134
▁aradım	-10.6136
beş	-10.6137
▁hapis	-10.614
Mu	-10.6145
▁sevdalı	-10.6146
▁Adı	-10.6146
che	-10.6147
▁45	-10.6149
▁gardaş	-10.615
hur	-10.6151
▁net	-10.6152
▁dünyadan	-10.6152
▁pan	-10.6156
beyaz	-10.6156
ora	-10.6158
▁yarısında	-10.6158
▁1987	-10.6161
-20	-10.6163
▁seçilen	-10.6166
▁öp	-10.6166
▁üstüme	-10.6169
▁emanet	-10.617
▁gecesi	-10.6171
▁Elazığ	-10.6173
cek	-10.6178
66	-10.6181
▁yokuş	-10.6182
▁arkasında	-10.6183
hak	-10.6189
2)	-10.6189
▁gayri	-10.619
▁hayvancılık	-10.6191
▁Papa	-10.6193
▁Aşkın	-10.6196
tus	-10.6196
▁olmasıdır	-10.6198
▁1985	-10.6198
▁kullanıldı	-10.62
▁dönemine	-10.6201
▁egemen	-10.6201
▁kapan	-10.6201
▁gelerek	-10.6206
▁tan	-10.6208
Ruhum	-10.6208
▁kart	-10.6208
▁ge	-10.621
yiş	-10.6215
▁kenarında	-10.6218
▁1000	-10.6219
▁sakin	-10.6224
▁sevgisi	-10.6224
▁uzman	-10.6224
▁birbirlerine	-10.6225
başka	-10.6228
▁demiş	-10.6228
▁harfi	-10.6229
▁yaratan	-10.6231
bâ	-10.6234
▁Has	-10.6235
uf	-10.6235
LAR	-10.6236
▁CHP	-10.6237
ırlar	-10.624
▁Kap	-10.6241
▁kuşatma	-10.6242
▁vali	-10.6243
▁Akşam	-10.6244
▁Q	-10.6247
▁miktar	-10.6248
▁örnekleri	-10.6249
▁Uygulama	-10.625
Yaklaşık	-10.625
▁başlangıcı	-10.6254
9'	-10.6256
▁dağlık	-10.6257
▁Erzincan	-10.6258
Uzak	-10.626
▁hakikat	-10.6261
▁etkileşim	-10.6263
▁anılır	-10.6266
▁for	-10.6266
Q	-10.6267
▁döker	-10.6267
▁Tri	-10.6268
▁diyorlar	-10.6269
▁İs	-10.6271
om	-10.6272
▁çıkardığı	-10.6272
▁açılır	-10.6272
▁çukur	-10.628
▁yo	-10.6282
▁11.	-10.6283
inci	-10.6283
▁yetiş	-10.6286
oğulları	-10.6286
ers	-10.629
▁halim	-10.6295
▁budur	-10.6295
▁eyler	-10.6297
ğr	-10.6297
▁inancı	-10.6297
▁evvel	-10.6299
▁aman	-10.6299
▁Vo	-10.6302
eğe	-10.6306
▁ailesinin	-10.6306
▁başlaması	-10.6307
▁kenar	-10.6309
▁teşvik	-10.631
larıma	-10.6311
▁öğrenciler	-10.6311
▁affet	-10.6312
▁yazısı	-10.6313
▁Kaç	-10.6314
▁Söyle	-10.6315
▁onay	-10.6317
▁im	-10.6317
▁kazandığı	-10.6318
kro	-10.6322
▁Peygamber	-10.6322
▁Dost	-10.6324
▁bozuk	-10.6326
Gurbet	-10.6326
sat	-10.6328
▁verilmiş	-10.6329
chi	-10.633
▁taç	-10.633
▁Bunu	-10.6331
▁man	-10.6332
▁tayin	-10.6334
32	-10.6336
▁gidecek	-10.6338
▁başkan	-10.6341
▁kuramı	-10.6341
▁başarısız	-10.6342
▁sayılır	-10.6344
▁bilmiyorum	-10.6346
▁dünyasında	-10.6346
lıkları	-10.6347
▁1984	-10.6348
▁gönlümü	-10.6348
▁Koca	-10.635
▁oluştur	-10.635
▁iyice	-10.6351
▁istediği	-10.6357
▁1971	-10.6358
▁Ü	-10.6359
▁maddesi	-10.6359
▁Moğol	-10.6361
▁Şi	-10.6363
▁suskun	-10.6366
▁ho	-10.6367
▁durdur	-10.6368
▁mağlup	-10.6372
▁David	-10.6372
▁yatak	-10.6372
▁yasası	-10.6373
ledim	-10.6377
▁kutup	-10.6378
▁gür	-10.6378
ymış	-10.6379
ulan	-10.638
▁sundu	-10.6384
▁çerçevesinde	-10.6387
▁görevine	-10.6388
▁kurmuş	-10.6389
▁ayrılmış	-10.6389
▁1975	-10.639
▁Matematik	-10.6391
▁%1	-10.6394
▁Adalet	-10.6396
ölüm	-10.6396
▁deneyim	-10.6399
Gözleri	-10.64
▁özelliklerini	-10.6402
▁Galileo	-10.6402
▁doğuda	-10.6403
▁Em	-10.6404
▁Anayasa	-10.6405
▁his	-10.6405
biz	-10.6408
▁topu	-10.6409
EM	-10.6411
▁sevgiyi	-10.6414
▁dalgalar	-10.6415
▁Avrupalı	-10.6415
▁batıda	-10.6419
▁kus	-10.6419
lenip	-10.6421
▁2017	-10.6422
▁yüzlü	-10.6423
▁ötesinde	-10.6426
.1	-10.6427
▁işle	-10.6427
art	-10.6428
▁10.	-10.6428
82	-10.6429
Duygu	-10.6432
▁adası	-10.6433
89	-10.6433
▁hükümdar	-10.6434
▁Atina	-10.6434
▁um	-10.6436
Düş	-10.644
▁getirmiştir	-10.6441
▁gitmez	-10.6442
▁?¬	-10.6448
▁yaprakları	-10.6452
▁Jean	-10.6453
▁ekran	-10.6455
▁Günü	-10.6455
sever	-10.6459
Ge	-10.6461
Oku	-10.6461
uzun	-10.6463
▁makale	-10.6463
▁doğmuş	-10.6463
Dün	-10.6465
▁Emir	-10.6467
▁sorgu	-10.6468
▁ülkeyi	-10.6472
▁çıkması	-10.6472
▁tarz	-10.6476
iyi	-10.6477
▁özü	-10.6479
▁göğüs	-10.6479
eş	-10.648
▁vermedi	-10.6481
▁Sha	-10.6482
▁ayrılma	-10.6482
▁unvanını	-10.6482
▁çeşme	-10.6483
gözlerim	-10.6486
▁yaşamaya	-10.6487
▁büyür	-10.6488
âm	-10.6488
▁çağır	-10.6489
▁aklım	-10.649
▁insanoğlu	-10.6494
▁Hanedanı	-10.6495
▁36	-10.6496
▁yollarda	-10.6497
Sarı	-10.6498
Ce	-10.6498
▁çatışma	-10.6504
▁renkler	-10.6505
▁Yar	-10.6509
▁ettikleri	-10.6509
▁yapıları	-10.6509
mp	-10.6511
▁or	-10.6511
▁kaybetme	-10.6514
▁çatı	-10.6515
git	-10.6516
ıyoruz	-10.6519
▁otuz	-10.652
▁doğma	-10.6521
▁İlde	-10.6521
Yokluğun	-10.6522
▁Başkan	-10.6523
ali	-10.6523
▁Ham	-10.6524
maktan	-10.6525
▁uygulamaları	-10.6526
▁takvim	-10.6527
▁düşlerim	-10.6528
▁Neden	-10.6529
Bulutlar	-10.653
▁tap	-10.6533
▁indi	-10.6535
▁diğeri	-10.6535
▁ellerimi	-10.6536
Bey	-10.6542
▁ediyordu	-10.6542
düğü	-10.6548
▁temeli	-10.6549
▁özüm	-10.6549
▁diri	-10.6551
▁ağlarım	-10.6557
▁Brezilya	-10.6558
▁mahkûm	-10.6558
▁ülkeye	-10.6558
lemiştir	-10.656
▁Sosyalist	-10.656
▁seher	-10.6562
ünde	-10.6566
mize	-10.6568
▁Deli	-10.6569
▁atma	-10.657
▁sorunlar	-10.6575
▁inceleme	-10.6577
▁alınmış	-10.6579
▁Belki	-10.6589
▁niçin	-10.659
Hava	-10.659
ub	-10.659
▁bildiri	-10.6591
▁tekniği	-10.6591
Hal	-10.6592
▁anlayışı	-10.6593
memiş	-10.6593
▁şahit	-10.6593
▁saçlarını	-10.6593
▁ulaşmıştır	-10.6595
▁hizmeti	-10.6596
▁gözünü	-10.6597
▁nemli	-10.6598
▁evin	-10.6598
▁toplama	-10.6601
yok	-10.6601
Kader	-10.6603
▁yıldızı	-10.6603
▁alfabesi	-10.6604
Dinle	-10.6606
▁bilmiyor	-10.6606
▁fiyat	-10.6607
▁geçmişi	-10.6607
▁ağaçları	-10.6608
▁uzunluğunda	-10.6608
▁elma	-10.6611
▁baskın	-10.6614
▁beğen	-10.6615
tak	-10.6615
▁metin	-10.662
▁ilkbahar	-10.662
▁kuantum	-10.6621
88	-10.6621
▁başkanlığı	-10.6622
▁görülebilir	-10.6623
▁Bakanı	-10.6623
▁Federasyonu	-10.6623
▁karayolu	-10.6623
▁gidip	-10.6624
▁ayrılarak	-10.6624
Derin	-10.6625
06	-10.6628
▁Kır	-10.6629
▁taşları	-10.6629
▁aklı	-10.6629
tay	-10.663
▁tanıma	-10.663
▁öneri	-10.663
▁başladılar	-10.6631
▁firma	-10.6632
▁senesinde	-10.6633
▁2008'	-10.6636
▁gerekse	-10.6636
▁yönü	-10.6637
▁hizmete	-10.6638
▁Mekke	-10.6639
▁komünist	-10.6642
ğü	-10.6642
tığın	-10.6644
▁arıyor	-10.6646
Ona	-10.6647
▁gerçekten	-10.6648
Yorgun	-10.665
▁olumlu	-10.6652
▁endişe	-10.6652
▁başlattı	-10.6652
▁eve	-10.6652
▁ömrün	-10.6653
▁rivayet	-10.6654
▁politikası	-10.6655
tion	-10.6656
Vur	-10.6656
▁sentez	-10.6662
Para	-10.6663
Çocuklar	-10.6663
tut	-10.6665
▁öğrencilerin	-10.6665
▁hesabı	-10.6666
▁sonuçlar	-10.6668
▁topraklar	-10.667
▁yeşer	-10.6671
▁kulu	-10.6671
tılar	-10.6674
▁Ulu	-10.6674
▁uy	-10.6675
▁geldik	-10.668
▁ödülünü	-10.668
▁gülün	-10.6682
▁geceyi	-10.6682
▁per	-10.6684
▁tüket	-10.6685
▁düzenleme	-10.6686
▁Ru	-10.6686
Selam	-10.669
...!	-10.669
▁taşındı	-10.669
mas	-10.6691
medin	-10.6691
▁halı	-10.6692
▁cehennem	-10.6692
67	-10.6692
bre	-10.6695
▁öncü	-10.6696
▁1988	-10.6698
▁bakteri	-10.6699
▁hasar	-10.6699
▁gelmesi	-10.6699
▁okşa	-10.67
▁ezan	-10.6703
▁kefen	-10.6705
▁kuşu	-10.6707
Biliyorum	-10.6709
▁sevdi	-10.671
▁Rıza	-10.671
Sor	-10.6711
▁Işık	-10.6712
▁kirli	-10.6714
▁parçalar	-10.6714
▁felaket	-10.6715
▁Trakya	-10.6716
urum	-10.6717
lma	-10.6718
▁vadi	-10.6719
▁sığ	-10.6723
▁gelişimi	-10.6725
▁tarihe	-10.6726
▁serisi	-10.6727
▁Balıkesir	-10.6727
▁olmalıdır	-10.6729
▁korumak	-10.673
ılabilir	-10.673
leşmesi	-10.6732
▁albümün	-10.6734
▁ilçenin	-10.6736
vin	-10.6739
▁olayı	-10.6741
▁yelken	-10.6743
▁yaptım	-10.6743
▁kâğıt	-10.6747
▁Madrid	-10.6747
▁sancak	-10.6748
▁miras	-10.6749
ilk	-10.675
▁Newton	-10.675
▁seçilmiştir	-10.6751
▁canlar	-10.6752
▁Ger	-10.6753
▁kabuğu	-10.6753
▁eğlence	-10.6756
madın	-10.6758
▁üzeri	-10.6758
▁çiğ	-10.6758
▁İlin	-10.6761
▁sahipti	-10.6761
▁Ağaç	-10.6763
▁z	-10.6767
ES	-10.6768
▁evren	-10.6768
▁adayı	-10.6769
Karşı	-10.677
38	-10.6771
▁yaşamını	-10.6772
ag	-10.6775
▁okudu	-10.6776
▁Aç	-10.6783
tos	-10.6783
▁duyan	-10.6784
▁yanma	-10.6787
▁14.	-10.6789
▁yürekler	-10.679
▁işlemleri	-10.6793
▁nefesim	-10.6794
dra	-10.6795
▁Yavuz	-10.6797
sti	-10.6798
▁AB	-10.68
▁1983	-10.6801
rum	-10.6804
▁bölgeler	-10.6805
▁bilinmeyen	-10.6806
87	-10.6807
▁deneme	-10.6807
Yürek	-10.6807
mini	-10.6807
%	-10.6808
*	-10.6813
▁öl	-10.6814
▁2020	-10.6815
nik	-10.6816
▁malı	-10.6817
istik	-10.6817
▁2005'	-10.6818
▁seyirci	-10.6819
Özlem	-10.6819
Hi	-10.6822
ong	-10.6824
▁Karl	-10.6825
lanacak	-10.6826
▁öksüz	-10.6827
▁sizin	-10.6828
müz	-10.6832
▁olmaması	-10.6834
▁Acı	-10.6835
▁emin	-10.6839
▁adalar	-10.6842
▁geliştirilmesi	-10.6843
lığım	-10.6843
▁Mahmud	-10.6843
▁Thomas	-10.6844
▁düşmanı	-10.6844
▁öğrenim	-10.6847
▁denizin	-10.6848
▁sade	-10.6849
▁yanık	-10.6851
que	-10.6853
▁15.	-10.6856
lediği	-10.6856
▁1986	-10.6858
Git	-10.6861
▁değilsin	-10.6863
▁savaşta	-10.6866
▁sistemler	-10.6868
erkek	-10.6869
▁katar	-10.687
▁Mah	-10.6872
▁olmasından	-10.6875
▁konuşulan	-10.6876
yacağım	-10.6877
and	-10.6878
▁yıkıl	-10.6879
ğinde	-10.6879
emi	-10.6879
Bize	-10.6881
▁arıyorum	-10.6884
▁Grand	-10.6887
▁arkadaşları	-10.6888
Ek	-10.6888
▁sıradan	-10.6889
▁temas	-10.6889
laştırma	-10.6889
▁şartları	-10.6892
rî	-10.6895
▁Üst	-10.69
yağmur	-10.6901
▁güzeldir	-10.6905
▁gidil	-10.6909
▁döneminin	-10.6909
inle	-10.6915
Uyku	-10.6916
▁bağla	-10.6919
▁keman	-10.6919
ilecek	-10.692
▁tehlike	-10.6921
▁şart	-10.6921
69	-10.6929
▁hane	-10.6932
▁kaba	-10.6934
Cumhuriyet	-10.6935
▁binası	-10.6936
ebilecek	-10.6937
landırma	-10.6938
▁laboratuvar	-10.6941
▁ittifak	-10.6941
▁artması	-10.6941
Fa	-10.6943
▁kaplı	-10.6945
▁yazmış	-10.6946
▁Güvenlik	-10.6947
▁Saray	-10.6948
▁duvarları	-10.6949
▁görüşme	-10.695
▁alıcı	-10.6951
▁artır	-10.6954
▁ocağı	-10.6954
44	-10.6955
Nefes	-10.6956
▁ölüme	-10.6959
▁ekibi	-10.6959
▁İnsanlar	-10.6961
mıza	-10.6961
▁vi	-10.6963
▁ticareti	-10.6964
▁kulübün	-10.6968
▁olmayacak	-10.6971
▁müzisyen	-10.6972
tığım	-10.6975
Sağ	-10.6978
▁Par	-10.6979
▁kullandı	-10.6979
Kuş	-10.6981
▁Alan	-10.6983
-10	-10.6984
▁haklı	-10.6986
▁anahtar	-10.6986
▁içme	-10.6986
▁anıt	-10.6986
▁sessizce	-10.6988
uldu	-10.699
▁verilmesi	-10.6992
98	-10.6994
hil	-10.6997
45	-10.6999
▁65	-10.6999
Şeytan	-10.7
43	-10.7
lığında	-10.7002
Bi	-10.7005
▁cins	-10.7007
▁iletken	-10.7007
ski	-10.7007
▁yıllarca	-10.7007
▁Je	-10.701
▁başlı	-10.7013
▁davul	-10.7014
▁yaprağı	-10.7022
▁eğil	-10.7023
▁engin	-10.7024
▁örtü	-10.7024
▁otel	-10.7025
Çık	-10.7025
▁seçimlerde	-10.7027
▁1979	-10.7034
▁kanım	-10.7034
Günah	-10.7037
▁adlandır	-10.7043
Kuru	-10.7044
eme	-10.7045
▁kimlik	-10.7047
▁değişen	-10.7048
▁ölümüne	-10.7049
▁evi	-10.7049
▁Caddesi	-10.7053
▁Pla	-10.7054
▁bakışın	-10.7057
▁yarattığı	-10.7057
▁gönderildi	-10.7057
ırsın	-10.7059
46	-10.7059
▁Yarımadası	-10.706
laması	-10.7062
▁fabrikası	-10.7064
▁Dolayısıyla	-10.7071
▁manzara	-10.7071
▁perişan	-10.7072
▁mahkum	-10.7072
▁noktada	-10.7072
▁gemileri	-10.7073
▁gemiler	-10.7077
Dert	-10.708
Çal	-10.708
▁konumu	-10.7081
▁gününde	-10.7082
▁albümünü	-10.7083
▁Pir	-10.7086
▁fidan	-10.7086
▁elimde	-10.7089
33	-10.7092
Kendimi	-10.7094
▁us	-10.7095
▁?	-10.7096
▁yaşıyor	-10.7097
▁Örgütü	-10.7099
▁kuralları	-10.7102
▁Hastanesi	-10.7103
▁aklın	-10.7103
▁soylu	-10.7103
▁şeref	-10.7103
▁sağlığı	-10.7107
▁zordur	-10.7108
Fe	-10.7109
bor	-10.7111
▁firması	-10.7112
▁türler	-10.7115
dük	-10.712
▁bunlara	-10.7121
▁miyim	-10.7122
ardı	-10.7123
▁Toplam	-10.7124
▁Ur	-10.7124
▁Yazar	-10.7126
ili	-10.7132
▁tanır	-10.7133
▁1966	-10.7134
-16	-10.7135
▁paylaş	-10.7136
▁otomobil	-10.7138
▁göğe	-10.7138
▁oluşum	-10.7141
58	-10.7144
güneş	-10.7144
▁ahlak	-10.7144
▁Cemal	-10.7145
ef	-10.7145
▁evre	-10.7146
bek	-10.7146
▁sıkıntı	-10.715
yr	-10.7154
▁suları	-10.7156
▁gelebilir	-10.7157
▁mimar	-10.7159
▁Bulgar	-10.7163
▁Dur	-10.7165
ble	-10.7166
94	-10.7166
Uzun	-10.7168
▁gezi	-10.7168
▁Menderes	-10.7171
▁misafir	-10.7171
▁muhalefet	-10.7171
▁cahil	-10.7171
▁ertesi	-10.7173
Ca	-10.7173
▁başkanlık	-10.7175
▁Yılmaz	-10.7175
ET	-10.7176
▁Ruh	-10.7177
İste	-10.7181
▁Hıristiyan	-10.7181
▁geçip	-10.7183
▁hüzünlü	-10.7184
▁Mektebi	-10.7184
▁akıyor	-10.7187
▁bulunmuş	-10.7187
85	-10.7188
91	-10.7192
zen	-10.7193
kâ	-10.7195
▁bunlardan	-10.7196
▁Rock	-10.7196
▁yanda	-10.7201
Savaş	-10.7202
▁alternatif	-10.7204
▁pamuk	-10.7204
lum	-10.7204
▁Ermenistan	-10.7205
▁toplanan	-10.7208
▁kuvveti	-10.7209
▁gazeteci	-10.7211
pat	-10.7213
▁edebilir	-10.7215
▁ilerleme	-10.7219
▁Macaristan	-10.7221
▁bölgedeki	-10.7231
▁sürükle	-10.7232
ys	-10.7235
▁kıyılarında	-10.7235
▁toplantı	-10.7236
▁SSCB	-10.7238
▁olmaları	-10.7241
▁medeniyet	-10.7242
dünya	-10.7243
▁aittir	-10.7247
▁kural	-10.7251
▁programlama	-10.7251
▁gönlümün	-10.7251
▁hasreti	-10.7252
▁kadınların	-10.7252
▁ağırlığı	-10.7256
▁çoban	-10.7257
▁kurt	-10.7258
▁Kuş	-10.7259
▁canımı	-10.7259
yaşa	-10.726
leniyor	-10.7262
yn	-10.7267
ph	-10.7268
lamaktadır	-10.7268
▁Öğretmen	-10.7269
Bayram	-10.7269
▁Gençlik	-10.7271
▁ziyade	-10.7271
▁oluşmuştur	-10.7273
▁otorite	-10.7275
▁ga	-10.7276
▁Kongresi	-10.7277
▁bulmuş	-10.7282
▁2007'	-10.7283
▁Sinan	-10.7283
kuş	-10.7284
liydi	-10.7286
▁başlamıştı	-10.7286
▁katıl	-10.7287
▁çekme	-10.7289
▁koyma	-10.7293
▁kolayca	-10.7294
▁Ed	-10.7295
▁Kanun	-10.7297
▁Şam	-10.7297
▁katman	-10.7299
▁özgün	-10.73
Gönlüm	-10.7302
rma	-10.7302
▁solu	-10.7304
▁Eş	-10.7304
▁Genelkurmay	-10.7305
▁Goethe	-10.7305
▁kamp	-10.7306
▁gerekçesiyle	-10.7307
▁Saint	-10.7308
77	-10.7309
▁teknolojisi	-10.731
▁sonlarına	-10.7311
▁ecel	-10.7311
▁Mac	-10.7313
▁sevinci	-10.7318
▁sömürge	-10.7318
▁Sun	-10.7319
▁küre	-10.7319
▁Şa	-10.732
düş	-10.7321
▁miydi	-10.7321
ettin	-10.7322
jo	-10.7322
▁Türklerin	-10.7324
▁koşulları	-10.7325
▁1945	-10.7326
▁yalın	-10.7329
68	-10.7332
▁Hay	-10.7335
gh	-10.7338
Anadolu	-10.7338
▁acaba	-10.7339
▁sayılan	-10.7339
▁1956	-10.7339
▁büyüyen	-10.7341
▁eleştiriler	-10.7342
▁toplamda	-10.7342
▁komutasındaki	-10.7343
▁kümesi	-10.7345
▁gözlerimde	-10.7346
▁taraftan	-10.7349
▁sevdiğimi	-10.7353
▁köyünde	-10.7353
▁topraklarında	-10.7354
▁pişman	-10.7357
▁ağacın	-10.7357
▁Bilgi	-10.7359
▁oradan	-10.7361
▁albümleri	-10.7363
▁taht	-10.7364
▁ilmi	-10.7366
▁yaşına	-10.7366
▁keşke	-10.7367
Yıldızlar	-10.737
▁oynan	-10.7371
▁üzüm	-10.7372
▁1974	-10.7373
▁elbise	-10.7373
▁kalmamış	-10.7374
▁olduğunda	-10.7374
hangi	-10.7375
▁kuzeyde	-10.7378
orta	-10.738
▁fani	-10.7381
▁güncel	-10.7382
▁gelişmiştir	-10.7385
ayak	-10.7385
▁Takım	-10.7386
▁durak	-10.7386
▁bağlandı	-10.7388
▁finalde	-10.739
▁gönderme	-10.739
▁mazi	-10.7392
rağı	-10.7393
▁Aşık	-10.7396
▁Â	-10.74
▁Balkanlar	-10.7401
▁elektro	-10.7402
▁tas	-10.7403
▁Adnan	-10.7407
▁Reich	-10.7407
▁duyma	-10.7409
▁davran	-10.741
▁yıkan	-10.7411
▁sokaklarda	-10.7416
bra	-10.7416
▁tütün	-10.7417
▁daire	-10.7417
▁Doğru	-10.7418
▁yazım	-10.7419
▁Koç	-10.742
▁yapacak	-10.742
▁numaralı	-10.7423
▁açmıştır	-10.7425
▁endüstri	-10.7426
Par	-10.7427
ılmaktadır	-10.7429
▁kavuş	-10.7429
▁yürürlüğe	-10.7441
▁nakış	-10.7441
▁1968	-10.7442
▁Tuna	-10.7443
▁ırk	-10.7445
▁dudak	-10.7448
▁geçerken	-10.745
işi	-10.7453
▁Et	-10.7455
ian	-10.7455
lemek	-10.7457
▁sözün	-10.746
▁kadının	-10.746
▁vermesi	-10.7462
▁Cennet	-10.7462
▁sesler	-10.7463
▁kararlı	-10.7464
▁Komitesi	-10.7466
▁kurulduğu	-10.7466
▁yurdum	-10.7466
▁kuşları	-10.7466
ura	-10.7466
03	-10.7467
▁Pu	-10.7467
▁denizi	-10.7469
▁limanı	-10.7471
▁Kol	-10.7474
▁Seferi	-10.7475
▁bağlama	-10.7475
▁hektar	-10.7475
▁müslüman	-10.7475
Vuslat	-10.7475
▁sevgim	-10.7475
▁We	-10.7475
gil	-10.7476
▁1941	-10.7476
▁mekân	-10.7478
▁haberi	-10.7479
▁Far	-10.7479
▁çe	-10.7481
▁yandım	-10.7482
▁şen	-10.7484
‘	-10.7487
▁bitkiler	-10.7487
▁kurmak	-10.7488
▁Bayram	-10.749
▁yaşadım	-10.7491
▁ruhu	-10.7491
Dedi	-10.7494
▁ücret	-10.7494
▁gözden	-10.7495
▁ardına	-10.7502
In	-10.7503
kes	-10.7504
fâ	-10.7505
onlar	-10.7506
▁Dün	-10.7507
▁Danimarka	-10.7509
▁tasvir	-10.7509
Çanakkale	-10.7511
▁1915	-10.7511
▁savur	-10.7512
Et	-10.7512
▁Uzay	-10.7512
▁sabaha	-10.7516
▁harman	-10.7516
▁yaklaş	-10.7517
▁form	-10.7517
▁yazmak	-10.7518
▁bırakarak	-10.7519
▁eşya	-10.7523
▁kopya	-10.7524
hre	-10.7528
etti	-10.7528
▁eriş	-10.7533
▁yağıyor	-10.7534
▁sürümü	-10.7536
ılıyor	-10.7536
▁göreve	-10.7537
mal	-10.7537
▁telaş	-10.7541
▁silahlı	-10.7543
▁Boğaziçi	-10.7544
▁Türkçede	-10.7545
▁gülüşün	-10.7548
▁doy	-10.7548
▁birim	-10.7549
▁şarkıcı	-10.7549
malıdır	-10.755
lanmaya	-10.7551
Elimde	-10.7551
▁Bitki	-10.7553
iniz	-10.7555
▁Wa	-10.7555
▁tasarımı	-10.7556
ılsın	-10.7556
▁olalım	-10.7556
AH	-10.7557
▁dönmüş	-10.7558
▁Filistin	-10.7559
▁bugüne	-10.756
▁1924	-10.7561
undan	-10.7564
mut	-10.7564
▁filmde	-10.7565
▁sofra	-10.7567
▁onda	-10.7573
▁dağılımı	-10.7574
▁Radyo	-10.7575
▁egemenliği	-10.7575
▁yapıya	-10.7576
Mar	-10.7577
çocuk	-10.7577
▁Selanik	-10.7578
▁şaşkın	-10.7579
▁bellek	-10.7579
▁Platon	-10.758
▁sefa	-10.758
▁koloni	-10.7581
▁ku	-10.7582
abildi	-10.7583
▁Ramazan	-10.7584
▁gerçekleştir	-10.7585
▁karısı	-10.7586
▁çekilen	-10.7587
▁Tatar	-10.7589
▁gelmiyor	-10.7589
▁tanımlar	-10.759
kay	-10.7592
▁söyleyen	-10.7595
_2	-10.7597
▁Sonraki	-10.7602
ruh	-10.7602
karanlık	-10.7605
Adı	-10.7607
▁ligi	-10.7608
▁Zi	-10.7609
rar	-10.7609
▁akışı	-10.761
▁farklılık	-10.7611
yolu	-10.7612
taşı	-10.7612
şen	-10.7614
▁mutlaka	-10.7614
▁göçmen	-10.7615
▁kendinden	-10.7619
▁katılmıştır	-10.762
▁ortamda	-10.7623
▁yazılır	-10.7625
52	-10.7626
▁kentte	-10.7626
▁işlemci	-10.7628
üzü	-10.7628
▁mühendislik	-10.7628
71	-10.7629
nar	-10.7635
▁hayalin	-10.7639
▁adları	-10.7645
Akıl	-10.7648
▁ahşap	-10.7648
▁nöbet	-10.7648
Ro	-10.7651
▁çalın	-10.7652
▁1965	-10.7652
▁rakip	-10.7655
▁kabar	-10.7655
ile	-10.7656
ola	-10.7664
▁pozitif	-10.7664
▁takma	-10.7665
tta	-10.7666
▁Kay	-10.7667
▁yönet	-10.7667
▁Kom	-10.7669
▁tartışmalar	-10.7669
▁takıma	-10.7673
müyor	-10.7674
Kes	-10.7678
asyonu	-10.7678
▁uzaklara	-10.7678
▁bölgesinin	-10.7679
▁uyumlu	-10.7682
▁nota	-10.7682
▁konumunda	-10.7683
▁nişan	-10.7684
▁ağlayan	-10.7687
▁1972	-10.7687
▁cihaz	-10.7688
ray	-10.7689
▁şehirler	-10.7689
▁bekliyorum	-10.7689
▁pir	-10.7692
▁gazetesi	-10.7692
▁inanma	-10.7696
▁geçiren	-10.7697
▁sevdanın	-10.7697
▁akımı	-10.7698
Koca	-10.7698
ung	-10.7703
ksiyon	-10.7709
▁kentinde	-10.7712
▁Çift	-10.7712
▁tutuş	-10.7713
dri	-10.7714
▁çalı	-10.7715
leştirilmesi	-10.7716
▁şampiyonu	-10.7718
▁Güneydoğu	-10.7719
söyle	-10.772
▁şer	-10.7722
▁hazırlanan	-10.7723
▁1969	-10.7723
▁aktı	-10.7723
▁taşıdığı	-10.7723
▁Hazar	-10.7723
▁1961	-10.7724
Homo	-10.7724
Ez	-10.7724
lenebilir	-10.7725
▁kazanmış	-10.7725
iyye	-10.7725
Beş	-10.7727
▁sırrı	-10.7727
Ter	-10.7728
▁konuları	-10.7729
ülür	-10.7732
▁Min	-10.7735
▁güçleri	-10.7736
Mah	-10.7737
▁gerektiği	-10.7737
▁bekledim	-10.7738
▁koyduğu	-10.7738
▁doya	-10.7739
▁milleti	-10.774
▁vücudun	-10.774
ou	-10.7742
▁nehri	-10.7744
İs	-10.7746
Çiçek	-10.7747
▁kızar	-10.7748
▁sez	-10.7749
▁ispat	-10.7754
▁aşkımız	-10.7757
Yaşamak	-10.7759
▁kandır	-10.7761
42	-10.7762
▁sadık	-10.7762
Türkçe	-10.7763
▁Kendisi	-10.7765
▁şansı	-10.7766
▁sistemine	-10.7767
▁Romalılar	-10.7768
▁matematikçi	-10.7769
▁400	-10.7772
▁anlamlar	-10.7773
▁Bonn	-10.7775
▁çağlar	-10.7775
▁ç	-10.7775
▁yanıt	-10.7776
▁devri	-10.7777
üç	-10.7779
▁Dönem	-10.7779
▁konularda	-10.778
▁Tiyatro	-10.7784
▁kaydetti	-10.7786
▁şefkat	-10.7789
▁ca	-10.779
79	-10.779
▁ağırlıklı	-10.7793
aba	-10.7795
▁koyar	-10.7797
▁yık	-10.7799
▁Savunma	-10.78
▁sığın	-10.7801
▁çöp	-10.7803
▁Litvanya	-10.7803
iyeti	-10.7804
medik	-10.7805
▁toplar	-10.7805
▁duvarlar	-10.7806
▁tabanlı	-10.7807
▁süreli	-10.781
qui	-10.7811
▁korkma	-10.7813
▁karşıya	-10.7819
▁Sayı	-10.782
▁uygulaması	-10.7821
Dostlar	-10.7822
▁uygulan	-10.7822
▁ör	-10.7822
▁Moğollar	-10.7823
▁muharebe	-10.7824
▁şükür	-10.7824
▁görülmüştür	-10.7824
▁birşey	-10.7824
muştu	-10.7825
▁meğer	-10.7825
▁maddenin	-10.783
ting	-10.7831
▁ipek	-10.7834
▁Çar	-10.7834
▁kısaca	-10.7836
▁kimliği	-10.7836
▁Şarkı	-10.7839
▁Çerkes	-10.784
▁dertli	-10.7842
emiyorum	-10.7844
▁Çevre	-10.7845
▁mekanik	-10.7848
Genç	-10.7848
5.000	-10.7852
Kon	-10.7853
▁topraklarının	-10.7853
Nerde	-10.7855
by	-10.7855
▁orduları	-10.7857
▁belirtir	-10.7858
sanız	-10.7858
bri	-10.7859
▁zerre	-10.786
▁sayede	-10.786
▁birçoğu	-10.7861
▁1926	-10.7861
▁asıllı	-10.7861
▁taşa	-10.7862
▁adamları	-10.7863
Yıl	-10.7863
▁bahçesi	-10.7863
ika	-10.7864
▁gözünde	-10.7864
▁ordusunun	-10.7866
örneğin	-10.7866
▁1981	-10.7867
▁renkleri	-10.7867
▁fonksiyonu	-10.7869
▁uygulanan	-10.7869
▁hormon	-10.787
▁sav	-10.7871
Sonsuz	-10.7875
▁oluşturmak	-10.7876
▁değiştirme	-10.7877
Fi	-10.7878
▁ağzı	-10.788
▁evli	-10.7882
-15	-10.7882
saydı	-10.7883
mir	-10.7885
ort	-10.7888
▁tanem	-10.7893
▁Linux	-10.7893
▁Yakın	-10.7894
▁konserler	-10.7894
▁komutanı	-10.7895
dışı	-10.7895
▁Jüpiter	-10.7895
▁felsefi	-10.7895
▁Etimoloji	-10.7895
▁filmin	-10.7896
ow	-10.7898
▁işgali	-10.7898
▁Demokratik	-10.7898
▁hile	-10.7899
▁kriz	-10.7903
▁girişim	-10.7908
▁gecelerde	-10.7908
▁çevresi	-10.7911
▁mimarisi	-10.7911
▁Yazı	-10.7912
ril	-10.7912
İçimdeki	-10.7912
▁Hatta	-10.7913
kent	-10.7915
▁soyu	-10.7916
mun	-10.7918
üt	-10.7919
▁güldü	-10.792
▁nem	-10.7923
▁gözlerinden	-10.7925
▁oluş	-10.7925
▁olduğum	-10.7928
IM	-10.793
ymiş	-10.7931
▁Çeşitli	-10.7931
▁Tunç	-10.7932
▁değişikliği	-10.7933
▁eğri	-10.7933
▁getirilen	-10.7937
▁y	-10.7939
bırak	-10.7939
İR	-10.7941
▁karanlığı	-10.7941
▁Makedonya	-10.7941
Haber	-10.7941
▁Bilimler	-10.7942
▁öteki	-10.7942
▁Don	-10.7942
▁kanal	-10.7945
▁geliş	-10.7945
▁ş	-10.7946
▁saçların	-10.7946
Gelecek	-10.7946
▁ayaz	-10.7952
▁farklıdır	-10.7956
▁mantar	-10.7959
▁topla	-10.796
▁seçer	-10.7961
▁tahmini	-10.7962
▁götürür	-10.7963
▁Ceza	-10.7964
mor	-10.7965
▁yanıma	-10.7966
▁Boz	-10.7967
▁blok	-10.7967
▁Ulaşım	-10.7967
cc	-10.7969
▁Samsun	-10.7971
He	-10.7971
▁kalıcı	-10.7972
liyim	-10.7973
▁sun	-10.7978
ling	-10.7979
set	-10.7981
lemiş	-10.7982
▁kin	-10.7982
41	-10.7982
▁sevdalar	-10.7982
▁gittiği	-10.7983
Go	-10.7984
irken	-10.7984
▁bence	-10.7985
▁kilit	-10.7986
▁hamam	-10.7987
▁gökyüzünde	-10.7989
▁Anti	-10.799
▁isti	-10.7995
▁bakıyor	-10.7995
▁demet	-10.7996
▁asil	-10.7998
çiler	-10.7999
▁çöker	-10.8
▁listesi	-10.8
▁çalışmak	-10.8004
Sessiz	-10.8005
▁nimet	-10.8005
▁1917	-10.8005
▁ağıt	-10.8006
io	-10.8006
gah	-10.8006
▁topluluk	-10.8007
▁ölümsüz	-10.8007
▁Parkı	-10.8008
▁sandın	-10.8009
▁farklılıklar	-10.8009
▁karşılığında	-10.801
▁rakibi	-10.801
say	-10.8011
▁akın	-10.8011
▁tarımsal	-10.8012
▁Ateş	-10.8015
Vi	-10.8016
Alış	-10.8018
▁görünen	-10.8019
▁mahallesi	-10.802
boş	-10.802
▁hekim	-10.8021
▁dağın	-10.8021
▁seve	-10.8022
▁fen	-10.8022
çar	-10.8023
▁demiştir	-10.8025
31	-10.8027
▁boşluk	-10.8028
ğim	-10.803
▁titre	-10.8031
▁yazarlar	-10.8035
▁kanseri	-10.8037
▁kapsayan	-10.804
▁klip	-10.8041
▁1920'	-10.8041
riz	-10.8043
▁topluluğu	-10.8043
Benden	-10.8046
▁kazanarak	-10.8047
▁leke	-10.8047
▁etmişlerdir	-10.8048
▁lira	-10.8048
▁yurdu	-10.8051
▁CD	-10.8053
▁açıkça	-10.8054
▁girme	-10.8054
Gölge	-10.8055
▁yürür	-10.8055
▁12.	-10.8062
▁aşklar	-10.8062
landım	-10.8062
manın	-10.8063
▁solo	-10.8064
ty	-10.8066
▁Ses	-10.8066
▁co	-10.8066
▁Aile	-10.8069
▁geçim	-10.807
▁Sü	-10.8072
▁kule	-10.8073
▁Ölümü	-10.8074
▁Karşı	-10.8075
Geçmiş	-10.8075
▁Arjantin	-10.8076
▁Küba	-10.8077
diğinde	-10.8077
▁ikimiz	-10.8078
▁seviyor	-10.8078
▁yüreğinde	-10.8078
▁rastlanır	-10.8079
▁albümde	-10.8082
▁duyduğu	-10.8083
▁söylediği	-10.8085
pınar	-10.8086
▁go	-10.8089
ktedir	-10.8092
car	-10.8094
▁kaybı	-10.8094
▁Kulüp	-10.8095
kle	-10.8096
ûn	-10.8096
▁Dağlar	-10.8098
ite	-10.8099
▁Fırat	-10.81
▁karşılaşma	-10.8101
cer	-10.8103
▁organ	-10.8103
▁kadro	-10.8107
▁bizde	-10.8108
▁konular	-10.8109
Bas	-10.8109
tuk	-10.811
▁sezonda	-10.8112
▁Darwin	-10.8113
▁Yok	-10.8113
▁süper	-10.8113
▁bulunmamaktadır	-10.8114
▁küresel	-10.8115
▁ekmeği	-10.8117
irler	-10.8117
▁birbirini	-10.812
▁yazılar	-10.8121
▁vatanı	-10.8121
▁girişimi	-10.8121
▁gölgesi	-10.8122
▁bakın	-10.8126
▁oyunlar	-10.8128
▁neye	-10.8128
▁dönüşür	-10.8129
▁Evren	-10.8129
▁yürüdü	-10.8132
▁iri	-10.8133
▁böcek	-10.8133
▁yüzyıllar	-10.8134
▁istemez	-10.8135
yoruz	-10.8136
▁yazıları	-10.8136
▁Kutsal	-10.8137
▁direniş	-10.8138
▁amma	-10.8138
▁tuzak	-10.814
ğin	-10.8141
▁başımı	-10.8141
vis	-10.8143
56	-10.8143
▁tipik	-10.8144
YA	-10.8146
acağız	-10.8146
▁Ağ	-10.8147
▁kuzu	-10.8149
▁değerlendirme	-10.815
bilir	-10.8155
▁mermi	-10.8158
▁1977	-10.816
▁olmazsa	-10.8161
baz	-10.8163
▁kağıt	-10.8164
▁dursun	-10.8166
▁delik	-10.8166
▁Dünyada	-10.8168
aklar	-10.8171
▁okulun	-10.8172
▁gölü	-10.8173
▁örneği	-10.8174
▁amaçla	-10.8175
▁elli	-10.8176
▁olmaktan	-10.8177
▁opera	-10.8177
▁olsaydı	-10.8179
▁enerjisi	-10.8183
Man	-10.8183
lasın	-10.8183
▁habersiz	-10.8183
kul	-10.8184
▁vapur	-10.8186
▁AK	-10.8186
▁hanım	-10.8188
49	-10.8189
▁imzalanan	-10.8189
▁bulmuştur	-10.8191
▁web	-10.8191
▁Af	-10.8191
▁34	-10.8194
ağın	-10.8197
▁ideal	-10.8197
▁bıraktım	-10.8198
▁mevki	-10.8198
▁muhtemelen	-10.8198
▁tarafta	-10.8199
▁2004'	-10.82
Dünyanın	-10.8205
San	-10.8208
olog	-10.8208
▁fer	-10.8209
▁Ren	-10.8209
▁cep	-10.821
▁şa	-10.8212
▁krallık	-10.8213
Av	-10.8214
▁gecede	-10.8214
▁serçe	-10.8217
▁bölgeyi	-10.822
▁yaralar	-10.8222
▁iğne	-10.8223
▁Richard	-10.8223
▁Cezayir	-10.8223
▁şeridi	-10.8223
▁benzeyen	-10.8224
▁DE	-10.8225
▁harfleri	-10.8229
▁Dan	-10.8229
▁oluşturdu	-10.823
▁paşa	-10.8232
▁açıl	-10.8232
▁gülleri	-10.8233
Müslüman	-10.8234
▁okunur	-10.8235
▁karakteri	-10.8235
oto	-10.824
▁baktı	-10.8241
ebilmektedir	-10.8245
acaktı	-10.8248
▁dolaşır	-10.825
▁öğretmeni	-10.825
▁çoğal	-10.8252
▁zorla	-10.8256
▁Real	-10.8256
▁mülk	-10.8258
▁Macar	-10.8258
Sevmek	-10.8259
▁gözlerimi	-10.826
▁hafıza	-10.826
▁şifa	-10.8261
▁cefa	-10.8261
▁bulunmaktaydı	-10.8262
ilip	-10.8264
▁durdum	-10.8265
▁anlaşıl	-10.8275
▁Kafkasya	-10.8276
▁(2	-10.828
▁planı	-10.8281
▁atmıştır	-10.8281
kimse	-10.8282
▁va	-10.8282
▁özle	-10.8283
▁bulunma	-10.8288
▁(1	-10.829
İslam	-10.8291
RA	-10.8294
▁boşluğu	-10.8294
▁madalya	-10.8297
▁öğret	-10.8297
▁döv	-10.8298
▁İşçi	-10.8298
▁hançer	-10.8299
▁yakma	-10.8299
▁2009'	-10.83
mektir	-10.8302
gre	-10.8305
zim	-10.8307
▁yıkım	-10.8308
▁kişiye	-10.8309
▁seyret	-10.831
▁uyandır	-10.831
▁FC	-10.8313
▁gösterme	-10.8313
▁semt	-10.8314
▁Ker	-10.8315
▁Tel	-10.8315
▁durumuna	-10.8318
▁komutan	-10.8321
kav	-10.8321
abil	-10.8325
imizi	-10.8327
▁geçmesi	-10.8327
▁doğur	-10.8327
lıkla	-10.8328
şehir	-10.8328
▁alıyor	-10.8328
▁l	-10.8331
Barış	-10.8331
▁İz	-10.8332
▁mo	-10.8333
meyin	-10.8333
▁Olimpiyat	-10.8336
▁çekici	-10.8336
-17	-10.8337
▁çöktü	-10.834
İçim	-10.834
▁Milli	-10.834
▁keser	-10.8341
larımda	-10.8341
▁ayaklanma	-10.8345
▁gazetesinde	-10.8346
▁durgun	-10.8348
Garip	-10.8348
▁etmişti	-10.8348
▁gülüş	-10.8348
▁ilacı	-10.8348
▁1918	-10.8349
▁hür	-10.8351
madığı	-10.8355
ney	-10.8356
▁başbakan	-10.8357
▁kuvvetli	-10.836
▁kitapta	-10.8361
▁banka	-10.8362
▁dedin	-10.8362
▁hapse	-10.8363
▁ocak	-10.8363
atlar	-10.8364
▁bağlantısı	-10.8367
▁sistemini	-10.8368
port	-10.8368
▁37	-10.8368
▁harekete	-10.8368
Kırk	-10.837
Anladım	-10.8371
▁âşık	-10.8372
▁müjde	-10.8372
▁sağlamaktadır	-10.8373
▁Sezar	-10.8373
▁kına	-10.8374
vat	-10.8377
AM	-10.8378
▁Is	-10.8381
▁eylem	-10.8381
▁hicran	-10.8383
▁askerleri	-10.8383
▁''	-10.8383
93	-10.8385
▁canlılar	-10.8388
Yaşam	-10.8389
▁içeriği	-10.839
▁yeli	-10.839
▁dinî	-10.8391
▁risk	-10.8391
rdı	-10.8393
▁kimler	-10.8394
ağ	-10.8396
62	-10.8399
▁ayrım	-10.84
▁imkansız	-10.84
▁tatil	-10.8401
bahar	-10.8402
gra	-10.8402
▁Bah	-10.8403
▁Herkes	-10.8404
Is	-10.8405
▁Demokrat	-10.8406
Cehennem	-10.8409
▁ayrılması	-10.841
lüğe	-10.841
▁familyasından	-10.8412
▁görmüştür	-10.8413
▁filmleri	-10.8415
Ömrüm	-10.8416
▁uygulamalar	-10.8417
▁yatağı	-10.8418
▁sonuçları	-10.8418
▁ölmüş	-10.8418
▁alanlarında	-10.842
▁suda	-10.842
▁yönelim	-10.8421
▁Chi	-10.8422
▁Bahçe	-10.8422
▁özgürlüğü	-10.8422
liğinin	-10.8426
▁kaynaklar	-10.8428
sey	-10.8428
▁çevrili	-10.843
anne	-10.843
Bel	-10.843
▁birinde	-10.8433
04	-10.8433
▁kıyamet	-10.8434
▁2006'	-10.8439
▁ismin	-10.8439
▁birey	-10.844
▁sur	-10.8441
▁çevresindeki	-10.8441
ğın	-10.8444
▁frekans	-10.8445
▁görüldü	-10.8446
leridir	-10.8446
▁Hakkı	-10.8447
▁verilmektedir	-10.8448
▁gelmedi	-10.845
▁kâr	-10.8454
▁yıktı	-10.8454
08	-10.8454
▁yapıp	-10.8459
▁yetki	-10.8461
▁sunar	-10.8463
▁seyre	-10.8464
▁ortada	-10.8465
seydin	-10.8465
51	-10.8466
▁şeyden	-10.8466
▁dönüştür	-10.8468
▁öğrencileri	-10.847
▁kemer	-10.8472
▁grubunun	-10.8473
soy	-10.8474
Bo	-10.8474
▁dünyadaki	-10.8477
▁%4	-10.8481
▁yüreğine	-10.8483
▁üstlendi	-10.8483
▁ilçesine	-10.8483
▁sözünü	-10.8483
Yürü	-10.8483
▁Dön	-10.8485
▁Bosna	-10.8485
▁almaz	-10.8485
▁gelindiğinde	-10.8485
▁oynamıştır	-10.8489
Alev	-10.849
▁oluşmuş	-10.8492
▁Yüz	-10.8493
▁imam	-10.8494
▁Yüksekokulu	-10.8495
▁Başbakan	-10.8496
▁Yaş	-10.8497
▁uçan	-10.8498
▁gözlerinin	-10.8498
▁belirsiz	-10.8501
▁1967	-10.8501
ilebilir	-10.8501
▁içimdeki	-10.8502
▁okula	-10.8504
ilmiştir	-10.8504
▁dostun	-10.8505
mit	-10.8505
▁akıllı	-10.8506
▁kaybetmiş	-10.8506
▁kanar	-10.8507
▁yeraltı	-10.8507
udur	-10.8512
gâh	-10.8515
ref	-10.8516
malıyım	-10.8516
▁varlığın	-10.8516
▁kira	-10.8518
▁kitle	-10.8518
▁Mak	-10.8521
▁kalesi	-10.8521
▁ellerinde	-10.8522
▁elverişli	-10.8523
▁karanfil	-10.8523
▁dönüşü	-10.8526
▁hatları	-10.8526
▁j	-10.8528
▁hor	-10.8528
▁plana	-10.8529
▁Çay	-10.853
▁albümünde	-10.8531
▁bölgesel	-10.8534
▁test	-10.8534
▁baraj	-10.8534
▁herkesin	-10.8535
▁savunan	-10.8535
Sevgili	-10.8538
▁ihtiyar	-10.8538
57	-10.8538
▁söze	-10.8539
▁vezir	-10.8539
Fakat	-10.854
▁sembolü	-10.8541
▁çevir	-10.8542
▁sevmeyi	-10.8545
▁kattı	-10.8549
OL	-10.8549
▁yemiş	-10.855
abildiği	-10.8554
▁sözlü	-10.8555
▁vefa	-10.856
▁evlilik	-10.856
▁sordum	-10.8561
▁tarihine	-10.8561
3)	-10.8561
▁Kardeş	-10.8562
Va	-10.8562
mıştım	-10.8562
▁Soğuk	-10.8564
▁düştüğü	-10.8564
▁ucuz	-10.8564
Olur	-10.8567
▁kalbe	-10.8568
▁bilgileri	-10.8569
mavi	-10.8573
▁söylemiştir	-10.8573
▁tanımlanır	-10.8574
lamaya	-10.8575
▁hakimiyeti	-10.8575
▁Teknoloji	-10.8576
▁Bektaş	-10.8576
07	-10.8577
▁verdiler	-10.8579
fo	-10.8581
▁azınlık	-10.8581
▁kuruş	-10.8582
▁sisteminde	-10.8585
▁bahçesinde	-10.8585
log	-10.8586
yıldız	-10.8586
▁mer	-10.8588
ria	-10.8589
Kardeş	-10.8594
▁Yüce	-10.8594
▁Cor	-10.8594
▁64	-10.8595
▁Washington	-10.8599
▁pratik	-10.8599
▁şöhret	-10.8599
▁hükmü	-10.8599
▁sürmüştür	-10.86
▁sü	-10.8601
trop	-10.8601
▁gözlüm	-10.8602
▁imzaladı	-10.8604
yuz	-10.8605
▁(17	-10.8606
Sür	-10.8607
mısın	-10.8608
▁Sil	-10.8608
mişsin	-10.8608
kut	-10.8609
emeyen	-10.861
▁hayali	-10.861
ât	-10.8613
ibi	-10.8617
▁1957	-10.8617
▁yaygındır	-10.8617
▁1976	-10.8617
▁Mimar	-10.8618
▁öbür	-10.862
▁ansızın	-10.8623
Bunu	-10.8624
▁Pat	-10.8624
▁Ağrı	-10.8625
▁geçmişte	-10.8627
▁yıkar	-10.8628
▁Uzak	-10.8628
Diz	-10.863
▁şöyledir	-10.863
▁gelenek	-10.8631
▁açısı	-10.8632
Nur	-10.8632
▁potansiyel	-10.8632
▁Tak	-10.8633
▁kokuyor	-10.8634
▁Val	-10.8636
▁ilerleyen	-10.8639
▁resmen	-10.864
▁evrensel	-10.8641
Yeniden	-10.8643
MÖ	-10.8643
▁ilave	-10.8644
liğinden	-10.8644
Gitme	-10.8645
tiğim	-10.865
Ayak	-10.865
▁saran	-10.8653
▁şekilleri	-10.8653
▁yükselir	-10.8654
▁bulduğu	-10.8655
▁evine	-10.8655
▁180	-10.8656
▁1963	-10.8656
▁atılan	-10.8657
▁1922	-10.8657
▁odası	-10.8657
▁verileri	-10.8658
▁sek	-10.866
▁kurumu	-10.866
▁yavrum	-10.8661
lor	-10.8662
olojik	-10.8664
▁yeteneği	-10.8664
▁çatışmalar	-10.8664
▁negatif	-10.8665
yazı	-10.8672
Dilim	-10.8675
▁büyüklüğü	-10.8675
▁baharı	-10.8675
▁iline	-10.8678
▁sevdiği	-10.8678
▁belirtmiştir	-10.8678
▁kıs	-10.8679
▁oranla	-10.8679
posta	-10.8682
▁gönüllü	-10.8682
▁yıllara	-10.8683
▁kaldık	-10.8685
suna	-10.8686
▁kaplar	-10.8689
▁120	-10.869
berg	-10.8692
▁Elektrik	-10.8693
▁cisim	-10.8696
▁aralık	-10.8697
dost	-10.8698
▁güvercin	-10.8699
fı	-10.8699
Kalp	-10.8699
Birlikte	-10.87
73	-10.8704
şiir	-10.8705
▁eşsiz	-10.8707
▁düşüyor	-10.8709
nir	-10.8713
▁demokratik	-10.8715
ciliği	-10.8715
▁ailenin	-10.8717
▁geliştirilen	-10.8719
▁yüzlerce	-10.8721
▁Divan	-10.8721
▁bağlanmıştır	-10.8722
▁beklenen	-10.8725
▁kalıyor	-10.8729
▁salgı	-10.8731
▁Yapılan	-10.8731
▁Nu	-10.8733
▁cenaze	-10.8733
▁dönüyor	-10.8734
Gündüz	-10.8735
▁1946	-10.8735
▁bireyler	-10.8738
▁boyut	-10.8739
▁bedel	-10.8743
▁yapması	-10.8743
▁Laz	-10.8744
▁Türkçeye	-10.8745
▁yayım	-10.8751
raz	-10.8751
▁temelini	-10.8752
▁Selçuklular	-10.8752
▁gözümde	-10.8753
▁yöntemleri	-10.8753
▁peri	-10.8753
▁açılmış	-10.8754
▁sürdürmektedir	-10.8754
Kalbin	-10.8754
▁felek	-10.8755
▁yapılacak	-10.8756
indeki	-10.8757
Â	-10.8759
▁üyeliği	-10.8759
▁odun	-10.8762
Kor	-10.8762
▁Vali	-10.8762
▁rütbesi	-10.8762
ığı	-10.8765
▁görüşleri	-10.8768
▁çelik	-10.8771
Sus	-10.8771
▁am	-10.8774
▁1954	-10.8774
▁kullanılmış	-10.8775
çağ	-10.8778
▁zararlı	-10.8782
EL	-10.8782
▁partisi	-10.8782
▁devamlı	-10.8783
Bedenim	-10.8783
▁kusur	-10.8784
▁hü	-10.8784
▁Müslümanlar	-10.8785
▁Mas	-10.8786
▁profesör	-10.8786
bl	-10.8789
▁Gogh	-10.8793
▁inceleyen	-10.8797
▁Tokat	-10.8797
▁ortalarında	-10.8798
▁yenilgi	-10.8798
▁Bre	-10.8803
▁sayar	-10.8804
dığımız	-10.8804
▁salonu	-10.8806
▁kırsal	-10.8807
▁maçın	-10.8807
▁elçi	-10.8809
▁başla	-10.8814
mekle	-10.8817
kale	-10.8819
OR	-10.8821
▁aşkla	-10.8821
▁ürünü	-10.8825
▁dilini	-10.8826
▁Kongre	-10.8827
▁olabileceği	-10.8827
://	-10.8832
yası	-10.8834
▁hâkim	-10.8835
▁nede	-10.8836
▁aydınlat	-10.8839
▁dibinde	-10.884
▁utan	-10.8842
▁bahane	-10.8842
61	-10.8843
lım	-10.8843
▁aşar	-10.8844
▁sözcükler	-10.8848
▁Gözlerin	-10.8849
şey	-10.8851
▁vefasız	-10.8851
▁kahverengi	-10.8852
Kül	-10.8852
madık	-10.8854
▁sağır	-10.8856
▁gö	-10.8857
onu	-10.8858
▁ışığında	-10.8862
▁maddelerin	-10.8863
▁onca	-10.8864
▁sevdaya	-10.8865
▁hac	-10.8866
▁vurma	-10.8867
▁kapılar	-10.8869
▁Gine	-10.887
▁Hatay	-10.8871
▁Mersin	-10.8871
▁dayanıklı	-10.8872
▁Kum	-10.8873
▁ulaşıl	-10.8873
▁kaynaklarda	-10.8876
Ağlama	-10.8876
▁Sir	-10.8879
▁sebeple	-10.888
▁İmam	-10.888
dis	-10.8882
▁ihracat	-10.8882
Uyu	-10.8883
▁yazılmıştır	-10.8885
Pe	-10.8886
▁susar	-10.8887
▁yükselt	-10.8888
▁gidişin	-10.8888
are	-10.8888
▁karınca	-10.8888
gur	-10.8889
▁karın	-10.8892
▁güldür	-10.8892
▁75	-10.8892
▁kimsesiz	-10.8892
Sıcak	-10.8893
▁1944	-10.8894
▁kayboldu	-10.8894
▁tavsiye	-10.8895
▁Harp	-10.8896
▁biçimleri	-10.8896
âb	-10.8897
▁güreş	-10.8898
Kötü	-10.8898
▁geliştirdi	-10.8899
▁Nar	-10.8903
▁ibaret	-10.8906
▁Kazan	-10.8909
LE	-10.891
▁satranç	-10.8911
▁eşliğinde	-10.8913
▁gözyaşım	-10.8914
sur	-10.8915
matik	-10.8918
▁Saat	-10.8919
▁ezgi	-10.8919
▁Sezon	-10.8919
▁yönetici	-10.892
▁sevdan	-10.8921
mışsın	-10.8921
▁akıt	-10.8922
▁Ruslar	-10.8922
▁boyutlu	-10.8923
tüğü	-10.8923
▁devrinde	-10.8925
▁isten	-10.8926
..!¬	-10.8931
▁bölümler	-10.8932
▁Aslan	-10.8933
▁Hel	-10.8934
▁mısra	-10.8934
▁maçına	-10.8934
▁numarası	-10.8934
▁oluşturma	-10.8935
sende	-10.8938
▁Aslında	-10.8939
mekten	-10.8947
▁Fizik	-10.8949
Dünyada	-10.8949
▁sevin	-10.895
▁Bülent	-10.8951
▁bisiklet	-10.8951
▁tomurcuk	-10.8951
▁denizden	-10.8951
▁w	-10.8952
▁1928	-10.8952
▁1908	-10.8954
▁beşinci	-10.8954
Kızıl	-10.8955
▁yaşat	-10.8956
▁tutmak	-10.8956
▁ferman	-10.8958
▁sevgiye	-10.8958
▁takımına	-10.8958
salar	-10.8959
ino	-10.896
▁dolmuş	-10.8962
Doğu	-10.8967
shi	-10.8969
▁şanlı	-10.8969
▁merkezinin	-10.8969
▁kalması	-10.8972
▁yem	-10.8976
▁çevirdi	-10.8979
▁önderliğinde	-10.898
▁ulaşma	-10.898
▁Kir	-10.8983
▁güzeldi	-10.8984
▁Col	-10.8986
gor	-10.8991
▁Artvin	-10.8991
▁manevi	-10.8991
▁tarihçi	-10.8994
▁hasretim	-10.8994
▁cezası	-10.8996
▁tutup	-10.8996
▁Demirel	-10.8997
▁birgün	-10.8999
▁kuşak	-10.9
To	-10.9002
nus	-10.9004
larımın	-10.9005
▁Üsküdar	-10.9005
dadır	-10.9007
▁dertler	-10.9008
ight	-10.901
kız	-10.9011
▁etsin	-10.9012
▁sokaklar	-10.9013
▁gönlü	-10.9013
▁kongre	-10.9013
▁torunu	-10.9013
▁çekmek	-10.9014
Elbet	-10.9016
▁koç	-10.9016
lemesi	-10.9017
▁üreme	-10.9017
saydım	-10.9025
▁girmesi	-10.9026
Koy	-10.9026
Geceler	-10.9027
pus	-10.9028
▁Yaşam	-10.903
▁uzaklıkta	-10.903
▁aykırı	-10.9031
?"	-10.9032
itler	-10.9032
▁alay	-10.9032
▁gönderilen	-10.9033
▁Erken	-10.9036
▁Rize	-10.9036
dd	-10.9037
▁öyküsü	-10.9038
▁yüksektir	-10.9038
▁posta	-10.9038
▁duvarı	-10.9039
▁Mezopotamya	-10.904
▁azdır	-10.9041
▁taşımaktadır	-10.9041
▁herkese	-10.9042
▁iyon	-10.9042
bağ	-10.9044
ografi	-10.9048
▁korkusu	-10.9052
▁parlamento	-10.9052
Anılar	-10.9053
▁avlu	-10.9053
▁çıkacak	-10.9055
▁1923	-10.9058
▁Altı	-10.9058
▁üzülme	-10.9062
▁ulus	-10.9063
▁Kişi	-10.9064
rip	-10.9065
şer	-10.9066
▁doktora	-10.9066
▁alanına	-10.9067
ebilmesi	-10.9068
▁kendisinden	-10.907
▁Muğla	-10.9071
▁levha	-10.9071
▁fosil	-10.9071
▁yor	-10.9071
Gecenin	-10.9073
pen	-10.9073
▁özelliğini	-10.9073
▁mesaj	-10.9076
▁artışı	-10.9077
▁kırdı	-10.9078
▁talan	-10.9078
▁türküler	-10.9079
raf	-10.9081
▁teorik	-10.9082
▁tabiat	-10.9083
EY	-10.909
duğun	-10.9091
▁büyüktür	-10.9092
İngilizce	-10.9097
şim	-10.9098
▁kem	-10.9102
▁doğumlu	-10.9105
Yık	-10.9106
▁memur	-10.9107
▁önemini	-10.9107
▁Rab	-10.9107
İZ	-10.911
▁işkence	-10.9111
▁seli	-10.9112
▁organı	-10.9114
siyon	-10.9114
▁Ailesi	-10.9115
▁Alevi	-10.9117
▁ayırt	-10.9117
▁sütun	-10.9119
laştır	-10.912
▁kuşağı	-10.9121
▁sayısının	-10.9121
▁alfabe	-10.9122
4)	-10.9124
▁hikaye	-10.9124
Hasretin	-10.9124
▁altından	-10.9125
▁hastane	-10.9125
âl	-10.9126
▁kanalı	-10.9129
▁şi	-10.9129
▁Tah	-10.913
▁ışıl	-10.9131
▁aşın	-10.9131
▁karşımda	-10.9132
Doy	-10.9136
▁site	-10.9137
59	-10.9138
Ze	-10.9138
▁değişmez	-10.9139
▁şişe	-10.9139
Ankara	-10.9139
▁kapa	-10.9141
mine	-10.9141
▁azalma	-10.9145
▁Rusça	-10.915
EV	-10.915
▁bilgisayarlar	-10.9151
▁tutul	-10.9152
▁tüken	-10.9152
▁İdari	-10.9152
▁beslenme	-10.9152
▁hücum	-10.9152
▁protokol	-10.9154
▁getirme	-10.9155
▁borcu	-10.9156
▁şimdiki	-10.9157
▁kurmuştur	-10.9158
▁yatırım	-10.9159
Yaşama	-10.9161
▁Vadisi	-10.9161
▁kadını	-10.9162
▁gelmişti	-10.9162
▁yağan	-10.9163
▁arayan	-10.9164
▁sevdiğini	-10.9169
▁ede	-10.917
▁cismin	-10.9171
▁Felsefe	-10.9171
▁Mavi	-10.9174
▁dumanı	-10.9177
Yüce	-10.9178
▁1955	-10.9179
▁tedavisi	-10.9179
▁1919	-10.918
▁bilmeden	-10.9182
▁merkezleri	-10.9183
amayacak	-10.9185
▁noktasında	-10.9186
▁ilişkili	-10.9187
▁devrimci	-10.9187
▁cesaret	-10.9187
▁reaksiyon	-10.9191
▁United	-10.9192
▁ısrar	-10.9192
▁Haldun	-10.9194
▁ovalar	-10.9198
▁Doğa	-10.9201
▁biyoloji	-10.9201
▁bakışı	-10.9202
Zehir	-10.9204
▁ayları	-10.9206
vir	-10.9208
AY	-10.9212
lerime	-10.9213
▁onur	-10.9215
Kırık	-10.9216
▁egemenliğine	-10.9217
▁takımda	-10.9218
Eş	-10.9223
▁anlamaz	-10.9223
amadığı	-10.9224
▁yaparken	-10.9226
▁sırtında	-10.9227
gır	-10.9228
▁Selçuk	-10.9228
▁düşüncesi	-10.9229
▁ormanlar	-10.923
▁sustu	-10.9231
▁içimden	-10.9231
▁tecrübe	-10.9233
▁Nitekim	-10.9233
▁Topluluğu	-10.9233
▁armağan	-10.9233
Hesap	-10.9234
▁Sezen	-10.9234
▁gösteri	-10.9235
sarı	-10.9235
▁cihan	-10.9235
▁bulunuyordu	-10.9236
▁olmasının	-10.9236
İnce	-10.9237
▁Isparta	-10.9238
▁cadde	-10.9239
▁Mon	-10.9239
İnsanlık	-10.924
▁imparatorluk	-10.924
lah	-10.9241
▁açılması	-10.9242
83	-10.9244
▁mel	-10.9246
▁önceleri	-10.9246
▁çalma	-10.9249
▁Hristiyanlık	-10.925
▁anlamak	-10.9252
▁güneye	-10.9254
▁tören	-10.9254
kov	-10.9255
▁baca	-10.9255
Sensizlik	-10.9255
53	-10.9256
▁Şe	-10.926
Keşke	-10.9261
▁geçit	-10.9261
biri	-10.9262
▁nüfusa	-10.9263
▁Ekonomik	-10.9265
▁atarak	-10.9266
▁kapasitesi	-10.9268
▁sıla	-10.9271
▁kitabın	-10.9271
lıların	-10.9271
▁karışır	-10.9273
▁materyal	-10.9274
▁Farabi	-10.9274
▁cinayet	-10.9274
▁renkte	-10.9274
▁Rabbim	-10.9275
yani	-10.9275
▁Atlas	-10.9276
▁kop	-10.9276
▁düzeyinde	-10.9278
▁organik	-10.9278
Adını	-10.9279
▁Apple	-10.928
Sevme	-10.9284
▁Oyuncu	-10.9286
▁Pen	-10.9287
▁istatistik	-10.929
▁çiftçi	-10.929
▁vuslat	-10.929
▁Hangi	-10.9292
▁Alt	-10.9294
▁korunması	-10.9296
illi	-10.9296
İL	-10.9297
▁ulaşmak	-10.9298
ny	-10.9301
▁servis	-10.9301
▁1964	-10.9303
▁anlamsız	-10.9303
çiçek	-10.9304
▁keçi	-10.9305
▁Ziya	-10.9307
malısın	-10.9307
Kat	-10.931
▁lale	-10.931
▁trans	-10.931
verdi	-10.9311
▁öğüt	-10.9311
CA	-10.9312
sağ	-10.9314
▁razı	-10.9315
▁Önemli	-10.9315
▁peynir	-10.9315
▁evler	-10.9316
▁1932	-10.9316
▁general	-10.9317
▁Men	-10.9318
nç	-10.9321
pro	-10.9322
▁Best	-10.9324
▁geldiğini	-10.9325
Nereye	-10.9325
▁Celal	-10.9327
▁kurgu	-10.9327
▁dersler	-10.9327
Çıkar	-10.9329
▁sevgiyle	-10.9331
▁oto	-10.9332
nak	-10.9333
▁bitmiş	-10.9333
▁teker	-10.9334
▁güneşe	-10.9335
Millet	-10.9336
▁mezarı	-10.9338
Sabır	-10.9338
▁Savaşları	-10.934
▁duygusu	-10.9341
jen	-10.9346
ich	-10.9346
lüğün	-10.9347
▁Mecnun	-10.9351
ise	-10.9353
tic	-10.9355
atör	-10.9355
Sır	-10.9355
▁Havalimanı	-10.9357
▁oraya	-10.9357
▁bedeni	-10.9358
▁saklar	-10.9358
Ab	-10.9359
▁göstermek	-10.9361
yelim	-10.9361
▁düşmüştür	-10.9362
▁karıştı	-10.9362
▁hayallerim	-10.9362
▁Mel	-10.9363
▁grupların	-10.9366
▁yağışlı	-10.9367
▁ker	-10.9369
▁kuytu	-10.937
eg	-10.9373
▁katil	-10.9373
▁tüy	-10.9373
▁kalbine	-10.9375
▁güzelliği	-10.9376
▁ni	-10.9376
jan	-10.9379
▁günüm	-10.938
▁susuz	-10.9381
▁patlama	-10.9381
▁King	-10.9385
▁gittim	-10.9386
▁1959	-10.9387
▁şirketin	-10.9388
▁tarihçiler	-10.9391
▁kimseyi	-10.9394
▁azalt	-10.9395
hl	-10.9395
▁İm	-10.9396
▁kimsenin	-10.9396
▁seviyesi	-10.9397
▁protesto	-10.9398
▁uygulanması	-10.94
Kİ	-10.9401
▁ikna	-10.9402
Kalk	-10.9402
▁yapmayı	-10.9402
▁öğrendi	-10.9403
▁yakından	-10.9404
▁tükendi	-10.9405
▁çekirdeği	-10.9405
laz	-10.9406
▁farz	-10.941
▁sevgiler	-10.941
▁süz	-10.9411
▁sevdası	-10.9411
▁öldürdü	-10.9411
▁geçecek	-10.9412
▁olayların	-10.9414
▁İmparator	-10.9415
▁belirti	-10.9415
▁İmparatoru	-10.9419
▁Kadıköy	-10.9419
▁içki	-10.942
▁konuk	-10.942
▁Zeki	-10.942
▁verin	-10.942
Diye	-10.942
Yük	-10.9421
ano	-10.9422
▁yapış	-10.9423
▁temsilcisi	-10.9424
▁karışımı	-10.9424
Kış	-10.9424
▁ülkedeki	-10.9426
form	-10.9426
▁olanı	-10.9427
▁1978	-10.9429
yürek	-10.943
ydim	-10.943
▁belirtti	-10.9434
▁golünü	-10.9434
hor	-10.9435
ən	-10.9435
▁Carl	-10.9437
▁odaklan	-10.9437
Cumhurbaşkanlığı	-10.944
▁işbirliği	-10.944
▁araçları	-10.9441
▁eserlerini	-10.9442
▁yakıt	-10.9443
batı	-10.9443
▁Meydan	-10.9445
▁diline	-10.9445
▁kokla	-10.9446
▁hedefi	-10.945
▁kalbimin	-10.945
Meğer	-10.9451
▁tabakası	-10.9451
gr	-10.9453
▁şans	-10.9454
▁kıymet	-10.9457
nuz	-10.9457
▁bakalım	-10.9458
▁atmosfer	-10.9458
▁herşeyi	-10.946
▁ararım	-10.9462
▁yayılması	-10.9463
▁yaşarken	-10.9465
▁sultanı	-10.9467
bun	-10.9469
Zaten	-10.9471
▁1943	-10.9472
▁olacaktı	-10.9477
▁uzaklarda	-10.9478
Kol	-10.9482
▁keşif	-10.9482
▁talebi	-10.9482
▁Sinop	-10.9482
mâ	-10.9484
▁gayret	-10.9484
▁seçti	-10.9484
▁döviz	-10.9485
▁Emre	-10.9486
artık	-10.9486
▁kolları	-10.9486
▁Köprüsü	-10.9487
▁Sta	-10.9487
▁baskısı	-10.9488
▁ağar	-10.9489
▁Au	-10.9491
ışın	-10.9493
aca	-10.9493
Sel	-10.9495
▁şan	-10.9496
▁poli	-10.95
▁Asur	-10.9501
▁vatandaş	-10.9504
saydın	-10.9505
lüğünü	-10.9507
Gözlerinde	-10.9507
şt	-10.9507
mizin	-10.9507
▁gülümse	-10.9508
ach	-10.9509
▁özen	-10.9509
Güller	-10.9512
▁yetkisi	-10.9513
▁ce	-10.9513
▁gönülden	-10.9513
▁midir	-10.9514
▁Sırp	-10.9514
▁1958	-10.9514
▁2011'	-10.9514
▁görevli	-10.9516
▁Pek	-10.9517
▁nefesi	-10.9518
▁değerler	-10.9519
▁öğrendim	-10.9522
▁defter	-10.9523
▁ihraç	-10.9524
▁medrese	-10.9524
▁Bizim	-10.9526
Çiçekler	-10.9526
▁melekler	-10.9527
▁asist	-10.9527
▁görüyorum	-10.9529
▁Kafka	-10.9529
▁umudu	-10.9529
▁And	-10.953
alist	-10.9538
İlim	-10.9539
Ses	-10.9543
Sevdiğim	-10.9543
Gönüller	-10.9543
▁parçacık	-10.9544
▁kesimlerinde	-10.9547
oksi	-10.9548
▁kimseler	-10.955
sır	-10.9556
▁Sel	-10.9557
▁1921	-10.9557
.""	-10.9559
▁Padişah	-10.9562
▁Lise	-10.9562
▁çağın	-10.9562
▁formül	-10.9564
▁Dili	-10.9565
▁şikayet	-10.9566
▁cemaat	-10.9566
▁yapımında	-10.9566
▁organize	-10.9566
▁Manço	-10.9567
▁sancağı	-10.9568
▁yağmuru	-10.9569
▁bari	-10.9571
1,	-10.9571
MS	-10.9572
▁aziz	-10.9572
name	-10.9574
▁küfür	-10.9575
▁bilmek	-10.9576
iyim	-10.9579
▁sokakta	-10.9579
cin	-10.9581
▁uzaklığı	-10.9581
▁saklan	-10.9581
▁borç	-10.9583
nle	-10.9584
▁kesiminde	-10.9586
▁kartal	-10.9586
▁yaşım	-10.9588
▁yüreğini	-10.959
▁görsel	-10.959
▁beklerim	-10.9591
ju	-10.9591
çam	-10.9594
▁atıp	-10.9599
▁krizi	-10.9601
▁dergisinde	-10.9601
Keder	-10.9601
▁olacağını	-10.9601
▁1930'	-10.9603
▁Kaz	-10.9603
olur	-10.9605
▁öv	-10.9606
▁çağı	-10.9606
SE	-10.9607
▁konak	-10.9607
atif	-10.9608
▁gerçekleştirdi	-10.9608
▁popülasyon	-10.9608
▁söylemek	-10.9608
▁solunum	-10.9609
▁1931	-10.9609
bazen	-10.961
▁hırsız	-10.9612
▁savaşlar	-10.9613
▁ötesi	-10.9615
▁Yarı	-10.9615
▁virüs	-10.9615
▁sınıflandırma	-10.9617
▁işlev	-10.9619
▁sektörü	-10.9619
▁ilçesinin	-10.962
TE	-10.9622
▁Fil	-10.9625
▁yalancı	-10.9625
▁bozuldu	-10.9625
▁kg	-10.9625
▁testi	-10.9629
▁amino	-10.9629
▁soyundan	-10.9632
yalı	-10.9634
▁yüze	-10.9634
▁katlı	-10.9637
▁askerler	-10.9639
özü	-10.9639
▁sensizlik	-10.9639
leyecek	-10.964
▁Tom	-10.964
▁istila	-10.9641
də	-10.9641
▁merkezli	-10.9643
▁yapısını	-10.9643
▁tersine	-10.9646
İz	-10.9647
▁Recep	-10.9651
▁aldılar	-10.9651
▁grafik	-10.9652
Ondan	-10.9656
▁bağları	-10.9657
▁direktör	-10.9659
▁çalışmıştır	-10.9659
▁öldüğü	-10.966
▁hastalıklar	-10.9661
▁kırıldı	-10.9661
▁kısımları	-10.9662
▁karşıtı	-10.9663
Üşü	-10.9665
▁gü	-10.9665
sol	-10.9665
▁yaman	-10.9666
▁çerçeve	-10.9668
▁hazine	-10.9669
▁Louis	-10.9669
▁üfle	-10.9669
vaz	-10.9671
stik	-10.9673
▁kabuk	-10.9673
▁anlamıyla	-10.9675
▁kırma	-10.9679
▁subay	-10.9681
SI	-10.9682
▁tanrısı	-10.9682
▁yapım	-10.9683
Siyah	-10.9685
▁Bizanslılar	-10.9686
ıs	-10.9688
▁1940	-10.9688
Hali	-10.969
Bakma	-10.9692
▁kapsamlı	-10.9694
▁mazlum	-10.9694
▁mali	-10.9694
▁optik	-10.9695
tasyon	-10.9696
▁pırıl	-10.9698
▁barındıran	-10.9699
▁aya	-10.9699
▁kullanmak	-10.97
▁kullanmıştır	-10.9701
▁başın	-10.9702
▁Mezarlığı	-10.9705
cy	-10.9705
▁atmış	-10.9706
▁kesti	-10.9707
▁kalkar	-10.9707
▁Sonuç	-10.9708
▁kaplan	-10.9709
Bunlar	-10.9711
abileceğini	-10.9712
Gelin	-10.9712
▁dakikada	-10.9714
▁yürütme	-10.9716
▁anlaşması	-10.9716
▁sessizlik	-10.9717
Işık	-10.9719
▁post	-10.972
▁elimden	-10.9721
oy	-10.9722
▁Safa	-10.9722
▁yardımı	-10.9722
▁Cu	-10.9723
▁yıldızların	-10.9724
Hasta	-10.9726
ılsa	-10.9728
▁Sanatlar	-10.9733
▁milletin	-10.9734
▁Federal	-10.9736
Yanlış	-10.9737
▁meta	-10.9737
▁ilginç	-10.9738
▁Veri	-10.9738
▁yiyen	-10.9738
▁ateşe	-10.9739
▁nesneler	-10.974
▁deneysel	-10.9741
Uy	-10.9742
▁süs	-10.9743
▁yıkıldı	-10.9744
▁kötülük	-10.9745
yoksa	-10.9746
▁meşe	-10.9747
▁gerçekleşir	-10.9749
▁gerekmektedir	-10.9749
▁turda	-10.975
▁versiyonu	-10.9752
▁imparator	-10.9753
▁etmedi	-10.9753
gene	-10.9755
uzu	-10.9756
▁sonsuza	-10.9757
▁mezhebi	-10.9759
Terk	-10.976
yordum	-10.976
▁yolla	-10.9761
burg	-10.9761
Bundan	-10.9762
▁48	-10.9765
▁kapıları	-10.9766
▁yaşarım	-10.9767
Dök	-10.9767
büyük	-10.9768
Utan	-10.9774
▁gazel	-10.9776
▁sevgin	-10.9776
iver	-10.9776
▁vah	-10.9776
yot	-10.9777
uzak	-10.9777
▁karanlıkta	-10.9777
muşum	-10.9778
▁disiplin	-10.9778
▁çeyrek	-10.9779
▁başar	-10.9779
▁Turgut	-10.978
Damla	-10.978
▁tüfek	-10.9781
▁Hikmet	-10.9781
▁sattı	-10.9782
▁Zeus	-10.9784
▁eki	-10.9785
▁lanet	-10.9785
▁anlamlı	-10.9786
▁Yara	-10.979
▁çekilir	-10.9792
naz	-10.9795
▁vurmuş	-10.9795
▁Sür	-10.9795
▁Bolu	-10.9795
▁efendim	-10.9796
ojen	-10.9797
amp	-10.9798
▁Salonu	-10.9799
▁nuru	-10.9799
▁kurdular	-10.9803
▁burun	-10.9805
▁Şahin	-10.9808
ple	-10.9808
▁vuruş	-10.9809
▁etken	-10.981
▁gebe	-10.981
▁gördün	-10.9811
▁pop	-10.9811
▁geçirme	-10.9812
▁sezonunun	-10.9813
▁kuvvetler	-10.9814
▁yansıt	-10.9815
irdi	-10.9815
diğimiz	-10.9817
sit	-10.9818
▁Ağır	-10.982
▁unuttum	-10.982
fir	-10.9821
▁papatya	-10.9823
▁çirkin	-10.9823
▁Iğdır	-10.9823
Hatırla	-10.9823
Ali	-10.9823
▁gösterilir	-10.9825
▁Ün	-10.9825
▁istemiyorum	-10.9825
▁yayılan	-10.9826
his	-10.9826
▁gittikçe	-10.9827
Or	-10.9828
▁kaybetmiştir	-10.9829
▁İngilizler	-10.9832
Kuşlar	-10.9832
▁durumdadır	-10.9832
▁kervan	-10.9832
loji	-10.9833
▁gizle	-10.9834
▁yakınında	-10.9835
▁tara	-10.9835
▁bölün	-10.9836
▁Babil	-10.9837
çılar	-10.9837
▁soyut	-10.9842
lıyım	-10.9846
▁Euro	-10.9847
▁oluşumu	-10.9849
▁Kırmızı	-10.985
▁ilahi	-10.9851
▁tamir	-10.9854
Yüreğime	-10.9854
Boz	-10.9856
irim	-10.9859
▁yapıların	-10.9862
▁yoğunluk	-10.9863
Haram	-10.9864
▁listesinde	-10.9866
▁Floransa	-10.9866
▁Niğde	-10.9866
▁teselli	-10.9866
▁Sünni	-10.9866
▁Gandi	-10.9867
▁bırakıldı	-10.9867
▁iptal	-10.9868
▁bereket	-10.9869
▁kayna	-10.987
▁geçmez	-10.987
▁duyulan	-10.987
▁pa	-10.9873
▁etkisini	-10.9873
▁bastı	-10.9873
bî	-10.9875
▁Mag	-10.9877
▁tetik	-10.9878
▁arkadaşım	-10.9878
▁düzlem	-10.9879
Sanma	-10.988
▁Yalnız	-10.988
▁performansı	-10.988
▁kıyısı	-10.9881
fat	-10.9882
▁Yu	-10.9883
keş	-10.9883
▁peşinden	-10.9885
toloji	-10.9886
▁kılın	-10.9887
▁kalkan	-10.9889
▁merhaba	-10.9891
Bilir	-10.9892
▁hav	-10.9893
▁yüzeyi	-10.9894
▁çi	-10.9894
▁ayıran	-10.9895
lisi	-10.9896
▁göçü	-10.9898
▁namus	-10.9899
▁koşu	-10.9901
▁çılgın	-10.9903
▁Yurt	-10.9904
Hakk	-10.9904
iyoruz	-10.9905
eğin	-10.9905
Ye	-10.9907
▁tesis	-10.9908
▁ismiyle	-10.9909
▁boylu	-10.9909
iy	-10.9909
▁nağme	-10.991
lop	-10.9911
▁sevdiğin	-10.9913
▁kulağı	-10.9915
▁dinin	-10.9916
▁merdiven	-10.9917
▁başlayıp	-10.9917
▁üzül	-10.9918
llah	-10.9919
▁bardak	-10.992
AĞ	-10.9921
▁Los	-10.9922
▁öğreti	-10.9922
▁uyarı	-10.9923
Saçların	-10.9924
▁mey	-10.9925
▁yazdır	-10.9926
▁nadir	-10.9929
84	-10.9929
mesiyle	-10.9929
lanmak	-10.9931
▁Müze	-10.9934
▁eylül	-10.9934
ound	-10.9938
▁hassas	-10.9942
Fakir	-10.9942
iler	-10.9943
▁çiçeğim	-10.9943
yel	-10.9943
▁izledi	-10.9943
Elinde	-10.9944
▁ab	-10.9945
▁kullanıl	-10.9948
▁yıldızları	-10.9948
▁1948	-10.995
▁partinin	-10.9953
şah	-10.9956
▁ettik	-10.9956
▁figan	-10.9956
▁hâ	-10.9958
▁ücretsiz	-10.9958
▁bakım	-10.9959
▁kıymetli	-10.9961
leyin	-10.9963
▁fazlası	-10.9965
▁görüşler	-10.9967
▁burnu	-10.9968
ps	-10.9969
Şöyle	-10.997
Değiş	-10.997
▁başlat	-10.9974
luğum	-10.9974
▁lisan	-10.9977
▁kavuştu	-10.998
Sırt	-10.9982
▁tanımlama	-10.9982
▁Konservatuvarı	-10.9983
▁Ona	-10.9986
▁başkanlığında	-10.9988
▁İspanyolca	-10.999
ören	-10.999
▁çabaları	-10.9994
Gez	-10.9997
▁öldürüldü	-10.9997
▁Enerji	-10.9998
▁Napolyon	-10.9998
▁kıyafet	-10.9998
▁sordu	-10.9999
▁genişlet	-10.9999
içi	-11
▁coş	-11.0001
lenmektedir	-11.0002
▁eti	-11.0005
▁bilge	-11.0007
TA	-11.0008
▁Silahlı	-11.0008
▁bilinç	-11.0008
miştim	-11.0009
Çaresiz	-11.0012
▁gökte	-11.0012
fon	-11.0013
▁konumundadır	-11.0016
▁tutum	-11.0017
▁ışın	-11.0017
▁düzeyi	-11.0022
key	-11.0023
▁inanan	-11.0023
▁sarmış	-11.0024
▁ilin	-11.0025
▁min	-11.0026
▁silin	-11.0027
▁ülkesinde	-11.0028
▁Tro	-11.003
▁öldürme	-11.0031
▁%7	-11.0033
hen	-11.0034
tz	-11.0035
▁Nüfusu	-11.0036
▁düşünceler	-11.0036
Hey	-11.0037
dedir	-11.0037
▁sahası	-11.0039
vra	-11.0039
ecekti	-11.0039
Geri	-11.0041
▁Annesi	-11.0042
▁Meksika	-11.0042
▁gözüne	-11.0042
▁açığa	-11.0044
▁dolsun	-11.0045
-12	-11.0045
▁evim	-11.0046
▁alkış	-11.0047
▁aradan	-11.0047
▁bulgular	-11.0047
▁Nietzsche	-11.005
▁kategori	-11.005
Görme	-11.005
▁Kı	-11.0051
▁isen	-11.0051
ell	-11.0051
▁yakıyor	-11.0051
▁kişidir	-11.0054
▁olduklarını	-11.0057
▁yapısal	-11.0059
▁biriktir	-11.0059
▁tu	-11.006
▁dönüştü	-11.006
▁koşullar	-11.0065
▁1991'	-11.0066
▁uykuya	-11.0068
biraz	-11.0068
▁bedenin	-11.0069
▁olurken	-11.007
zyon	-11.0076
▁açıp	-11.0076
rs	-11.0078
kas	-11.0078
▁kalite	-11.008
▁Bırak	-11.008
▁akçe	-11.0083
▁tarikat	-11.0087
▁Aksaray	-11.0087
zel	-11.0087
▁koynunda	-11.0088
▁direnç	-11.0088
Öldür	-11.0089
▁Sanatçı	-11.009
▁izleyen	-11.009
▁icat	-11.009
▁öldürür	-11.009
▁Yemen	-11.0091
▁açıklamıştır	-11.0091
▁burası	-11.0095
▁çalışmaktadır	-11.0097
▁eğitimini	-11.0098
▁küçül	-11.0102
▁iplik	-11.0103
▁devletler	-11.0104
▁sesli	-11.0105
yana	-11.0105
▁amatör	-11.0107
▁asi	-11.0108
▁uçtu	-11.0108
Soğuk	-11.0108
▁AN	-11.0108
▁aktar	-11.0108
▁boynu	-11.0109
▁marka	-11.011
▁yare	-11.0111
▁gidelim	-11.0113
▁çıkarır	-11.0116
▁eyledi	-11.0117
“	-11.0117
▁özerk	-11.0118
.....	-11.0119
▁kaptan	-11.012
Aklımı	-11.0121
▁gözet	-11.0126
Gözlerini	-11.0127
▁alınma	-11.0127
Yalnızlık	-11.0128
ebe	-11.0128
▁karşıma	-11.0128
▁yürekte	-11.0129
▁1933	-11.013
▁single	-11.0131
▁tercüme	-11.0131
ori	-11.0133
Aklım	-11.0133
lerimizi	-11.0133
▁aklımda	-11.0135
▁istek	-11.0136
mışlar	-11.0136
▁bakmak	-11.0138
▁kıyasla	-11.0139
▁saçları	-11.014
▁Terim	-11.014
▁Tepe	-11.0141
▁43	-11.0141
▁Doğan	-11.0141
kalbim	-11.0143
▁söndür	-11.0145
▁ru	-11.0146
▁seçil	-11.0147
▁devamı	-11.0148
▁hayli	-11.0148
Ağlar	-11.0148
▁sürecinde	-11.0148
▁öğretmenim	-11.0151
▁fikrini	-11.0152
▁dediği	-11.0156
Mezar	-11.0156
▁istasyonu	-11.0158
▁sevginin	-11.0158
▁akıp	-11.0159
▁gölgesinde	-11.016
▁görmeye	-11.0161
▁kalsa	-11.0164
▁şartlar	-11.0165
lî	-11.0166
tam	-11.0168
▁ormanları	-11.017
Suç	-11.0171
▁dallar	-11.0173
▁gözyaşları	-11.0175
▁ilçeye	-11.0175
▁1939	-11.0176
▁vuruyor	-11.0176
▁tavşan	-11.0176
▁İznik	-11.0176
▁ürkek	-11.0177
▁doğmuştur	-11.0179
▁suretiyle	-11.0179
▁Altay	-11.0179
▁Eserleri	-11.018
▁ebedi	-11.0182
▁önerme	-11.0183
▁sayısız	-11.0185
▁mükemmel	-11.0187
▁hareketli	-11.0188
Sarıl	-11.019
liyordu	-11.0191
▁sağlama	-11.0191
▁moleküler	-11.0191
▁Doğum	-11.0192
▁vermişti	-11.0192
▁Tab	-11.0195
Ağzı	-11.0196
▁komut	-11.0197
▁Fas	-11.0198
Batı	-11.0202
▁gec	-11.0203
▁olamadı	-11.0204
▁eyleme	-11.0204
▁tutmaz	-11.0204
▁verdikleri	-11.0205
Kalem	-11.0205
▁Saf	-11.0206
AP	-11.0212
▁simgesi	-11.0214
▁şifre	-11.0215
mezsin	-11.0215
▁salla	-11.0216
▁ölümden	-11.0216
dınız	-11.0217
▁bü	-11.0217
Co	-11.0218
▁yağı	-11.0218
▁örnekler	-11.022
▁1942	-11.0221
▁sıralarda	-11.0221
▁propaganda	-11.0221
▁suikast	-11.0221
▁Estonya	-11.0221
aynı	-11.0221
▁Öğrenci	-11.0221
▁Jackson	-11.0221
▁Bölgede	-11.0222
Yolun	-11.0223
hip	-11.0223
▁hadi	-11.0223
▁etrafı	-11.0224
▁yenerek	-11.0225
▁adımı	-11.0225
▁ışıkları	-11.0226
▁göm	-11.0227
larımızı	-11.0228
▁koşul	-11.0229
▁ilkokul	-11.0231
▁aldat	-11.0232
▁çıkmaktadır	-11.0233
çılık	-11.0234
▁hepsini	-11.0236
▁Mark	-11.0236
▁geliştirilmiş	-11.0237
Çağ	-11.0238
▁faktörler	-11.0241
tün	-11.0241
rah	-11.0242
▁edilme	-11.0243
los	-11.0247
▁faaliyetler	-11.0247
▁sandım	-11.0248
▁benze	-11.025
Güneşin	-11.0253
▁üçgen	-11.0256
Saygı	-11.0257
▁vitamini	-11.0258
▁nere	-11.0259
mle	-11.026
▁çeşitleri	-11.026
▁kazandır	-11.0261
Helal	-11.0262
hra	-11.0263
uyla	-11.0264
▁dudakların	-11.0264
▁atıldı	-11.0265
▁kromozom	-11.0266
▁adresi	-11.0267
▁balıkçı	-11.0267
laşması	-11.0268
▁alırlar	-11.0268
▁macera	-11.0268
▁Girit	-11.0269
▁birbirleriyle	-11.0269
▁İlçesi	-11.027
doğu	-11.027
▁Doktor	-11.0271
Hayatın	-11.0271
umut	-11.0272
Öp	-11.0272
IR	-11.0273
Annem	-11.0274
▁oranları	-11.0275
mbo	-11.0276
▁Arif	-11.0276
ğün	-11.0277
▁devletlerin	-11.0278
▁kelebek	-11.0279
rir	-11.0279
▁değerlendiril	-11.0281
▁sevilen	-11.0282
▁fazladır	-11.0283
▁hayvanların	-11.0285
▁yaşları	-11.0286
küre	-11.0287
▁Mari	-11.029
▁koydum	-11.0291
▁kazanır	-11.0294
▁kırılma	-11.0294
▁kızlar	-11.0296
▁Komutanı	-11.0301
▁sevgimi	-11.0302
DEN	-11.0306
▁belirlenmesi	-11.0307
▁oturur	-11.0307
Gelip	-11.0307
▁batıya	-11.0308
dos	-11.031
Ruh	-11.0311
▁saldı	-11.0312
▁Tesla	-11.0312
Gözler	-11.0312
çünkü	-11.0312
ekler	-11.0312
▁Albert	-11.0313
Ecel	-11.0314
▁merkezidir	-11.0314
▁sürdüren	-11.0314
▁Art	-11.0316
▁uçağı	-11.0317
▁aldırma	-11.0319
▁Sami	-11.0319
▁katılır	-11.0321
▁teklifi	-11.0321
▁Ödülleri	-11.0322
▁dosta	-11.0323
▁Ayşe	-11.0324
▁Şeytan	-11.0324
▁döneminden	-11.0326
▁Ayasofya	-11.0329
▁yolum	-11.0329
▁tutku	-11.0331
▁fırlat	-11.0331
▁Metal	-11.0332
Cahil	-11.0332
▁ört	-11.0332
malar	-11.0335
ille	-11.0337
▁diyordu	-11.0339
▁batar	-11.0339
oş	-11.034
gim	-11.0341
klarını	-11.0342
▁beyler	-11.0344
▁Metin	-11.0346
onun	-11.035
▁tir	-11.035
OS	-11.0351
▁My	-11.0352
ari	-11.0353
illa	-11.0353
▁2010'	-11.0354
▁Manchester	-11.0357
▁Babam	-11.0358
▁stadyum	-11.0358
▁bizzat	-11.0358
▁olacağım	-11.0359
▁sebze	-11.0359
▁aynalar	-11.036
▁statüsü	-11.036
▁bireysel	-11.036
yas	-11.0361
▁sokul	-11.0362
▁42	-11.0363
▁derecesi	-11.0363
▁motoru	-11.0365
▁bağış	-11.0366
AŞ	-11.0367
▁bağlanır	-11.0369
▁Hey	-11.0369
200	-11.0373
▁yalnızlığım	-11.0373
▁dolma	-11.0374
Kendine	-11.0375
▁tutuk	-11.0375
▁Elif	-11.0375
koz	-11.0375
ula	-11.0376
▁Gerek	-11.0377
ruz	-11.0377
▁deve	-11.0379
▁beyan	-11.0379
mediği	-11.038
▁ilinde	-11.0381
▁sin	-11.0383
kel	-11.0384
Kay	-11.0386
▁mar	-11.0386
▁Mahallesi	-11.0387
Ata	-11.0387
rdi	-11.0388
▁durmaz	-11.0388
▁grupta	-11.0388
kop	-11.0389
▁Hayal	-11.0389
▁kasım	-11.039
▁çekil	-11.0391
▁yüreğimin	-11.0393
▁aşan	-11.0393
▁seçilir	-11.0393
Tur	-11.0395
▁söner	-11.0396
▁dönüm	-11.0397
▁çın	-11.0398
"’	-11.04
▁Tut	-11.0403
▁cumhurbaşkanı	-11.0403
▁Prusya	-11.0403
▁elektromanyetik	-11.0403
ışma	-11.0403
▁İşletme	-11.0404
▁çözül	-11.0404
▁direkt	-11.0404
pre	-11.0405
Mİ	-11.0406
▁karı	-11.0408
▁kavrul	-11.0408
▁görüp	-11.041
▁yiyecek	-11.0412
▁düzgün	-11.0412
▁Siyah	-11.0412
▁OS	-11.0414
▁yerleşik	-11.0416
▁pahalı	-11.0417
▁ruhumu	-11.0418
SS	-11.0421
▁benziyor	-11.0422
▁Hatun	-11.0422
▁okuyan	-11.0423
Uç	-11.0423
▁kelam	-11.0424
▁Maç	-11.0425
▁Karar	-11.0428
▁Gemi	-11.0429
Bunca	-11.0429
▁Eyaleti	-11.043
54	-11.0433
▁oynama	-11.0434
İstersen	-11.0437
Rahat	-11.0437
▁bakışların	-11.0439
▁eserin	-11.0439
▁zehirli	-11.044
▁Geri	-11.0441
▁kısmının	-11.0442
▁Gaz	-11.0443
Yüreği	-11.0444
▁çürü	-11.0444
▁gösterim	-11.0445
▁uza	-11.0445
▁volkan	-11.0447
hâ	-11.0447
▁temin	-11.0448
▁hücreleri	-11.0449
▁Kaliforniya	-11.0449
▁Münih	-11.0449
▁derviş	-11.0449
▁Siyasi	-11.045
▁santral	-11.045
▁oluşturmuştur	-11.0451
▁harap	-11.0452
▁Türkçesi	-11.0453
▁Dor	-11.0454
▁mekaniği	-11.0456
▁edici	-11.0456
kem	-11.0456
▁hamle	-11.0458
▁kaçan	-11.0458
▁kaderim	-11.0458
▁Mora	-11.0459
wer	-11.0459
Asla	-11.046
▁beklemek	-11.0461
▁yalnızlığın	-11.0461
gara	-11.0464
63	-11.0465
▁Cuma	-11.0467
▁kıskan	-11.0467
▁söylüyor	-11.0469
ls	-11.0469
▁sola	-11.047
sinler	-11.0472
▁divane	-11.0474
▁39	-11.0474
▁pusu	-11.0474
▁yitirdi	-11.0476
▁Kül	-11.0478
▁ölmez	-11.048
▁Şair	-11.0483
▁yüksel	-11.0483
▁türküsü	-11.0484
▁yağmurlar	-11.0484
▁araştırmacılar	-11.0487
▁icra	-11.0488
▁noktaları	-11.0488
▁yalnızlığı	-11.049
▁topladı	-11.049
cal	-11.0491
▁cem	-11.0492
▁belirler	-11.0494
▁düşür	-11.0494
▁dudağı	-11.0496
▁radyasyon	-11.0496
▁tuhaf	-11.0496
▁Nokia	-11.0496
Doğa	-11.0496
▁aktarıl	-11.0496
▁Budizm	-11.0497
▁Slav	-11.0497
▁Bra	-11.0497
▁ebe	-11.0498
▁girişi	-11.0498
▁1947	-11.05
▁Çalışma	-11.05
▁55	-11.05
DP	-11.0502
▁büyüğü	-11.0502
▁olayın	-11.0504
▁getirmek	-11.0507
▁eleman	-11.0508
▁Gümüş	-11.0509
Kapan	-11.0509
Dünyayı	-11.0509
para	-11.051
▁rahatsız	-11.0511
▁donanma	-11.0512
▁Kapı	-11.0514
▁minare	-11.0515
▁tasa	-11.0516
▁sırası	-11.0517
▁ayağı	-11.0517
hey	-11.0518
maları	-11.0518
Eri	-11.0519
▁çıkmaya	-11.052
ig	-11.0523
▁hikmet	-11.0524
hayal	-11.0525
▁ortamı	-11.0526
▁War	-11.0527
Ga	-11.0531
▁kesimi	-11.0531
▁41	-11.0531
pol	-11.0531
Gurur	-11.0532
▁etmekte	-11.0532
Beden	-11.0532
▁Gir	-11.0536
▁yıldan	-11.0538
▁kablo	-11.0539
▁boşalt	-11.054
▁gökyüzüne	-11.0541
▁Şii	-11.0541
Demek	-11.0541
Geceleri	-11.0542
1)	-11.0542
▁Sırbistan	-11.0542
▁çeşidi	-11.0542
▁Afganistan	-11.0542
▁ederdi	-11.0543
ateş	-11.0543
▁nasip	-11.0543
Bahçe	-11.0544
sunda	-11.0544
geri	-11.0544
▁turist	-11.0545
con	-11.0546
▁yeterince	-11.0547
▁valisi	-11.0547
▁türüdür	-11.0552
▁gele	-11.0553
▁şaş	-11.0553
▁çocuklara	-11.0554
▁Nil	-11.0554
▁oyuna	-11.0554
▁sözlerim	-11.0555
▁aşktan	-11.0558
▁mücadelesi	-11.0558
▁bizlere	-11.0558
ayrı	-11.0558
leşik	-11.056
▁dillerde	-11.0561
▁okulda	-11.0561
▁elem	-11.0563
Sonu	-11.0565
▁Beyoğlu	-11.0566
▁çayır	-11.0568
▁birisidir	-11.0569
▁çizim	-11.0572
▁değerlendir	-11.0574
▁ordusunu	-11.0575
▁Köprü	-11.0576
▁hay	-11.0576
▁Kulesi	-11.0578
▁ayının	-11.0579
▁cilt	-11.0582
▁özler	-11.0583
▁akşamı	-11.0583
▁finale	-11.0583
usu	-11.0583
▁kalmıştı	-11.0585
▁görüyor	-11.0586
▁İpek	-11.0587
▁yıllardan	-11.0588
▁Nowitzki	-11.0589
▁gübre	-11.0589
▁ehli	-11.0591
▁müdür	-11.0592
cha	-11.0594
▁1962	-11.0594
şit	-11.0595
ity	-11.0595
▁dilinden	-11.0596
▁dedik	-11.0597
▁Zor	-11.0599
▁Joseph	-11.0601
▁yönetimine	-11.0602
▁resimler	-11.0604
▁çekilmesi	-11.0606
cisi	-11.0606
▁Sıra	-11.0606
▁aza	-11.0606
adı	-11.0606
▁ilçesidir	-11.0607
▁vurgun	-11.0607
▁kondu	-11.0607
▁%6	-11.0609
▁tahtı	-11.061
▁diğerleri	-11.0612
▁beklerken	-11.0613
dırır	-11.0613
Uzat	-11.0614
Ho	-11.0614
▁ani	-11.0615
▁maça	-11.0615
izmin	-11.0616
▁getirilmesi	-11.0617
Mal	-11.0618
Felek	-11.0619
▁kurumları	-11.062
Gelme	-11.0621
▁göstermiş	-11.0624
▁kaldırılması	-11.0624
Gelir	-11.0625
Vazgeç	-11.0627
my	-11.0627
abilme	-11.0628
ebileceği	-11.0631
fen	-11.0632
▁topluluklar	-11.0633
▁tövbe	-11.0636
▁Friedrich	-11.0636
▁güneydoğu	-11.0636
Acılar	-11.0637
▁oyuncak	-11.0638
▁Türkleri	-11.0639
▁saçlı	-11.0639
leştirilmiştir	-11.064
▁Sensiz	-11.0641
Olma	-11.0641
Yanımda	-11.0645
▁gelirim	-11.0645
▁filmler	-11.0646
▁davası	-11.0647
▁isminin	-11.0647
▁yetmiyor	-11.0648
hy	-11.0648
▁hayatının	-11.0648
Nerede	-11.0648
▁buhar	-11.0651
▁1998'	-11.0658
▁çakıl	-11.0659
▁kalbini	-11.066
fu	-11.0661
▁bulunabilir	-11.0661
▁gizlice	-11.0664
▁bitecek	-11.0664
cim	-11.0664
▁topraklarda	-11.0666
ric	-11.0666
▁golü	-11.0668
▁saatler	-11.067
▁gruptan	-11.067
Çalış	-11.0671
▁uzaklaş	-11.0671
Anam	-11.0673
▁donanması	-11.0673
Hakkı	-11.0673
Herkesin	-11.0674
▁bakteriler	-11.0676
▁günlerin	-11.0677
DD	-11.0678
Gitti	-11.0679
▁bağımlı	-11.068
ted	-11.0681
▁oğlan	-11.0682
▁Final	-11.0683
▁ODTÜ	-11.0683
▁Pakistan	-11.0683
▁mutfağı	-11.0683
▁yedek	-11.0684
emezsin	-11.0684
▁imha	-11.0686
▁1910	-11.0687
▁kaynaklanan	-11.0687
▁taban	-11.0688
▁Peter	-11.0688
ÜN	-11.069
RE	-11.0691
▁%8	-11.0692
lenecek	-11.0692
▁seferleri	-11.0692
▁toplamı	-11.0692
Hayır	-11.0693
Dua	-11.0694
▁zirve	-11.0695
▁arkeolojik	-11.0696
▁Onlar	-11.0699
▁Th	-11.0701
est	-11.0703
▁dokunma	-11.0703
alizm	-11.0704
Rahmet	-11.0707
▁fiil	-11.0709
bı	-11.071
▁Nice	-11.071
iyat	-11.0711
▁Kağan	-11.0712
Af	-11.0713
▁Yayın	-11.0713
Lİ	-11.0714
yüreğim	-11.0715
▁terör	-11.0717
suzluk	-11.0719
▁oturdu	-11.0719
▁buzul	-11.0722
▁ilerle	-11.0722
▁kocaman	-11.0722
▁hükümdarı	-11.0722
▁ölme	-11.0722
▁geleceği	-11.0723
▁ülkedir	-11.0724
yalnız	-11.0726
Rus	-11.0726
▁martı	-11.0729
▁Karanlık	-11.0729
▁şehirlerde	-11.073
▁hikâyesi	-11.0731
Beraber	-11.0731
▁otomatik	-11.0731
▁tabut	-11.0731
▁tahıl	-11.0732
▁kumaş	-11.0732
▁hastalığın	-11.0732
▁kılıcı	-11.0733
▁bük	-11.0734
▁güce	-11.0736
▁Kraliyet	-11.0736
line	-11.0737
Ancak	-11.0738
Mecnun	-11.0739
▁1930	-11.074
▁Fin	-11.074
▁Sor	-11.0741
▁betim	-11.0742
▁tuttuğu	-11.0742
▁1992'	-11.0745
▁Orkestrası	-11.0745
▁görünüm	-11.0745
stro	-11.0746
Gülümse	-11.0748
▁görünmez	-11.0748
▁Şen	-11.075
nci	-11.075
▁Martin	-11.075
▁resimleri	-11.0751
▁durumun	-11.0752
▁başlığı	-11.0752
▁değilse	-11.0753
zam	-11.0754
▁dip	-11.0755
tip	-11.0755
▁psikolojik	-11.0755
win	-11.0755
▁Kong	-11.0756
▁ülkelerinde	-11.0757
▁mevsimler	-11.0757
▁rüzgarlar	-11.0758
▁dostlarım	-11.076
fak	-11.0763
yara	-11.0764
▁mil	-11.0765
▁görsem	-11.0766
kam	-11.0768
▁...	-11.0769
▁çekmiş	-11.0772
▁cinsi	-11.0774
Merhamet	-11.0778
▁Panzer	-11.0779
▁tanınır	-11.0779
▁1929	-11.0779
▁sivri	-11.078
▁umutlarım	-11.078
▁ilgisini	-11.0782
▁parla	-11.0782
Konstantinopolis	-11.0782
▁dayanmaktadır	-11.0783
▁pis	-11.0785
▁1953	-11.0786
Devlet	-11.0786
▁yöntemler	-11.0789
-8	-11.079
▁beton	-11.0793
sındaki	-11.0793
▁kapsar	-11.0795
▁karanlığa	-11.0797
Soy	-11.0799
▁(3	-11.08
Yani	-11.0802
Herşey	-11.0802
▁sanatçısı	-11.0804
▁olurlar	-11.0804
▁kaygı	-11.0805
▁BM	-11.0805
▁yağdı	-11.0806
Mazlum	-11.0806
▁yapıyor	-11.0807
▁kafes	-11.0808
▁gezegenin	-11.0808
sindeki	-11.0808
▁müttefik	-11.0808
▁suçu	-11.0811
Otur	-11.0815
Halk	-11.0815
del	-11.0818
Gönlümde	-11.0819
iyorsun	-11.082
leştirilmiş	-11.0822
▁koyan	-11.0823
▁martılar	-11.0824
▁kıvrım	-11.0826
▁Kaş	-11.0826
▁Meryem	-11.0826
▁melodi	-11.0826
▁dallarında	-11.0827
▁ceviz	-11.0828
▁üçte	-11.0829
▁kiraz	-11.083
▁aylar	-11.0831
▁beze	-11.0832
▁akla	-11.0833
gönül	-11.0834
▁1914	-11.0835
▁adanın	-11.0835
▁etse	-11.0835
▁1940'	-11.0835
Görün	-11.0837
▁kızın	-11.0837
bilse	-11.0842
▁ikincisi	-11.0844
Dedim	-11.0848
▁You	-11.0851
Fark	-11.0851
CD	-11.0852
▁yaradan	-11.0852
▁çekirdeğin	-11.0853
▁çocukluk	-11.0854
▁fizikçi	-11.0856
dağlar	-11.0856
▁söylenen	-11.0857
,000	-11.0859
▁öğretti	-11.0864
▁şehirleri	-11.0865
▁Hun	-11.0866
amıyor	-11.0866
▁2012'	-11.0867
▁sön	-11.087
Bay	-11.087
▁sezonun	-11.0871
▁Poli	-11.0871
Öğren	-11.0872
▁ayakkabı	-11.0874
meleri	-11.0874
Gider	-11.0875
▁Ardahan	-11.0875
lıyordu	-11.0876
▁inen	-11.0876
▁araştırmaları	-11.0877
▁verilebilir	-11.0878
▁unuttu	-11.0878
▁olağanüstü	-11.0878
▁Şeker	-11.0879
sanki	-11.088
▁Hakan	-11.0881
▁tık	-11.0883
▁dayanarak	-11.0883
▁tanımlamak	-11.0884
▁1925	-11.0884
▁Dere	-11.0885
▁büyüt	-11.0885
takım	-11.0886
▁bölgelere	-11.0886
▁turne	-11.0889
▁dönüşüm	-11.0889
▁sürdüğü	-11.089
Engel	-11.089
gök	-11.0892
▁havası	-11.0893
▁bitsin	-11.0893
Gelen	-11.0895
▁sorular	-11.0895
▁Devrim	-11.09
▁All	-11.0902
▁zarı	-11.0903
▁takımları	-11.0907
iste	-11.0907
▁çıkıyor	-11.0908
▁stratejik	-11.0908
Rüya	-11.0909
▁satar	-11.0911
gam	-11.0912
▁sürüm	-11.0912
▁yokluğun	-11.0912
▁gerçekleşti	-11.0913
▁boru	-11.0913
▁döne	-11.0916
▁Gra	-11.0916
▁uyur	-11.0918
▁değişmiş	-11.092
▁mesele	-11.092
Kalbimde	-11.0921
▁Kırk	-11.0922
▁mecbur	-11.0922
▁Satürn	-11.0922
▁Sibirya	-11.0922
▁soğan	-11.0922
▁sünnet	-11.0922
▁Yahya	-11.0923
▁yönetilen	-11.0923
▁Birlik	-11.0924
▁dünyası	-11.0924
ens	-11.0925
▁hücreler	-11.0925
IP	-11.0926
▁başlık	-11.0927
mızın	-11.0929
▁çalıyor	-11.0931
▁parası	-11.0931
▁yakıp	-11.0932
▁sandalye	-11.0932
▁rütbe	-11.0933
▁yakış	-11.0934
Aklın	-11.0935
Şehit	-11.0939
▁faaliyetlerini	-11.0941
▁korun	-11.0942
Orada	-11.0944
▁Program	-11.0944
kuru	-11.0947
▁hepimiz	-11.0947
▁bağışla	-11.0949
▁yakınlarındaki	-11.0949
▁başkadır	-11.0951
▁yürekli	-11.0951
Aşka	-11.0952
▁Akın	-11.0953
▁kente	-11.0954
▁3000	-11.0955
ydin	-11.0955
Kalmadı	-11.0955
▁bölgesine	-11.0957
▁yu	-11.0957
▁Kuran	-11.0957
arken	-11.0959
▁ağrısı	-11.0959
▁mâ	-11.0961
▁Sur	-11.0962
▁gidiyorsun	-11.0965
▁Hızır	-11.0965
▁Kadınlar	-11.0965
▁yaşandı	-11.0967
▁lezbiyen	-11.0971
▁keşfi	-11.0971
▁hülya	-11.0971
▁mahzun	-11.0971
▁feryat	-11.0971
Vicdan	-11.0971
▁görüldüğü	-11.0972
▁alanının	-11.0972
▁hadis	-11.0973
▁akış	-11.0974
▁Pri	-11.0975
▁uykusuz	-11.0975
▁1900	-11.0976
▁belgesel	-11.0978
▁çığlığı	-11.0978
▁aldın	-11.0979
▁yönden	-11.0981
mos	-11.0981
Belli	-11.0981
▁İnce	-11.0981
▁kaderi	-11.0983
▁bedenimi	-11.0984
yabilir	-11.0984
▁bırakmıştır	-11.0987
▁mesafede	-11.0989
▁basamak	-11.099
▁geçmek	-11.099
este	-11.099
Yıldız	-11.0993
▁saati	-11.0993
Hayalin	-11.0994
▁buruk	-11.0995
▁Umut	-11.0997
Babam	-11.0998
▁hic	-11.0999
▁kapasite	-11.0999
▁yönünden	-11.1001
▁tepkime	-11.1003
▁Kü	-11.1003
▁biriydi	-11.1003
▁şeklindedir	-11.1006
▁kıyıları	-11.1007
ttin	-11.1007
▁ölüyor	-11.1008
▁bulunmakta	-11.1009
▁Sistem	-11.1011
Kap	-11.1011
▁%9	-11.1012
vri	-11.1012
▁toplulukları	-11.1013
▁acımasız	-11.1014
▁görmedim	-11.1014
▁Abbas	-11.1017
▁nihayet	-11.1017
ON	-11.1018
biliyorum	-11.1019
▁varım	-11.1019
Ti	-11.1019
▁alim	-11.102
▁bükük	-11.102
▁kamera	-11.102
Derdim	-11.1021
▁sağlanır	-11.1021
▁bilsin	-11.1021
▁çadır	-11.1021
önü	-11.1023
▁düşünüyorum	-11.1023
▁belirlenmiştir	-11.1025
▁bucaksız	-11.1025
▁döndüm	-11.1026
▁(15	-11.1028
▁köşesinde	-11.1028
▁600	-11.1029
IL	-11.1029
▁Ag	-11.103
▁evlenme	-11.103
KAR	-11.1031
▁ilkeleri	-11.1031
▁1938	-11.1031
▁1936	-11.1031
ydım	-11.1031
▁aslı	-11.1032
▁yüzeyinde	-11.1032
▁hazırladığı	-11.1035
▁çekiş	-11.1036
▁yaşamıştır	-11.1038
▁endüstrisi	-11.104
Tanı	-11.1041
▁gördük	-11.1042
▁yapıtları	-11.1042
▁tıbbi	-11.1046
lerindendir	-11.1049
▁astronomi	-11.105
▁Atam	-11.1052
Gönlümün	-11.1053
▁secde	-11.1054
amamıştır	-11.1055
▁Hat	-11.1057
hon	-11.1057
▁soran	-11.1057
osu	-11.1058
▁ra	-11.1062
▁başından	-11.1062
Neşe	-11.1062
▁savaştan	-11.1065
▁Haber	-11.1065
▁fırtınalar	-11.1066
▁caz	-11.1066
▁Farklı	-11.1067
CcTLD	-11.1069
▁rakı	-11.1069
▁komisyon	-11.1069
▁berrak	-11.1069
▁yuvarlak	-11.1069
▁Kaynak	-11.1069
▁oluşturulmuştur	-11.107
▁seferi	-11.107
▁ezber	-11.1071
imize	-11.1071
▁yetkili	-11.1072
dro	-11.1072
▁işareti	-11.1076
▁böl	-11.1077
ilmektedir	-11.1077
▁belgeler	-11.1078
▁geometri	-11.1081
idae	-11.1081
▁yükle	-11.1082
▁sıkça	-11.1082
▁hit	-11.1083
▁yoldaş	-11.1084
▁gönlünü	-11.1084
hani	-11.1089
rey	-11.1089
verir	-11.1089
▁göklerde	-11.109
vatan	-11.1091
▁şekildedir	-11.1097
▁yaparlar	-11.1097
▁yaşadıkları	-11.1098
lığının	-11.1098
▁Kel	-11.1098
Bilme	-11.1102
▁koymuş	-11.1103
üsü	-11.1104
Sonunda	-11.1104
▁tepeler	-11.1104
▁başvuru	-11.1106
▁üniversitesi	-11.1107
neden	-11.1108
▁şeklindeki	-11.1108
▁Lenin	-11.1111
▁sağladığı	-11.1112
▁(16	-11.1114
▁Gelibolu	-11.1118
▁İzmit	-11.1118
▁tünel	-11.1118
▁sisteme	-11.1118
▁bozkır	-11.1119
▁hayatım	-11.112
▁sürüldü	-11.112
▁kızgın	-11.1121
▁sınırında	-11.1122
ınız	-11.1123
lansın	-11.1124
▁çoğunu	-11.1125
fin	-11.1126
Seç	-11.1127
▁Hol	-11.1129
▁elbette	-11.1129
Güven	-11.113
dört	-11.113
▁Yüksel	-11.1131
▁Inter	-11.1131
▁ilgisi	-11.1131
▁sosyalizm	-11.1135
▁taşıdı	-11.1135
Sil	-11.1136
Değer	-11.114
▁başkasını	-11.114
▁ülkü	-11.1141
▁yaptır	-11.1141
▁savaşçı	-11.1141
▁çevrilidir	-11.1141
▁seviş	-11.1142
▁Bakü	-11.1144
▁çektim	-11.1145
▁Kongo	-11.1145
▁kendim	-11.1146
▁cümleler	-11.1146
▁önemlisi	-11.1147
▁emeği	-11.1148
▁gelsen	-11.1148
psi	-11.1149
çay	-11.115
▁almıştı	-11.115
▁askerlik	-11.1151
▁Gazetesi	-11.1152
▁saman	-11.1153
▁istasyon	-11.1159
▁degil	-11.1159
▁namazı	-11.1161
▁canını	-11.1163
▁kurallar	-11.1165
▁istiyordu	-11.1166
▁sağa	-11.1167
▁tersi	-11.1167
▁hürriyet	-11.1167
▁mozaik	-11.1167
▁kredi	-11.1168
ure	-11.1168
▁dönük	-11.1168
▁giyin	-11.1169
▁dilimde	-11.117
▁yayılır	-11.1171
ds	-11.1174
ydın	-11.1174
▁kalktı	-11.1174
▁oğulları	-11.1175
fre	-11.1175
▁ro	-11.1176
▁dünyam	-11.1176
▁ısıt	-11.1178
▁anlarsın	-11.118
melisin	-11.118
▁başrol	-11.118
ios	-11.1181
sadece	-11.1181
▁köyün	-11.1182
▁ettirdi	-11.1182
larsa	-11.1183
Seviyorum	-11.1184
▁saldır	-11.1184
▁yaşanır	-11.1186
Gözlerimde	-11.1186
herkes	-11.1187
▁öylesine	-11.1188
▁çağda	-11.119
▁tavan	-11.119
▁istediğini	-11.119
▁taraftar	-11.119
▁oyuncular	-11.119
▁başkası	-11.1191
▁Ex	-11.1192
▁özlemi	-11.1193
▁tehlikeli	-11.1194
▁ellere	-11.1194
▁kuyruk	-11.1194
▁dibi	-11.1195
▁adeta	-11.1198
▁tutulur	-11.1201
▁değiştirdi	-11.1201
▁konuştu	-11.1201
▁izleme	-11.1202
Tav	-11.1203
▁Aristo	-11.1204
ço	-11.1206
▁Aş	-11.1206
▁yüzler	-11.1206
▁yapının	-11.1207
▁mitolojisi	-11.121
▁çekilmiş	-11.1212
ere	-11.1215
▁Kocaeli	-11.1217
▁IBM	-11.1218
▁gösterilmiştir	-11.1219
▁1916	-11.1219
Türkü	-11.1221
Şah	-11.1222
▁ayırma	-11.1222
▁mahşer	-11.1223
▁kelimesinin	-11.1223
urdu	-11.1224
mazdım	-11.1225
▁golle	-11.1226
▁Fermi	-11.1227
▁karası	-11.1228
▁takımında	-11.123
Adalet	-11.1231
▁çizer	-11.1235
▁elemanları	-11.1236
▁derdimi	-11.1236
▁dağlarda	-11.1237
sy	-11.1238
Diken	-11.1239
▁gidi	-11.124
Gİ	-11.124
RT	-11.1242
▁tıpkı	-11.1247
▁Un	-11.1248
Tan	-11.1248
▁adaya	-11.1249
uri	-11.1252
ction	-11.1253
UT	-11.1253
menin	-11.1254
liktir	-11.1257
▁azar	-11.1257
ero	-11.1259
▁kuşların	-11.1259
▁aşağıda	-11.126
▁düşündü	-11.1261
▁yönetti	-11.1262
▁simge	-11.1262
▁viran	-11.1263
▁Kentin	-11.1263
▁yakışır	-11.1264
▁binalar	-11.1264
ebildi	-11.1266
▁seviyesinde	-11.1267
▁yollarını	-11.1267
▁İttihat	-11.1267
▁istediğim	-11.1268
▁başlangıçta	-11.1269
▁destekleyen	-11.127
▁tutuyor	-11.1271
▁mısır	-11.1273
▁tavır	-11.1274
lamaz	-11.1274
▁olmasaydı	-11.1274
▁bağlantılı	-11.1275
sensiz	-11.1277
▁Said	-11.1278
▁şaka	-11.1279
▁gezin	-11.128
▁bağlanmış	-11.1281
▁1935	-11.1283
▁Efe	-11.1283
▁yardımcısı	-11.1284
▁yokmuş	-11.1285
▁deyişle	-11.1286
▁yenilgiye	-11.1286
▁üreten	-11.1287
sabah	-11.1289
▁eserini	-11.129
▁kaybolur	-11.1293
MP	-11.1294
Hay	-11.1295
▁azından	-11.1296
▁yazıldı	-11.1296
▁Hâ	-11.1297
▁köşk	-11.1299
▁anlattı	-11.1301
▁bayrağım	-11.1302
mah	-11.1304
▁asılı	-11.1306
Hatır	-11.1306
▁kaldırıldı	-11.1307
▁çıkaran	-11.1307
▁Palm	-11.1309
Boynu	-11.131
▁delil	-11.1313
▁1999'	-11.1313
rad	-11.1314
▁250	-11.1314
▁öylece	-11.1314
Don	-11.1316
www	-11.1317
▁tasavvuf	-11.1317
▁Terakki	-11.1317
▁öğle	-11.1317
▁ameliyat	-11.1318
▁Adem	-11.1318
▁sesim	-11.1318
▁savrul	-11.1319
▁ırak	-11.1319
▁azalır	-11.1319
derin	-11.132
Ölü	-11.1321
▁mutluluğu	-11.1321
▁çarpan	-11.1323
Şair	-11.1325
▁sürece	-11.1325
▁kullanmaya	-11.1326
gg	-11.1326
▁yıldızın	-11.1328
▁kayded	-11.133
▁başlıklı	-11.1331
▁siyasetçi	-11.1331
Mes	-11.1331
bahçe	-11.1333
yy	-11.1334
cılığı	-11.1334
▁ellerde	-11.1335
▁dedikleri	-11.1335
▁tutam	-11.1336
▁Shi	-11.1337
Say	-11.1338
▁anında	-11.1339
▁gülsün	-11.1339
hit	-11.134
▁yapıda	-11.134
▁yerim	-11.134
▁aniden	-11.134
Konuş	-11.1342
▁kaplıdır	-11.1342
▁gelecekte	-11.1343
şin	-11.1343
▁peş	-11.1346
sos	-11.1347
▁öldürülmesi	-11.1347
▁gönlünde	-11.1347
▁sanatçılar	-11.1348
▁halen	-11.1349
▁Kariyeri	-11.1354
▁Cal	-11.1355
▁Boş	-11.1356
eh	-11.136
▁bilmece	-11.1362
Kir	-11.1363
İman	-11.1363
lerimde	-11.1364
ther	-11.1365
▁ap	-11.1366
▁sürmüş	-11.1366
▁Not	-11.1368
▁Arabistan	-11.1368
▁aşiret	-11.1368
▁tahrip	-11.1368
▁idaresi	-11.1369
▁üretici	-11.1373
▁hareketin	-11.1374
▁reform	-11.1375
▁gelişi	-11.1376
▁korur	-11.1378
iğe	-11.1379
▁girip	-11.1379
imden	-11.1379
▁kaybol	-11.138
Yüreğimi	-11.138
▁ölçüsü	-11.1381
▁yürekten	-11.1381
▁ber	-11.1382
▁aciz	-11.1382
▁düzensiz	-11.1383
Varlığın	-11.1383
Kavga	-11.1387
▁etkinlik	-11.1388
▁bulamadım	-11.1393
▁ekip	-11.1394
▁koşma	-11.1396
▁görevleri	-11.1396
Per	-11.1396
▁Gözlerim	-11.1397
▁görmeden	-11.1398
▁psikoloji	-11.1399
türk	-11.14
▁sürecek	-11.14
▁duyurdu	-11.1401
▁forması	-11.1403
▁Of	-11.1405
Göster	-11.1407
Derman	-11.1408
▁yarışı	-11.1411
▁vokal	-11.1411
▁anlatmak	-11.1411
▁birbirlerini	-11.1411
▁soruşturma	-11.1413
▁şeyleri	-11.1415
▁ligin	-11.1417
▁özünde	-11.1418
▁Belgrad	-11.1419
▁Eli	-11.142
▁lamba	-11.1421
▁bakıldığında	-11.1421
▁sayıl	-11.1421
unut	-11.1422
▁mat	-11.1422
istler	-11.1422
▁yele	-11.1422
▁bildim	-11.1424
▁kaybed	-11.1424
Kime	-11.1427
▁döktü	-11.1427
▁r	-11.1427
▁bilimleri	-11.143
▁silme	-11.143
▁cenneti	-11.1431
▁yenik	-11.1431
▁Türkistan	-11.1432
▁aktivite	-11.1432
▁yaylalar	-11.1432
▁gülüyor	-11.1432
yeceğim	-11.1433
inan	-11.1435
▁saçlarım	-11.1435
▁oluyordu	-11.1441
▁giyen	-11.1444
▁tapınak	-11.1445
sada	-11.1445
▁port	-11.1445
▁mesela	-11.1447
adam	-11.145
▁anlatım	-11.145
▁süslü	-11.1451
Tar	-11.1452
▁zaferi	-11.1452
▁diyecek	-11.1453
▁yaşın	-11.1453
Arka	-11.1454
▁Vefa	-11.1454
▁dönmesi	-11.1456
▁niteliği	-11.1456
II	-11.1457
▁Uğur	-11.1461
▁Kuru	-11.1462
▁kurulur	-11.1464
Masum	-11.1465
▁unutur	-11.1468
▁besle	-11.1469
▁Ericsson	-11.147
▁Oda	-11.147
▁Seçim	-11.1471
▁halife	-11.1472
▁1945'	-11.1472
▁bitmeyen	-11.1472
▁tüp	-11.1473
▁bırakan	-11.1473
▁bakarak	-11.1474
▁1995'	-11.1477
▁alanın	-11.1477
▁başlıyor	-11.1477
▁yüzyıllarda	-11.1478
▁geçirmek	-11.148
▁yolundan	-11.1481
▁girerek	-11.1483
▁bildirdi	-11.1484
Yetiş	-11.1484
▁cen	-11.1485
mel	-11.1486
▁figür	-11.1488
▁tıka	-11.1489
▁Yo	-11.1491
▁Soy	-11.1491
▁vs	-11.1492
▁sığmaz	-11.1492
▁geçtim	-11.1493
▁bakımdan	-11.1496
▁bö	-11.1496
Öylesine	-11.1497
▁senaryo	-11.1498
▁bıraktın	-11.1501
ux	-11.1502
▁canan	-11.1503
▁Yaşar	-11.1505
culuk	-11.1505
dol	-11.1506
▁öğrenme	-11.1507
▁değerini	-11.1511
▁pak	-11.1512
▁Birkaç	-11.1512
▁kuşku	-11.1518
Tİ	-11.1519
▁Abdülhamid	-11.1521
▁Bismarck	-11.1521
▁bilinmemektedir	-11.1521
▁iniş	-11.1521
▁yaşını	-11.1522
▁eda	-11.1523
▁elime	-11.1523
▁kalbinde	-11.1524
▁hâl	-11.1525
▁yanakları	-11.1526
▁abi	-11.1527
▁yıla	-11.153
▁beslen	-11.1531
imle	-11.1531
▁nefeste	-11.1534
▁Tür	-11.1536
▁Devri	-11.1538
▁parçacıklar	-11.1539
▁yönettiği	-11.154
▁düşüş	-11.154
▁uğur	-11.1542
▁konusudur	-11.1543
Kelimeler	-11.1543
▁saldırılar	-11.1545
▁kayda	-11.1546
▁hâli	-11.1546
▁TL	-11.1547
▁Kupa	-11.1547
▁öğrenimini	-11.1548
had	-11.1549
▁saçar	-11.155
▁kendimden	-11.1551
▁dökme	-11.1552
▁Kilise	-11.1556
▁avukat	-11.1556
▁yıllardır	-11.1559
▁ömrümü	-11.1559
▁düşündüm	-11.156
Mazi	-11.156
▁denizler	-11.156
▁geçse	-11.1561
▁takdirde	-11.1563
▁günümüzdeki	-11.1564
lir	-11.1565
Yürekler	-11.1568
▁yıka	-11.1568
▁katmanı	-11.1569
▁geçirir	-11.1572
▁geçirmiş	-11.1572
▁Yalan	-11.1572
▁trafik	-11.1573
▁göçebe	-11.1574
çuk	-11.1575
▁sürücü	-11.1575
▁mecnun	-11.1578
▁topraklarını	-11.1578
ulu	-11.158
▁ülkelerden	-11.158
Affet	-11.1581
▁olmuşum	-11.1583
▁edep	-11.1585
▁kollar	-11.1585
▁biyo	-11.1586
▁maliyet	-11.1586
DOS	-11.1587
luyor	-11.1587
▁karşısına	-11.159
yaş	-11.1591
▁etkinlikler	-11.1592
▁oluştuğu	-11.1592
▁1927	-11.1593
▁kompleks	-11.1593
▁Sey	-11.1593
Lakin	-11.1594
▁garib	-11.1595
▁kalitesi	-11.1597
▁gündeme	-11.1598
▁haksız	-11.1598
▁işlemler	-11.1599
hava	-11.1599
▁mis	-11.1599
▁müzikal	-11.1599
gaz	-11.1602
▁Harekâtı	-11.1605
Ko	-11.1606
▁liberal	-11.1607
▁bensiz	-11.1608
▁Sto	-11.1608
▁kapıyı	-11.1609
▁Trans	-11.1609
▁gülümseme	-11.161
▁Sak	-11.161
▁takdir	-11.161
▁ço	-11.1611
▁bucak	-11.1612
▁şiş	-11.1613
mə	-11.1614
▁problem	-11.1614
zlar	-11.1617
AS	-11.1617
▁tarihindeki	-11.1617
▁erir	-11.1619
▁organizasyon	-11.1619
▁bizler	-11.1621
▁söv	-11.1622
▁Barcelona	-11.1624
▁üzüntü	-11.1624
Yavaş	-11.1624
▁Köln	-11.1624
▁burcu	-11.1625
ağım	-11.1626
▁güvenilir	-11.1627
▁içermektedir	-11.1629
▁seviyede	-11.163
▁alırken	-11.163
▁aramızda	-11.163
▁Benzer	-11.1631
yince	-11.1633
▁Bat	-11.1634
▁hatıralar	-11.1634
▁Eser	-11.1636
göl	-11.1636
▁baksam	-11.1637
▁proteinler	-11.1637
▁ilkesi	-11.1638
▁umutsuz	-11.1639
▁bedeli	-11.1639
▁ülkelere	-11.164
No	-11.164
tab	-11.1641
▁grubuna	-11.1642
Kabul	-11.1642
▁Gürcü	-11.1644
▁Yıllık	-11.1644
▁etkinliği	-11.1644
seler	-11.1644
▁çalışırken	-11.1644
▁gu	-11.1644
mazdı	-11.1644
▁kazanması	-11.1644
▁1934	-11.1645
▁Konferansı	-11.1646
▁kilo	-11.1647
▁Konu	-11.1648
▁şok	-11.1649
▁gönüller	-11.1649
▁kaybettiği	-11.165
▁Hasta	-11.1651
Yaralı	-11.1652
▁fır	-11.1652
▁Mur	-11.1653
▁teknikleri	-11.1655
▁kayalar	-11.1655
▁kültürünün	-11.1655
▁Hü	-11.1657
lemektedir	-11.1659
▁Dev	-11.1659
▁uğra	-11.166
mî	-11.1661
▁dolusu	-11.1661
▁eksikliği	-11.1662
▁dillere	-11.1662
▁yapısında	-11.1665
▁buralarda	-11.1669
▁çıksa	-11.1672
▁dermanı	-11.1674
▁ılıman	-11.1676
▁mühür	-11.1676
▁tahsis	-11.1677
▁hitap	-11.1677
▁Nuri	-11.1677
ımızı	-11.1678
▁rejim	-11.1679
▁ölünce	-11.168
▁niyet	-11.1681
▁anısına	-11.1683
▁yönel	-11.1685
▁demeden	-11.1687
▁ayda	-11.1687
▁kaybeden	-11.1689
ânî	-11.169
▁Dergisi	-11.169
▁dü	-11.1692
▁kutu	-11.1693
yüzü	-11.1695
▁görülme	-11.1697
oku	-11.1697
Arapça	-11.1698
Kırmızı	-11.1698
Ri	-11.1698
Sensin	-11.1699
▁Meydanı	-11.17
Şe	-11.1701
▁adada	-11.1702
▁yatakları	-11.1703
▁Sümer	-11.1705
▁bakmadan	-11.1706
kum	-11.1707
Ger	-11.1708
▁raf	-11.1709
ıldığında	-11.1711
▁sevdayı	-11.1714
▁oturmuş	-11.1715
▁eserlerin	-11.1715
▁neyi	-11.172
▁kaldın	-11.172
ligi	-11.1721
▁kapısında	-11.1721
▁ağlamak	-11.1722
▁uyma	-11.1722
▁unutmuş	-11.1722
▁yaptılar	-11.1723
▁türbe	-11.1723
▁içtim	-11.1724
▁idim	-11.1725
▁günlerim	-11.1725
▁Olimpiyatları	-11.1727
eğim	-11.1727
Gözyaşı	-11.1729
▁PKK	-11.1729
▁Ferrari	-11.1729
▁düşünülen	-11.1729
▁töreni	-11.1729
ata	-11.1731
▁severdi	-11.1731
▁karanlıklar	-11.1733
▁alsın	-11.1733
▁dersen	-11.1734
▁bulunmayan	-11.1734
erler	-11.1736
▁artmıştır	-11.1736
Kimisi	-11.1738
▁inanış	-11.1738
▁mineraller	-11.1738
▁kula	-11.1738
diniz	-11.1741
▁savunur	-11.1741
▁üretiminde	-11.1742
▁kızları	-11.1743
▁52	-11.1745
▁türlerin	-11.1745
▁kullanılma	-11.1746
▁öden	-11.1746
▁enfeksiyon	-11.1748
▁peşine	-11.1749
AZ	-11.175
Mustafa	-11.175
Ekmek	-11.175
▁Ras	-11.1752
ona	-11.1755
▁cin	-11.1757
karşı	-11.1759
▁tırman	-11.1759
Boşa	-11.176
▁ney	-11.176
▁Wo	-11.176
▁seçimler	-11.1761
▁Kes	-11.1763
▁doyur	-11.1765
zon	-11.1766
ölü	-11.1766
Aş	-11.1767
▁uğramış	-11.1767
▁Eskiden	-11.1771
▁güvenli	-11.1771
▁ıslan	-11.1772
▁kalıntılar	-11.1772
SIN	-11.1773
▁umudum	-11.1774
▁hacmi	-11.1775
▁tüter	-11.1775
▁emre	-11.1776
▁dualar	-11.1777
▁yatır	-11.1779
▁Hac	-11.1779
kos	-11.178
▁köyde	-11.178
▁Oxford	-11.1781
▁mübarek	-11.1781
▁Başlıca	-11.1781
▁Jolie	-11.1782
▁futbolu	-11.1782
MI	-11.1783
▁sevil	-11.1783
▁köşede	-11.1783
ayet	-11.1783
▁gönderdiği	-11.1785
yacaksın	-11.1786
lanmamış	-11.1788
Bağrı	-11.1788
▁ruhunu	-11.179
musun	-11.179
▁koruyan	-11.179
▁Senden	-11.1792
▁Bakanlar	-11.1793
▁Star	-11.1794
▁1996'	-11.1794
▁ilah	-11.1795
▁Eminem	-11.1796
▁niteliğinde	-11.1797
▁zekâ	-11.1797
▁sey	-11.1797
▁batma	-11.1798
▁kurarak	-11.1799
bed	-11.1802
yl	-11.1802
▁şarkıların	-11.1802
▁Yayınları	-11.1802
▁Yayla	-11.1803
ence	-11.1804
▁ilke	-11.1804
Hatta	-11.1804
▁sevk	-11.1809
▁gezen	-11.1809
▁dolaşan	-11.1809
▁katkısı	-11.181
▁edebiyatında	-11.1811
▁beğeni	-11.1812
LI	-11.1813
▁işlevi	-11.1814
▁gereklidir	-11.1815
▁akarsu	-11.1816
▁Sağ	-11.1818
▁teşkilatı	-11.1819
▁haberin	-11.1819
▁yaratma	-11.1823
▁sustur	-11.1823
Çiz	-11.1824
rup	-11.1824
▁imkân	-11.1826
▁mutsuz	-11.1827
▁modelleri	-11.1827
▁ban	-11.1831
▁bilesin	-11.1831
▁Kütüphanesi	-11.1833
▁Kuveyt	-11.1834
▁referandum	-11.1834
▁Dışişleri	-11.1834
▁sosyoloji	-11.1834
rilme	-11.1834
▁robot	-11.1835
▁korkar	-11.1835
▁Ertesi	-11.1835
▁yorgan	-11.1836
▁Sinema	-11.1838
▁tutuldu	-11.1838
▁civarındadır	-11.1839
▁buram	-11.184
▁nötron	-11.1841
▁iyilik	-11.1842
▁kuvvetlerinin	-11.1842
Yavru	-11.1842
▁toprakta	-11.1845
▁bütçe	-11.1846
▁Sin	-11.1846
▁Gaziantep	-11.1846
▁fonksiyon	-11.1847
fel	-11.1848
geliştirilmiştir	-11.185
▁alanındaki	-11.1851
▁sıfat	-11.1852
▁dilek	-11.1855
Ağlamak	-11.1856
Memleket	-11.1857
▁Frank	-11.1857
▁deneyler	-11.1859
Varsın	-11.1859
toprak	-11.1859
▁yerleşen	-11.1859
▁hükümet	-11.186
▁dudaklarım	-11.1863
işti	-11.1863
Aslında	-11.1863
▁Dava	-11.1865
mil	-11.1865
▁müdürü	-11.1866
▁bakışlar	-11.1867
▁üyesidir	-11.1868
▁yukarıda	-11.1868
▁bildiğin	-11.1869
▁adamın	-11.187
atik	-11.187
dayan	-11.1871
Onların	-11.1871
▁kürek	-11.1871
▁bık	-11.1875
▁mitolojisinde	-11.1875
▁dönmek	-11.1875
▁rekor	-11.1876
▁yakala	-11.1877
▁buyur	-11.1878
▁asa	-11.1878
▁Cas	-11.1879
▁kendin	-11.1879
toz	-11.188
▁zamandır	-11.188
▁ulaşımı	-11.1881
▁fon	-11.1882
▁Kartal	-11.1882
▁bölme	-11.1884
ilik	-11.1885
▁akıllar	-11.1886
▁sanır	-11.1887
▁boğ	-11.1887
▁Uygur	-11.1887
▁koalisyon	-11.1887
▁köpük	-11.1887
▁nafile	-11.1887
▁kıpır	-11.1888
▁1-0	-11.1888
▁kurumlar	-11.1888
▁semtinde	-11.1888
▁karaciğer	-11.1889
▁yerleşmiş	-11.189
▁ölmüştür	-11.1891
▁ekin	-11.1891
Ad	-11.1893
Ekmeği	-11.1894
▁deyim	-11.1896
▁uçur	-11.1898
▁Gri	-11.1899
ign	-11.1899
wan	-11.19
▁balığı	-11.1902
▁gelenler	-11.1903
▁gürültü	-11.1904
▁yetmiş	-11.1905
▁yöne	-11.1906
▁kelimesinden	-11.1907
▁Yöre	-11.1909
▁tabanı	-11.1909
▁Bilimleri	-11.191
Pencere	-11.1911
▁iktidarı	-11.1912
▁sahneye	-11.1913
▁sitesi	-11.1914
diz	-11.1914
▁öngörü	-11.1917
Hazan	-11.1917
tiler	-11.1918
▁konumuna	-11.192
Gören	-11.192
▁satıl	-11.1921
dia	-11.1925
Ağır	-11.1925
▁usulca	-11.1926
▁yanarım	-11.1926
▁reddetti	-11.1926
▁bizleri	-11.1927
▁sevdamız	-11.1927
îr	-11.193
▁giymiş	-11.1932
low	-11.1934
▁ürünlerin	-11.1936
▁makamı	-11.1939
▁Hasret	-11.194
▁Tevfik	-11.1941
▁penaltı	-11.1941
Çar	-11.1941
Kıymet	-11.1942
▁Planck	-11.1942
tas	-11.1942
▁play	-11.1943
▁bilimler	-11.1946
▁yazarın	-11.1947
▁Tepesi	-11.1948
pho	-11.1948
▁siper	-11.1948
▁riya	-11.1949
diş	-11.195
▁Deresi	-11.1952
▁Ste	-11.1952
="	-11.1953
NE	-11.1954
▁içerdiği	-11.1954
▁matem	-11.1955
bro	-11.1955
▁veriler	-11.1955
▁kavramlar	-11.1957
▁evleri	-11.1957
▁barındırır	-11.1959
▁gelişmesi	-11.1959
RAM	-11.1962
▁incelenmesi	-11.1963
▁dururum	-11.1965
▁van	-11.1965
▁sırdaş	-11.1966
küçük	-11.1966
▁tutuklu	-11.1967
▁Mat	-11.1968
Toprağın	-11.1968
▁strateji	-11.1968
tit	-11.1971
rdin	-11.1974
▁öncelikle	-11.1977
▁bilginin	-11.1978
▁2002'	-11.1978
▁IP	-11.1978
▁icin	-11.1978
lesi	-11.1979
▁Oyunları	-11.198
etim	-11.198
▁Evliya	-11.1981
▁değiştirildi	-11.1981
▁çizgisi	-11.1982
liyorum	-11.1982
▁konar	-11.1984
Kaz	-11.1986
▁denizde	-11.1986
▁düşürdü	-11.1993
şak	-11.1993
▁husus	-11.1994
▁Ova	-11.1994
▁sevmez	-11.1995
▁Sauron	-11.1995
▁Symbian	-11.1995
▁bilimkurgu	-11.1995
▁Fikret	-11.1995
▁etmeden	-11.1995
▁katliam	-11.1995
▁cüce	-11.1995
▁delikanlı	-11.1995
▁analizi	-11.1996
▁korkunç	-11.1996
▁yapılanma	-11.1996
İnsanı	-11.1998
ceği	-11.1999
▁Hükûmeti	-11.1999
one	-11.1999
▁olmayınca	-11.2
▁yönlü	-11.2001
▁vaka	-11.2003
▁çarpışma	-11.2004
▁sonuçlandı	-11.2005
▁düşmektedir	-11.2005
Tat	-11.2006
yayım	-11.2006
BA	-11.2007
▁buradaki	-11.2008
▁kazanma	-11.2008
▁araştırmacı	-11.2009
▁Hor	-11.201
▁organizma	-11.2012
▁Toplum	-11.2012
▁çel	-11.2015
▁Bilge	-11.2016
Şehir	-11.2021
▁Yunanlar	-11.2021
Köy	-11.2022
▁öter	-11.2022
▁kaçak	-11.2024
▁efendi	-11.2025
Yüreğin	-11.2025
▁köylerde	-11.2025
▁taştan	-11.2027
▁üstünden	-11.2027
böyle	-11.2029
▁bozulma	-11.2029
Kanat	-11.2031
ons	-11.2031
Akan	-11.2031
▁Gen	-11.2033
▁öde	-11.2033
▁Plan	-11.2033
▁Cam	-11.2034
vah	-11.2035
▁geçişi	-11.2039
tch	-11.204
▁sağlanması	-11.204
imizde	-11.2042
▁Nor	-11.2043
▁kaynaklı	-11.2043
▁elimi	-11.2045
yınca	-11.2045
Adım	-11.2046
▁muhafaza	-11.2047
▁yayılmış	-11.2048
Bırakma	-11.2048
▁dolaşım	-11.2048
▁Esperanto	-11.2049
▁altyapı	-11.2049
Tatlı	-11.2051
▁sağlayacak	-11.2052
▁çivi	-11.2055
▁sürün	-11.2055
▁heykeli	-11.2055
▁Say	-11.2056
gas	-11.2057
omb	-11.2057
▁ac	-11.2059
Köşe	-11.2059
▁umman	-11.206
ğından	-11.2061
▁yönetmeni	-11.2061
Bazı	-11.2062
▁kaybeder	-11.2064
▁karlı	-11.2066
▁hayatında	-11.2066
▁durağı	-11.2068
▁bastır	-11.2071
▁alet	-11.2071
▁Enver	-11.2073
▁yarına	-11.2073
▁Zafer	-11.2074
Saç	-11.2076
▁Kanal	-11.2076
▁bakıyorum	-11.2077
gerçek	-11.2077
gli	-11.2078
lenmek	-11.2081
nızı	-11.2081
▁iti	-11.2082
▁getirilmiş	-11.2083
▁vo	-11.2086
▁toplumda	-11.2086
▁Efes	-11.2086
açık	-11.2089
Buz	-11.2093
▁tutuklandı	-11.2093
▁koşan	-11.2093
▁sadrazam	-11.2095
▁Evi	-11.2097
▁%10	-11.2099
lemeye	-11.21
▁Araplar	-11.2101
memek	-11.2103
▁yüreğe	-11.2103
▁Henry	-11.2103
**	-11.2103
▁Geleneksel	-11.2104
▁kahpe	-11.2104
▁neyler	-11.2104
▁gençler	-11.2105
Oldu	-11.2105
Madem	-11.2106
▁Mühendisliği	-11.2108
▁gösterilen	-11.2108
Tu	-11.211
▁neyin	-11.211
mber	-11.2112
▁basar	-11.2112
▁Milan	-11.2116
Kah	-11.2119
▁Tü	-11.2119
▁meh	-11.212
▁rast	-11.2121
▁uygarlık	-11.2121
▁Ölü	-11.2125
▁ıs	-11.2125
Bilmiyorum	-11.2126
▁tartışıl	-11.2126
AD	-11.2127
▁sınırlarını	-11.2128
Muhammed	-11.2131
▁1937	-11.2132
kür	-11.2132
dukça	-11.2132
end	-11.2133
▁takımlar	-11.2133
▁karanlığında	-11.2135
Vol	-11.2136
Dİ	-11.2136
Kum	-11.2137
▁okut	-11.2138
▁saatte	-11.2138
▁fal	-11.2138
▁For	-11.2138
▁harca	-11.2139
seydi	-11.2141
▁Asıl	-11.2144
luğunda	-11.2146
▁İçin	-11.2146
▁zamanki	-11.2147
larımla	-11.2147
Mevla	-11.2149
▁devril	-11.2152
Haykır	-11.2155
▁duymaz	-11.2155
Giden	-11.2156
▁Aristoteles	-11.2158
▁edilecek	-11.2158
▁doğacak	-11.216
▁tanımlanan	-11.2162
ürü	-11.2163
▁üçü	-11.2163
▁atış	-11.2164
▁anlatı	-11.2165
▁ayrıntılı	-11.2165
▁inanılır	-11.2166
▁borçlu	-11.2167
lığından	-11.2169
▁yamaç	-11.217
sede	-11.2171
▁Bodrum	-11.2172
İnci	-11.2173
star	-11.2173
lerarası	-11.2175
▁taneleri	-11.2176
far	-11.2176
▁karanlığın	-11.2177
▁gözde	-11.2179
▁Jan	-11.2179
▁ellerine	-11.218
▁günlere	-11.2182
▁şeklini	-11.2182
▁Çorum	-11.2182
▁boyları	-11.2182
Tekrar	-11.2185
nor	-11.2186
▁türküleri	-11.2186
▁kuvvetlerin	-11.2188
ülü	-11.2188
▁salon	-11.2189
▁taşıyor	-11.2189
▁Hücre	-11.2189
▁yaratıcı	-11.2193
▁kitabını	-11.2194
▁maaş	-11.2194
İsyan	-11.2194
▁Kerem	-11.2194
▁Emin	-11.2195
▁Albümün	-11.2195
▁mide	-11.2196
▁unvan	-11.2199
▁ateşin	-11.2199
▁Siz	-11.22
▁Şehirde	-11.2203
▁belirlenir	-11.221
▁bay	-11.2211
▁mür	-11.2211
▁Adını	-11.2213
▁illeri	-11.2213
▁zinciri	-11.2214
▁özür	-11.2216
fiz	-11.2217
ûl	-11.2217
▁desin	-11.2218
▁metredir	-11.2219
▁kalkınma	-11.222
litik	-11.222
▁kökleri	-11.2221
Haksız	-11.2222
▁Yahudiler	-11.2223
▁izle	-11.2224
▁gücün	-11.2224
yük	-11.2224
▁şampiyonluğunu	-11.2225
▁karşılaştı	-11.2226
▁yapısına	-11.2227
▁karşıt	-11.2228
zem	-11.2229
▁ic	-11.2229
▁Yüzyıl	-11.2229
kka	-11.2229
▁dillerin	-11.2231
▁ayaklarım	-11.2232
▁gecelerin	-11.2233
Oyun	-11.2233
Saat	-11.2234
▁düşünmek	-11.2234
▁Max	-11.2238
▁yaşındaki	-11.2238
▁Çam	-11.2242
üst	-11.2242
pel	-11.2243
▁rüyalar	-11.2243
▁vermiyor	-11.2244
yeşil	-11.2245
▁atlı	-11.2245
▁sarayın	-11.2246
▁yaram	-11.2246
▁Fan	-11.2248
▁hazırladı	-11.2248
▁Maria	-11.2249
▁bant	-11.225
▁çoğunluğunu	-11.225
İnsanın	-11.225
▁azalması	-11.2251
▁tanındı	-11.2251
▁hüznü	-11.2251
▁kadardır	-11.2252
▁açıklaması	-11.2253
▁Projesi	-11.2253
▁yum	-11.2254
Yangın	-11.2254
Arkadaş	-11.2257
mızdan	-11.2258
▁seçilmiş	-11.2258
oysa	-11.2258
biliyor	-11.226
▁araçlar	-11.2261
▁derse	-11.2263
Gözü	-11.2264
▁birleşme	-11.2265
Naz	-11.2266
Muh	-11.2267
▁OL	-11.2267
▁dâhil	-11.2268
▁birlikler	-11.2271
▁ufuklar	-11.2272
▁yürüyen	-11.2273
deli	-11.2274
▁kılan	-11.2274
▁oluşturulması	-11.2274
▁temsilcileri	-11.2274
▁üyelerinin	-11.2275
▁politikaları	-11.2276
▁potansiyeli	-11.2276
▁düşmesi	-11.2279
▁dağıldı	-11.228
Elveda	-11.2281
▁Pekin	-11.2281
▁tüccar	-11.2282
▁yetişen	-11.2283
▁filiz	-11.2284
Yu	-11.2284
▁47	-11.2286
▁Alem	-11.2287
rag	-11.2288
▁kulüpleri	-11.2288
sür	-11.2289
Bunun	-11.229
▁tarihî	-11.2291
▁tarzında	-11.2293
dus	-11.2295
ÜZ	-11.2295
Yo	-11.2295
▁kurtuluş	-11.2296
▁eserlerinde	-11.2298
▁önlemek	-11.2298
▁Güven	-11.23
▁1912	-11.23
▁Bayramı	-11.2302
▁geliyordu	-11.2305
doğru	-11.2306
eceğiz	-11.2306
▁dilinin	-11.2308
▁57	-11.2309
Burada	-11.2309
▁bor	-11.2309
sâ	-11.231
lular	-11.2311
pu	-11.2312
bah	-11.2313
▁sele	-11.2313
▁49	-11.2314
▁güzelliğin	-11.2315
luyorum	-11.2315
▁diyarı	-11.2315
▁derleme	-11.2316
fal	-11.2318
▁okumak	-11.232
▁Çağdaş	-11.2322
▁Fre	-11.2323
▁akı	-11.2323
▁Lübnan	-11.2324
▁mutfak	-11.2324
▁merhem	-11.2324
▁ölmedi	-11.2326
▁ayırır	-11.2326
▁üz	-11.2327
▁durmuş	-11.233
▁sarayı	-11.2331
▁rehber	-11.2332
▁aştı	-11.2333
▁coşar	-11.2336
muzu	-11.2336
▁kuralı	-11.2337
▁yakındır	-11.2338
▁Kamu	-11.2339
▁sözlerini	-11.2339
▁değdi	-11.2339
▁sayım	-11.2339
▁mes	-11.234
olsun	-11.2341
▁Mücadele	-11.2342
▁çaplı	-11.2342
▁ed	-11.2347
bilirim	-11.2348
▁maddeleri	-11.2349
▁Etki	-11.235
▁çalgı	-11.2352
Korkma	-11.2352
▁Korkut	-11.2353
▁koyup	-11.2353
SP	-11.2355
▁basıncı	-11.2355
▁dişleri	-11.2361
▁gemilerin	-11.2361
gat	-11.2362
▁bacı	-11.2363
▁düzenledi	-11.2364
hid	-11.2368
▁gerçekçi	-11.2368
▁faz	-11.2369
▁SEV	-11.237
Bile	-11.2372
nis	-11.2374
▁yıldızlara	-11.2375
:"	-11.2375
▁Mevla	-11.2376
▁doğuyor	-11.2376
ağla	-11.2376
▁fethi	-11.2377
▁bıraktığı	-11.2377
aşkın	-11.2378
▁yokluğunda	-11.2379
▁Protestan	-11.2379
▁süvari	-11.2379
▁Angeles	-11.238
▁vahşi	-11.238
▁Karabük	-11.238
▁yürüyüş	-11.2381
▁minör	-11.2381
▁nispeten	-11.2381
▁galip	-11.2382
▁tarihin	-11.2382
Sevinç	-11.2382
▁dövüş	-11.2383
ette	-11.2385
▁hakkın	-11.2386
rif	-11.2386
▁Fatma	-11.2388
tah	-11.2388
▁yanıp	-11.2389
▁aklına	-11.239
▁nü	-11.239
▁Kimya	-11.2393
▁farkına	-11.2398
Boşuna	-11.2398
▁Sevgili	-11.2399
▁duru	-11.24
melidir	-11.24
▁belirtiler	-11.2401
Olsun	-11.2401
mân	-11.2402
▁gittiğin	-11.2403
▁atı	-11.2404
▁savunması	-11.2405
▁2013'	-11.2407
▁Grubun	-11.2408
▁gözyaşlarım	-11.2411
sî	-11.2413
▁gelmek	-11.2413
▁kazası	-11.2414
▁adaları	-11.2414
▁kalemi	-11.2414
▁girmek	-11.2416
Demir	-11.2416
▁erişim	-11.2417
▁platform	-11.2417
LAN	-11.2418
içimde	-11.2418
▁damlası	-11.2418
▁ulaşmış	-11.242
▁dinsel	-11.2422
▁oyunun	-11.2425
▁kaçış	-11.2425
Dolu	-11.2426
▁Sp	-11.2427
▁2003'	-11.2428
▁rengini	-11.2432
▁çıkarıldı	-11.2433
▁bildiğim	-11.2433
▁Ayrılık	-11.2435
▁Ürdün	-11.2436
▁İnşaat	-11.2436
▁harekât	-11.2436
▁kuzeydoğusunda	-11.2436
▁pozisyon	-11.2436
▁mühendis	-11.2436
▁halleri	-11.2437
▁kabartma	-11.2437
▁yöneldi	-11.2438
▁Baltık	-11.2438
▁dernek	-11.2439
▁kast	-11.2439
▁oluştu	-11.2439
▁devrin	-11.2442
▁dinlenme	-11.2443
▁Çiçek	-11.2445
▁kahır	-11.2446
▁üşür	-11.2447
▁ayağa	-11.2447
▁atıyor	-11.2447
▁akıntı	-11.2449
▁yükseklikte	-11.245
▁irade	-11.245
▁göründü	-11.2452
Mer	-11.2453
▁kah	-11.2454
▁gamze	-11.2455
rasyon	-11.2455
▁diren	-11.2456
▁denetimi	-11.2457
▁silindir	-11.2459
▁vatanım	-11.246
▁çarşı	-11.2462
▁Geçmiş	-11.2465
▁civarı	-11.2465
▁noktasına	-11.2466
hasret	-11.2466
▁bahtım	-11.2467
▁üzer	-11.2468
rüzgar	-11.2469
layın	-11.247
▁1949	-11.247
▁1993'	-11.2471
▁NE	-11.2471
Yüreğinde	-11.2473
Hu	-11.2473
▁44	-11.2474
▁tâ	-11.2474
büyü	-11.2475
▁gülme	-11.2476
Arı	-11.2477
▁"“	-11.2478
▁Arkeoloji	-11.2479
▁verildiği	-11.2481
Evet	-11.2483
▁köken	-11.2483
▁avantaj	-11.2484
doğ	-11.2484
▁Kas	-11.2484
▁konumda	-11.2484
▁duyarlı	-11.2485
▁üs	-11.2485
▁fıkra	-11.2485
yir	-11.2487
▁Kimse	-11.2487
▁Port	-11.2489
war	-11.2489
▁düşmana	-11.2491
▁46	-11.2491
▁yaklaşımı	-11.2492
sessiz	-11.2492
▁federal	-11.2492
▁gözünden	-11.2492
▁havaalanı	-11.2492
▁yemeği	-11.2492
▁elveda	-11.2493
▁çalıştır	-11.2494
Sahte	-11.2494
▁deva	-11.2495
▁geçilmez	-11.2495
▁terfi	-11.2496
▁Kalp	-11.2497
kre	-11.2498
▁Bilimsel	-11.2498
▁imge	-11.2498
▁İslamiyet	-11.25
▁Ch	-11.25
▁duyur	-11.25
▁çabası	-11.2501
▁sürmektedir	-11.2502
gö	-11.2503
▁servet	-11.2503
▁işleyen	-11.2504
▁Poe	-11.2505
▁yükselti	-11.2506
▁Yabancı	-11.2506
izasyon	-11.2508
▁attım	-11.251
▁saldırıya	-11.251
ssa	-11.2512
etler	-11.2514
değiştirilmiştir	-11.2515
▁geçirildi	-11.2515
▁verem	-11.2516
▁lo	-11.2517
ılınca	-11.2517
oldu	-11.2519
▁denetim	-11.2519
tıp	-11.2519
▁Koleji	-11.2519
▁beşer	-11.252
▁derdini	-11.2522
▁teli	-11.2525
Yâr	-11.2525
örü	-11.2526
▁halimi	-11.2527
▁edemez	-11.2527
Hayallerim	-11.2528
Hemen	-11.2528
ğına	-11.2529
▁resmini	-11.2529
▁edilmeye	-11.2531
▁çevirisi	-11.2532
Yanında	-11.2533
▁güvenliği	-11.2533
▁hap	-11.2535
iv	-11.2537
▁şiirin	-11.2538
▁ışıklar	-11.2541
▁metni	-11.2543
▁Gol	-11.2544
▁dağa	-11.2546
▁baka	-11.2546
▁Pop	-11.2548
▁içerik	-11.2549
▁Ertuğrul	-11.2549
▁Müziği	-11.2549
▁ciğerim	-11.2549
▁mizah	-11.2549
▁olsaydım	-11.255
▁insanlığın	-11.255
▁gerektir	-11.2551
▁sulama	-11.2552
▁solgun	-11.2552
▁Başarı	-11.2553
ımdan	-11.2553
▁1905	-11.2554
▁birbiriyle	-11.2554
▁basılan	-11.2554
100	-11.2555
Çay	-11.2556
▁düşse	-11.2556
▁bulup	-11.2556
▁İncil	-11.2558
▁arkasından	-11.2558
▁hi	-11.2561
▁açılış	-11.2563
meyeceğim	-11.2564
▁rüzgarı	-11.2564
KA	-11.2564
▁imkânı	-11.2565
▁suların	-11.2565
▁kalpler	-11.2567
Sevin	-11.2568
▁bulanık	-11.2569
▁narin	-11.257
▁uzaklıktadır	-11.257
▁milli	-11.2571
▁sayımın	-11.2571
▁neydi	-11.2572
▁kork	-11.2572
▁yüzleri	-11.2573
kab	-11.2574
Yıllarca	-11.2574
▁ağzında	-11.2575
ew	-11.2575
▁Dol	-11.2577
Dolaş	-11.2579
mann	-11.258
▁Nüfusun	-11.258
▁devletleri	-11.258
▁Dre	-11.2581
▁hakimiyetine	-11.2583
ımsın	-11.2583
mediğim	-11.2584
Peygamber	-11.2584
▁duygularım	-11.2584
İT	-11.2585
▁vade	-11.2586
▁harabe	-11.2587
▁duyguları	-11.2589
Toprağı	-11.2589
▁stil	-11.259
seydim	-11.2591
adım	-11.2592
▁evet	-11.2593
rme	-11.2595
▁İlhan	-11.2596
Osmanlı	-11.2596
▁karasal	-11.2598
▁açıyor	-11.2598
▁davranışları	-11.2599
▁Sonunda	-11.26
▁çıkmak	-11.2601
▁edersin	-11.2602
Koru	-11.2604
▁enstrüman	-11.2606
▁Edward	-11.2606
▁Şerif	-11.2607
▁sanılmaktadır	-11.2607
▁özlüyorum	-11.2608
▁kaçıncı	-11.2608
▁doruk	-11.2608
Üzülme	-11.2608
▁proton	-11.2609
▁şirin	-11.2609
ele	-11.2611
boz	-11.2612
▁önümde	-11.2614
▁mert	-11.2615
▁karnı	-11.2616
▁Ram	-11.2617
acaklar	-11.2617
Bağır	-11.2618
▁maske	-11.262
▁mendil	-11.262
▁bulsun	-11.262
▁seferinde	-11.2621
▁ağları	-11.2622
Ayrı	-11.2622
osfer	-11.2626
Ağaç	-11.2627
▁ih	-11.2627
▁yoruldum	-11.263
▁bölünme	-11.263
vas	-11.2631
▁tenim	-11.2632
masından	-11.2634
▁İskenderun	-11.2635
1:	-11.2636
▁dönmez	-11.2637
▁doldurdu	-11.2638
gey	-11.264
▁yenildi	-11.264
▁işini	-11.264
▁ayıp	-11.264
ring	-11.2642
▁yanlız	-11.2642
▁1951	-11.2643
▁vatandaşı	-11.2645
Am	-11.2646
▁Salih	-11.2648
Çile	-11.2649
nizi	-11.2649
▁bittiği	-11.2649
▁türün	-11.265
ice	-11.2652
http	-11.2653
ves	-11.2653
düzenlenmektedir	-11.2653
▁dünü	-11.2653
▁Yasa	-11.2654
▁kibir	-11.2654
▁azı	-11.2655
OK	-11.2656
Ayrıl	-11.2656
▁yolların	-11.2658
▁anıları	-11.2659
▁katılması	-11.266
▁koştur	-11.2662
▁Adıyaman	-11.2664
▁refah	-11.2664
▁Stalingrad	-11.2664
▁demez	-11.2664
▁arazisi	-11.2666
▁meyhane	-11.2666
alt	-11.2667
Kayna	-11.2667
▁gerçekleşmiştir	-11.2668
▁Düş	-11.2668
▁sunulan	-11.267
yap	-11.2672
▁asma	-11.2674
▁hayattan	-11.2674
▁ayırdı	-11.2675
anti	-11.2676
Dile	-11.2676
seniz	-11.2676
▁personel	-11.2676
▁ilkel	-11.2677
▁faiz	-11.2677
▁kaynaş	-11.2677
▁Bri	-11.2677
▁açtım	-11.2678
▁sularda	-11.2681
▁Prens	-11.2683
▁sayısal	-11.2683
▁verse	-11.2684
▁çimen	-11.2684
mizden	-11.2685
Hic	-11.2685
vit	-11.2685
nızda	-11.2685
▁Kanuni	-11.2686
▁tanrıça	-11.2687
▁müşteri	-11.2687
▁World	-11.2688
uydu	-11.2688
▁türk	-11.2692
▁bağlanma	-11.2693
Lo	-11.2693
▁kanunu	-11.2694
▁fırın	-11.2697
▁ülkeden	-11.2699
lendim	-11.27
▁Çal	-11.27
▁sözleşmesi	-11.2701
▁fırsatı	-11.2701
▁karşılamak	-11.2705
▁katan	-11.2705
Du	-11.2706
nla	-11.2706
▁sunduğu	-11.2707
▁türe	-11.2709
▁dilbilim	-11.2709
▁Yap	-11.271
▁saçma	-11.271
Karar	-11.2711
▁kişiliği	-11.2712
▁Ul	-11.2712
▁ozan	-11.2713
▁Veysel	-11.2713
▁seller	-11.2714
Yanar	-11.2715
▁Canım	-11.2718
ttı	-11.2719
Yazık	-11.2719
Sarar	-11.272
▁değirmen	-11.2721
▁efkar	-11.2722
▁itiraz	-11.2722
▁varmı	-11.2723
▁süresince	-11.2724
▁dalıdır	-11.2724
▁Arnavutluk	-11.2724
▁battı	-11.2724
▁ISO	-11.2725
▁Ap	-11.2725
IK	-11.2726
▁saldırıları	-11.2726
▁ölürüm	-11.2726
▁54	-11.2727
▁Kenan	-11.273
▁Mühendislik	-11.2733
▁Düz	-11.2734
▁Wilhelm	-11.2735
▁etmiyor	-11.2738
▁kullanmaktadır	-11.2738
▁bulutları	-11.2738
▁olmuşlardır	-11.274
▁gölgeler	-11.2741
beyi	-11.2741
▁balıklar	-11.2744
▁ölümün	-11.2746
▁pilot	-11.2747
▁2001'	-11.2752
▁saptan	-11.2752
▁ideoloji	-11.2753
▁yut	-11.2753
▁Balık	-11.2754
▁bakarken	-11.2754
▁tarihinden	-11.2757
Şiirler	-11.2757
Hakikat	-11.2759
▁Kafkas	-11.2759
▁ağaçların	-11.2759
▁çocukluğum	-11.276
Sİ	-11.276
▁yöresi	-11.2762
▁bahara	-11.2763
▁1997'	-11.2763
pik	-11.2763
▁deyince	-11.2764
▁amca	-11.2765
lanmaz	-11.2767
▁sesine	-11.2769
▁şarkının	-11.2769
şek	-11.2772
▁kesinlikle	-11.2772
▁bağladı	-11.2772
tmak	-11.2773
▁dönemden	-11.2774
bes	-11.2774
▁çağrısı	-11.2774
▁çekin	-11.2775
TI	-11.2776
▁dediğim	-11.2777
▁Stra	-11.2778
▁yanmış	-11.2779
▁Fakülte	-11.2779
▁Endonezya	-11.2779
▁radikal	-11.2779
▁Kahire	-11.278
▁etkileyen	-11.2783
Çöz	-11.2783
▁tamamlayan	-11.2784
▁isimdir	-11.2784
▁manga	-11.2785
▁âlim	-11.2785
▁mono	-11.2786
▁hatırı	-11.2789
▁Hizmet	-11.2789
Sorma	-11.279
▁akşamları	-11.2792
Art	-11.2794
▁hissi	-11.2796
lerse	-11.28
▁kalarak	-11.2802
▁(12	-11.2803
▁temsilci	-11.2803
ulduğu	-11.2803
▁devran	-11.2804
▁bülbülü	-11.2804
lıydı	-11.2805
▁yazıp	-11.2806
▁itibar	-11.2807
▁döküldü	-11.2808
▁hakem	-11.281
▁engeller	-11.2811
Dik	-11.2816
uyum	-11.2817
▁başımda	-11.2818
▁şarkısını	-11.2819
Sultan	-11.2819
▁resmin	-11.282
▁oturan	-11.282
▁arda	-11.2822
▁sim	-11.2823
▁İste	-11.2824
Hayaller	-11.2824
sunuz	-11.2825
▁tarıma	-11.2826
▁operasyon	-11.2826
▁Kerim	-11.2828
▁Opera	-11.2829
▁bağlan	-11.2834
▁nehrin	-11.2834
▁rahatsızlık	-11.2834
▁Resmi	-11.2834
cağı	-11.2835
▁bölümde	-11.2836
▁nöro	-11.2836
şâ	-11.2837
▁Yağ	-11.2838
▁muhteşem	-11.2838
▁köpeği	-11.2838
▁rastla	-11.2838
▁taşıyıcı	-11.2838
▁garanti	-11.2838
▁Başlangıçta	-11.2838
▁Halep	-11.284
▁vasıtasıyla	-11.284
▁minnet	-11.284
▁aldıkları	-11.284
▁Renk	-11.284
▁kesilir	-11.284
▁hilal	-11.284
gazi	-11.2841
▁düşkün	-11.2841
▁ivme	-11.2841
▁finansal	-11.2841
tıkça	-11.2844
stri	-11.2845
Niye	-11.2845
▁Selam	-11.2846
▁ayın	-11.2848
dip	-11.285
▁yaşanmış	-11.2853
▁tarafına	-11.2854
▁ulaştığı	-11.2854
uğun	-11.2854
▁gülüşü	-11.2855
▁Naruto	-11.2855
▁doğuya	-11.2856
bb	-11.2856
▁sığır	-11.2856
▁anar	-11.2856
▁yit	-11.2857
Taşı	-11.2858
▁olacaksın	-11.2858
▁Melek	-11.286
▁tamamlandı	-11.286
▁altındadır	-11.2861
▁Kenya	-11.2863
çer	-11.2866
▁başkasına	-11.2867
▁Kelime	-11.287
Olan	-11.2871
▁ekseni	-11.2875
▁Kıyı	-11.2875
▁düşünen	-11.2876
▁Lidya	-11.2876
▁inceler	-11.2877
▁kesilmiş	-11.2878
▁dalıp	-11.2879
▁1952	-11.2879
ister	-11.2881
Yağ	-11.2881
ştır	-11.2882
▁1994'	-11.2884
▁Mesela	-11.2885
▁kelimeleri	-11.2886
▁toplumu	-11.2887
ralı	-11.2889
amayacağı	-11.2891
▁daldı	-11.2891
▁sayıların	-11.2892
sünü	-11.2892
▁red	-11.2896
▁Ph	-11.2896
Ağaçlar	-11.2896
▁Jandarma	-11.2897
Ulu	-11.2897
▁Kızılırmak	-11.2897
▁pirinç	-11.2897
▁anlayan	-11.2897
▁kaybolmuş	-11.2898
ces	-11.2898
▁ihtimali	-11.2899
▁Ünlü	-11.29
▁kanıtlar	-11.2902
▁birimler	-11.2903
▁dürüst	-11.2905
▁bağımsızlığı	-11.2907
▁Kadir	-11.2907
▁kumsal	-11.2908
▁görüşmeler	-11.2908
▁yollarında	-11.2908
Aklımda	-11.2908
▁uzatma	-11.2909
▁amel	-11.2909
▁başlama	-11.2911
▁kanatları	-11.2911
Aman	-11.2912
▁kaşın	-11.2913
▁yaratır	-11.2913
▁belirlen	-11.2914
▁İhsan	-11.2917
▁hidro	-11.2918
▁Abdül	-11.292
▁resme	-11.292
▁Lord	-11.2921
▁yaratmış	-11.2921
▁gelmeden	-11.2922
▁Mus	-11.2923
▁onarım	-11.2924
▁organları	-11.2927
▁car	-11.2929
Gözyaşları	-11.2931
▁bildi	-11.2932
aydın	-11.2933
bugün	-11.2933
▁Şeref	-11.2934
▁dola	-11.2934
ary	-11.2935
▁döndür	-11.2938
▁tuzu	-11.294
▁ısın	-11.2942
▁ırkı	-11.2943
▁geçmeden	-11.2943
▁taşınması	-11.2944
▁160	-11.2944
▁kaldırım	-11.2944
▁annesinin	-11.2945
▁düşünceleri	-11.2946
▁tri	-11.2947
▁şahıs	-11.2947
▁arzular	-11.2948
▁Fabrikası	-11.295
▁Ümit	-11.2951
▁köprüsü	-11.2951
Gördüm	-11.2951
▁partiler	-11.2953
TC	-11.2953
rd	-11.2954
▁Hemen	-11.2955
▁Gondor	-11.2956
▁Vietnam	-11.2956
▁bombardıman	-11.2956
▁bomboş	-11.2956
▁muhalif	-11.2956
▁pençe	-11.2956
▁tekstil	-11.2956
></	-11.2956
▁Topkapı	-11.2957
▁karakterler	-11.2957
▁birleşerek	-11.2958
▁derki	-11.2959
▁portre	-11.296
▁balkon	-11.296
▁sinyal	-11.296
▁sessizliği	-11.296
Oyna	-11.296
▁Hong	-11.2961
Kaybol	-11.2962
▁Bit	-11.2963
İhanet	-11.2964
ndadır	-11.2966
▁çarpar	-11.2967
▁önder	-11.2969
▁Sultanı	-11.297
▁Kri	-11.297
▁aralığında	-11.2971
▁olabileceğini	-11.2972
▁desteğini	-11.2973
▁esmer	-11.2975
▁Play	-11.2976
▁söyleyin	-11.2976
olo	-11.2979
▁Kra	-11.2981
▁altıncı	-11.2981
bû	-11.2981
▁yetişkin	-11.2981
▁stili	-11.2982
▁SEN	-11.2983
▁Yozgat	-11.2984
▁Ele	-11.2984
osit	-11.2984
▁makinesi	-11.2985
▁açılma	-11.2985
▁çıkarmıştır	-11.299
▁akımın	-11.299
▁hizmetler	-11.299
▁fay	-11.2992
ttiği	-11.2993
▁başarısını	-11.2993
▁Ten	-11.2993
▁açmak	-11.2995
Nedir	-11.2996
▁dururken	-11.2998
hâne	-11.2999
siyah	-11.3
▁kuşat	-11.3
▁durul	-11.3002
▁esti	-11.3003
▁süzül	-11.3003
▁gitsem	-11.3004
▁yöneticileri	-11.3004
▁borsa	-11.3006
▁yârim	-11.3006
hol	-11.3007
Sıra	-11.3007
▁giyer	-11.3007
Ci	-11.3008
2.000	-11.3012
▁sinsi	-11.3013
▁planlı	-11.3013
▁türlerinin	-11.3014
▁töre	-11.3014
▁İskilip	-11.3015
▁sekreter	-11.3015
▁vakıf	-11.3015
▁Senfoni	-11.3015
▁huyu	-11.3016
▁oruç	-11.3016
▁esrar	-11.3017
▁yazarları	-11.3017
▁Rodos	-11.3017
▁bölgeden	-11.3018
▁kahr	-11.3019
▁turistik	-11.302
▁Big	-11.3021
dükçe	-11.3021
▁dudaklar	-11.3023
▁sanırsın	-11.3023
▁yayınlanmıştır	-11.3023
gos	-11.3023
▁caddeler	-11.3024
▁çarkı	-11.3026
▁canlıların	-11.3026
▁AR	-11.3028
▁fethedil	-11.3028
▁Şehri	-11.303
▁Ozan	-11.3031
duğunu	-11.3031
▁nedense	-11.3032
▁özne	-11.3033
▁itibarı	-11.3033
▁çiftlik	-11.3034
▁mirası	-11.3035
layabilir	-11.3036
▁yeşili	-11.304
▁yaya	-11.304
▁ıslat	-11.304
çak	-11.3041
▁koptu	-11.3041
▁sözde	-11.3043
▁boğul	-11.3047
▁heyeti	-11.3049
cısı	-11.3049
Umutlar	-11.3051
tav	-11.3052
▁biçer	-11.3055
▁2014'	-11.3056
▁seçimi	-11.3058
sah	-11.3062
▁foto	-11.3062
,¬“	-11.3062
▁almayı	-11.3065
▁kökü	-11.3068
ore	-11.3071
▁yararlı	-11.3071
▁havaya	-11.3073
▁Shakespeare	-11.3075
▁Standart	-11.3075
▁keşfetti	-11.3075
▁nasihat	-11.3075
▁Coğrafi	-11.3075
▁müddet	-11.3075
▁ikamet	-11.3075
▁lakabı	-11.3075
Yaşlı	-11.3076
▁renginde	-11.3076
▁Cermen	-11.3076
▁bestesi	-11.3077
¬***	-11.3077
▁ayakları	-11.3077
Gene	-11.3078
▁Che	-11.3078
▁yasama	-11.3079
▁1909	-11.308
aceae	-11.3081
▁May	-11.3083
Bilmez	-11.3084
▁taktı	-11.3084
▁zamanların	-11.3086
▁katılmış	-11.3088
bazı	-11.3089
▁güzellikleri	-11.3093
ebilme	-11.3096
▁ürper	-11.3097
▁Seninle	-11.3098
▁soyun	-11.3099
▁büyümesi	-11.3101
▁Resim	-11.3102
▁uygulamaya	-11.3102
▁acıyı	-11.3103
▁dergisinin	-11.3103
▁kemiği	-11.3103
Hayatım	-11.3104
▁Kab	-11.3107
▁Ceyhan	-11.3108
▁bilimin	-11.3108
cam	-11.311
▁olmanın	-11.3111
▁elementler	-11.3111
metre	-11.3112
▁pazarı	-11.3113
well	-11.3116
▁kuruluşları	-11.3118
mayacağım	-11.3118
▁Fethi	-11.3123
▁kışlar	-11.3123
▁gitse	-11.3124
▁yumuşa	-11.3125
▁alışveriş	-11.3126
▁pre	-11.3128
▁çözümü	-11.313
mezdim	-11.313
Doğ	-11.3132
ünden	-11.3133
önce	-11.3135
▁Kraliçe	-11.3136
▁ibret	-11.3136
▁piyade	-11.3136
▁Normal	-11.3137
▁müziğin	-11.3137
▁dağınık	-11.3137
▁vadiler	-11.3138
▁belirtilen	-11.3138
▁sarmal	-11.3138
▁vazgeçme	-11.3139
▁yükselmiştir	-11.3139
sö	-11.3139
laştırılması	-11.314
▁verdik	-11.3141
emediğim	-11.3141
▁Atom	-11.3142
▁koymuştur	-11.3142
▁gideli	-11.3143
▁olmasıyla	-11.3143
Güneşi	-11.3144
▁kariyerinin	-11.3144
▁gözlerimden	-11.3145
▁belirlenen	-11.3145
▁atılmıştır	-11.3145
▁rota	-11.3146
Birde	-11.3147
hoş	-11.3148
Gönlüme	-11.3149
▁kokusunu	-11.315
▁meçhul	-11.3151
▁ihtimal	-11.3151
Sahi	-11.3153
▁yeryüzü	-11.3154
tha	-11.3154
▁2015'	-11.3155
▁Persler	-11.3156
▁huzuru	-11.3156
▁yayınladığı	-11.3157
▁yaslan	-11.3157
▁Kör	-11.3158
▁şairler	-11.3159
▁kalmaya	-11.3159
▁dağıtım	-11.3164
gerçekleştirdiği	-11.3164
▁akşamlar	-11.3164
▁hacim	-11.3165
▁eyaleti	-11.3166
▁varsayım	-11.3166
öğretim	-11.3166
▁zorundadır	-11.3166
▁gördüğün	-11.3167
▁aklımı	-11.3168
▁oluşması	-11.3168
▁duydum	-11.3169
lâl	-11.3171
▁düzeltme	-11.3171
▁yarımada	-11.3171
▁Hititler	-11.3172
Kulak	-11.3173
▁rüzgarın	-11.3175
▁görüşlerini	-11.3177
og	-11.3177
klarında	-11.3178
Tutun	-11.3179
▁özlemin	-11.318
▁put	-11.318
▁dildir	-11.3182
▁faydalı	-11.3184
▁yazdığım	-11.3184
duy	-11.3184
▁bulunduğunu	-11.3185
▁Giriş	-11.3185
ges	-11.3186
▁çene	-11.3189
suzluğu	-11.3191
▁çektiğim	-11.3193
cum	-11.3195
emediği	-11.3195
Geliş	-11.3196
▁GNU	-11.3196
▁Majör	-11.3196
▁Smith	-11.3196
▁plastik	-11.3196
▁Jordan	-11.3196
▁Maxwell	-11.3196
nas	-11.3197
Etrafı	-11.3197
▁yayıldı	-11.3197
Gökyüzünde	-11.3198
▁pişmanlık	-11.3198
Fazla	-11.3199
▁yapılabilir	-11.3199
▁devral	-11.3199
▁tema	-11.3199
▁kayıtları	-11.3199
▁Akademi	-11.3199
▁görmedi	-11.32
▁Eu	-11.3202
▁köklü	-11.3202
▁tarafa	-11.3203
bert	-11.3204
▁gömüldü	-11.3204
▁şehrinin	-11.3204
Mahşer	-11.3205
▁mekanizma	-11.3205
▁temelleri	-11.3205
Uzan	-11.3206
âyet	-11.3207
▁sağlıklı	-11.3208
▁denli	-11.3208
▁çağlayan	-11.3208
▁Sus	-11.3208
▁anlattığı	-11.3208
gay	-11.3209
age	-11.321
içim	-11.321
▁çağında	-11.3211
▁tül	-11.3211
▁bebeğim	-11.3211
▁düşürme	-11.3213
▁üniversitenin	-11.3214
Orda	-11.3215
▁molekül	-11.3217
▁düzenlenmesi	-11.3217
sizce	-11.3218
▁anlaş	-11.322
▁Dokuz	-11.3221
▁bulursun	-11.3222
▁çalışmış	-11.3223
▁yazgı	-11.3226
▁yöneten	-11.3226
▁nefesin	-11.3226
▁gazı	-11.3226
▁haliyle	-11.3227
▁gönüle	-11.3227
masa	-11.3227
▁hukuku	-11.3228
▁niyaz	-11.3229
▁anımsa	-11.3232
▁Görev	-11.3232
▁edilmesini	-11.3232
▁pare	-11.3233
cuk	-11.3235
▁çıkarılması	-11.3235
▁Siyaset	-11.3236
yanlar	-11.3237
▁adındaki	-11.3237
▁çayı	-11.3237
▁Akıl	-11.3238
reti	-11.3239
▁tuzlu	-11.3239
▁kuzeye	-11.3239
▁Kapısı	-11.324
Düşlerim	-11.3241
▁türünün	-11.3241
▁kurudu	-11.3243
raj	-11.3243
▁ellerinden	-11.3243
▁ucuna	-11.3243
▁yayımlanma	-11.3244
▁şunları	-11.3244
▁taşar	-11.3244
▁(10	-11.3245
▁yönünü	-11.3247
Mevsimler	-11.3248
▁kaldırma	-11.3249
▁Polis	-11.325
▁Ortalama	-11.3251
Düzen	-11.3251
▁(5	-11.3252
düğün	-11.3252
Gözlerine	-11.3253
okul	-11.3253
Gö	-11.3255
-7	-11.3255
▁akvaryum	-11.3257
▁menekşe	-11.3257
▁sodyum	-11.3257
▁serseri	-11.3257
.000.000	-11.3258
▁AC	-11.3258
▁Moğolistan	-11.3258
▁patent	-11.3258
▁deyiş	-11.3259
▁görelilik	-11.326
▁Sabri	-11.326
▁baharda	-11.3262
▁tanımlanmıştır	-11.3262
▁çakal	-11.3266
▁bakışlı	-11.3266
▁Ford	-11.3267
cho	-11.3267
reb	-11.3268
Aklıma	-11.327
pir	-11.327
▁Kolordu	-11.327
▁çığlıkları	-11.3271
Kaldır	-11.3272
▁enflasyon	-11.3274
▁tartış	-11.3275
▁durup	-11.3276
▁kıtasının	-11.3276
▁Kader	-11.3279
▁Muş	-11.328
▁kokun	-11.328
▁Hürriyet	-11.328
▁Suud	-11.3281
▁aşkını	-11.3283
▁dilden	-11.3288
▁kişiyi	-11.3289
▁oluştururlar	-11.329
▁şubesi	-11.329
▁standardı	-11.3291
▁görünme	-11.3292
▁Hadi	-11.3292
▁gelmesin	-11.3293
lamıştı	-11.3294
▁boran	-11.3295
rol	-11.3296
▁DA	-11.3296
▁çekerim	-11.3297
Nefret	-11.3297
saçları	-11.3297
tırma	-11.3298
▁kenara	-11.3301
▁ormanlık	-11.3302
▁yıkılması	-11.3302
▁tükenme	-11.3303
▁yanından	-11.3304
özellikle	-11.3305
▁sanatçının	-11.3305
▁Valisi	-11.3306
Yoksul	-11.3307
▁çevril	-11.331
▁tanık	-11.3311
▁Ez	-11.3312
▁mecliste	-11.3312
Ağ	-11.3313
▁doğası	-11.3314
▁Anayasası	-11.3316
▁Mc	-11.3317
▁kıvılcım	-11.3318
▁Yörük	-11.3319
▁istihdam	-11.3319
▁çelişki	-11.3319
▁hakaret	-11.3319
▁ümmet	-11.3319
▁intikam	-11.3319
▁düşünülür	-11.332
▁sınıflandırıl	-11.3321
▁IPv	-11.3321
▁sağlanmaktadır	-11.3321
Kafa	-11.3322
▁volkanik	-11.3322
▁kadınlarda	-11.3326
▁Eb	-11.3326
▁Milano	-11.3326
▁eteklerinde	-11.3327
Kazan	-11.3328
▁ALLAH	-11.3328
▁evladı	-11.3329
meliyim	-11.333
âlet	-11.333
▁öğrenimi	-11.3332
tük	-11.3333
▁2016'	-11.3333
▁yazılımı	-11.3335
▁suyunu	-11.3336
▁Sait	-11.3336
▁tarafsız	-11.3337
yalan	-11.3339
▁eşitlik	-11.334
yürü	-11.3344
▁teorileri	-11.3344
▁ruhuma	-11.3346
▁ciğer	-11.3347
▁halin	-11.3347
▁sokaklarında	-11.3348
▁nitelendiril	-11.3351
▁köyleri	-11.3351
ulacak	-11.3353
yıldızlar	-11.3354
Gide	-11.3356
tizm	-11.3357
▁ziyaretçi	-11.3357
malıyız	-11.3357
▁yazında	-11.3358
Aşkım	-11.336
▁seneler	-11.3362
balık	-11.3364
▁kişiden	-11.3364
▁vermeyi	-11.3364
▁bununla	-11.3365
▁kapasiteli	-11.3366
▁SS	-11.3367
Azrail	-11.3367
▁yıkılır	-11.3368
Dertli	-11.3369
▁enstitü	-11.3369
Gu	-11.337
▁odur	-11.3371
Sizin	-11.3371
Yıllardır	-11.3371
▁bağlantılar	-11.3371
▁herkesi	-11.3372
▁yörede	-11.3375
seksüel	-11.3379
▁Cenevre	-11.338
▁nüfuz	-11.338
▁ümidi	-11.3381
▁uzağa	-11.3381
▁tahsil	-11.3381
Neler	-11.3382
▁beynin	-11.3383
▁bağırsak	-11.3383
▁kırgın	-11.3383
▁çember	-11.3384
▁kaynaklara	-11.3384
dö	-11.3384
▁Genelde	-11.3384
▁uğrayan	-11.3384
▁yayımlanmıştır	-11.3384
▁aşamasında	-11.3387
▁ayrılıp	-11.3387
▁manto	-11.3388
▁Abdal	-11.3389
jin	-11.339
Gökte	-11.339
▁Arka	-11.339
▁sesiyle	-11.3391
▁almadan	-11.3392
▁Tor	-11.3392
▁saçı	-11.3393
▁Hindu	-11.3395
▁Med	-11.3395
▁Edebiyatı	-11.3396
beli	-11.3397
▁Dü	-11.3397
Aydınlık	-11.3399
▁yoksulluk	-11.34
▁İslami	-11.3402
▁çektir	-11.3404
Fer	-11.3405
▁görmemiş	-11.3406
▁1890	-11.3407
▁VI	-11.3408
Tıpkı	-11.3409
iğin	-11.341
hî	-11.341
▁Sınıf	-11.3413
Özledim	-11.3414
mazsan	-11.3416
Kıy	-11.3417
▁gecem	-11.3418
stein	-11.3418
▁zorluk	-11.342
bot	-11.3421
▁toplanır	-11.3421
DI	-11.3421
¬‘	-11.3422
Gözüm	-11.3424
vel	-11.3426
Kalbimin	-11.3428
▁Arkadaş	-11.3429
Vakit	-11.343
▁sınırını	-11.3431
▁köye	-11.3432
▁1911	-11.3433
has	-11.3433
rıldı	-11.3433
▁mektuplar	-11.3434
▁mev	-11.3435
▁Kam	-11.3436
Zamanı	-11.3437
▁Mis	-11.3439
▁İstiklal	-11.344
▁yitir	-11.3441
▁ölçüm	-11.3442
▁dükkân	-11.3442
▁mesleği	-11.3442
▁Nevşehir	-11.3442
▁endüstriyel	-11.3443
▁erkeklerde	-11.3443
Ham	-11.3443
▁Yarışması	-11.3444
▁anlaşılmaktadır	-11.3445
▁bahseder	-11.3445
▁balı	-11.3445
▁yokken	-11.3446
Başı	-11.3447
▁Günler	-11.3449
▁eskisi	-11.3451
▁63	-11.3451
▁kuşun	-11.3453
▁yad	-11.3453
Coşku	-11.3454
▁Sad	-11.3456
Toz	-11.3456
Gözlerinin	-11.3456
▁dalgaları	-11.3457
▁Kuruluş	-11.3458
▁Kırgız	-11.3461
▁bırakmış	-11.3462
ahmet	-11.3464
▁sözüne	-11.3464
▁2-1	-11.3465
▁atılır	-11.3467
▁gittiler	-11.3467
▁dibine	-11.3468
Gözyaşlarım	-11.3469
ellerim	-11.3469
▁nesli	-11.3469
▁sayısında	-11.3469
▁1500	-11.347
▁bilerek	-11.3471
▁eserlerinin	-11.3472
▁hâline	-11.3472
▁bakınca	-11.3472
▁nerden	-11.3473
▁çalışmalara	-11.3473
▁Vur	-11.3473
SİN	-11.3475
▁kuruluşlar	-11.3475
▁sala	-11.3476
yaşam	-11.348
▁izlerini	-11.348
▁çevirme	-11.3482
▁Okyanus	-11.3488
▁sayısını	-11.3488
▁dalda	-11.3488
▁hakimiyet	-11.3489
▁çekilme	-11.3489
▁düzenlemeler	-11.3491
▁Geniş	-11.3492
▁büyüttü	-11.3492
▁cihazlar	-11.3493
▁konut	-11.3494
İçime	-11.3494
▁kalemim	-11.3495
▁Müttefik	-11.3495
▁Zamanla	-11.3495
▁Helen	-11.3497
red	-11.3497
▁etkisinde	-11.3498
▁Konstantin	-11.3499
▁Ac	-11.35
▁Anlat	-11.3501
▁zeka	-11.3501
▁bölgesindeki	-11.3502
▁turu	-11.3502
▁gaflet	-11.3505
▁Sadrazam	-11.3505
▁Horasan	-11.3505
▁radyoaktif	-11.3505
▁koala	-11.3505
▁hoşgörü	-11.3506
▁Harry	-11.3507
▁meltem	-11.3507
▁formu	-11.3508
▁koltuk	-11.3508
Temiz	-11.351
▁verdiğim	-11.351
▁aşkımı	-11.351
▁geçirerek	-11.351
▁Java	-11.351
▁seyreder	-11.3512
Ülke	-11.3513
▁fikirleri	-11.3514
▁benzet	-11.3515
▁oturma	-11.3515
▁ölmesi	-11.3517
▁1,5	-11.3518
▁delirmiş	-11.3518
yık	-11.3519
▁kıymetini	-11.3519
▁kavak	-11.3521
ışını	-11.3521
3,	-11.3521
▁gelirse	-11.3523
Mor	-11.3523
▁ray	-11.3526
▁kaşı	-11.3527
haf	-11.3527
▁bulundukları	-11.3529
▁uygula	-11.3531
roz	-11.3532
▁mayıs	-11.3535
▁nefsin	-11.3536
▁Ok	-11.3537
lerimin	-11.3539
ark	-11.3539
▁gölün	-11.354
meyince	-11.354
▁tablosu	-11.354
▁anlamını	-11.3541
▁Cin	-11.3541
▁çizgiler	-11.3542
sunun	-11.3543
▁şiddeti	-11.3545
▁söyledim	-11.3548
▁doz	-11.3548
▁erkeklerin	-11.3548
▁alıyordu	-11.355
▁lav	-11.355
▁çıkmasına	-11.355
▁Cahit	-11.3551
▁söndü	-11.3553
agon	-11.3554
ıç	-11.3555
Sokaklar	-11.3555
▁elmas	-11.3556
▁vermeden	-11.3559
▁kemir	-11.356
▁edilebil	-11.3561
▁Kalem	-11.3561
▁mavisi	-11.3562
▁titrer	-11.3563
▁verici	-11.3567
▁dikdörtgen	-11.3568
▁kalsiyum	-11.3568
▁müziğe	-11.3568
▁atölye	-11.3568
▁esaret	-11.3568
▁cıvıl	-11.3568
▁sakat	-11.3568
▁gösterilebilir	-11.3569
▁üzgün	-11.3569
▁elemanı	-11.3569
▁mezara	-11.3569
▁sonucuna	-11.3571
▁esin	-11.3571
▁sesle	-11.3572
▁Hareket	-11.3573
▁bakmaz	-11.3574
▁vurup	-11.3574
-14	-11.3577
Leyla	-11.3577
yev	-11.3579
▁çapı	-11.358
▁iskele	-11.358
▁yağlı	-11.3581
▁örgütü	-11.3582
▁istenen	-11.3583
▁Yeter	-11.3583
cular	-11.3584
Yuva	-11.3585
▁Georg	-11.3586
▁Sudan	-11.3586
Sevgiyi	-11.3588
▁yükünü	-11.3589
▁içindedir	-11.359
Titre	-11.3591
▁Karaman	-11.3591
irsin	-11.3592
▁bulurum	-11.3592
▁uzaklardan	-11.3592
oyun	-11.3593
▁uygulanır	-11.3595
▁Bulut	-11.3595
▁çırpın	-11.3595
▁başak	-11.3595
düğünü	-11.3595
▁800	-11.3596
▁düşmez	-11.3596
▁aydınlığı	-11.3596
▁kesik	-11.3596
▁bitiren	-11.36
▁dışarıdan	-11.3601
▁etmem	-11.3603
Ör	-11.3604
Kayıp	-11.3604
▁kâ	-11.3605
[...]
