<unk>	0
<s>	0
</s>	0
<pad>	0
¬	-2.45994
,	-3.57283
,¬	-3.81834
.¬	-3.99796
▁	-4.46277
▁bir	-4.53115
n	-5.34725
...¬	-5.4872
a	-5.52649
i	-5.53399
▁de	-5.54684
▁bu	-5.56945
lar	-5.59502
Bir	-5.64329
.	-5.65771
e	-5.73244
m	-5.73874
da	-5.77323
▁ne	-5.78289
▁gibi	-5.80326
▁da	-5.83965
▁ki	-5.85479
ı	-5.86897
ler	-5.89149
de	-5.90651
?¬	-5.98316
'	-5.98543
▁sen	-5.9868
▁var	-6.00211
▁ben	-6.07868
▁seni	-6.09372
’	-6.09862
▁her	-6.12308
▁ve	-6.14543
▁o	-6.15088
!¬	-6.16121
▁beni	-6.16694
dan	-6.18642
...	-6.2832
-	-6.29107
Ne	-6.29282
in	-6.30059
Bu	-6.33113
ın	-6.33987
la	-6.34357
▁sana	-6.34963
▁için	-6.36519
Sen	-6.38999
den	-6.39645
sın	-6.40068
le	-6.4203
sin	-6.45976
▁bana	-6.46942
▁çok	-6.47507
Her	-6.49661
Ben	-6.50382
▁gün	-6.52114
k	-6.52498
▁olur	-6.53494
▁kadar	-6.56399
▁yok	-6.56683
..¬	-6.59055
ya	-6.60774
;¬	-6.6089
ım	-6.61138
▁mi	-6.61411
im	-6.65407
▁hep	-6.66305
dır	-6.67996
▁benim	-6.6945
▁diye	-6.70061
▁zaman	-6.7182
sa	-6.71954
▁hiç	-6.72227
dir	-6.72313
ları	-6.73045
▁ile	-6.73224
▁mı	-6.74519
!	-6.75822
▁değil	-6.76708
li	-6.76718
▁güzel	-6.77972
O	-6.80385
▁olsun	-6.82684
▁bile	-6.83263
▁oldu	-6.86677
;	-6.88035
▁artık	-6.89175
leri	-6.89432
Ve	-6.89646
di	-6.90982
ne	-6.91632
ki	-6.91873
dı	-6.92375
ken	-6.94495
▁ya	-6.99409
▁senin	-7.00562
▁daha	-7.01839
Seni	-7.04401
ta	-7.0486
lı	-7.0634
bir	-7.06834
si	-7.08423
se	-7.09425
▁en	-7.12134
ma	-7.1325
sen	-7.14852
▁olan	-7.14868
ye	-7.17251
▁aşk	-7.1838
▁gönül	-7.19427
an	-7.20419
▁tek	-7.22191
lara	-7.25777
?	-7.25955
▁gece	-7.27085
▁an	-7.2716
ların	-7.27794
▁can	-7.29555
▁içinde	-7.31008
▁şey	-7.32102
tan	-7.33268
▁böyle	-7.33704
t	-7.34388
u	-7.34927
▁gelir	-7.35663
te	-7.35725
mış	-7.365
lerin	-7.36599
▁gel	-7.37063
sı	-7.37932
▁yine	-7.38695
san	-7.39043
▁dünya	-7.39616
na	-7.39627
▁son	-7.40371
▁bak	-7.40896
▁insan	-7.40965
▁gül	-7.41609
▁başka	-7.42771
dım	-7.43346
iz	-7.43868
sun	-7.44232
▁nasıl	-7.44515
nın	-7.44981
mak	-7.46972
mi	-7.47135
yi	-7.47465
um	-7.48701
▁yar	-7.49347
z	-7.49761
yı	-7.49891
lere	-7.5037
r	-7.5107
nin	-7.51136
dim	-7.52104
siz	-7.52589
Sana	-7.52649
lik	-7.52731
me	-7.53003
▁ol	-7.5332
tır	-7.53727
▁kara	-7.54543
▁mu	-7.55761
miş	-7.55858
..	-7.56446
ten	-7.58736
Ama	-7.58989
▁şu	-7.59049
ca	-7.59904
▁olsa	-7.60367
▁olmaz	-7.60394
sam	-7.61224
▁sevda	-7.61451
▁ama	-7.61742
▁şimdi	-7.62211
mı	-7.62963
ve	-7.63936
ız	-7.64345
Beni	-7.64411
sız	-7.65251
tir	-7.65352
lık	-7.66622
en	-7.66791
▁kaldı	-7.67903
un	-7.68112
▁sonra	-7.68185
▁Allah	-7.70564
▁al	-7.71325
ını	-7.72065
Hiç	-7.7222
▁hayat	-7.72417
ini	-7.73066
ce	-7.73572
din	-7.74669
l	-7.76232
▁acı	-7.76239
▁yol	-7.76243
▁göz	-7.76752
Senin	-7.77631
▁olmuş	-7.77947
▁dolu	-7.78363
ti	-7.78661
▁yer	-7.79099
▁sende	-7.79336
Ya	-7.79641
▁senden	-7.7989
s	-7.80185
▁oldum	-7.80457
Şimdi	-7.81054
▁der	-7.81439
Hep	-7.81466
En	-7.8148
▁iki	-7.8176
Çok	-7.82105
▁sevgi	-7.82675
Aşk	-7.83045
▁tüm	-7.83403
▁öyle	-7.83678
▁kan	-7.83922
▁ise	-7.84116
▁sanki	-7.84621
tı	-7.84658
o	-7.84813
yla	-7.84863
du	-7.85576
▁eder	-7.85796
larda	-7.86074
▁be	-7.86783
ni	-7.8682
▁geldi	-7.87
▁yerde	-7.87135
maz	-7.87239
▁el	-7.87254
▁ver	-7.87642
▁biz	-7.88128
Benim	-7.88398
▁yalan	-7.88867
bu	-7.88895
ü	-7.89107
▁su	-7.89958
▁büyük	-7.90544
ına	-7.90637
▁bin	-7.91252
▁işte	-7.91795
▁benden	-7.92301
▁vardı	-7.93243
dın	-7.93493
▁bende	-7.9355
▁gider	-7.93814
▁bütün	-7.94043
mek	-7.94329
dur	-7.94607
ben	-7.95336
▁sensiz	-7.96176
▁olup	-7.96565
ıp	-7.9665
▁et	-7.97215
▁zor	-7.98291
yle	-7.98306
Gel	-7.99064
acak	-7.99408
Belki	-7.99635
”	-8.00656
uz	-8.01422
Gönül	-8.01682
▁Bir	-8.01968
▁bize	-8.02286
▁ey	-8.02846
▁kaç	-8.03592
▁kar	-8.03866
ip	-8.04016
▁hasret	-8.04476
▁belki	-8.04568
▁yürek	-8.05239
▁yere	-8.05803
▁onu	-8.0671
▁yaz	-8.07037
▁yana	-8.07048
▁olmak	-8.07203
ine	-8.07221
▁kim	-8.07301
p	-8.08243
Bana	-8.08352
▁seninle	-8.08537
▁güneş	-8.0911
ır	-8.09237
ıyor	-8.09272
ında	-8.09424
▁yüreğim	-8.09721
▁çıkar	-8.10285
▁söyle	-8.10313
▁iyi	-8.10473
▁ömür	-8.10598
▁sevdiğim	-8.11249
▁dost	-8.11512
▁deli	-8.11838
Allah	-8.1199
▁doğru	-8.12469
lerde	-8.12807
▁hem	-8.13503
sem	-8.13712
nı	-8.14371
▁söz	-8.14455
▁mutlu	-8.14752
▁bizi	-8.14888
larını	-8.14939
▁ay	-8.14961
▁kalan	-8.15534
▁aşkın	-8.16046
▁bizim	-8.16747
▁bahar	-8.17167
▁kendi	-8.17611
▁dünyada	-8.17705
▁gerek	-8.17913
lu	-8.18341
▁kendini	-8.18821
Bazen	-8.19005
yim	-8.1901
▁neden	-8.19157
dik	-8.19409
▁boş	-8.19502
▁olacak	-8.19574
y	-8.19628
Şu	-8.19702
▁gitti	-8.20336
▁geçti	-8.20841
▁sevdim	-8.214
▁uzak	-8.21454
▁bilir	-8.21508
h	-8.21616
ş	-8.21716
▁damla	-8.21739
ir	-8.22156
her	-8.22319
İşte	-8.22441
▁vardır	-8.22592
▁varsa	-8.22726
▁gözlerin	-8.228
▁geri	-8.23281
▁inan	-8.23294
▁yalnız	-8.236
▁adam	-8.23761
larım	-8.24504
▁ilk	-8.24891
Kim	-8.25025
▁canım	-8.25552
▁yeni	-8.25992
dık	-8.26376
Yine	-8.26412
▁çocuk	-8.26617
▁yeter	-8.26681
yan	-8.26772
▁kez	-8.26851
Nasıl	-8.26857
▁kimse	-8.27859
Kimi	-8.28339
▁seviyorum	-8.28403
▁biraz	-8.28406
▁sakın	-8.28417
lerini	-8.28472
Ey	-8.28572
nda	-8.28723
▁ak	-8.28937
▁önce	-8.30051
Ah	-8.30071
Sonra	-8.31052
▁ona	-8.31203
▁gönlüm	-8.31216
▁gelen	-8.31378
▁aç	-8.31474
.....	-8.31484
▁ta	-8.31617
▁aynı	-8.31827
inde	-8.32281
▁şiir	-8.32286
ün	-8.32403
Dünya	-8.32711
▁ölüm	-8.3277
▁ara	-8.32956
İnsan	-8.3306
Sensiz	-8.3334
lardan	-8.33361
Artık	-8.33485
Öyle	-8.33531
▁hüzün	-8.33669
Bak	-8.34347
d	-8.34445
▁sabah	-8.34946
maya	-8.35145
Sanki	-8.35401
Sevgi	-8.3542
▁gördüm	-8.3545
▁kalır	-8.36012
Bütün	-8.36126
▁istiyorum	-8.36396
▁sevgili	-8.36416
▁gözlerim	-8.36505
muş	-8.36993
Gül	-8.37059
▁mü	-8.37134
▁gülüm	-8.37283
▁dedim	-8.37516
▁türlü	-8.38621
▁az	-8.38754
▁ister	-8.38785
lerden	-8.38841
▁anne	-8.38876
arak	-8.38987
▁geçer	-8.39252
▁yara	-8.39587
▁derin	-8.39687
▁ayrı	-8.39742
▁ah	-8.39855
▁etme	-8.39867
▁asla	-8.40262
▁baş	-8.40282
▁git	-8.40424
▁aşkı	-8.4054
▁içimde	-8.40561
Biz	-8.40951
Gün	-8.41076
▁at	-8.41095
▁bil	-8.41102
▁yağmur	-8.41288
yım	-8.41313
Al	-8.41788
▁nedir	-8.41805
▁nefes	-8.41879
▁taş	-8.42565
▁karşı	-8.42773
▁sensin	-8.42783
Daha	-8.42895
▁yıl	-8.43207
larında	-8.43407
▁hala	-8.4345
▁misali	-8.43479
Sevda	-8.44063
▁garip	-8.44265
Hayat	-8.44944
▁karanlık	-8.45064
mez	-8.45219
Hani	-8.45532
▁ateş	-8.46004
▁üstüne	-8.46048
▁misin	-8.46165
▁eden	-8.46332
▁bilmez	-8.46371
▁yüz	-8.46474
▁eğer	-8.46528
▁sadece	-8.46557
▁dert	-8.46867
▁tatlı	-8.4692
▁umut	-8.47423
▁gerçek	-8.47459
dum	-8.47476
▁gör	-8.48266
sün	-8.48503
▁kalmadı	-8.48723
▁geçen	-8.48796
lerim	-8.49137
İki	-8.49218
▁“	-8.49264
ci	-8.4963
▁ha	-8.49643
▁adım	-8.49722
seni	-8.4992
▁toprak	-8.5028
ecek	-8.50349
Kara	-8.50355
larına	-8.50468
▁yoktur	-8.50507
▁kul	-8.50841
▁yakın	-8.51146
dür	-8.51365
▁kat	-8.51798
sini	-8.51872
alım	-8.52004
▁ağlar	-8.5206
▁oldun	-8.52087
Can	-8.52104
Son	-8.52107
Neden	-8.52311
▁kız	-8.52378
sını	-8.52592
▁geliyor	-8.52605
▁dedi	-8.52742
Senden	-8.52779
▁çiçek	-8.53088
▁hayal	-8.53227
larla	-8.53323
▁giden	-8.53401
▁hak	-8.5361
Tek	-8.53689
▁biri	-8.5378
ydi	-8.54123
▁geç	-8.54123
▁kal	-8.54127
iyor	-8.54482
▁beyaz	-8.54526
▁Türk	-8.5516
▁verir	-8.55309
▁akşam	-8.55485
▁hoş	-8.55658
ıyorum	-8.56407
▁durur	-8.56527
▁bırak	-8.57063
▁kör	-8.57096
▁bugün	-8.57372
▁bazen	-8.57382
▁eski	-8.57636
▁bilmem	-8.57671
▁yaşamak	-8.57966
▁vatan	-8.58252
Böyle	-8.5842
▁düştü	-8.58607
Gece	-8.58837
▁dağlar	-8.59327
....¬	-8.59329
▁ana	-8.59373
Hem	-8.59504
▁dur	-8.59546
▁yaş	-8.59671
ama	-8.59753
▁yoksa	-8.60638
....	-8.6068
▁kor	-8.60776
▁yan	-8.60883
Tüm	-8.6113
ç	-8.6139
▁etti	-8.61539
Hak	-8.61611
Zaman	-8.61766
▁kadın	-8.61831
madan	-8.61992
▁uzun	-8.62006
lerle	-8.62061
▁sevgilim	-8.62078
▁veren	-8.62103
▁anda	-8.62204
▁kendimi	-8.6245
▁altında	-8.62583
ar	-8.62972
▁değer	-8.63153
nde	-8.63184
▁aşka	-8.63353
▁yanar	-8.63635
▁üç	-8.63691
▁onun	-8.63778
El	-8.64253
imi	-8.64256
mu	-8.64297
▁diyor	-8.64491
üm	-8.64515
▁kalmış	-8.64618
:	-8.64667
er	-8.64715
▁selam	-8.6522
▁edip	-8.65489
▁ağır	-8.65539
▁kendine	-8.65936
Güzel	-8.66018
▁göre	-8.66166
▁ele	-8.66218
▁kere	-8.66332
"	-8.66521
Acı	-8.66711
▁insanlar	-8.66757
▁ışık	-8.66798
▁geldim	-8.66832
al	-8.6696
▁aşık	-8.66977
ak	-8.67012
▁bunu	-8.67456
sak	-8.67664
▁beş	-8.67879
▁günü	-8.67918
▁ettim	-8.6809
▁bitti	-8.68368
▁'	-8.68397
▁belli	-8.68418
Söyle	-8.68598
Çünkü	-8.69394
malı	-8.69529
Göz	-8.69689
▁oluyor	-8.69738
▁bi	-8.69744
Yok	-8.69788
▁kalbim	-8.69963
▁alır	-8.69969
▁baba	-8.69981
▁gittin	-8.70042
lerine	-8.70175
▁yanında	-8.70541
▁boyu	-8.70637
▁sevmek	-8.70697
▁dört	-8.70706
▁yakar	-8.70842
▁deniz	-8.7089
▁şeyi	-8.71045
▁seven	-8.71111
Kendi	-8.71137
su	-8.71179
▁ses	-8.71205
ydı	-8.71294
▁yeri	-8.71342
daki	-8.7185
▁sesi	-8.71975
▁alıp	-8.72001
▁olmayan	-8.72068
▁düşer	-8.72103
▁yolu	-8.72333
b	-8.72338
▁dal	-8.72424
ımı	-8.7261
▁yeniden	-8.72915
▁dile	-8.72945
▁mavi	-8.72949
Var	-8.73218
Seninle	-8.73465
/	-8.73689
Yoksa	-8.73772
Ay	-8.73863
▁akan	-8.74037
▁gelecek	-8.74106
sana	-8.74507
Kaç	-8.74555
▁günler	-8.74565
▁döner	-8.74798
▁kolay	-8.74966
▁bal	-8.75559
▁biter	-8.75588
Güneş	-8.7568
▁tam	-8.7576
inden	-8.75794
▁bakar	-8.75801
amadım	-8.75828
▁demek	-8.75907
▁diyorum	-8.76015
)	-8.76127
▁kötü	-8.76199
▁yüce	-8.76343
sına	-8.76347
Aşkın	-8.7655
▁dar	-8.76644
mız	-8.76937
▁para	-8.76946
sinde	-8.76971
▁başına	-8.77203
▁sev	-8.77214
deki	-8.77368
sine	-8.77389
▁ayrılık	-8.77467
▁gözler	-8.77668
▁sonu	-8.77913
g	-8.78027
v	-8.78033
▁düşün	-8.78049
acağım	-8.78164
▁ince	-8.78194
f	-8.78338
▁haber	-8.78378
▁sıra	-8.78518
▁huzur	-8.78551
▁elbet	-8.78745
lanır	-8.78902
up	-8.78967
c	-8.79113
▁gelip	-8.79212
meye	-8.79351
▁açık	-8.79486
▁akar	-8.79515
▁dünyaya	-8.79524
▁yanımda	-8.79557
ayım	-8.79643
▁çare	-8.79846
▁sor	-8.79849
cı	-8.8011
▁nerde	-8.80148
Herkes	-8.80267
▁kaldım	-8.80357
▁eyle	-8.80436
▁terk	-8.80923
tim	-8.80948
▁olma	-8.81233
at	-8.81289
ımız	-8.8131
▁çile	-8.8183
▁etmez	-8.81933
Oysa	-8.8199
▁ettin	-8.82053
miz	-8.82284
▁iş	-8.82331
▁dostum	-8.82349
▁olmalı	-8.82596
▁olmadı	-8.82697
▁küçük	-8.82733
▁gelmez	-8.82734
▁sessiz	-8.82825
▁er	-8.82857
▁düşman	-8.83202
ından	-8.83255
lığı	-8.83268
▁yerine	-8.83314
Hangi	-8.83343
iyorum	-8.8336
imiz	-8.83389
▁tut	-8.83513
▁kimi	-8.83725
Gözlerim	-8.84204
▁arasında	-8.84241
Dost	-8.84344
▁bulur	-8.84515
▁dil	-8.84657
▁adı	-8.85229
Sende	-8.85695
sında	-8.86069
mıyor	-8.86241
dığım	-8.86294
▁hal	-8.86386
▁mutluluk	-8.86417
▁iken	-8.86424
▁güller	-8.86532
▁herkes	-8.86535
▁içine	-8.87125
▁soğuk	-8.87302
▁koca	-8.87796
▁!¬	-8.87816
Hasret	-8.87902
▁yap	-8.87908
▁gözüm	-8.87915
▁başlar	-8.87962
▁fazla	-8.87991
▁İstanbul	-8.88058
▁kış	-8.88063
Yar	-8.88071
▁gitme	-8.88096
lerinde	-8.88155
▁dağ	-8.88178
▁hiçbir	-8.88332
▁yeşil	-8.88704
▁Ne	-8.88772
erek	-8.88857
mayı	-8.88926
luk	-8.89047
tin	-8.89269
▁yıllar	-8.89622
▁zalim	-8.9016
▁yola	-8.90393
▁rüzgar	-8.90419
▁yavaş	-8.90477
▁gidiyor	-8.90549
liği	-8.90831
Bırak	-8.90902
▁yâr	-8.91119
▁alev	-8.91235
tur	-8.91364
Yüreğim	-8.91396
İnan	-8.91567
nun	-8.91727
ndan	-8.91917
▁birlikte	-8.91981
▁iç	-8.91998
▁kır	-8.92076
▁kuş	-8.92198
▁uğruna	-8.92288
▁neler	-8.92294
▁Sen	-8.92342
▁düşen	-8.92418
▁kalp	-8.9242
▁denen	-8.92474
▁mısın	-8.92485
▁gönlüme	-8.92489
▁bayram	-8.92529
Kan	-8.92545
▁Bu	-8.92743
▁bekler	-8.92785
▁anlat	-8.92789
il	-8.92808
▁gizli	-8.92934
▁bitmez	-8.92954
Yaz	-8.93079
▁yolda	-8.93323
▁yüreğime	-8.93344
▁birer	-8.93446
▁nice	-8.93525
▁olduğunu	-8.93711
kar	-8.9373
▁yıldız	-8.943
ka	-8.9433
▁aldı	-8.9453
Sadece	-8.94784
Bin	-8.94817
▁arar	-8.95195
ra	-8.95217
▁derdi	-8.95336
▁üstünde	-8.9536
İyi	-8.95423
▁düş	-8.95465
▁gündüz	-8.95488
▁yazar	-8.95586
▁gurbet	-8.95717
▁duman	-8.95817
amam	-8.95836
▁sel	-8.95852
▁sal	-8.95885
▁gözü	-8.96288
▁dua	-8.96334
▁zaten	-8.96479
Aç	-8.9656
▁parça	-8.96667
lü	-8.96669
elim	-8.9677
ik	-8.96811
▁güle	-8.97107
▁cennet	-8.97134
Ak	-8.97382
Ölüm	-8.97397
▁on	-8.97463
▁sıcak	-8.97487
▁kana	-8.97519
▁özledim	-8.97646
▁güne	-8.97708
iyle	-8.97782
yken	-8.97801
tu	-8.97805
man	-8.97859
lan	-8.9813
▁sonunda	-8.98272
▁!	-8.98469
▁kül	-8.98629
▁musun	-8.98794
▁yaprak	-8.98855
▁açar	-8.98863
▁elinde	-8.98896
▁kurban	-8.99031
▁kendime	-8.99042
amaz	-8.99129
▁yollar	-8.99251
▁varsın	-8.99273
▁keder	-8.99422
ınca	-8.9943
▁yaşam	-8.99492
▁vakit	-8.99494
▁söyler	-8.99661
▁zamanı	-8.99663
▁millet	-8.99839
▁biliyorum	-8.99885
İlk	-8.99973
min	-9.00361
▁taşı	-9.00473
Su	-9.00618
▁kader	-9.00638
▁değilim	-9.00651
mayan	-9.00815
Yalan	-9.00874
çe	-9.00942
▁yüreğimde	-9.00998
▁adını	-9.01056
▁yoksun	-9.01168
▁beri	-9.01392
▁yaşa	-9.01648
▁sanma	-9.01696
tım	-9.02207
▁yolunda	-9.02354
▁gözleri	-9.02396
Başka	-9.02594
▁tak	-9.02599
Kimse	-9.02811
▁olmasın	-9.02861
▁şehir	-9.03028
▁olursun	-9.03074
▁say	-9.03131
meden	-9.0325
▁vakti	-9.03286
mayın	-9.03399
Yeni	-9.03512
Yalnız	-9.03553
Nice	-9.03608
▁geceler	-9.03666
▁kuru	-9.03673
▁hepsi	-9.04004
▁hemen	-9.04156
▁deme	-9.04193
▁dem	-9.04215
▁arkadaş	-9.04384
▁defa	-9.04784
▁doldu	-9.04815
▁verdim	-9.04852
▁yorgun	-9.04977
▁derler	-9.05101
▁yaşar	-9.05122
ur	-9.05207
dü	-9.05227
▁dinle	-9.05259
▁beraber	-9.05298
▁başında	-9.05354
Bende	-9.05924
▁yüreğimi	-9.06011
▁ser	-9.06043
▁dediğin	-9.06046
▁çeker	-9.06157
miyor	-9.06183
meyen	-9.06198
▁dünyanın	-9.06249
▁ediyor	-9.06389
▁/	-9.06431
▁hangi	-9.06433
▁isterim	-9.06594
▁unutma	-9.06723
▁dön	-9.07138
▁sol	-9.07221
▁onlar	-9.07287
tik	-9.07392
Türk	-9.07395
▁şeyler	-9.07638
▁nur	-9.07664
▁başa	-9.0777
▁bülbül	-9.07781
İçimde	-9.07831
suz	-9.07921
kan	-9.07948
▁hece	-9.07991
▁desem	-9.08032
▁deyip	-9.08064
ba	-9.0817
▁sağ	-9.08173
Bugün	-9.0837
▁Ben	-9.08461
▁olsan	-9.08597
dun	-9.08642
Yeter	-9.08816
nu	-9.08838
▁mevsim	-9.08892
▁verdi	-9.08894
ğ	-9.08906
▁ayak	-9.09208
▁boşa	-9.09685
▁içime	-9.09873
el	-9.10016
▁derim	-9.10033
▁geldin	-9.10252
▁niye	-9.10265
▁gelin	-9.10469
▁başı	-9.10477
▁anam	-9.10529
▁kalsın	-9.10667
▁derman	-9.10731
▁etmek	-9.10769
▁hava	-9.10842
▁koy	-9.10879
▁yüzüne	-9.10952
▁uyan	-9.11115
▁olsam	-9.11141
▁olmuyor	-9.11318
Gözlerin	-9.11663
▁derde	-9.11681
Yağmur	-9.11682
▁senle	-9.11703
▁sar	-9.11746
▁akıl	-9.11796
▁yanan	-9.1182
▁sözü	-9.12109
▁gözlerini	-9.12185
î	-9.12208
▁isyan	-9.12391
▁başıma	-9.12626
▁olduk	-9.12661
dığı	-9.12807
Vatan	-9.12885
▁dik	-9.12989
▁kalem	-9.13018
unu	-9.13207
▁güzelim	-9.13257
▁çıktı	-9.13372
beni	-9.13389
:¬	-9.13792
▁beden	-9.13802
▁dostlar	-9.13878
Üç	-9.13913
▁yüzü	-9.14008
gi	-9.14059
Onu	-9.14062
▁çık	-9.14301
Onun	-9.14315
▁şair	-9.1432
▁dediler	-9.14353
Biraz	-9.14385
▁yanım	-9.14448
▁toprağa	-9.14724
▁gelsin	-9.14728
▁önünde	-9.15089
▁hani	-9.15181
▁kişi	-9.15276
▁bakıp	-9.15476
larımı	-9.1548
▁tutar	-9.15617
can	-9.15829
Sakın	-9.16107
bil	-9.16189
▁gözlerine	-9.16255
▁pek	-9.1641
▁a	-9.16416
Bil	-9.16578
Ömür	-9.16595
▁insanı	-9.16599
Boş	-9.16739
▁cana	-9.16764
hiç	-9.16766
▁idi	-9.16892
▁karar	-9.16967
▁eser	-9.16973
Deli	-9.16991
▁inat	-9.17001
Eğer	-9.17007
mda	-9.17124
▁dersin	-9.17149
▁bilirim	-9.17205
Yıllar	-9.17241
▁yedi	-9.17356
▁buldum	-9.17397
lenir	-9.17469
▁canı	-9.17491
▁dilim	-9.17537
▁şarkı	-9.17622
re	-9.17639
hep	-9.17795
▁diyen	-9.17818
▁derken	-9.17842
▁annem	-9.1791
▁yerinde	-9.17927
▁vermez	-9.18005
▁yapar	-9.1802
▁geçiyor	-9.18096
▁buz	-9.18224
▁olmadan	-9.18267
tın	-9.18316
▁Hak	-9.1846
▁vurur	-9.18509
▁rahat	-9.18587
▁sır	-9.18609
gel	-9.18693
▁savaş	-9.18694
et	-9.18745
amıyorum	-9.18824
▁ardından	-9.18895
ran	-9.18964
▁hayata	-9.19056
▁sever	-9.19233
▁yüzün	-9.19261
▁ağlıyor	-9.19315
▁anlar	-9.19551
▁gök	-9.19929
▁alın	-9.19993
▁yanı	-9.2007
ması	-9.20135
▁eller	-9.20191
▁yanlış	-9.20208
▁kanat	-9.20302
▁mezar	-9.20372
▁bul	-9.20385
▁ar	-9.20414
¬.....	-9.20432
▁sevdam	-9.2044
be	-9.20455
▁perde	-9.20559
▁güven	-9.20621
▁aklıma	-9.20763
▁zehir	-9.211
ça	-9.211
Onlar	-9.21158
▁olarak	-9.21179
▁yalnızlık	-9.2127
▁yaşı	-9.21401
▁istedim	-9.21408
▁alan	-9.21473
▁dünyayı	-9.21501
▁..¬	-9.21653
Söz	-9.21687
▁size	-9.21822
▁eş	-9.2184
üz	-9.21996
ek	-9.22089
Mutluluk	-9.22132
▁dün	-9.22144
▁yoktu	-9.2218
▁bakan	-9.22191
layan	-9.22221
mam	-9.22369
▁nerede	-9.2246
Ayrılık	-9.22462
▁gözlerinde	-9.22504
▁yarim	-9.22539
▁ekmek	-9.22691
▁diz	-9.22699
▁kalbime	-9.22706
Ara	-9.22707
▁buna	-9.22859
▁yanıyor	-9.22959
▁rüya	-9.2303
Kendini	-9.23048
br	-9.23058
▁bırakıp	-9.23224
▁yetmez	-9.23237
▁bas	-9.23272
▁sözler	-9.2348
acaksın	-9.23496
masın	-9.23563
▁kalmaz	-9.2365
▁sarı	-9.23694
▁olurum	-9.23696
▁nede	-9.23709
▁sil	-9.23795
dığın	-9.23837
▁yoluna	-9.23846
▁yarar	-9.23942
▁aş	-9.23945
▁kırık	-9.23951
ah	-9.23993
▁vur	-9.24026
ay	-9.24421
▁gelince	-9.24575
▁aşkım	-9.24579
Kar	-9.24602
madım	-9.24605
za	-9.24683
▁elinden	-9.24687
Bizim	-9.24734
▁hayatın	-9.24762
▁anı	-9.24796
▁kardeş	-9.2509
▁döndü	-9.25099
▁gülü	-9.25107
▁yudum	-9.25133
▁diyerek	-9.25153
▁fark	-9.25305
nden	-9.25346
▁eli	-9.2536
▁işi	-9.25463
eceğim	-9.25475
▁benzer	-9.25546
mışım	-9.2569
▁sonsuz	-9.2569
Kalbim	-9.25695
ey	-9.25792
ıyla	-9.25809
ha	-9.25886
▁gecenin	-9.25894
Kul	-9.2591
▁beter	-9.2595
▁yarım	-9.26042
meyi	-9.26084
▁saf	-9.262
▁kokusu	-9.26355
Bilmem	-9.26394
▁düştüm	-9.26463
▁kuşlar	-9.26719
emedim	-9.26719
ıma	-9.26736
▁renk	-9.26904
▁açan	-9.26936
Karanlık	-9.26936
▁yanına	-9.2699
▁duy	-9.27
yu	-9.27044
▁haram	-9.27235
▁dek	-9.27254
▁hele	-9.27367
dıkça	-9.27369
▁gayrı	-9.27443
▁çiçekler	-9.27457
▁kur	-9.27525
▁"	-9.27532
müş	-9.27628
lanmış	-9.27667
bi	-9.2779
yiz	-9.27799
ver	-9.27916
mis	-9.27922
▁unut	-9.27938
▁yerden	-9.27947
yız	-9.28013
▁yüzden	-9.28055
▁güç	-9.28055
▁bilen	-9.28086
▁şehit	-9.28137
▁ateşi	-9.28142
▁kazan	-9.28191
sek	-9.28339
▁kol	-9.28355
.....¬	-9.28404
▁derdim	-9.28448
ılır	-9.28493
Gerçek	-9.28495
aşk	-9.286
▁atar	-9.28615
▁burada	-9.28673
Yol	-9.2878
Gönlüm	-9.2879
ri	-9.28792
▁giderken	-9.28853
gün	-9.28986
▁lazım	-9.29085
▁bey	-9.29178
▁hesap	-9.29326
yse	-9.29366
▁bekle	-9.29446
▁çocuklar	-9.29485
▁kalbimi	-9.29518
üp	-9.29545
▁tekrar	-9.29559
▁gören	-9.29594
▁yüzünü	-9.29605
▁değildir	-9.29738
▁babam	-9.29781
▁giderim	-9.29824
uyor	-9.29902
diği	-9.2994
▁gelmiş	-9.30153
▁varken	-9.30265
▁göze	-9.3034
▁sesini	-9.30353
Doğru	-9.3044
▁öz	-9.30449
▁yüreği	-9.30481
▁gam	-9.30524
▁aldım	-9.30733
▁rengi	-9.30952
Dört	-9.31003
▁siz	-9.3113
em	-9.31294
''	-9.31336
▁aman	-9.31505
makta	-9.31529
▁düşmüş	-9.31548
▁aslında	-9.31585
▁içim	-9.31654
madı	-9.31662
am	-9.31663
▁kime	-9.3169
meli	-9.31734
▁gidiyorum	-9.31785
At	-9.31894
▁doğar	-9.31899
(	-9.31992
larından	-9.31998
▁yaşlar	-9.32002
▁başını	-9.32007
ıl	-9.32042
▁kimseye	-9.3208
▁gönlümü	-9.32119
eyim	-9.32122
Aynı	-9.32155
▁masum	-9.32209
▁insana	-9.32359
▁hayatı	-9.32527
▁saklı	-9.32651
▁çıkmaz	-9.32692
▁benimle	-9.32763
▁özlem	-9.32961
▁boyun	-9.33027
▁çay	-9.33073
Mutlu	-9.33155
▁gönlümde	-9.33158
va	-9.33319
▁derdin	-9.3336
▁bakma	-9.3348
▁olunca	-9.33503
ür	-9.33566
▁çekip	-9.33577
çok	-9.33698
senin	-9.33831
▁yak	-9.3386
▁göster	-9.33884
▁güzeli	-9.3404
▁yazık	-9.34052
▁iz	-9.3425
▁siyah	-9.34311
¬“	-9.34394
ince	-9.34406
diğin	-9.34523
Şiir	-9.34584
▁olduğu	-9.34672
▁kapı	-9.34745
▁yakan	-9.348
▁saat	-9.34803
▁gibiyim	-9.34833
▁ağlama	-9.34842
yen	-9.34861
lerinden	-9.34928
▁hakkı	-9.35033
▁gözyaşı	-9.35065
▁zamanlar	-9.35081
lığın	-9.35204
▁oku	-9.35218
A	-9.35428
▁getir	-9.35484
▁gezer	-9.35505
▁görmek	-9.35542
Önce	-9.35543
▁hazır	-9.3555
Az	-9.35757
▁boşuna	-9.35791
▁birden	-9.35834
▁daim	-9.35835
▁ok	-9.35964
▁bedenim	-9.36018
iş	-9.36136
larımız	-9.36159
▁yazı	-9.36182
▁yarın	-9.36215
Tut	-9.36247
Gör	-9.36432
Hala	-9.36492
▁helal	-9.36497
sinden	-9.36535
▁ancak	-9.36559
▁ondan	-9.36622
Hiçbir	-9.3668
▁günde	-9.36692
gül	-9.36908
▁bunlar	-9.36922
▁çaresiz	-9.36992
▁bulut	-9.37048
▁farklı	-9.37049
liğin	-9.37092
▁Ey	-9.37124
ə	-9.37126
amazsın	-9.37168
▁elde	-9.3721
▁sabır	-9.37214
▁kelime	-9.37258
▁öte	-9.37412
▁nazlı	-9.37437
▁günün	-9.37439
ımda	-9.37442
▁hata	-9.37453
İnsanlar	-9.37473
▁istersen	-9.37517
▁devam	-9.37636
Hayal	-9.37694
Hadi	-9.37698
▁yüzüme	-9.37718
▁anla	-9.3778
▁yazdım	-9.37847
Umut	-9.37999
▁adına	-9.38037
Ana	-9.38167
▁yolun	-9.38247
▁yüreğin	-9.38271
▁görmez	-9.3829
bak	-9.38335
▁görür	-9.38344
Biliyorum	-9.38346
▁hayır	-9.38362
▁kırmızı	-9.38376
ılan	-9.38412
▁güneşi	-9.38557
▁sözüm	-9.38651
▁temiz	-9.38705
▁bırakma	-9.38756
▁vurdu	-9.38771
▁türkü	-9.3891
▁kurşun	-9.38919
mde	-9.38985
tık	-9.39005
▁geriye	-9.39011
▁sahibi	-9.39017
Hele	-9.39031
oğlu	-9.39129
▁yaşlı	-9.39132
▁yat	-9.39137
lerimi	-9.39183
▁hasta	-9.39322
İster	-9.39558
▁şeye	-9.39676
▁geçmiş	-9.39716
maktan	-9.39973
▁durma	-9.4033
▁kızı	-9.40378
Seven	-9.40381
▁dolan	-9.40494
▁olursa	-9.40508
▁eksik	-9.40517
Ol	-9.40681
▁durmadan	-9.408
▁in	-9.40839
Biri	-9.40918
▁sorma	-9.41097
▁kısa	-9.41238
▁ömrüm	-9.41255
▁oğul	-9.41324
emem	-9.4134
▁düşünce	-9.41368
▁kopar	-9.41584
lama	-9.41777
▁güler	-9.41796
▁ev	-9.41797
diğim	-9.41802
▁alem	-9.41802
▁kafa	-9.41923
şimdi	-9.41935
ysa	-9.41943
▁baktım	-9.41984
▁duygu	-9.4211
▁genç	-9.42247
▁orada	-9.424
▁gir	-9.42417
liğe	-9.42417
▁oyun	-9.42436
layıp	-9.4244
▁kalbi	-9.42458
▁zulüm	-9.42485
▁neşe	-9.42549
▁erken	-9.42598
▁imiş	-9.42617
▁bilinmez	-9.42637
benim	-9.42709
▁duvar	-9.42941
▁çek	-9.42979
▁gonca	-9.43016
▁diyorsun	-9.43068
▁cümle	-9.43073
Büyük	-9.43079
▁sızı	-9.43183
▁sahip	-9.43235
▁günleri	-9.43275
▁yıldızlar	-9.43276
▁suyu	-9.43351
Sev	-9.43392
casına	-9.43449
acı	-9.43572
Benden	-9.43844
lük	-9.43945
ga	-9.43953
▁isen	-9.43986
tek	-9.43997
▁candan	-9.44011
▁orda	-9.44244
▁(	-9.44267
▁te	-9.44297
▁kalma	-9.44375
▁fırtına	-9.44416
Kader	-9.44474
▁bunca	-9.44496
▁dalga	-9.44515
larıyla	-9.44529
▁insanın	-9.4454
▁şeytan	-9.44545
▁varmış	-9.44571
duk	-9.4474
Canım	-9.44759
▁ruh	-9.44777
▁adın	-9.4487
lıyor	-9.44886
▁gemi	-9.44908
lığa	-9.44998
▁gitsin	-9.45024
Sanma	-9.45038
sından	-9.45121
▁bulutlar	-9.45126
▁gibisin	-9.45178
Git	-9.45191
▁başım	-9.45392
▁yabancı	-9.4554
▁fani	-9.45625
▁tadı	-9.45689
▁sevdanın	-9.45732
▁ruhum	-9.45774
▁veda	-9.45882
Baş	-9.45924
landı	-9.46113
Bahar	-9.46174
▁desen	-9.46199
▁karış	-9.46287
▁sarar	-9.46383
▁saygı	-9.46398
▁yaralı	-9.46445
▁almış	-9.46685
çi	-9.46704
▁Her	-9.46757
▁tel	-9.46757
▁yaşıyorum	-9.46787
Eski	-9.46802
Dön	-9.4682
▁Ali	-9.4689
Yürek	-9.46915
Ateş	-9.46925
Aşkı	-9.46966
▁ter	-9.47032
▁dağları	-9.47082
▁aşkına	-9.47107
▁zarar	-9.47171
▁kabul	-9.47176
▁çıkan	-9.47238
▁verdin	-9.47291
▁vefasız	-9.47297
▁din	-9.47378
mayacak	-9.47384
mü	-9.47451
▁sular	-9.47455
▁naz	-9.47594
Toprak	-9.47736
▁sarhoş	-9.47784
▁olayım	-9.47833
An	-9.47885
Ha	-9.47963
tü	-9.47964
Zor	-9.48018
▁ellerin	-9.48081
▁verme	-9.48115
▁perişan	-9.48122
▁yapan	-9.48164
▁çoktan	-9.48219
▁ediyorum	-9.48226
▁iman	-9.48232
Kız	-9.48366
▁hayaller	-9.48367
lak	-9.48568
emez	-9.48575
Akıl	-9.48587
lerimiz	-9.48619
Tam	-9.48832
▁şiirler	-9.48836
▁-	-9.48874
▁dahi	-9.48923
Bizi	-9.49046
▁ederim	-9.49064
Yüreğimde	-9.49104
Adam	-9.49139
▁olmasa	-9.4918
▁barış	-9.4921
▁bayrak	-9.49244
inin	-9.49287
▁yerin	-9.49296
var	-9.49353
▁duran	-9.49407
▁yolunu	-9.4942
▁kokan	-9.49473
▁gözün	-9.49586
▁duruyor	-9.49623
▁ağla	-9.49624
▁bundan	-9.49763
▁kalacak	-9.49889
▁kırk	-9.50001
▁suç	-9.50026
Bize	-9.50076
▁gözlerime	-9.50097
▁kıl	-9.50229
yar	-9.50283
▁ortasında	-9.50285
▁diyar	-9.50332
Bülbül	-9.5038
▁tutan	-9.50433
ıyorsun	-9.50433
yıp	-9.50496
▁dönüp	-9.5053
▁hali	-9.50678
▁nefret	-9.50695
▁kardeşim	-9.50699
▁kaldır	-9.50816
▁dolar	-9.50819
▁uç	-9.5084
▁görünce	-9.50926
▁tanı	-9.51008
▁tat	-9.51014
Dert	-9.51079
▁melek	-9.51122
men	-9.51374
▁es	-9.51383
▁sık	-9.51455
▁yüzüm	-9.51542
▁as	-9.51542
▁san	-9.51568
Aşık	-9.51591
▁ellerim	-9.5162
▁toz	-9.51674
Hepsi	-9.5168
Ver	-9.51682
zi	-9.51807
▁sonbahar	-9.51888
▁masal	-9.51923
▁elini	-9.52027
▁köşe	-9.52157
▁tok	-9.52172
Evet	-9.52244
Yan	-9.52377
▁saç	-9.52394
▁kap	-9.52446
▁anladım	-9.52474
▁esen	-9.52546
Anne	-9.5263
Selam	-9.52793
▁soldu	-9.52797
▁acılar	-9.52891
▁severim	-9.52904
süz	-9.53021
cu	-9.53074
▁gözlüm	-9.53081
▁konuş	-9.53118
▁yel	-9.53185
▁ola	-9.53225
▁arıyorum	-9.53252
▁rahmet	-9.53393
▁kalbimde	-9.53436
Yer	-9.53437
dar	-9.53456
▁gitmek	-9.53457
ünü	-9.53533
▁aradım	-9.53543
▁bekliyorum	-9.53659
▁dair	-9.53686
bana	-9.53705
▁halde	-9.53721
Kır	-9.53722
▁bakın	-9.53752
İçinde	-9.53969
lanan	-9.54004
▁şükür	-9.54032
▁gardaş	-9.54068
Dur	-9.54177
larının	-9.54183
▁çift	-9.5439
▁duygular	-9.54579
▁bekliyor	-9.54602
▁iste	-9.54646
▁kızıl	-9.54701
sel	-9.54731
lenmiş	-9.54803
lim	-9.54863
belki	-9.55089
▁haz	-9.55115
▁sigara	-9.55115
Kör	-9.5514
▁bol	-9.55153
▁yangın	-9.55286
▁yandı	-9.55313
▁olurdu	-9.55334
▁bela	-9.55391
▁ağlarım	-9.55403
De	-9.55598
▁yüzünden	-9.55838
▁sardı	-9.55853
Nerde	-9.55855
▁meğer	-9.55999
▁i	-9.56091
▁har	-9.56098
yacak	-9.56105
▁bilmeyen	-9.56125
▁düzen	-9.56193
Yusuf	-9.56203
▁sevgiyi	-9.5627
▁diken	-9.56322
▁ellerini	-9.56385
▁gönlümün	-9.56477
▁üzerine	-9.56484
ilen	-9.56704
▁dayan	-9.5675
▁yollara	-9.56798
Taş	-9.56841
ana	-9.56963
▁bilmiyorum	-9.56964
misin	-9.57054
▁gitmez	-9.57093
üyor	-9.57162
ül	-9.57196
ze	-9.57224
▁öğren	-9.57229
▁çabuk	-9.57352
▁hazan	-9.57482
Dal	-9.57517
Dünyada	-9.57546
medi	-9.57592
▁günah	-9.57786
ol	-9.57812
▁üstüme	-9.57823
▁eline	-9.57832
der	-9.57845
▁yollarda	-9.57932
▁elimde	-9.57986
Düşün	-9.5799
bin	-9.58012
▁mal	-9.5803
▁yerini	-9.58098
aç	-9.58157
▁sene	-9.58167
▁sitem	-9.58307
▁başladı	-9.58326
ladım	-9.58337
▁çalış	-9.58397
len	-9.58421
İstanbul	-9.58466
is	-9.58487
Hayatın	-9.58521
İç	-9.58543
▁bilmiyor	-9.58566
▁doğan	-9.58577
▁değilsin	-9.58601
▁verip	-9.5867
▁tebessüm	-9.58677
Ona	-9.58769
mıştım	-9.58829
▁biliyor	-9.58836
▁sus	-9.58853
▁ek	-9.58934
q	-9.59022
▁istemem	-9.59078
Sevmek	-9.5911
Unutma	-9.59161
▁isterdim	-9.59223
▁nereye	-9.59223
Yaşamak	-9.59325
Uzak	-9.59342
▁dağı	-9.59379
▁serin	-9.59389
ime	-9.59425
▁çal	-9.59437
Anlat	-9.59451
▁mıdır	-9.59456
Beyaz	-9.59476
▁olduğum	-9.59485
▁veriyor	-9.59528
▁ışığı	-9.59611
2	-9.5963
▁peşinde	-9.59724
Kendimi	-9.59791
▁baştan	-9.59908
▁gölge	-9.59987
▁etmiş	-9.5999
▁oda	-9.60075
Din	-9.60081
it	-9.60088
lardı	-9.60196
yip	-9.6023
▁canımı	-9.60312
▁dertli	-9.60319
▁miyim	-9.60583
▁içimi	-9.60749
tüm	-9.60827
▁ağladım	-9.60865
Hasretin	-9.60963
ul	-9.60992
▁Seni	-9.61016
▁fayda	-9.61063
▁nazar	-9.61066
siniz	-9.61072
Sabah	-9.61079
▁kutlu	-9.61106
meyecek	-9.61156
On	-9.6116
▁it	-9.61213
▁Leyla	-9.61249
▁yaşayan	-9.61321
Çıkar	-9.61336
▁oğlu	-9.61428
▁derinden	-9.61441
..!¬	-9.61598
▁muhtaç	-9.61692
▁diyorlar	-9.61699
Dün	-9.61718
kal	-9.6189
0	-9.61922
▁dedin	-9.61974
▁bilsen	-9.62032
▁aşkla	-9.62122
Uyan	-9.62315
Er	-9.62321
Yüz	-9.6234
yine	-9.62375
▁yandım	-9.62418
anlar	-9.62477
ilir	-9.62672
▁bağlar	-9.62767
Adını	-9.6278
▁ihanet	-9.62978
Çık	-9.63022
▁...¬	-9.63061
▁sokak	-9.63065
Hüzün	-9.63084
han	-9.63194
sal	-9.63222
▁arama	-9.63322
▁usta	-9.63353
▁yuva	-9.63379
Kur	-9.63407
ılmış	-9.63412
Ta	-9.63547
Kötü	-9.6361
▁sevdalı	-9.63659
▁avuç	-9.63699
▁yiğit	-9.637
▁yasak	-9.63707
▁felek	-9.63719
▁bekleyen	-9.6374
sonra	-9.63756
▁kokar	-9.63769
ılın	-9.63848
▁yağar	-9.63894
▁işin	-9.63912
Dağ	-9.64003
▁olanlar	-9.64036
ği	-9.64108
▁uyu	-9.6416
Yap	-9.64227
▁akıyor	-9.6428
Deniz	-9.64348
on	-9.6441
ge	-9.64426
▁kes	-9.64445
▁laf	-9.64625
Kal	-9.64631
▁yağ	-9.6465
mişim	-9.64707
▁engel	-9.64714
▁sevdiğimi	-9.64746
▁katar	-9.64794
Aslında	-9.64816
▁han	-9.64819
▁tane	-9.64884
▁tez	-9.64991
▁canan	-9.65016
▁bekledim	-9.65057
▁burda	-9.65074
▁kalbin	-9.65077
son	-9.65087
▁elleri	-9.65382
▁ölü	-9.65551
▁mümkün	-9.65636
▁demiş	-9.65666
▁boz	-9.65689
▁aklım	-9.65726
Bunu	-9.6586
▁kalbe	-9.65882
▁yetim	-9.6591
mıştı	-9.65987
▁canlar	-9.66096
Keşke	-9.66119
Düş	-9.66127
▁dili	-9.66129
tür	-9.66136
fa	-9.6624
dayım	-9.66315
▁cahil	-9.66316
▁hatırla	-9.66351
▁uzakta	-9.66368
▁sandım	-9.66376
▁durdu	-9.66419
Garip	-9.66493
▁bulunmaz	-9.66518
▁neye	-9.6653
▁anlam	-9.66553
▁gecelerde	-9.66565
ası	-9.66733
Geç	-9.66763
Çek	-9.66869
▁almak	-9.6687
▁bizden	-9.6688
ara	-9.66902
Hoş	-9.66915
düm	-9.66916
▁esir	-9.66963
Siz	-9.67099
▁yaşama	-9.67152
▁emanet	-9.67191
▁önüne	-9.67291
▁pişman	-9.67306
▁gözlü	-9.6732
▁sessizce	-9.6743
▁birgün	-9.67434
▁sür	-9.6751
▁yanıma	-9.67528
kara	-9.67532
▁yüzlü	-9.67647
▁gördüğüm	-9.67655
▁ümit	-9.67682
▁otur	-9.67735
▁bizde	-9.67736
▁köz	-9.67804
▁yaşadım	-9.67809
▁gülen	-9.67847
▁günden	-9.67897
▁boyunca	-9.67898
▁buldu	-9.6791
madın	-9.67928
▁altın	-9.6801
işte	-9.6808
▁götür	-9.68116
▁çalan	-9.6812
▁şeyin	-9.68203
Mavi	-9.68218
▁içten	-9.68241
▁korku	-9.6826
▁demir	-9.6826
▁yürü	-9.68371
▁ağaç	-9.68418
▁koş	-9.68463
▁kalk	-9.68524
yor	-9.68544
▁kitap	-9.68551
▁orta	-9.6865
▁sözün	-9.68661
▁yay	-9.68677
Haydi	-9.68735
▁hayatta	-9.6879
▁kucak	-9.68793
muyor	-9.68865
▁gönder	-9.68884
▁bakış	-9.68898
Gitme	-9.68905
▁satır	-9.68912
â	-9.68972
Dedim	-9.68992
deyim	-9.69092
sevgi	-9.69142
İn	-9.69232
sev	-9.69237
Küçük	-9.69263
una	-9.69277
▁yarası	-9.69319
▁içinden	-9.6933
leyen	-9.69522
biz	-9.69657
▁zamanda	-9.69659
Ki	-9.69684
▁ölür	-9.69706
daha	-9.69766
▁lokma	-9.69803
Bal	-9.69879
▁ait	-9.69902
▁taze	-9.69913
dikçe	-9.69913
▁elin	-9.69991
▁sevdaya	-9.69998
▁tanem	-9.70052
Cennet	-9.70082
▁amma	-9.7009
▁sözlerin	-9.70137
▁yolcu	-9.70237
▁gelse	-9.70386
mın	-9.70395
▁ardında	-9.7048
▁yük	-9.70496
Sevdiğim	-9.70506
imde	-9.70514
sende	-9.70588
▁acısı	-9.70615
Kış	-9.7062
▁insanlık	-9.70641
Gecenin	-9.70673
▁..	-9.7074
▁kuyu	-9.70827
lerinin	-9.70834
▁hale	-9.70899
Ellerim	-9.7095
▁işler	-9.71085
▁kin	-9.71091
▁seç	-9.71099
mızı	-9.71126
ymış	-9.71209
Yıldızlar	-9.71248
Sol	-9.71292
▁alış	-9.71317
▁devlet	-9.71328
▁sancı	-9.71335
Rüzgar	-9.71373
Der	-9.71388
Kadın	-9.71415
▁kalmak	-9.71432
▁gibidir	-9.71516
Uzun	-9.71534
▁düz	-9.71575
Gurbet	-9.7169
▁hain	-9.71711
▁oy	-9.71778
ke	-9.71786
▁yüreğine	-9.71808
▁niçin	-9.71814
yaz	-9.71824
▁canlı	-9.71826
ılmaz	-9.7187
▁feda	-9.71877
Mecnun	-9.7193
▁yardım	-9.71934
▁gözümde	-9.71953
▁sahte	-9.72023
emiyorum	-9.72028
▁gelme	-9.72055
ık	-9.72135
▁işe	-9.72183
Yeşil	-9.72201
cık	-9.72235
▁kanı	-9.72249
▁yaptım	-9.72272
▁sat	-9.72297
dün	-9.72302
Derin	-9.72355
ilin	-9.72393
▁umutlar	-9.72528
▁değildi	-9.72549
E	-9.72603
▁yerlerde	-9.7262
▁nehir	-9.72657
▁sevdan	-9.72705
▁uyku	-9.72725
Yedi	-9.72769
▁vermiş	-9.73083
luğu	-9.73233
▁hediye	-9.73261
▁sarıl	-9.73268
▁yerinden	-9.73317
Seviyorum	-9.73405
nasıl	-9.7342
Zaten	-9.73452
▁sebep	-9.73556
▁kon	-9.73621
Gir	-9.73646
▁çıkıp	-9.73649
▁ye	-9.73733
Yaş	-9.73807
▁kutsal	-9.73813
▁çınar	-9.73818
▁yalancı	-9.73819
▁çalar	-9.73873
▁dünyadan	-9.73903
▁sakla	-9.74003
şu	-9.74007
kim	-9.74019
▁gözlerimi	-9.74097
▁vuran	-9.7416
▁bıraktın	-9.74176
▁sevgiyle	-9.74213
▁suya	-9.74232
▁nerdesin	-9.74317
lendi	-9.74416
lenen	-9.74426
▁yüzünde	-9.74536
▁kaçar	-9.74617
▁yas	-9.74635
▁doldur	-9.74714
gan	-9.74715
▁hey	-9.74758
▁sözleri	-9.7484
▁istiyor	-9.74847
▁halim	-9.74858
▁sun	-9.74881
▁unuttum	-9.75053
▁ulu	-9.75134
Sar	-9.75161
▁dokun	-9.75195
▁bakıyor	-9.75232
Yaşam	-9.75255
hem	-9.75299
▁hasretin	-9.7531
maktır	-9.7532
▁elden	-9.75358
▁rüzgâr	-9.75377
az	-9.755
çı	-9.75514
▁çiçeği	-9.75566
▁yüreğinde	-9.75619
▁bunun	-9.75664
imin	-9.75749
leriyle	-9.75834
▁duyar	-9.75869
zaman	-9.7589
▁taşır	-9.75913
▁sevdayı	-9.75949
▁cevap	-9.75993
▁yerlere	-9.76015
İçim	-9.76033
ladı	-9.76065
▁içi	-9.76075
▁sizi	-9.76109
▁kayıp	-9.76201
▁nar	-9.76214
▁gözlerimde	-9.76248
▁altı	-9.76258
▁edin	-9.76333
uyorum	-9.76344
▁şarkılar	-9.76357
▁zengin	-9.76409
▁sesleri	-9.76438
▁onları	-9.76546
göz	-9.76604
▁sefer	-9.76673
▁sesin	-9.76683
Ruhum	-9.76754
Tanrı	-9.76762
▁aydınlık	-9.76769
▁ceylan	-9.76823
Anla	-9.76833
▁bağlı	-9.76885
▁yıkar	-9.76942
İçimdeki	-9.7699
eceksin	-9.77052
kaç	-9.77107
▁ağlayan	-9.77187
▁ölmek	-9.77213
▁dolsun	-9.7727
▁kulak	-9.77297
yin	-9.77332
▁koru	-9.77362
mıyorum	-9.77404
Bunca	-9.77488
▁tarih	-9.77557
▁üzerinde	-9.77598
Çocuk	-9.77602
▁yürekte	-9.77645
▁elim	-9.77671
)¬	-9.77754
tığı	-9.77855
Kuru	-9.77907
abilir	-9.77934
mesi	-9.78024
▁özel	-9.78042
▁gönülden	-9.78056
▁cehennem	-9.78212
▁çektim	-9.7823
▁tas	-9.78283
▁hizmet	-9.78331
▁şöyle	-9.78546
▁yaşıyor	-9.78553
▁vuslat	-9.78579
▁gelmiyor	-9.78691
▁çoktur	-9.78721
▁olalım	-9.78735
▁tutmuş	-9.78757
▁binlerce	-9.78909
Olur	-9.78964
Dünyanın	-9.78974
gin	-9.78976
mekte	-9.78985
▁edecek	-9.79023
▁budur	-9.79039
▁zindan	-9.79042
▁kir	-9.79154
▁nokta	-9.79164
Yalnızlık	-9.7921
▁adalet	-9.79276
▁sayfa	-9.79367
▁içimden	-9.79368
▁herşey	-9.79386
▁asıl	-9.79387
▁halimi	-9.79514
▁mecnun	-9.79535
▁kavga	-9.7955
▁güzeldir	-9.79551
van	-9.79554
▁bilirsin	-9.79599
ış	-9.79661
kır	-9.79681
Anladım	-9.7973
iye	-9.7973
▁kanar	-9.79867
Aşka	-9.79918
▁şer	-9.79974
▁geceye	-9.79996
Soğuk	-9.80089
Baba	-9.80155
▁dolaş	-9.80157
▁rağmen	-9.80203
gece	-9.80252
▁yaktı	-9.80274
Nefes	-9.80315
Yeniden	-9.80412
mesin	-9.80443
▁gülleri	-9.8052
▁yeli	-9.80543
▁bebek	-9.80554
▁öldür	-9.80561
▁yaman	-9.80585
Hava	-9.80597
▁ağrı	-9.80618
▁günüm	-9.80659
▁yatar	-9.80806
▁yazan	-9.80807
medim	-9.80832
Sessiz	-9.80901
liyor	-9.80905
▁açtı	-9.80942
Kalp	-9.80959
▁di	-9.81051
▁bozuk	-9.81136
▁yor	-9.81137
Nerede	-9.81179
▁kay	-9.81234
Geceler	-9.81244
kı	-9.81274
Kırk	-9.81327
▁olmaya	-9.81343
▁güzellik	-9.81353
▁saz	-9.81354
▁gurur	-9.81355
▁av	-9.81366
▁olamaz	-9.81385
▁ıssız	-9.81455
Koca	-9.81531
▁sultan	-9.81537
▁yürekler	-9.81572
amadığım	-9.81659
▁dostu	-9.81693
tığım	-9.81712
▁yemin	-9.81745
mısın	-9.81842
▁çünkü	-9.81957
gönül	-9.81972
▁yoldan	-9.81982
▁köle	-9.8199
▁durmaz	-9.82005
▁...	-9.82051
sınız	-9.82051
▁mahkum	-9.82062
▁bilmeden	-9.82102
▁yapma	-9.82108
dılar	-9.82183
▁ayaz	-9.82187
▁keşke	-9.82188
▁arıyor	-9.82214
▁sandın	-9.82268
▁Anadolu	-9.82349
▁uzaklara	-9.82441
▁u	-9.82467
▁vefa	-9.8251
iki	-9.82593
▁içimdeki	-9.82594
sıyla	-9.82598
▁gözlerinden	-9.82623
sevda	-9.8264
acağız	-9.82641
Unut	-9.82645
mekten	-9.82699
▁koşar	-9.82715
mem	-9.82812
Sensizlik	-9.82832
öyle	-9.82891
▁söze	-9.82906
▁doya	-9.82928
▁arası	-9.83031
▁uçar	-9.83123
Yüce	-9.83163
Bundan	-9.83223
▁sefa	-9.83225
▁sap	-9.83245
▁vazgeç	-9.83277
▁geldik	-9.8331
▁geceleri	-9.83311
Gök	-9.83352
▁yakıyor	-9.8343
▁öksüz	-9.83432
▁yaşarım	-9.83514
▁güneşin	-9.83595
▁üstü	-9.83631
▁yürekten	-9.83695
▁hadi	-9.83708
olur	-9.83795
▁divane	-9.83803
fi	-9.83842
▁çeken	-9.83846
▁çığlık	-9.83915
▁mum	-9.83916
N	-9.83965
▁resim	-9.84001
▁ulaş	-9.84018
Yani	-9.84081
▁versin	-9.84085
▁durdum	-9.84099
▁namaz	-9.8414
Yarın	-9.84142
▁me	-9.84151
▁karşıma	-9.84165
Yara	-9.84167
▁olun	-9.84186
▁bulamadım	-9.84194
▁koyun	-9.84244
▁1	-9.84272
▁gitmiş	-9.84333
▁muhabbet	-9.84341
▁görme	-9.84363
▁kimin	-9.84404
Gözleri	-9.84445
▁vermek	-9.84465
▁s	-9.84478
▁e	-9.84512
▁heyecan	-9.84516
▁aldın	-9.84663
yüz	-9.84677
▁evlat	-9.84708
▁denilen	-9.84748
▁döndüm	-9.84806
ydin	-9.84833
▁yarısı	-9.84889
ö	-9.84891
▁aklı	-9.84986
▁baharı	-9.84995
▁beklerim	-9.85003
insan	-9.85062
▁kaz	-9.85084
yok	-9.85095
Akşam	-9.85126
▁kalmasın	-9.85197
ıyordu	-9.85218
meyin	-9.85341
j	-9.85346
liğini	-9.85436
▁gülün	-9.85491
cik	-9.85501
Kül	-9.85511
▁meydan	-9.85547
Tatlı	-9.85579
▁yapraklar	-9.85593
neden	-9.85755
▁boya	-9.85756
▁boy	-9.85797
▁açıp	-9.85831
▁gökyüzü	-9.85843
let	-9.85887
▁ölümü	-9.8593
Kimisi	-9.85955
▁emek	-9.85968
▁çoğu	-9.86004
▁zevk	-9.86055
▁geçmez	-9.86066
▁seher	-9.86074
Belli	-9.86114
▁çiçekleri	-9.86154
▁tamam	-9.86205
siyle	-9.86209
▁bekleme	-9.86271
▁çıkmış	-9.86276
▁Rabbim	-9.86299
▁öldü	-9.86332
▁pembe	-9.86337
▁içer	-9.86362
▁taşa	-9.86413
ter	-9.86416
▁bıraktım	-9.86467
▁süre	-9.8647
▁değişti	-9.86511
▁talan	-9.86717
Geri	-9.86756
▁yemek	-9.86772
▁Muhammed	-9.86818
▁sevdalar	-9.8686
İnsanlık	-9.86897
▁akıp	-9.86924
▁girer	-9.86952
▁çağlar	-9.87
unda	-9.87067
ymiş	-9.87097
▁istemiyorum	-9.87098
▁güçlü	-9.8719
ırım	-9.87198
▁kanlı	-9.87237
▁kokulu	-9.87242
▁yanda	-9.87247
▁şehrin	-9.87266
▁yüklü	-9.87381
▁tuzak	-9.87399
gör	-9.87415
▁dönüyor	-9.87485
▁onlara	-9.875
▁yarı	-9.87506
▁verin	-9.87517
▁hasretim	-9.87519
▁dertler	-9.87556
Gözler	-9.87557
Yüreğimi	-9.8756
▁heves	-9.87657
İş	-9.87766
▁milleti	-9.87861
▁gerçeği	-9.8787
▁arı	-9.87895
▁pazar	-9.88018
▁destan	-9.88046
▁bazı	-9.88131
▁sevgiye	-9.88238
fe	-9.88263
▁kimseyi	-9.88281
▁is	-9.88309
▁sabaha	-9.88328
ğe	-9.88407
Zalim	-9.88413
▁fakir	-9.88455
Sus	-9.88478
▁bunları	-9.88523
Bilirim	-9.88529
▁karşımda	-9.88599
Dağlar	-9.88646
▁düğüm	-9.88663
▁yüreğimin	-9.88669
▁kahve	-9.88756
▁göç	-9.8877
malıyım	-9.88789
▁olmayacak	-9.88824
▁ma	-9.88867
▁dize	-9.88875
Gönlümün	-9.88935
▁elimden	-9.88945
▁olmayı	-9.88952
ev	-9.88989
▁birini	-9.88991
Oku	-9.88999
Huzur	-9.89005
emezsin	-9.89017
▁açmış	-9.89056
▁gecede	-9.89096
▁hile	-9.89137
▁eri	-9.89216
Duy	-9.89238
▁Hakk	-9.89285
▁kurtar	-9.89303
▁onca	-9.89324
▁yani	-9.89332
ist	-9.89379
Asla	-9.89588
Sabır	-9.8962
▁ömrü	-9.89631
▁güz	-9.89731
▁yağıyor	-9.89834
▁Türkiye	-9.89842
Bekle	-9.89853
▁cefa	-9.89942
Yanlış	-9.89966
▁il	-9.90002
▁sürgün	-9.90028
▁asker	-9.90082
ilmiş	-9.90398
▁sevgin	-9.90409
Yüreğime	-9.90462
▁allah	-9.90546
▁bitecek	-9.90627
▁denize	-9.9063
▁Müslüman	-9.90632
▁tutmaz	-9.90636
▁düşler	-9.9066
▁gördü	-9.90663
▁sorar	-9.90726
▁kalbimin	-9.90802
▁uzaktan	-9.90803
▁sağır	-9.90805
▁çat	-9.90815
▁tutup	-9.90869
lamak	-9.90905
▁vicdan	-9.90961
Dil	-9.91027
Çiçek	-9.91035
Rabbim	-9.91042
▁merak	-9.91054
▁izi	-9.91088
▁atan	-9.91168
▁sebebi	-9.91203
▁toprağı	-9.91256
▁uzat	-9.91307
▁kalmamış	-9.91327
yer	-9.91363
▁teslim	-9.91399
▁dağlara	-9.91417
▁hicran	-9.91421
Sonunda	-9.91422
Yorgun	-9.91425
▁ellerimi	-9.91434
Beş	-9.91514
▁yaşarken	-9.91547
▁arada	-9.91682
▁gönlü	-9.9174
▁silah	-9.91743
lığım	-9.91748
▁dökülen	-9.91762
▁anlamaz	-9.91797
▁kızım	-9.91831
▁mor	-9.9185
Şair	-9.91882
bazen	-9.91925
▁derya	-9.91927
▁zerre	-9.91943
▁nakış	-9.92006
eli	-9.92095
▁ettik	-9.92112
▁özü	-9.92213
▁anlamı	-9.92225
▁soru	-9.92261
▁oysa	-9.92269
▁şirin	-9.9227
▁insanları	-9.92291
▁gez	-9.92292
▁almaz	-9.9237
▁saniye	-9.92387
▁ilim	-9.92522
▁yaralar	-9.92535
▁zamana	-9.92536
▁degil	-9.92605
▁ayı	-9.92613
Bi	-9.92637
▁öfke	-9.92689
▁yolları	-9.92704
ulur	-9.92752
diler	-9.92787
unca	-9.92799
Elbet	-9.92856
tar	-9.92863
▁gayri	-9.92875
Sağ	-9.92889
▁habersiz	-9.92922
▁sevme	-9.92929
▁ada	-9.92951
Sil	-9.92984
Düşman	-9.93066
▁suskun	-9.93115
▁birbirine	-9.93185
kimi	-9.93201
Dua	-9.93211
▁elem	-9.93233
▁yanık	-9.93337
Vur	-9.93341
▁hançer	-9.93363
▁sevdiğini	-9.93374
ydim	-9.93385
▁bükük	-9.9342
▁topla	-9.93457
▁merhaba	-9.93575
rak	-9.9358
▁hayalin	-9.93602
▁has	-9.93615
▁gözlerinin	-9.93631
▁ıslak	-9.9365
▁anlatır	-9.93673
kat	-9.93767
▁beklerken	-9.93768
▁yasa	-9.93774
▁kurtul	-9.93801
▁sizin	-9.93814
▁ferman	-9.9382
▁paylaş	-9.93836
▁görünür	-9.93846
yarak	-9.9404
▁erkek	-9.94087
Savaş	-9.94096
lığını	-9.94099
▁bulmak	-9.94125
▁acaba	-9.9413
▁sakin	-9.94149
Kime	-9.942
güzel	-9.94207
▁sürü	-9.9435
▁dursun	-9.94441
▁gidecek	-9.94475
▁konu	-9.94479
▁ten	-9.94563
▁tepe	-9.94649
▁aciz	-9.94666
▁girdi	-9.94715
▁viran	-9.9475
▁başımı	-9.94797
▁kaderim	-9.94885
▁birşey	-9.94891
▁edersin	-9.94901
▁cam	-9.94992
▁yaram	-9.94998
manın	-9.95011
▁peşinden	-9.95021
▁içe	-9.95069
muz	-9.9509
▁öl	-9.95179
▁kâr	-9.95185
tığın	-9.95237
▁yaban	-9.95284
Bunlar	-9.95371
▁ayakta	-9.95377
▁yare	-9.95461
▁cok	-9.95574
▁sensizlik	-9.95625
▁bağır	-9.95628
▁çiz	-9.95634
1	-9.95674
▁bulan	-9.95684
Aklım	-9.95687
▁gözünü	-9.95714
▁bulsun	-9.95747
▁şeker	-9.9577
Adı	-9.95805
Çile	-9.95821
▁Mehmet	-9.95827
uk	-9.95836
▁doktor	-9.95844
Ellerin	-9.95863
▁dağların	-9.95898
▁bilgi	-9.95902
▁aşktan	-9.95906
▁bedeni	-9.95922
▁af	-9.95981
▁kalıyor	-9.96001
▁kelam	-9.96003
ağı	-9.9606
▁aktı	-9.96131
▁ala	-9.9618
▁yaşım	-9.96182
▁anılar	-9.96188
baş	-9.96197
Bahattin	-9.96213
ımın	-9.96256
▁ucunda	-9.96271
Ecel	-9.96292
▁zar	-9.96313
ber	-9.96384
▁azar	-9.96429
▁yaşında	-9.96525
▁gideli	-9.96687
Sevdim	-9.96718
▁küs	-9.96787
▁yavrum	-9.96791
▁kalbine	-9.96844
▁durak	-9.96853
▁soluk	-9.96855
▁gözle	-9.9688
Neler	-9.96884
▁bitsin	-9.9689
▁ellere	-9.96974
▁sarmış	-9.9699
▁top	-9.97003
▁atma	-9.97016
ının	-9.97073
▁hakkını	-9.97104
▁aşklar	-9.97113
▁bağla	-9.97116
▁susuz	-9.97138
▁ülke	-9.97146
▁pınar	-9.97161
▁ruhumu	-9.97171
▁ardına	-9.97266
Şeytan	-9.97283
▁içeri	-9.97304
▁sona	-9.97321
laşır	-9.97408
▁birkaç	-9.97415
ân	-9.97419
▁figan	-9.97419
▁tutsak	-9.97448
Kendine	-9.97465
▁kimler	-9.97542
▁büyü	-9.97575
Ser	-9.97614
▁yüreğini	-9.97618
▁uzaklarda	-9.9764
Dinle	-9.97696
▁özgür	-9.97718
▁yirmi	-9.97737
▁bilesin	-9.97763
▁görüyorum	-9.97844
▁oğlum	-9.97918
▁ederken	-9.97944
▁sordum	-9.97947
▁ata	-9.97961
▁mıydı	-9.97993
Ağla	-9.98036
ydın	-9.98066
▁diri	-9.98132
yum	-9.98162
Bazı	-9.98173
ren	-9.98316
hane	-9.98419
▁gene	-9.98467
▁çöker	-9.98478
▁dokuz	-9.98497
hayat	-9.98499
Gelin	-9.98542
▁batar	-9.98593
▁sevgimi	-9.98685
▁üzülme	-9.98687
▁çöz	-9.98721
▁uzan	-9.9874
Nedir	-9.98766
Haram	-9.98806
Bayram	-9.98806
▁bilin	-9.98842
Terk	-9.98844
gı	-9.9887
mışsın	-9.98905
▁balık	-9.98927
▁kıyamet	-9.98929
▁geçip	-9.98948
Güneşin	-9.98986
▁yetmiyor	-9.99
▁yanarım	-9.99033
▁ba	-9.99074
Sal	-9.99088
st	-9.991
Kapı	-9.9916
▁bakıyorum	-9.99173
▁gönülde	-9.99182
▁soy	-9.99187
Nereye	-9.99202
▁hayran	-9.99248
▁okur	-9.99368
▁âşık	-9.9939
▁yanıp	-9.99418
deniz	-9.99429
Ayrı	-9.99437
sar	-9.99446
▁teselli	-9.9951
▁halime	-9.9958
ıldı	-9.996
ıcı	-9.99636
▁verecek	-9.99647
▁ağ	-9.99687
▁kavuş	-9.99693
söyle	-9.99726
sensiz	-9.99742
▁görüp	-9.99754
▁yüksek	-9.99776
▁dakika	-9.998
Geceleri	-9.99817
▁bahçe	-9.99957
▁keser	-9.99985
▁kaldın	-10.0001
▁seviyor	-10.0009
Niye	-10.0015
▁mekan	-10.0016
▁bahane	-10.0021
U	-10.0024
▁şen	-10.0028
▁Kur	-10.0029
▁usul	-10.003
Gönlümde	-10.0035
▁taşlar	-10.004
▁etsin	-10.0045
▁fikir	-10.0046
iyi	-10.0048
Kuşlar	-10.0049
▁kelimeler	-10.0055
leyip	-10.0055
▁olmuşum	-10.0056
▁taraf	-10.0056
▁bedel	-10.0057
▁ömrün	-10.0057
cak	-10.0059
Siyah	-10.006
▁hasreti	-10.0061
▁nefesi	-10.0069
iç	-10.0075
▁gözlerimden	-10.0076
▁pul	-10.0076
Yak	-10.0077
saydım	-10.0088
▁his	-10.0088
▁olmazsa	-10.0089
▁sokaklarda	-10.0089
▁bırakır	-10.0099
ılacak	-10.0118
▁ceza	-10.0118
Sensin	-10.0123
▁bağ	-10.0127
▁yılan	-10.0132
Dar	-10.014
Karşı	-10.0151
▁vah	-10.0153
▁kapalı	-10.0155
miştim	-10.0156
Öz	-10.0162
▁ansızın	-10.0163
▁anlamsız	-10.0164
▁elveda	-10.0164
▁kadeh	-10.0167
▁dökülür	-10.0175
▁Mecnun	-10.0179
▁yılı	-10.0179
▁dersen	-10.0182
▁sözlerim	-10.0183
▁ırak	-10.0188
mizi	-10.019
▁tuz	-10.0193
▁düşünüyorum	-10.0197
▁ararım	-10.0199
anı	-10.0199
▁şaşkın	-10.02
▁merhamet	-10.0204
▁yaratan	-10.021
▁dinler	-10.021
▁şehirde	-10.0211
▁ders	-10.0219
▁sürer	-10.0221
▁affet	-10.0222
kendi	-10.0223
▁sabahı	-10.0231
▁dostlarım	-10.0233
▁izin	-10.0238
▁alma	-10.0243
▁istersin	-10.0244
sada	-10.0247
yü	-10.0248
▁bakmadan	-10.0251
lanıp	-10.0252
▁gençlik	-10.0254
Yollar	-10.0256
▁yada	-10.0259
▁kanım	-10.0269
▁dere	-10.0272
ban	-10.0278
▁neyleyim	-10.0278
▁tükendi	-10.0287
▁sevgim	-10.0288
▁İslam	-10.0288
▁mana	-10.0289
▁miydi	-10.0291
▁sevmeyi	-10.0291
yalım	-10.0294
▁bizlere	-10.0294
umu	-10.0296
▁hor	-10.0301
Hayır	-10.0302
▁ilaç	-10.0313
▁gidersin	-10.0314
mişti	-10.0315
duğum	-10.0322
taş	-10.0332
▁fırsat	-10.0335
Kuş	-10.0336
▁geride	-10.0336
İsyan	-10.0337
ret	-10.0338
▁haline	-10.0342
Boşa	-10.0344
artık	-10.0345
▁zamanın	-10.0347
▁yaradan	-10.0352
▁kalbini	-10.0357
iyet	-10.0358
▁olacaksın	-10.0359
▁olsaydı	-10.0364
▁arzu	-10.0368
▁ileri	-10.037
▁midir	-10.0371
▁getirir	-10.0377
ğa	-10.0381
▁na	-10.0392
Gelen	-10.0393
Ruh	-10.0393
▁Tanrı	-10.0396
▁koynunda	-10.0398
▁nasip	-10.0398
▁köy	-10.0402
▁hakikat	-10.0403
Yokluğun	-10.0408
▁aşağı	-10.0409
▁özlüyorum	-10.0411
▁gönüller	-10.0413
Genç	-10.0422
esi	-10.0428
şa	-10.0428
lıyorum	-10.0435
▁tacı	-10.0438
▁sevinç	-10.0439
▁düşüyor	-10.0453
▁efendim	-10.0453
▁öğretmen	-10.0456
Gözüm	-10.0457
Kolay	-10.0464
▁ör	-10.0464
▁yoruldum	-10.0465
Elimde	-10.0465
inan	-10.0471
▁dedik	-10.0474
▁göğe	-10.0475
dil	-10.0479
Hasta	-10.0479
▁düğün	-10.0482
▁kuzu	-10.0482
Felek	-10.0484
▁herkese	-10.0485
Kor	-10.0485
M	-10.0486
Bağ	-10.0488
Diz	-10.0489
▁mektup	-10.049
Olmaz	-10.0491
▁saçların	-10.0496
ydım	-10.0502
Sor	-10.0505
▁vuruyor	-10.0505
▁onda	-10.0505
yın	-10.0506
gun	-10.0507
▁hayvan	-10.0507
▁aşar	-10.0512
▁sevdası	-10.0513
▁kalkar	-10.0519
Dünyaya	-10.052
us	-10.0521
▁açtım	-10.0524
Mü	-10.0527
▁kurt	-10.0531
Helal	-10.0531
▁telaş	-10.0535
Para	-10.0538
▁daima	-10.0543
▁çağır	-10.0543
▁çeşit	-10.0552
Ağlama	-10.0555
İnce	-10.0559
▁götürür	-10.056
▁yazıyorum	-10.0567
▁gidelim	-10.0569
Çaresiz	-10.0569
▁dava	-10.0572
▁bilmek	-10.0572
▁kula	-10.0572
▁diğer	-10.0573
▁koydum	-10.0578
▁anlarsın	-10.0586
inle	-10.061
Eller	-10.0623
Hal	-10.0625
▁sert	-10.0629
▁günlük	-10.063
▁bel	-10.0632
▁güneşe	-10.0636
▁şehri	-10.0638
▁pencere	-10.0641
▁dosta	-10.0643
yacağım	-10.065
▁dilinde	-10.0652
▁kullan	-10.0657
▁yetiş	-10.0658
▁koku	-10.0663
Birde	-10.0664
▁haklı	-10.0665
Gözlerinde	-10.0665
▁ters	-10.0666
mişsin	-10.0668
▁Mevla	-10.067
01;	-10.067
▁görün	-10.0672
▁hatır	-10.0677
▁şifa	-10.0679
▁ortak	-10.068
meyeceğim	-10.068
▁dolmuş	-10.0684
▁bıçak	-10.0684
▁güldür	-10.0685
▁başımda	-10.0687
▁oynar	-10.0688
▁idim	-10.0688
Nur	-10.0689
▁halk	-10.069
▁bilmece	-10.0691
kâr	-10.0692
▁hatıra	-10.0693
Ev	-10.0697
▁varım	-10.07
▁elimi	-10.0704
▁gibiydi	-10.0705
▁sağlam	-10.0705
İstersen	-10.0708
▁feryat	-10.0709
▁bez	-10.0709
Konuş	-10.0719
▁yaka	-10.0727
ser	-10.0728
▁saran	-10.0732
uş	-10.0733
T	-10.0733
▁taç	-10.0734
gu	-10.0735
▁giy	-10.0735
▁tövbe	-10.0736
ıyoruz	-10.0746
▁gözünde	-10.0747
▁olanı	-10.0748
▁bilsin	-10.0751
▁geçir	-10.0754
Ancak	-10.0758
▁veya	-10.0758
▁yalvar	-10.076
▁yen	-10.076
▁kirli	-10.0763
▁ölüme	-10.0765
Alın	-10.0765
git	-10.0771
▁buram	-10.0778
mus	-10.0779
▁gelirim	-10.0794
▁görmeden	-10.0799
▁karanlığı	-10.08
sanki	-10.0804
▁re	-10.0809
▁yakıp	-10.0809
musun	-10.0811
Ar	-10.0816
Gönlüme	-10.0818
Kalem	-10.0819
hal	-10.0824
leme	-10.0829
D	-10.0829
▁devran	-10.0831
▁saçlarını	-10.0836
▁sözünü	-10.0841
ru	-10.0843
▁çöl	-10.0847
luğa	-10.0854
▁verdiğin	-10.0857
▁konuşur	-10.0859
Yıllarca	-10.0861
▁kendin	-10.0864
û	-10.087
iyorsun	-10.0871
▁bedenimi	-10.0878
▁dilimde	-10.0882
▁haberin	-10.0883
Bulutlar	-10.0889
madık	-10.0892
▁evde	-10.0894
Güller	-10.0902
▁insanların	-10.0902
Sıcak	-10.0904
tun	-10.0905
▁üst	-10.0907
▁üzere	-10.0908
▁dönen	-10.091
▁olduğun	-10.0913
.¬“	-10.0913
▁gönlün	-10.0915
▁asır	-10.0919
sü	-10.0919
▁tanesi	-10.092
▁sıkıntı	-10.0921
▁gönlüne	-10.0921
Dedi	-10.0925
▁saçar	-10.0928
dığında	-10.0931
▁sevin	-10.0932
▁sevdiğin	-10.0937
Sarı	-10.0937
▁henüz	-10.0939
▁eyleme	-10.0947
▁çoban	-10.095
▁tutun	-10.0956
landım	-10.0956
Sevgili	-10.096
▁eğil	-10.0962
▁baktı	-10.0963
▁döker	-10.0967
▁öylece	-10.0969
▁ruhu	-10.0973
ktan	-10.0973
▁soran	-10.0978
▁sevgisi	-10.0989
▁tren	-10.0996
▁tüter	-10.0996
Adım	-10.0996
S	-10.0998
▁attım	-10.0999
▁ger	-10.1
▁öğrendim	-10.1002
Gözlerine	-10.1002
▁İnsan	-10.1003
▁bendeki	-10.1005
Güven	-10.1009
▁gönüle	-10.1009
▁malı	-10.1014
▁kalbinde	-10.1016
ebilir	-10.1017
▁nefeste	-10.1018
▁kaldık	-10.1022
▁kum	-10.1027
▁kimsesiz	-10.1031
İnsanı	-10.1034
▁ismini	-10.104
▁misafir	-10.1042
ağa	-10.1042
▁bitir	-10.1044
Çiçekler	-10.1045
▁imkansız	-10.1051
lığında	-10.1054
if	-10.1059
▁yazılmış	-10.106
dem	-10.1064
lanıyor	-10.1076
▁sevdi	-10.1078
▁mazi	-10.1082
▁başın	-10.1082
Çocuklar	-10.1082
▁vermiyor	-10.1083
▁geceyi	-10.1083
İnsanın	-10.1085
▁öğret	-10.1087
▁şah	-10.1088
▁hic	-10.1088
▁kahır	-10.1088
▁hüzünlü	-10.1092
▁eyledi	-10.1092
▁görmedim	-10.1092
mıza	-10.1095
Aş	-10.1098
▁onunla	-10.1103
har	-10.1106
hani	-10.1108
Özlem	-10.1111
▁ka	-10.1112
▁yüze	-10.1112
▁davet	-10.1113
lo	-10.1114
bet	-10.1116
dal	-10.1117
▁şeref	-10.1122
▁çıkıyor	-10.1122
▁sa	-10.1123
▁coşar	-10.1124
▁neydi	-10.1127
Say	-10.1128
▁korkuyorum	-10.113
▁yağan	-10.1133
▁bitmiyor	-10.1133
▁birde	-10.1135
salar	-10.1139
▁dünyam	-10.114
▁yıllarca	-10.1141
saydın	-10.1148
▁ecel	-10.1149
▁kapat	-10.115
L	-10.1153
▁gördün	-10.1162
▁bildiğim	-10.1163
rken	-10.1166
▁ağladı	-10.1167
▁vatanı	-10.1167
▁karası	-10.1168
▁pis	-10.1175
▁sohbet	-10.1176
▁verdik	-10.1176
▁eyler	-10.1178
Fakat	-10.1179
▁duyan	-10.1181
▁oyna	-10.1185
▁sözüne	-10.1186
▁bensiz	-10.1187
▁düşme	-10.1189
alı	-10.1189
▁dev	-10.1192
İste	-10.1192
▁araba	-10.1193
▁meyve	-10.1194
▁b	-10.1197
ap	-10.1198
▁etmiyor	-10.1201
bütün	-10.1201
tut	-10.1201
▁Ankara	-10.1201
ırsın	-10.1209
▁farkında	-10.121
▁öp	-10.1216
▁olacağım	-10.1216
Bel	-10.122
▁kokuyor	-10.1223
Et	-10.1223
▁hergün	-10.1224
▁duymaz	-10.1225
▁karşısında	-10.1225
Dokun	-10.1225
mamış	-10.1226
▁vurma	-10.1229
▁geçtim	-10.123
▁bakalım	-10.1231
▁bakarken	-10.1235
..!	-10.1235
▁uyar	-10.1237
Birlikte	-10.1239
▁seli	-10.124
▁koyma	-10.1241
▁yatan	-10.1242
▁Tonbul	-10.1246
geç	-10.1248
▁dans	-10.1249
▁satar	-10.1257
▁yarış	-10.1259
▁aklımda	-10.126
lâ	-10.1272
▁yapıp	-10.1277
▁başkası	-10.1278
▁ömrümü	-10.1281
bar	-10.1283
▁ayır	-10.1287
▁canın	-10.1287
▁sevgiler	-10.1287
medin	-10.1291
Sevme	-10.1294
▁lanet	-10.1301
▁şafak	-10.1302
bur	-10.1304
▁dök	-10.1314
▁ırmak	-10.1315
▁icin	-10.1318
▁elbette	-10.1319
▁dostun	-10.1319
mayacağım	-10.1325
▁harman	-10.1327
▁sorun	-10.1328
▁derdimi	-10.1334
Müslüman	-10.1335
sinin	-10.1335
▁şahit	-10.1336
▁ağlıyorum	-10.1338
▁çöktü	-10.1345
▁k	-10.1346
Kalbimde	-10.1349
▁yurdu	-10.1353
▁gittim	-10.1354
▁birisi	-10.1354
▁uy	-10.1355
▁ad	-10.1357
▁aslan	-10.1358
▁yelken	-10.1363
Azrail	-10.1369
▁birine	-10.1369
▁kendinden	-10.1369
güneş	-10.1374
Acılar	-10.1374
▁den	-10.1376
▁kağıt	-10.1378
▁kem	-10.1379
Kalbimi	-10.1386
▁âlem	-10.1386
▁susar	-10.1386
Sır	-10.1391
Hazan	-10.1393
larıma	-10.1398
Çal	-10.1401
▁duygularım	-10.1402
▁kıymet	-10.1403
▁istemez	-10.1405
Yada	-10.1418
niz	-10.1419
▁bildim	-10.142
imizi	-10.1423
▁elime	-10.1425
▁çocuğu	-10.1438
▁ellerinde	-10.1439
▁altına	-10.1443
▁yükü	-10.1444
▁kaya	-10.1446
gen	-10.1455
▁içindeki	-10.1463
▁uğraş	-10.1465
▁yürür	-10.1468
▁yazmak	-10.147
▁nefesim	-10.1472
Sa	-10.1479
▁ağlamak	-10.1481
Hatta	-10.1483
▁iner	-10.1486
tma	-10.1487
Aman	-10.1491
rin	-10.1493
▁gerçekten	-10.1499
▁geçecek	-10.15
▁inci	-10.1503
▁aile	-10.1518
▁şan	-10.152
▁g	-10.1521
▁sola	-10.1525
▁sevmez	-10.1533
▁söyleme	-10.1534
▁hayatım	-10.1535
Yüreğin	-10.1536
Kalbimin	-10.1536
çek	-10.1538
likten	-10.1553
▁söner	-10.1554
▁Kara	-10.1554
arım	-10.1557
mdan	-10.156
Saygı	-10.1563
▁konuşma	-10.1563
▁araya	-10.1568
lanma	-10.1569
▁dostluk	-10.1571
▁köşede	-10.1572
idir	-10.1573
▁vurgun	-10.1574
▁mutluluğu	-10.1576
as	-10.158
bağ	-10.1582
Dünyayı	-10.1589
C	-10.1589
▁kanıyor	-10.159
▁günlerde	-10.1592
cü	-10.1593
larımda	-10.1597
İ	-10.16
▁he	-10.1607
▁ü	-10.1607
duğu	-10.1608
Değer	-10.1608
Bul	-10.1608
▁olmayınca	-10.161
▁dalıp	-10.161
▁dolaşır	-10.1611
ırken	-10.1614
müyor	-10.1619
▁yoldaş	-10.1622
▁Rab	-10.1622
▁gelmedi	-10.1622
Varsın	-10.1624
▁süt	-10.1624
Cahil	-10.1626
Yürü	-10.1627
▁bakışın	-10.1627
cek	-10.1632
▁alıyor	-10.1635
Elinde	-10.1637
▁özler	-10.1642
▁yokmuş	-10.1643
▁ez	-10.1644
▁yıkan	-10.1654
▁çizgi	-10.1656
▁dalında	-10.166
dünya	-10.1673
dığımız	-10.1677
▁canını	-10.1677
▁şeyden	-10.1681
▁çiçeğim	-10.1686
▁hayallerim	-10.1686
Ağır	-10.1687
Lakin	-10.1687
▁hu	-10.1692
▁sayar	-10.1692
▁aydın	-10.1693
▁açılır	-10.1694
▁sevginin	-10.1697
Gönülden	-10.1697
▁bari	-10.1699
Buz	-10.1699
▁bakışlar	-10.17
▁sanır	-10.17
met	-10.1701
▁p	-10.1701
▁oluyorum	-10.1702
▁bitmeyen	-10.1702
sil	-10.1705
▁gününde	-10.1705
▁insanlara	-10.1709
▁yaşlarım	-10.1722
▁başkasına	-10.1722
seydin	-10.1723
cesine	-10.1729
▁başkasını	-10.1739
▁nafile	-10.1741
▁olana	-10.1742
▁''	-10.1742
▁ayna	-10.1743
▁kök	-10.1746
dost	-10.1748
▁mevsimi	-10.1751
Bakma	-10.1752
▁kızar	-10.1754
Yaşa	-10.1757
Ma	-10.1759
lat	-10.1761
▁yolculuk	-10.1761
Şiirler	-10.1768
▁yapmak	-10.1768
Leyla	-10.177
▁arayan	-10.177
▁bizler	-10.1771
nız	-10.1774
▁hanım	-10.1775
▁sığ	-10.1778
▁gidip	-10.1779
Hemen	-10.1779
▁suçlu	-10.1781
▁don	-10.1785
▁yakışır	-10.1787
▁istediğim	-10.1789
▁fidan	-10.1793
yağmur	-10.1798
Hakk	-10.1809
▁demeden	-10.181
▁Atatürk	-10.1814
Barış	-10.1816
▁yandan	-10.1816
▁gökyüzüne	-10.1816
▁dönmüş	-10.1818
▁t	-10.1823
İz	-10.1823
▁toprağın	-10.1827
amadık	-10.1828
▁dediğim	-10.1829
▁türküler	-10.1829
▁gülsün	-10.1851
ledim	-10.1852
▁kahraman	-10.1855
▁gözyaşlarım	-10.1856
▁özüm	-10.1859
▁çaldı	-10.1861
Sevdan	-10.1863
▁mey	-10.1864
▁mah	-10.1865
▁razı	-10.1869
▁acıyı	-10.187
▁sultanı	-10.1871
Işık	-10.1871
▁haykır	-10.1874
yon	-10.1878
▁kedi	-10.188
Yanımda	-10.1882
▁kendimden	-10.1887
tiği	-10.1888
▁yokken	-10.1894
▁Hasan	-10.1897
▁elbise	-10.19
▁em	-10.1901
Gelip	-10.1903
▁yaptı	-10.1904
Şarkılar	-10.1908
▁yarin	-10.1908
▁çıplak	-10.1909
Bedenim	-10.191
▁Mustafa	-10.191
▁eve	-10.1917
Demek	-10.1922
Günler	-10.1922
▁havada	-10.1923
▁sokaklar	-10.1924
▁çirkin	-10.1925
Korku	-10.1925
biri	-10.1927
Ondan	-10.1932
duğun	-10.1932
▁sendin	-10.1933
liğinde	-10.1948
▁niyet	-10.1948
▁gücüm	-10.1953
▁dara	-10.1957
▁düşünme	-10.1957
▁kefen	-10.1958
Yanında	-10.1963
Uyku	-10.1965
▁gerekir	-10.1965
Gözlerimde	-10.1972
▁komşu	-10.1974
▁engin	-10.1979
▁aşkımı	-10.198
▁bizleri	-10.1986
▁utan	-10.1988
F	-10.1993
▁dilin	-10.1997
sizlik	-10.1999
düş	-10.2001
▁kendisi	-10.2006
▁dalgalar	-10.2007
▁orman	-10.2007
▁kahpe	-10.2012
▁aşkını	-10.2013
▁ağıt	-10.2017
▁çamur	-10.2018
▁kenarında	-10.2019
nün	-10.202
malısın	-10.2024
▁ölürüm	-10.2025
▁korkma	-10.2026
lıklar	-10.2026
▁atıyor	-10.2028
to	-10.2035
▁cihan	-10.2041
▁tasa	-10.2042
ucu	-10.2043
Di	-10.2044
▁mer	-10.2045
▁masa	-10.2047
▁evvel	-10.205
▁ılık	-10.2051
▁davran	-10.2053
Dilim	-10.2055
▁hatta	-10.2055
Ye	-10.2055
▁arsız	-10.2055
ize	-10.2058
▁olsada	-10.2058
▁gülmez	-10.2062
▁kocaman	-10.2062
▁kandır	-10.2063
▁gözüne	-10.2064
▁milletin	-10.2066
▁bulunur	-10.2068
▁ihtiyar	-10.2072
▁geçmiyor	-10.2072
▁gönlünü	-10.2073
▁bulun	-10.2079
▁çektiğim	-10.2081
▁gidiyorsun	-10.2083
Yüreğimin	-10.2086
▁öter	-10.2088
▁verdiği	-10.2089
▁sonsuza	-10.2093
▁şarap	-10.2093
İlim	-10.2098
▁kulu	-10.2103
▁yerim	-10.2105
▁ellerde	-10.2107
Boz	-10.2109
yol	-10.211
tıkça	-10.211
▁ilham	-10.2111
▁bitiyor	-10.2113
▁yurt	-10.2113
▁ebedi	-10.2113
▁tan	-10.2117
lenip	-10.2127
▁atıp	-10.2128
▁öğretmenim	-10.2128
yeni	-10.2129
▁gözümden	-10.2137
▁ruhun	-10.214
▁yıldır	-10.2141
Tarih	-10.2149
▁hikaye	-10.215
emediğim	-10.2151
▁ederek	-10.2153
▁ibret	-10.2154
▁ettiler	-10.2157
▁liman	-10.2158
ilmez	-10.2159
▁tap	-10.2159
▁düşlerim	-10.2161
▁Sana	-10.2164
▁ruhuma	-10.2169
bırak	-10.217
▁yağdı	-10.2177
Yâr	-10.2178
▁se	-10.218
▁uykuya	-10.2183
▁unutmak	-10.2184
Hata	-10.2184
▁kapan	-10.2186
▁bulup	-10.2186
▁doğum	-10.219
Anam	-10.2191
▁hesabı	-10.2192
▁beklemek	-10.2195
▁yazım	-10.2197
.0	-10.22
▁gözüme	-10.2204
ici	-10.2205
▁arka	-10.2211
tum	-10.2212
▁ateşe	-10.2214
Sonsuz	-10.2219
▁şekilde	-10.2222
bahar	-10.2225
▁abi	-10.2227
▁zordur	-10.2229
▁yaşta	-10.223
▁görüyor	-10.2237
▁varlık	-10.2242
▁birlik	-10.2243
▁gücü	-10.2251
Adın	-10.2251
Kalmadı	-10.2252
▁tuttu	-10.2252
▁hayali	-10.2255
▁gölgesinde	-10.2257
▁mendil	-10.2257
aş	-10.2258
▁yakma	-10.2259
lıyım	-10.2261
▁gidişin	-10.2261
▁canıma	-10.2262
Cümle	-10.2266
▁diyemem	-10.2269
▁biç	-10.2269
yoksa	-10.227
▁yaşamaya	-10.2275
▁kalın	-10.228
▁karıştı	-10.2281
▁beste	-10.2285
Yaralı	-10.2289
▁bit	-10.2294
▁del	-10.2298
▁dikkat	-10.23
▁Yine	-10.2301
▁surat	-10.2308
▁örnek	-10.2313
Sevdanın	-10.2314
▁sevenler	-10.2321
▁baksam	-10.2321
▁durdur	-10.2324
▁yaşat	-10.2324
▁mahzun	-10.2326
▁uzanan	-10.2328
▁yaktın	-10.2329
zar	-10.233
vi	-10.2331
▁sığmaz	-10.2342
▁bakmak	-10.2346
▁gözyaşım	-10.2348
▁ağacı	-10.2348
▁alacak	-10.235
▁gür	-10.235
isi	-10.235
▁mübarek	-10.2358
▁paşa	-10.2358
▁yolum	-10.2358
yerek	-10.236
▁taşın	-10.2361
Annem	-10.2362
muşum	-10.2363
Zehir	-10.237
▁asi	-10.2377
▁şanlı	-10.2379
▁hâl	-10.238
▁derdini	-10.238
▁ayrıl	-10.2385
ildi	-10.2386
▁yaşları	-10.2386
▁yayla	-10.2386
digim	-10.2389
başka	-10.2396
▁ip	-10.2396
¬(	-10.24
şe	-10.2402
▁önemli	-10.2403
Alev	-10.2406
▁yarına	-10.2406
▁bakmaz	-10.242
Bizler	-10.2421
▁karı	-10.2422
▁aşı	-10.2424
▁gülüşün	-10.2426
Vuslat	-10.2426
Sevgiyle	-10.2427
▁ışıl	-10.2434
▁dönme	-10.2435
leşir	-10.2436
mızda	-10.2437
▁asil	-10.2439
▁gezen	-10.2439
▁hayattan	-10.2447
B	-10.2449
▁etmem	-10.2453
▁güzeldi	-10.2454
Z	-10.2454
▁gayret	-10.2455
ib	-10.2461
ölüm	-10.2464
Boşuna	-10.2469
▁?¬	-10.2476
La	-10.248
▁kıy	-10.2482
kin	-10.2484
luğun	-10.25
▁hareket	-10.25
▁Aşk	-10.2506
▁çevir	-10.2509
▁okşa	-10.251
Senle	-10.2511
▁izleri	-10.2511
▁ilacı	-10.2512
▁düşündüm	-10.2513
yet	-10.2514
▁dalı	-10.2514
▁kuran	-10.2515
▁cin	-10.2516
Gez	-10.2517
▁tür	-10.2519
Ali	-10.2523
▁sanırsın	-10.2523
larımızı	-10.2523
▁bardak	-10.2524
▁kaybettim	-10.2529
▁yemiş	-10.2531
Kurban	-10.2531
Gönlümü	-10.2533
Tak	-10.2539
▁daldım	-10.2544
▁arkadaşım	-10.2546
▁emir	-10.255
amıyor	-10.2551
▁matem	-10.2554
,¬“	-10.2554
gir	-10.2561
▁yaşanan	-10.2573
▁solu	-10.2576
▁hüsran	-10.2577
gar	-10.258
Vakit	-10.2581
▁bakışların	-10.2585
▁umutlarım	-10.2586
▁dilek	-10.2586
P	-10.2589
Dostlar	-10.259
▁etmeden	-10.2593
Gözlerinin	-10.2594
İçime	-10.2595
▁oyunu	-10.2596
Herkesin	-10.2596
▁doğdu	-10.2602
Yarım	-10.2605
Karar	-10.2605
▁nuru	-10.2614
larımın	-10.2616
üyorum	-10.2618
▁hızlı	-10.2623
▁geçse	-10.2624
▁hane	-10.263
R	-10.2631
▁hür	-10.2634
Hayata	-10.2637
▁kimsenin	-10.2639
▁kenara	-10.264
▁erir	-10.264
▁hakkın	-10.2646
▁peşine	-10.2651
▁gönlünde	-10.2656
▁bitmiş	-10.2657
▁O	-10.2657
▁çocukları	-10.266
▁kuşu	-10.2665
baba	-10.2665
Muhabbet	-10.2665
Hey	-10.2694
▁ni	-10.2695
▁görmüyor	-10.2696
▁söylüyor	-10.2698
▁yüreğe	-10.27
▁merhem	-10.2701
Geçen	-10.2702
Gam	-10.2703
▁darbe	-10.2704
▁yokluğun	-10.2713
Uyu	-10.2715
Günah	-10.2719
▁kaçıncı	-10.2719
▁â	-10.272
▁saklar	-10.2723
▁fırtınalar	-10.2727
▁hakim	-10.2729
dınız	-10.2735
▁isteyen	-10.2738
▁yaptın	-10.2741
▁sokakta	-10.2744
▁yapıyor	-10.2744
Beden	-10.2744
Sarıl	-10.2746
▁neyi	-10.2748
▁içtim	-10.2751
▁ettiğin	-10.2752
▁aklına	-10.2752
▁sesim	-10.2753
eceğiz	-10.2754
▁taşar	-10.2754
▁çıkma	-10.2755
rim	-10.2756
▁güvercin	-10.2757
▁umudum	-10.2759
▁işle	-10.276
▁pak	-10.276
▁vurmuş	-10.2762
▁yorma	-10.2762
▁mutlaka	-10.2762
ğı	-10.2765
▁izler	-10.2766
Damla	-10.2767
▁söndü	-10.2767
▁kalemim	-10.277
▁koyup	-10.277
▁umman	-10.2771
▁Gül	-10.2774
Zengin	-10.2783
▁sefil	-10.2787
▁ismin	-10.2792
▁çıkacak	-10.2799
Haber	-10.2801
ümü	-10.2801
senden	-10.2802
Kimseye	-10.281
▁evet	-10.2815
▁ezan	-10.2815
▁gözlerimin	-10.2815
▁adamı	-10.2816
Adalet	-10.2816
Hayalin	-10.2818
▁emin	-10.2819
Gizli	-10.2824
Kırmızı	-10.2825
▁fer	-10.2827
▁çaba	-10.2831
Sevgiyi	-10.2831
▁beşer	-10.2832
Yazık	-10.2835
kir	-10.2835
▁koyar	-10.2838
▁diyecek	-10.284
▁bıraktı	-10.2841
▁yazma	-10.2842
Orta	-10.2846
▁zamansız	-10.2846
▁kurdu	-10.2849
▁durgun	-10.2853
▁vay	-10.2858
▁sofra	-10.2858
nü	-10.2858
unut	-10.286
▁ölümden	-10.2864
▁sanat	-10.2866
▁sekiz	-10.2866
▁kokun	-10.2867
Gelir	-10.287
▁müslüman	-10.287
Devlet	-10.287
▁gökyüzünde	-10.2872
Mezar	-10.2874
böyle	-10.2876
▁gelirsin	-10.2878
▁nefesin	-10.288
▁uykusuz	-10.288
▁pare	-10.288
▁ordu	-10.2881
▁kervan	-10.2884
▁zavallı	-10.2894
▁demez	-10.2896
vur	-10.2899
▁biliyorsun	-10.29
Yaşama	-10.2901
▁bacı	-10.2902
▁gülüyor	-10.2902
▁özgürlük	-10.2902
▁kelebek	-10.2907
▁çekme	-10.2907
Hayatı	-10.291
▁tutma	-10.2912
▁sur	-10.2914
▁eğ	-10.2914
biraz	-10.2914
Sevgilim	-10.2916
Kalbime	-10.2917
eş	-10.292
▁etsem	-10.2924
▁yokluğunda	-10.2926
▁bakarsın	-10.2926
Bilmiyorum	-10.2927
Fark	-10.2933
Bas	-10.2933
▁yık	-10.2936
▁sez	-10.2937
kça	-10.2948
Türkiye	-10.2949
▁acımasız	-10.2953
iniz	-10.2954
öl	-10.2957
▁görsem	-10.2959
▁geniş	-10.296
Altın	-10.2961
Sel	-10.2961
Sonu	-10.2963
▁karanlığa	-10.2964
▁baki	-10.2969
▁Ah	-10.2974
▁bulursun	-10.2976
Gündüz	-10.2977
▁tanır	-10.298
▁diller	-10.298
▁başla	-10.2982
Kalk	-10.2988
Elveda	-10.2993
▁biçim	-10.2993
▁güzelsin	-10.2993
▁yaşanır	-10.2998
▁söndür	-10.3001
es	-10.3003
▁çekti	-10.3006
▁karışır	-10.3007
▁gökte	-10.301
Kızıl	-10.3013
Uç	-10.3016
▁ayar	-10.3021
▁ede	-10.3022
▁sıkı	-10.3023
liğine	-10.3023
mektir	-10.3025
▁kına	-10.3026
Sahte	-10.3026
▁bağı	-10.3028
Yıllardır	-10.3029
▁umudu	-10.3032
▁herşeyi	-10.3033
Gelecek	-10.3035
▁elma	-10.3036
▁mıyım	-10.3038
▁büyür	-10.3045
▁nere	-10.3054
▁haydi	-10.3054
▁yağmuru	-10.3055
Değil	-10.3057
Yıl	-10.306
▁sonrası	-10.3065
▁pay	-10.3067
▁hafif	-10.3072
▁halini	-10.3074
▁men	-10.3077
▁dibinde	-10.3077
▁attı	-10.3078
▁nöbet	-10.308
Giden	-10.308
▁yavru	-10.3084
▁yaşamın	-10.3087
▁kaş	-10.3092
gü	-10.3095
▁sevil	-10.3097
▁dururum	-10.3098
▁omuz	-10.3098
ıdır	-10.3101
Halk	-10.3101
▁kalemi	-10.3104
▁virane	-10.3106
▁kurur	-10.3108
▁alemde	-10.311
▁yanma	-10.3111
▁dileğim	-10.3115
▁göm	-10.3115
meliyim	-10.3116
▁hatıralar	-10.3117
▁dilinden	-10.3117
▁ortaya	-10.3118
Atatürk	-10.3118
▁meçhul	-10.3118
▁nerden	-10.3118
Gözlerini	-10.3118
Çay	-10.3121
yo	-10.3121
▁çalışır	-10.3121
Es	-10.3125
Dayan	-10.3131
Kin	-10.3135
ımızı	-10.3138
▁dilde	-10.314
▁nefis	-10.3144
Ter	-10.3148
▁dönüş	-10.315
▁denir	-10.3151
▁yüreğimden	-10.3152
▁sok	-10.3152
dâ	-10.3154
▁serseri	-10.3158
▁hoca	-10.3158
▁çağlayan	-10.3159
▁parlak	-10.316
▁peri	-10.3161
Fakir	-10.3164
▁sevdamı	-10.3164
▁günlerim	-10.3164
beş	-10.317
▁keskin	-10.317
▁durup	-10.3171
▁solmuş	-10.3178
▁acep	-10.318
▁tahta	-10.3183
▁yazmış	-10.3184
Rüya	-10.3185
▁bilemem	-10.3186
▁indi	-10.3189
▁ham	-10.3192
▁sevgini	-10.3194
Birgün	-10.3194
yalan	-10.3195
▁boran	-10.32
▁lal	-10.3203
Tel	-10.3207
Çoğu	-10.3209
Ata	-10.3211
Yüreği	-10.3214
Zamanı	-10.3221
▁ocak	-10.3221
▁parçası	-10.3221
K	-10.3222
▁harf	-10.3224
İman	-10.3226
▁yazarım	-10.3227
▁sessizlik	-10.3228
Peki	-10.3228
Cehennem	-10.323
kten	-10.3231
▁uçan	-10.3237
Aşkım	-10.324
Anılar	-10.3241
Babam	-10.3245
Oy	-10.3247
▁sis	-10.3248
▁ucu	-10.3249
sede	-10.325
İslam	-10.325
laş	-10.3251
Ş	-10.3252
▁dilber	-10.3252
▁günlere	-10.3253
▁karanlıkta	-10.3258
▁gittiğin	-10.3259
▁ağaçlar	-10.326
▁elli	-10.3261
dağ	-10.3269
▁kürek	-10.3271
▁bulacak	-10.3275
hak	-10.3277
miyorum	-10.3279
Hayaller	-10.3279
▁hedef	-10.3284
▁alsın	-10.3285
▁melekler	-10.3286
▁kalpte	-10.3288
Mevsim	-10.3288
▁dizi	-10.3289
▁karışık	-10.3296
Ek	-10.3298
▁ölen	-10.33
▁fal	-10.33
▁hilal	-10.3303
Meğer	-10.3307
Öl	-10.3308
▁nimet	-10.331
▁ön	-10.331
▁yerler	-10.3315
hangi	-10.3317
lamış	-10.3317
ilk	-10.3318
Yağ	-10.3319
▁okul	-10.3324
Kırık	-10.3325
▁yazdığım	-10.3327
▁karanlığında	-10.3328
▁yüzler	-10.3331
ımdan	-10.3333
▁bedende	-10.3337
şan	-10.3341
▁ilkbahar	-10.3341
▁f	-10.3344
▁kulun	-10.3345
likler	-10.3348
Diye	-10.3351
Bense	-10.3351
▁ararken	-10.3356
Si	-10.3359
sadece	-10.3359
Yolun	-10.3361
▁kapısı	-10.3368
▁halin	-10.3373
▁gidince	-10.3376
▁üzerime	-10.338
▁evi	-10.3381
▁unutur	-10.3381
liyim	-10.3383
▁tabi	-10.3384
iyordu	-10.339
▁çeşme	-10.3391
▁çekmek	-10.3394
memiş	-10.3396
leniyor	-10.3397
▁ardı	-10.3399
▁yad	-10.3401
Madem	-10.3402
▁çak	-10.3408
▁gözyaşları	-10.3408
yalnız	-10.341
▁Kemal	-10.3411
▁saray	-10.3414
▁dönmez	-10.3416
▁şiiri	-10.3418
lığına	-10.3419
Dönüp	-10.3422
▁hayalim	-10.3423
lerime	-10.3425
▁mert	-10.3427
▁kusur	-10.3427
▁dol	-10.3429
Uzaktan	-10.3431
İhanet	-10.3437
Ses	-10.3439
Yıldız	-10.3447
▁sazım	-10.3452
▁öylesine	-10.3456
▁um	-10.3457
Akan	-10.3459
Sıra	-10.3459
onlar	-10.3461
Yanar	-10.3463
ligin	-10.3468
▁2	-10.347
▁dilerim	-10.3474
▁c	-10.3474
▁şişe	-10.3479
Yalancı	-10.3479
▁sığın	-10.3482
▁renkli	-10.3483
canım	-10.3485
▁ölmez	-10.3486
diye	-10.3487
sus	-10.3488
▁kalabalık	-10.349
Düşünce	-10.349
Gözü	-10.3491
do	-10.3495
lerimizi	-10.3503
medik	-10.3503
▁yârim	-10.3518
▁doluyor	-10.3519
▁umutla	-10.3523
▁sesimi	-10.3524
▁vurup	-10.3524
Uzat	-10.3529
▁ehli	-10.353
▁bakınca	-10.3532
Anadolu	-10.3536
▁makam	-10.3536
▁yağmurlar	-10.354
Yirmi	-10.3542
▁ufak	-10.3548
▁teker	-10.355
▁amca	-10.3551
ez	-10.3551
Aklıma	-10.3556
Rahmet	-10.3556
▁köprü	-10.3559
▁cami	-10.356
abilmek	-10.3565
▁baharda	-10.3569
▁derse	-10.3571
ad	-10.3578
oysa	-10.3579
▁öldürür	-10.3581
▁düşünür	-10.3582
Gidiyorum	-10.3583
Millet	-10.3585
Kelimeler	-10.3593
▁geliyorum	-10.3595
▁tomurcuk	-10.3596
▁derdime	-10.3599
▁gözden	-10.3599
deli	-10.3599
▁neyin	-10.3601
▁kıymetini	-10.3603
Benimle	-10.3605
▁kurmuş	-10.3608
Masum	-10.3608
▁volkan	-10.361
▁taşıyan	-10.3612
bey	-10.3612
▁gecesi	-10.3613
I	-10.3615
▁şekil	-10.3616
▁parmak	-10.3618
▁ciğer	-10.3628
▁kendim	-10.3631
Şöyle	-10.3633
▁yoksul	-10.3634
▁geleceğim	-10.3635
Asıl	-10.3635
▁derdine	-10.3638
dığını	-10.3639
▁esti	-10.3645
▁gülüş	-10.3645
▁sırrı	-10.3645
Gözlerime	-10.3648
çünkü	-10.3649
▁yu	-10.3652
Na	-10.3654
Bilir	-10.3659
rem	-10.3659
▁geldiğinde	-10.366
▁çocuğun	-10.3662
▁korkusu	-10.3662
▁indir	-10.3666
▁ayrılma	-10.3672
▁yıllık	-10.3676
▁dudak	-10.3676
Kardeş	-10.3677
▁dolup	-10.3677
▁hay	-10.3681
Nefret	-10.3682
Va	-10.369
▁Çanakkale	-10.369
▁yüzümü	-10.3698
anla	-10.3702
▁bence	-10.3703
▁eğlen	-10.3704
Merhamet	-10.3705
▁işim	-10.3705
▁gördük	-10.3706
▁bağrına	-10.3706
Özledim	-10.3707
▁seveceğim	-10.371
▁ürkek	-10.3712
▁kurar	-10.3712
▁basar	-10.3716
▁layık	-10.3717
saydı	-10.3718
likle	-10.3721
▁kuytu	-10.3722
▁doğacak	-10.3723
▁kala	-10.3723
▁koyu	-10.3726
▁değiştir	-10.3728
▁aldığım	-10.373
▁denizin	-10.373
▁kapılar	-10.373
▁sök	-10.3731
▁sabret	-10.3733
▁kab	-10.374
enler	-10.3743
Yüreğinde	-10.3747
melisin	-10.3748
▁kapıyı	-10.3749
▁gülümse	-10.3752
lidir	-10.3756
▁ozan	-10.3759
▁gitmiyor	-10.3763
hat	-10.3765
Kes	-10.3768
▁dağıt	-10.3771
▁güneşim	-10.3771
Arada	-10.3772
▁demet	-10.3773
▁takar	-10.3773
Gözlerimi	-10.3776
▁ötesi	-10.3776
▁halka	-10.3777
▁günlerin	-10.378
mize	-10.378
▁başar	-10.3781
Hain	-10.3787
San	-10.3787
▁dururken	-10.3789
▁hırsız	-10.3789
▁edelim	-10.379
Oyun	-10.3795
rik	-10.3801
▁boşluk	-10.3806
onu	-10.3807
bit	-10.3809
af	-10.3819
▁dibi	-10.382
▁koyan	-10.3824
Kimler	-10.3826
Kalbin	-10.3826
liğim	-10.3828
▁resmini	-10.3831
▁verdiğim	-10.3832
▁sırt	-10.3845
▁sadık	-10.3845
▁türküsü	-10.3846
▁aşkımız	-10.3846
▁aşkınla	-10.3858
▁ilmek	-10.386
▁solar	-10.3863
ram	-10.3863
▁Şu	-10.3863
▁zafer	-10.3864
Ardından	-10.3872
taki	-10.3872
ina	-10.3874
Koy	-10.3875
Gözyaşlarım	-10.3875
▁aya	-10.3875
▁eşi	-10.3877
▁başlıyor	-10.3877
▁sema	-10.3879
pa	-10.3883
Mal	-10.3884
▁çekerim	-10.3886
▁yıldızı	-10.3891
▁memleket	-10.3895
▁geçerken	-10.3896
▁yön	-10.3899
▁ağa	-10.3901
ük	-10.3902
Hesap	-10.3904
▁doy	-10.391
▁yetti	-10.3913
▁duyma	-10.3914
▁belkide	-10.3919
▁ağlarken	-10.3919
▁seçer	-10.392
Gözlerimden	-10.3921
Çare	-10.3923
▁eyledim	-10.3924
▁dür	-10.3925
▁saldı	-10.3926
İstemem	-10.3929
layacak	-10.3931
▁Bugün	-10.3934
▁özle	-10.3935
Re	-10.3937
▁bahçesinde	-10.3939
▁göl	-10.394
yorum	-10.3943
üç	-10.395
Şehit	-10.3951
▁biten	-10.3953
▁devir	-10.3957
▁beyler	-10.3958
▁çarp	-10.3958
▁mutlak	-10.3959
eği	-10.3961
▁artar	-10.3965
Hakkı	-10.3968
Hatırla	-10.397
▁düşmanı	-10.3971
Neşe	-10.3974
Sorma	-10.3975
▁biçare	-10.3976
▁gazel	-10.3982
▁vatana	-10.3982
İçin	-10.3983
lıkta	-10.3985
▁mısra	-10.3986
yecek	-10.3989
▁tur	-10.4001
▁başımdan	-10.4002
▁ölüyor	-10.4004
▁kadını	-10.4005
yak	-10.4007
▁katan	-10.401
Yakın	-10.4013
Uğruna	-10.402
▁açılan	-10.4023
mıştır	-10.4027
hasret	-10.4029
▁aniden	-10.403
▁yansın	-10.4031
Hakkın	-10.4033
Hakikat	-10.4034
▁gözlerle	-10.4041
▁Yaradan	-10.4041
Alıp	-10.4043
bul	-10.4043
Dik	-10.4046
▁telefon	-10.4052
fer	-10.4053
şi	-10.4054
Belkide	-10.4055
tak	-10.4058
Har	-10.4058
▁r	-10.406
▁niyaz	-10.4067
▁çalıyor	-10.4068
▁evin	-10.4068
Kanat	-10.4068
bal	-10.4071
Gökyüzü	-10.4072
▁anlık	-10.4076
▁yapsam	-10.4077
▁ahu	-10.4079
seninle	-10.408
▁si	-10.4081
mazdı	-10.4082
▁konar	-10.4087
Keder	-10.409
dük	-10.4091
▁yapmış	-10.4092
▁dağlarda	-10.4097
Korkma	-10.4098
▁kurdum	-10.41
▁söyledim	-10.4101
▁kömür	-10.4103
▁bakarım	-10.4105
Tanı	-10.4113
▁filiz	-10.4114
▁delik	-10.4116
▁kuvvet	-10.4117
Ömrüm	-10.4117
▁cesaret	-10.4125
Üzülme	-10.4125
Hasan	-10.4129
▁işkence	-10.4132
▁bıraktığın	-10.4138
▁ilahi	-10.4138
▁kas	-10.4138
İçimi	-10.4142
▁dürüst	-10.4143
▁dermanı	-10.4145
▁gidi	-10.4151
▁yalnızım	-10.4151
gın	-10.4153
▁bedenin	-10.4153
tılar	-10.4153
▁varmı	-10.4154
▁üstün	-10.4156
Sevginin	-10.4158
▁gördüğün	-10.4159
▁seveni	-10.416
▁yolundan	-10.416
▁üzgün	-10.4162
gim	-10.4165
▁suyun	-10.4167
▁çevre	-10.417
▁tadını	-10.4172
▁bat	-10.4172
ğu	-10.4173
▁doğa	-10.4174
Tekrar	-10.4174
▁bulamaz	-10.4175
▁koşan	-10.4175
Herşey	-10.4178
▁ayıp	-10.4178
or	-10.4179
bat	-10.4179
▁köpek	-10.4185
Fazla	-10.4187
Zamanın	-10.4188
▁desin	-10.4189
▁ac	-10.4201
▁yapı	-10.4203
Dertli	-10.4205
yap	-10.4208
laştı	-10.4214
Kendime	-10.4218
▁pas	-10.4221
▁olabilir	-10.4223
▁ela	-10.4229
kın	-10.4231
▁giren	-10.4232
uzun	-10.4235
▁bakarak	-10.4238
▁kadere	-10.4241
▁ku	-10.4243
▁mutsuz	-10.4247
umuz	-10.425
▁yalnızca	-10.4255
▁değerli	-10.4256
▁kimseler	-10.4257
biliyorum	-10.4263
▁sevmeye	-10.4266
▁ibadet	-10.4268
▁kalıp	-10.4269
Eş	-10.4271
çık	-10.4272
ed	-10.4273
▁hülya	-10.4278
ysan	-10.4281
os	-10.4282
▁imtihan	-10.4285
▁Gönül	-10.4285
Tan	-10.4286
▁onların	-10.4287
▁anlatmak	-10.429
▁eşsiz	-10.4291
▁deva	-10.4295
ılıp	-10.4296
▁gelsen	-10.4296
Vefasız	-10.4296
▁namus	-10.4297
▁sevdiği	-10.4302
▁sey	-10.4303
▁dağın	-10.4305
▁dağa	-10.431
he	-10.4314
Dertler	-10.4318
▁resmin	-10.432
▁coş	-10.4322
mışlar	-10.4322
▁sanıyor	-10.4323
▁batı	-10.4326
ok	-10.4326
▁aklın	-10.4329
Ağlamak	-10.4336
▁buluş	-10.4338
ger	-10.434
▁mezara	-10.4343
luyor	-10.4346
Rahat	-10.4351
Kah	-10.4357
▁sonuna	-10.4358
Bunun	-10.436
▁böl	-10.436
▁yaşını	-10.436
Se	-10.4361
▁efkar	-10.4362
▁kop	-10.4365
▁doğuyor	-10.4366
▁bileyim	-10.4366
▁ömrümün	-10.4368
▁aziz	-10.437
G	-10.4374
▁yut	-10.4379
lıktan	-10.4379
▁iyilik	-10.4381
uç	-10.4382
Kol	-10.4382
▁bulurum	-10.4384
Saf	-10.4391
▁gülmek	-10.4392
Beraber	-10.4393
▁eylül	-10.4394
▁utansın	-10.4398
▁esiyor	-10.4399
▁”	-10.4403
▁sek	-10.4404
▁bebeğim	-10.4405
▁gafil	-10.4407
Sözlerin	-10.4408
▁Gün	-10.4411
laşmış	-10.4418
başı	-10.4421
▁taşıyor	-10.4422
▁bağrıma	-10.4424
▁gecelerin	-10.4425
▁kaçtı	-10.4427
Saat	-10.4428
Öylesine	-10.4431
Şah	-10.4431
▁hâlâ	-10.4432
▁girme	-10.4434
▁bildiğin	-10.4434
Dilerim	-10.4435
ullah	-10.4445
Duygu	-10.4446
▁kadınlar	-10.445
▁anar	-10.4451
▁yaptığın	-10.4451
Umutlar	-10.4454
▁yaklaş	-10.4459
Yaradan	-10.446
▁akla	-10.4461
▁arasından	-10.4464
▁yazın	-10.4464
Kurşun	-10.4465
▁ask	-10.4468
▁kalsa	-10.4472
▁çözüm	-10.4474
▁anlama	-10.4475
▁görünmez	-10.4475
▁dolusu	-10.4477
zı	-10.4477
▁beyin	-10.4481
tiğim	-10.4481
ku	-10.4481
▁sesler	-10.4481
Kulak	-10.4484
▁bahara	-10.4484
▁çekiyor	-10.4485
▁düşmez	-10.449
▁karlar	-10.4493
▁görürsün	-10.4493
▁sığdır	-10.4496
▁ot	-10.4497
▁gösterir	-10.4498
▁sızım	-10.45
▁belirsiz	-10.4502
Binlerce	-10.4504
▁nara	-10.451
yaş	-10.4513
asım	-10.4514
▁kale	-10.4514
▁üz	-10.4515
▁dış	-10.4515
▁kus	-10.452
▁kavuşmak	-10.4523
Büyü	-10.4524
Hakka	-10.4525
▁kaçır	-10.453
▁kolum	-10.4533
erim	-10.4534
▁başta	-10.4535
▁yıldızları	-10.4541
▁buruk	-10.4544
şık	-10.4545
Rüzgâr	-10.4553
▁olmuştu	-10.4554
▁tohum	-10.4555
▁boynu	-10.4555
Sevdalı	-10.456
Ağlayan	-10.456
amayan	-10.4561
▁hikmet	-10.4562
yaşa	-10.4565
▁art	-10.4565
▁sözde	-10.4571
▁ko	-10.4573
▁döküldü	-10.4577
Bırakıp	-10.4579
▁küfür	-10.458
▁ettiğim	-10.4581
▁arz	-10.4581
▁dualar	-10.4585
▁yanlız	-10.4586
Buna	-10.4587
▁vardın	-10.4588
▁gözde	-10.4592
dön	-10.4599
herkes	-10.4599
▁dumanı	-10.4599
gözlerim	-10.4603
ulmuş	-10.4605
▁topraklar	-10.4606
▁Ay	-10.4606
▁bereket	-10.4607
▁sızlar	-10.4612
▁ölmüş	-10.4614
ydu	-10.4615
▁bitmedi	-10.4615
▁narin	-10.4625
▁olursan	-10.4625
▁usulca	-10.4626
▁amel	-10.4629
ilecek	-10.4629
▁kurudu	-10.4634
Ka	-10.4637
Toprağın	-10.4638
aşkın	-10.4641
▁kanayan	-10.4643
diniz	-10.4645
▁sade	-10.4647
▁görsün	-10.4648
üstü	-10.465
▁hüznü	-10.4652
kış	-10.4654
Unutmak	-10.4655
Seher	-10.4658
▁gözünden	-10.4659
Açık	-10.4659
Gelme	-10.466
▁vurdum	-10.4662
▁gelmedin	-10.4666
kçe	-10.4667
▁kayboldu	-10.4668
▁kızgın	-10.4672
▁ekmeği	-10.4673
▁dola	-10.4675
▁hemde	-10.4677
▁meltem	-10.4678
Kay	-10.468
▁sevmiştim	-10.4682
Kaldır	-10.4683
Utan	-10.4686
ğını	-10.4686
▁uğra	-10.4687
▁sarılır	-10.469
▁kırıldı	-10.4694
Burada	-10.4696
▁tarla	-10.4697
şiir	-10.4699
ünce	-10.4699
▁gelmeden	-10.4701
hi	-10.4703
▁görsen	-10.4704
▁kılıç	-10.4705
▁diline	-10.4705
▁acıları	-10.4713
▁tutmak	-10.4721
▁ziyan	-10.4722
Öfke	-10.4725
▁artik	-10.4726
▁kalırsın	-10.4728
lenme	-10.4728
Kafa	-10.473
Elini	-10.4733
▁vatanım	-10.474
▁aklımdan	-10.4741
ağla	-10.4743
Henüz	-10.4747
▁papatya	-10.4749
Olsun	-10.4752
▁hafta	-10.4755
dukça	-10.4755
▁duyur	-10.476
▁isim	-10.4761
▁yaşına	-10.4761
▁bilemedim	-10.4762
söz	-10.4764
▁dayanır	-10.4764
▁kokusunu	-10.4764
▁saatler	-10.4765
▁girmiş	-10.4765
▁hav	-10.4768
seler	-10.4769
Ozan	-10.4772
▁dini	-10.4774
ro	-10.4777
▁çekilir	-10.4782
Bilmez	-10.4785
▁oldukça	-10.4787
Yokluğunda	-10.479
Ayrıl	-10.479
mden	-10.4791
▁Allahım	-10.4794
▁aklımı	-10.4798
Ba	-10.4799
▁dayı	-10.4799
ör	-10.48
lerdi	-10.4807
▁güzelliği	-10.481
▁kalpler	-10.4812
▁roman	-10.4817
▁ellerine	-10.4819
anın	-10.4826
üşü	-10.4828
▁peygamber	-10.4828
▁yarama	-10.4834
▁yaşadığım	-10.4834
İnsanları	-10.4839
▁kötülük	-10.4846
▁deyince	-10.4848
Sür	-10.4861
▁görmüş	-10.4862
▁teni	-10.4864
Ferhat	-10.4865
▁berrak	-10.4865
Aklı	-10.4873
▁çağ	-10.4873
▁rengini	-10.4878
▁tutam	-10.488
▁güzellikler	-10.4884
▁yokluk	-10.4888
▁Hayat	-10.4891
▁gözlere	-10.4893
▁sevip	-10.4898
▁huzuru	-10.4899
Diğer	-10.4901
▁gurbette	-10.4901
▁kanma	-10.4902
▁aslı	-10.4906
Ağaçlar	-10.4908
liyorum	-10.4909
▁yaşın	-10.4914
▁renkler	-10.4915
izi	-10.4919
▁kazı	-10.4922
Ruhumu	-10.4924
Y	-10.4924
▁dala	-10.4925
▁delice	-10.4927
▁mudur	-10.4927
▁hırçın	-10.4929
Naz	-10.4931
▁tarafı	-10.4932
▁versen	-10.4935
Gittiğin	-10.4935
▁çağla	-10.4936
▁sınır	-10.4936
▁nesil	-10.4939
▁baka	-10.4939
▁dindir	-10.494
▁bulmuş	-10.4941
▁yinede	-10.4942
Öp	-10.4947
▁alemi	-10.4949
▁alay	-10.4951
▁ışığında	-10.4954
amadı	-10.4961
▁Ahmet	-10.4965
▁doku	-10.4968
Gözümde	-10.4969
▁öldüm	-10.4971
▁yaprakları	-10.4972
▁kullar	-10.4973
▁düşünmek	-10.4978
düğüm	-10.4981
▁duvarlar	-10.4987
leş	-10.4987
▁yapsın	-10.4989
▁yıktı	-10.4991
▁göğüs	-10.4991
▁tükenmez	-10.4993
▁naçar	-10.4993
▁demem	-10.4998
▁nedense	-10.5
▁hız	-10.5002
▁bar	-10.5006
Temiz	-10.5006
▁ortada	-10.5006
Alış	-10.5009
▁demektir	-10.501
leştir	-10.5012
Ayak	-10.5013
ıver	-10.5014
▁mülk	-10.5015
▁koydun	-10.5015
▁gun	-10.5015
Çalış	-10.502
▁farkı	-10.5021
▁gülümseme	-10.5021
▁hepsini	-10.5024
▁damar	-10.5025
▁gebe	-10.5025
Bitti	-10.5025
Ellerini	-10.5028
▁sağa	-10.503
▁gide	-10.5035
▁kışın	-10.5037
▁yazılan	-10.5038
sunu	-10.5044
▁güldü	-10.5045
Bilin	-10.5045
▁rehber	-10.5046
▁toplar	-10.5047
▁durmuş	-10.5049
▁düşüp	-10.5052
▁taşları	-10.5064
likte	-10.5067
lem	-10.5067
▁olay	-10.5069
▁çıktım	-10.507
▁seda	-10.5072
▁gelmek	-10.5075
yüreğim	-10.5079
irim	-10.508
▁ayağa	-10.5083
▁benle	-10.5084
▁duydum	-10.5089
▁bomboş	-10.5091
Kap	-10.5093
▁yeme	-10.5093
▁miras	-10.51
▁seve	-10.5101
▁azap	-10.5109
düğün	-10.511
▁teri	-10.5114
▁satan	-10.5114
▁altından	-10.5117
Orada	-10.5119
Onca	-10.512
▁yaramı	-10.5121
▁Sultan	-10.5122
▁pir	-10.5123
▁muydu	-10.5125
ih	-10.5126
▁hücre	-10.5127
Demir	-10.5128
Sap	-10.5128
▁ezelden	-10.5129
Mah	-10.5132
▁seneler	-10.5138
malıyız	-10.5139
▁Yusuf	-10.514
▁ömre	-10.5143
▁oturup	-10.5143
Issız	-10.5145
▁arasına	-10.5145
▁ruhumda	-10.5146
▁hakka	-10.5149
▁bağlayan	-10.5151
▁otuz	-10.5154
▁ekle	-10.5154
▁korkar	-10.5156
▁haksız	-10.5157
sunuz	-10.5159
▁değdi	-10.5161
▁yum	-10.5162
Çöz	-10.5162
▁söylemek	-10.5164
▁verilen	-10.5164
▁aşkta	-10.5168
▁akıllı	-10.5168
▁söyleyen	-10.5169
▁?	-10.5171
▁götürdü	-10.5174
kul	-10.5178
Kazan	-10.5178
▁yari	-10.5181
Laf	-10.5183
▁eyvah	-10.5183
▁yaratmış	-10.5184
▁bilemezsin	-10.5185
Dile	-10.5188
gözlerin	-10.5189
Namaz	-10.5189
▁anında	-10.5192
▁dokunur	-10.5199
▁gitsem	-10.52
▁inanma	-10.5202
▁dışarı	-10.5211
▁çıkmıyor	-10.5214
ledi	-10.5214
▁kilit	-10.5217
▁değilse	-10.522
▁cihanda	-10.5221
▁mevsimler	-10.5222
▁aşığım	-10.5223
▁ga	-10.5225
▁harap	-10.5225
öz	-10.5228
Veya	-10.523
▁film	-10.5233
Sessizce	-10.5234
mıydı	-10.5235
Birden	-10.5235
Korkuyorum	-10.5242
▁tık	-10.5245
Kimin	-10.5245
▁aramızda	-10.5249
Me	-10.5254
mer	-10.5254
▁kandil	-10.5257
▁acısını	-10.526
...!	-10.526
▁işine	-10.5263
Kimsenin	-10.5267
▁ağız	-10.5269
mayınca	-10.527
▁sahil	-10.5283
▁atmak	-10.5284
daş	-10.5284
▁Hakka	-10.5285
köy	-10.5285
▁ed	-10.5287
Elin	-10.5289
▁z	-10.529
şir	-10.529
▁yaktım	-10.5292
▁kaşı	-10.5292
ümüz	-10.5296
▁diyenler	-10.5297
▁sevgiden	-10.5299
Vazgeç	-10.5304
Size	-10.5305
▁süzülen	-10.5309
▁yürekleri	-10.5311
▁zincir	-10.5313
▁gönüllere	-10.5313
Kat	-10.5314
Ön	-10.5316
▁değeri	-10.5318
▁yorgan	-10.5319
▁sele	-10.532
▁Ha	-10.5321
diğimiz	-10.5323
▁önde	-10.5325
iyim	-10.5327
▁sürün	-10.5327
▁değmez	-10.5328
▁kaybolur	-10.5331
▁kapımı	-10.5331
▁benziyor	-10.5333
ozan	-10.5336
Asker	-10.5336
▁salan	-10.5337
kap	-10.5342
Gözlerinden	-10.5343
Taşı	-10.5344
Bahçe	-10.5348
▁sevmem	-10.5349
▁durum	-10.5349
nan	-10.5352
yat	-10.5358
▁attın	-10.5358
▁A	-10.536
Sular	-10.5361
▁seversin	-10.5365
▁yaşamayı	-10.5371
Tövbe	-10.5374
▁hüküm	-10.5375
▁severken	-10.5375
▁kırma	-10.5377
▁kokunu	-10.538
▁bozar	-10.538
▁vurdun	-10.5383
▁seller	-10.5384
▁ışıklar	-10.5384
Top	-10.5386
tiğin	-10.5386
▁gençliğim	-10.5387
ateş	-10.5387
▁eker	-10.5394
▁gaflet	-10.5396
Dolu	-10.5399
▁ibaret	-10.5401
layarak	-10.5404
▁kıvılcım	-10.5406
▁duymak	-10.5408
▁denk	-10.5409
Hatır	-10.541
▁ci	-10.541
▁gideceğim	-10.5412
▁görse	-10.5412
▁üzül	-10.5416
▁kalbimden	-10.5417
Nede	-10.5417
Sevdam	-10.5418
lerimde	-10.5418
▁denizi	-10.542
Bulut	-10.5421
▁yaprağı	-10.5421
mur	-10.5422
imden	-10.5428
Bitmez	-10.5429
dayan	-10.5432
▁yem	-10.5433
H	-10.5433
▁kibir	-10.5434
▁adımı	-10.5438
▁edilmiş	-10.5442
▁baca	-10.5442
▁sultanım	-10.5442
▁ban	-10.5445
▁güzele	-10.5453
▁üzme	-10.5454
▁göklere	-10.5454
▁gölgesi	-10.5455
▁daldı	-10.5455
▁taht	-10.5455
Bağır	-10.5455
▁açıyor	-10.5457
▁eyledin	-10.5461
Alem	-10.5463
Elim	-10.5464
▁karlı	-10.5464
▁mücadele	-10.5465
Birkaç	-10.5467
▁irfan	-10.5471
▁yetmedi	-10.5473
▁istediğin	-10.5477
_	-10.5483
▁dışında	-10.5487
tal	-10.549
▁akın	-10.5492
▁serçe	-10.5492
Bilinmez	-10.5495
▁rüzgarı	-10.5496
Pişman	-10.5497
Kimseler	-10.5497
ligi	-10.5497
▁dibine	-10.5497
ülür	-10.5499
Kerem	-10.5499
luğunu	-10.5499
▁yapılan	-10.5499
▁yazıyor	-10.5501
▁yokuş	-10.5502
▁olmaktan	-10.5505
id	-10.5505
▁özlerim	-10.5506
kül	-10.5512
Sesini	-10.5513
▁leyla	-10.5514
▁gidiş	-10.5516
Geldi	-10.5516
▁aleme	-10.5517
seydim	-10.5518
▁dolaşan	-10.5519
▁çağrı	-10.5522
Okul	-10.5522
tayım	-10.5523
▁bağışla	-10.5524
▁leke	-10.5525
▁efendi	-10.5527
▁damlası	-10.5531
▁katil	-10.5536
Gittin	-10.5537
▁erdi	-10.5537
sanız	-10.5537
Ölümü	-10.5542
▁sandık	-10.5542
▁tarafta	-10.5543
▁yele	-10.5543
▁yatak	-10.5548
▁köşesinde	-10.5548
▁ş	-10.5552
▁çalışan	-10.5554
▁gidersen	-10.5559
▁erenler	-10.5561
▁salın	-10.5561
▁kısmet	-10.5565
▁boynunu	-10.5565
▁eskisi	-10.5566
▁gözlerde	-10.5567
▁adeta	-10.5569
▁kubbe	-10.557
▁hayale	-10.5576
▁Er	-10.5578
Ci	-10.5579
▁isteme	-10.5587
▁ışıkları	-10.5588
▁istanbul	-10.5588
boş	-10.559
kur	-10.5594
Mevla	-10.5597
▁gereken	-10.5598
▁secde	-10.5598
▁üzüm	-10.5598
▁çekil	-10.5599
▁plan	-10.5599
▁yiğitler	-10.5601
▁tertemiz	-10.5601
Toprağa	-10.5603
▁tadında	-10.5604
laşan	-10.5605
Merak	-10.5605
Affet	-10.5608
▁halinde	-10.5608
▁bırakmaz	-10.561
Nerden	-10.5611
Mevsimler	-10.5612
▁binbir	-10.5615
▁aylar	-10.5616
▁lale	-10.5616
▁martılar	-10.5617
Pencere	-10.562
laşma	-10.5621
...!¬	-10.5621
▁koptu	-10.5624
▁delikanlı	-10.5624
▁şaka	-10.5626
Yetim	-10.5631
Arka	-10.5634
▁alt	-10.5637
nla	-10.5637
▁gor	-10.5638
Arkadaş	-10.564
Yinede	-10.5641
▁tarif	-10.565
▁ararsın	-10.565
Varsa	-10.5658
zan	-10.5658
▁dışı	-10.5658
▁bay	-10.5658
▁gideyim	-10.5658
uyu	-10.5663
▁çakıl	-10.5665
▁nankör	-10.5669
▁sesine	-10.5672
▁dedikleri	-10.5672
▁Me	-10.5672
▁dinlemez	-10.5674
▁tuttum	-10.5675
▁toprakta	-10.5676
Lanet	-10.5679
▁ısıt	-10.5679
▁oraya	-10.5681
▁kızlar	-10.5682
▁bucaksız	-10.5684
Ankara	-10.5685
Gönüller	-10.5687
ab	-10.5689
▁kesin	-10.569
▁ismi	-10.5694
Duman	-10.5702
ayı	-10.5704
▁kapa	-10.5704
▁uçurum	-10.5706
▁çölde	-10.5709
Güneşi	-10.5709
▁pişmanlık	-10.5715
▁kral	-10.5717
tırır	-10.5717
▁dene	-10.5718
▁diyemedim	-10.5719
Sıla	-10.572
Af	-10.5723
▁halı	-10.5724
▁yıka	-10.5724
masını	-10.5725
▁sevmiş	-10.5727
▁kolu	-10.5729
Kalbi	-10.573
ğim	-10.5731
▁müjde	-10.5731
▁kurumuş	-10.5732
Sitem	-10.5732
▁yılları	-10.5734
sanda	-10.5735
Otur	-10.5736
▁mekân	-10.5737
diğini	-10.5738
▁battı	-10.5738
sol	-10.5743
Pek	-10.5744
Acaba	-10.5745
bende	-10.5746
urum	-10.575
▁nişan	-10.5751
Sevenler	-10.5752
▁bayrağım	-10.5753
▁tutuyor	-10.5754
He	-10.5755
Niçin	-10.5756
▁gönüllerde	-10.5758
▁avut	-10.5758
▁tanrı	-10.5759
Onların	-10.5761
▁la	-10.577
▁kemik	-10.5774
▁herkesi	-10.5775
▁akıt	-10.5782
▁anlayan	-10.5783
▁yönel	-10.5785
▁etmeye	-10.5785
▁kokla	-10.579
▁gelmesin	-10.5793
▁zahmet	-10.5794
▁olamam	-10.5794
Gider	-10.5796
▁karın	-10.5796
▁boynuma	-10.5797
Yavaş	-10.5797
Fe	-10.5797
mayalım	-10.5798
▁başkadır	-10.5798
▁bembeyaz	-10.5798
▁kaybol	-10.5798
Sarhoş	-10.5799
uldu	-10.5801
eceğini	-10.5802
mazdım	-10.5803
İp	-10.5803
Ulu	-10.5804
kol	-10.5806
▁gözümün	-10.5808
▁milyon	-10.5809
▁kardelen	-10.581
hir	-10.5816
Koş	-10.5816
Mehmet	-10.5819
İnsanların	-10.5822
yarın	-10.5824
▁tenim	-10.5824
▁fa	-10.5828
▁derki	-10.5828
İt	-10.5834
▁bilip	-10.5836
▁buralarda	-10.5838
menin	-10.5839
Yaşlı	-10.584
mavi	-10.5841
▁dünden	-10.5846
▁susma	-10.5846
▁gözümü	-10.5848
▁yollarında	-10.5849
Bile	-10.585
Geçti	-10.5852
▁gar	-10.5855
▁gelirse	-10.5856
anne	-10.5857
▁havası	-10.5863
▁sin	-10.5867
▁zamandır	-10.5874
▁tokat	-10.5874
kimse	-10.5875
sim	-10.5878
mizde	-10.5878
hu	-10.588
▁buse	-10.5881
▁Öyle	-10.5882
▁söyleyin	-10.5883
▁ca	-10.5883
▁küçücük	-10.5884
▁edeyim	-10.5887
Orda	-10.5891
▁diyeyim	-10.5893
vatan	-10.5895
▁yarayı	-10.5897
▁kalkan	-10.5899
▁aşkıyla	-10.5901
Hayatta	-10.5903
lanacak	-10.5905
lerimin	-10.5911
▁kaygı	-10.5914
▁önünden	-10.5923
allah	-10.5924
▁değişir	-10.5927
▁okyanus	-10.5928
▁kok	-10.5928
▁ahlak	-10.5929
▁medet	-10.593
▁hukuk	-10.5932
▁sual	-10.5933
Hergün	-10.5933
▁kaderin	-10.5936
Sesin	-10.594
▁uyanır	-10.594
Dağların	-10.5941
▁ellerinden	-10.5941
Gördüğüm	-10.5941
▁ızdırap	-10.5942
▁yatıyor	-10.5942
eski	-10.5943
▁yarat	-10.5948
Yüzüne	-10.5949
Geçmiş	-10.595
▁sevdadan	-10.5952
▁yanımı	-10.5953
Geriye	-10.5955
llah	-10.5957
mazsan	-10.5958
bel	-10.5959
▁fakat	-10.5961
▁suçu	-10.5961
▁taşına	-10.5965
Gözlerimin	-10.5966
▁birinde	-10.5968
▁yiyen	-10.5969
▁şeyim	-10.5971
▁bahtım	-10.5972
▁gülüp	-10.5983
▁dilden	-10.5984
▁bedeli	-10.5985
yara	-10.5986
▁bakışı	-10.5988
acağını	-10.5992
Başım	-10.5993
▁bucak	-10.5995
Akar	-10.5997
▁izle	-10.5998
duy	-10.5998
▁sıcacık	-10.5998
tuk	-10.6
▁diler	-10.6001
kız	-10.6002
▁kırar	-10.6004
▁denizinde	-10.6004
▁olsaydım	-10.6005
▁hastalık	-10.6008
▁sensizliğe	-10.6008
yeceğim	-10.6009
▁bülbüller	-10.6009
Yüzünü	-10.601
▁görev	-10.6021
▁ölümsüz	-10.6022
per	-10.6024
▁aptal	-10.6025
▁söylerim	-10.6027
▁özlemi	-10.6028
Sonbahar	-10.6028
▁saçları	-10.6028
▁ab	-10.603
val	-10.6035
▁tenin	-10.6042
▁yorum	-10.6043
Adem	-10.6044
lıdır	-10.6044
▁l	-10.6044
▁kork	-10.6046
İçine	-10.6046
▁savur	-10.605
Ez	-10.6054
▁soruyor	-10.6058
imize	-10.606
▁titrer	-10.606
▁temel	-10.6061
▁varlığın	-10.6062
râ	-10.6064
▁haş	-10.607
▁tanıdım	-10.607
▁canımdan	-10.6071
Çanakkale	-10.6071
▁kanadı	-10.6072
,¬.....	-10.6074
▁çıktın	-10.6077
abilsem	-10.6079
▁Çok	-10.6081
onun	-10.6081
▁servet	-10.6082
üne	-10.6083
▁tara	-10.6091
▁dayanmaz	-10.6091
▁arkasında	-10.6092
▁Hani	-10.6092
▁gözlerinle	-10.6092
▁yığın	-10.6094
Onunla	-10.6096
▁acıya	-10.6097
▁aştı	-10.6097
yana	-10.6099
imsin	-10.61
Yuva	-10.6105
Öğretmen	-10.6107
▁hisset	-10.6108
▁duru	-10.611
ıyorlar	-10.6111
▁bag	-10.6111
▁dolanır	-10.6113
Mutluluğu	-10.6114
▁zamanla	-10.6115
▁pırıl	-10.6117
▁kırılır	-10.6117
Oyna	-10.6119
▁uğrunda	-10.6125
▁hasretle	-10.6129
kör	-10.6133
▁köylü	-10.6134
▁sevmedim	-10.6135
lari	-10.6136
▁çekilmez	-10.6136
▁yoksan	-10.6136
Muhammed	-10.6137
Bakışların	-10.6138
Melekler	-10.6138
▁sürme	-10.6141
Kabul	-10.6142
nle	-10.6143
▁geçme	-10.6144
▁özünde	-10.6144
seydi	-10.6146
▁yurdum	-10.6146
anlat	-10.615
ışık	-10.6151
Tıpkı	-10.6152
▁oluk	-10.6152
▁birtanem	-10.6156
▁nasihat	-10.6157
▁saçma	-10.6159
zor	-10.616
Ansızın	-10.6162
Biliyor	-10.6162
beyaz	-10.6162
Aklımı	-10.6163
luğum	-10.6163
▁çalı	-10.6165
▁uçtu	-10.6172
▁olmam	-10.6172
▁yürekli	-10.6174
▁baharın	-10.6175
Elleri	-10.6175
Parça	-10.6176
pe	-10.6184
Cam	-10.6184
▁değiş	-10.6185
▁batıyor	-10.6186
▁yanarken	-10.6188
▁tutmuyor	-10.6188
▁düşünmeden	-10.619
meyince	-10.6191
Ümit	-10.6192
▁meleğim	-10.6195
▁görünen	-10.6195
▁haberi	-10.6196
umut	-10.6199
▁yanmış	-10.6201
▁dudaklar	-10.6201
▁tuhaf	-10.6202
▁sunar	-10.6203
Derdim	-10.6203
▁büyüyor	-10.6204
Yunus	-10.6208
▁umutsuz	-10.6209
sidir	-10.621
▁ellerimden	-10.6211
ğında	-10.6212
▁aradan	-10.6212
Yanan	-10.6216
▁giz	-10.6216
düğü	-10.6217
Emek	-10.6218
iyoruz	-10.622
▁şöhret	-10.622
▁hırs	-10.6224
▁şart	-10.6225
▁Al	-10.6226
yuz	-10.623
▁Yunus	-10.6231
ulu	-10.6232
▁aldanma	-10.6232
sabah	-10.6234
▁çarpar	-10.6234
▁tanımaz	-10.6234
▁ikimiz	-10.6235
▁koydu	-10.6236
▁armağan	-10.6237
▁saadet	-10.6237
içimde	-10.6238
▁bilmediğim	-10.6242
▁doğruyu	-10.6243
▁pusu	-10.6247
▁kaderi	-10.6247
İyilik	-10.6249
▁ayın	-10.6251
Başını	-10.6251
cuk	-10.6251
▁teline	-10.6254
Başımı	-10.6256
▁getiren	-10.6257
Uykusuz	-10.6258
▁zayıf	-10.626
▁hat	-10.6262
sının	-10.6262
▁edep	-10.6266
çocuk	-10.6266
▁açıldı	-10.6267
Be	-10.6268
▁yapayım	-10.6269
▁göreyim	-10.627
▁sınav	-10.6273
▁yılların	-10.6276
rım	-10.628
hayal	-10.6281
Has	-10.6282
üş	-10.6286
▁emri	-10.6286
▁asılı	-10.6288
▁emmi	-10.6288
▁sevdin	-10.6294
▁bulanık	-10.6297
▁yedim	-10.6297
dadır	-10.63
▁biçer	-10.6301
▁insanoğlu	-10.6303
▁oyuncak	-10.6304
▁zamanlarda	-10.6304
▁özür	-10.6305
▁leş	-10.6308
Gülüşün	-10.6308
▁yıllara	-10.6309
▁solgun	-10.6314
ınla	-10.6314
Döner	-10.6319
▁şaşar	-10.632
▁diyordu	-10.6323
▁sız	-10.6326
ımsın	-10.633
İçimden	-10.6332
Varlığın	-10.6332
Özgürlük	-10.6334
▁yağma	-10.6335
▁yöne	-10.6335
Nazlı	-10.6335
▁pes	-10.6337
Duygular	-10.6338
▁birbirimize	-10.6342
▁özlemin	-10.6342
emedik	-10.6344
▁bendim	-10.635
Sevgin	-10.6351
▁illet	-10.6352
▁yardan	-10.6352
ladın	-10.6352
▁ahir	-10.6354
▁isterse	-10.6354
▁göçer	-10.6357
▁titriyor	-10.6357
▁kapısını	-10.6357
▁sarılıp	-10.636
Boyun	-10.6362
mutlu	-10.6363
▁solan	-10.6369
▁Gel	-10.637
ham	-10.637
▁cenneti	-10.6371
▁edilen	-10.6371
Fehmi	-10.6374
▁sustu	-10.6377
▁tad	-10.6377
▁küskün	-10.6377
▁sözünde	-10.6381
▁ilgi	-10.6382
▁sevecek	-10.6384
▁dertleri	-10.6387
▁bahçesi	-10.6388
▁kelepçe	-10.639
lanmaz	-10.6392
nıla	-10.6395
Toz	-10.6395
ulan	-10.6395
▁düşünüp	-10.6396
▁geçmişi	-10.6396
ot	-10.6398
muşsun	-10.6398
Kahpe	-10.64
Kaderim	-10.6401
▁beğen	-10.6402
▁harca	-10.6402
Kem	-10.6403
▁katı	-10.6403
irsin	-10.6404
Gördüm	-10.6405
▁Dün	-10.6407
enin	-10.6409
lendim	-10.6414
Eskiden	-10.6415
▁Beni	-10.6416
▁bağrımı	-10.6418
▁go	-10.642
▁almaya	-10.6421
lendir	-10.6422
Hicran	-10.6422
As	-10.6422
▁düşünceler	-10.6422
miştir	-10.6423
▁siler	-10.6423
Aile	-10.6424
▁bağında	-10.6427
Bilirsin	-10.6427
▁getirdi	-10.6433
▁gri	-10.6434
▁rezil	-10.6435
▁sevmekten	-10.6439
▁ömrüme	-10.6439
Ağlar	-10.6444
Nerdesin	-10.6446
▁açma	-10.6447
İnci	-10.6447
Yiğit	-10.6448
▁bomba	-10.6453
▁uyur	-10.6455
▁içini	-10.6462
▁üşüyor	-10.6462
▁yo	-10.6466
ttin	-10.6472
▁küser	-10.6474
▁bildir	-10.6476
▁fır	-10.6478
Fırtına	-10.6479
▁kaybetmiş	-10.6479
▁kaynağı	-10.6481
Kopar	-10.6483
▁bilmezsin	-10.6486
▁ayan	-10.6486
dırır	-10.6489
▁ayrılığın	-10.6489
Durmadan	-10.649
▁saklan	-10.6491
Yakar	-10.6496
▁yaşadık	-10.6497
▁koynuna	-10.6497
▁kaldığım	-10.6498
Ele	-10.6499
▁yakışmaz	-10.6503
▁oğlan	-10.6504
▁kanlar	-10.6506
Vicdan	-10.6507
Düşer	-10.6509
▁arayıp	-10.6511
▁nefesini	-10.6512
▁haykırış	-10.6516
▁tutku	-10.6521
▁etse	-10.6521
▁yaza	-10.6522
▁yaramaz	-10.6524
Kavga	-10.6526
▁sevilen	-10.6526
toprak	-10.6528
mezdim	-10.6534
Haykır	-10.6539
Sözüm	-10.6541
▁yazdı	-10.6542
▁sümbül	-10.6547
▁kel	-10.6549
Onları	-10.655
▁aci	-10.655
▁çukur	-10.6551
▁bayır	-10.6551
yada	-10.6552
▁savaşı	-10.6556
▁işçi	-10.6556
Dalgalar	-10.6558
▁çılgın	-10.6559
▁şi	-10.656
Derdi	-10.6561
▁seviş	-10.6563
yınca	-10.6563
Kurtul	-10.6564
Yardım	-10.6565
Arı	-10.6569
ülen	-10.657
Türlü	-10.657
▁po	-10.658
İnsana	-10.6581
▁yolumu	-10.6582
top	-10.6583
▁aldık	-10.6584
▁mesela	-10.6585
miyim	-10.6586
▁bilemiyorum	-10.6586
▁kaçan	-10.6586
▁tabut	-10.6586
▁tanış	-10.6586
▁etsen	-10.6589
Kapat	-10.6589
▁keman	-10.6589
▁gülmedi	-10.6591
▁görüş	-10.6593
▁girdin	-10.6596
Gören	-10.6598
▁öğüt	-10.6598
▁uyandım	-10.66
▁dokunma	-10.6603
▁anası	-10.6607
▁usandım	-10.6608
cem	-10.661
▁tarihi	-10.661
▁sevinci	-10.661
iste	-10.6611
20	-10.6612
ulun	-10.6614
▁avcı	-10.6614
▁girip	-10.6615
▁feri	-10.6617
Ekmek	-10.6617
▁kederi	-10.6618
Pir	-10.6618
▁bilerek	-10.6622
▁birbirini	-10.6623
▁cıvıl	-10.6624
▁edilir	-10.6624
▁gülme	-10.6627
▁tufan	-10.6627
▁ederler	-10.6628
▁Osman	-10.6629
▁kaza	-10.6629
▁atmış	-10.663
Meydan	-10.6631
Yere	-10.6632
▁serap	-10.6635
Çat	-10.6635
ağım	-10.6636
▁gecem	-10.6639
Güle	-10.664
▁tende	-10.6641
▁kaybetme	-10.6646
▁unutmuş	-10.6647
▁ifade	-10.6648
▁sarıyor	-10.6648
lansın	-10.6649
▁boğar	-10.6652
▁çıldır	-10.6653
şı	-10.6654
▁kollar	-10.6656
▁edil	-10.6657
Sevgiye	-10.6657
Şükür	-10.6657
▁kızın	-10.6658
▁durmak	-10.6658
▁bahtiyar	-10.6659
Sevgisiz	-10.666
İçi	-10.6661
▁göründü	-10.6661
▁nisan	-10.6669
▁dalım	-10.6669
▁tükür	-10.6669
▁mola	-10.6671
▁meyhane	-10.6672
▁man	-10.6674
leşen	-10.6677
▁gardaşım	-10.6679
də	-10.668
dört	-10.668
▁ney	-10.6682
lanmak	-10.6686
▁uzaklardan	-10.6689
par	-10.669
▁uyut	-10.669
cam	-10.669
▁nihayet	-10.6691
▁demedim	-10.6696
▁rakı	-10.6696
▁unuttun	-10.6699
▁beklediğim	-10.6701
▁gaz	-10.6707
▁yenik	-10.671
▁buradan	-10.671
▁düştün	-10.671
baz	-10.6713
▁boğaz	-10.6716
Ab	-10.6716
Öldür	-10.6722
▁ağacın	-10.6722
▁sine	-10.6725
▁sürekli	-10.6726
▁çakal	-10.6726
▁veririm	-10.673
▁sarma	-10.6731
▁ateşin	-10.6737
lım	-10.674
▁yıldızlara	-10.6741
▁korkak	-10.6742
▁baharım	-10.6745
▁doyur	-10.6745
▁sevdiğine	-10.6745
Yağmurlar	-10.6751
▁kucağında	-10.6753
Köşe	-10.6754
▁diş	-10.6754
Unuttum	-10.6755
Peygamber	-10.6758
▁üşüyorum	-10.6759
▁yasta	-10.6762
▁tutuş	-10.6762
üldü	-10.6763
▁bağlama	-10.6764
Hasretim	-10.6769
Ölü	-10.6772
▁sımsıkı	-10.6773
ulmaz	-10.6773
Sokak	-10.6774
▁şimşek	-10.6777
▁ört	-10.6779
Ten	-10.6779
▁düşecek	-10.6779
▁üste	-10.6781
▁nolur	-10.6782
Kıyamet	-10.6787
Kurtar	-10.6789
▁yaren	-10.679
▁çaresi	-10.6794
Gözün	-10.6794
▁sensizliğin	-10.6794
▁sırtında	-10.6795
▁çıksın	-10.6799
▁durursun	-10.6802
▁yalnızlığı	-10.6805
▁süren	-10.6809
▁çöp	-10.6809
İzin	-10.681
▁buraya	-10.681
Göster	-10.6812
▁Ramazan	-10.6815
▁bur	-10.6815
▁cansız	-10.6817
uyorsun	-10.6818
▁fitne	-10.6819
Veda	-10.6819
Mor	-10.6822
Yemin	-10.683
tti	-10.6835
▁kurulur	-10.6836
Derdimi	-10.6836
Don	-10.6841
yacaksın	-10.6842
▁kuşun	-10.6844
▁kalmışım	-10.6845
▁şüphe	-10.6845
▁201	-10.6846
▁yalnızlığın	-10.6847
▁hocam	-10.6848
Ruhun	-10.6848
▁deprem	-10.6849
▁bilecek	-10.6849
▁gülecek	-10.6849
▁yatır	-10.685
▁dişi	-10.6851
▁aksa	-10.6854
▁yitir	-10.6861
▁kollarında	-10.6861
▁denizde	-10.6862
▁lakin	-10.6862
▁odur	-10.6864
Giderken	-10.6866
▁sokaklarında	-10.6866
▁tükenir	-10.6869
▁eğri	-10.687
Kon	-10.6875
▁önüme	-10.6876
▁menekşe	-10.6876
▁bulma	-10.6879
▁anlatmaya	-10.688
mazsın	-10.6881
▁deldi	-10.6881
▁söylesem	-10.6882
▁gündür	-10.6884
▁ellerimde	-10.6886
▁ruhunu	-10.689
▁kurtuluş	-10.689
abı	-10.6891
▁Bana	-10.6892
▁olanın	-10.6893
Yarim	-10.6896
▁kahkaha	-10.6896
meyeceksin	-10.6897
▁içip	-10.6899
▁olduğumu	-10.6901
Üstüne	-10.6901
▁görürüm	-10.6901
▁mis	-10.6903
▁bulmaz	-10.6903
lin	-10.6906
▁şeyleri	-10.6909
▁neyse	-10.691
▁hızla	-10.6912
▁denizler	-10.6912
▁şeytana	-10.6913
Kum	-10.6914
rı	-10.6914
▁Dünya	-10.6914
▁sırdaş	-10.6915
▁kuşları	-10.6917
▁katlan	-10.6917
▁çıkış	-10.692
düşün	-10.692
▁merdiven	-10.6922
▁sözümü	-10.6923
▁demiştin	-10.6923
Bilgi	-10.6926
Sizin	-10.6926
▁kabus	-10.6926
▁eskiden	-10.6926
▁oturur	-10.6927
Bizde	-10.6928
▁cennete	-10.6928
▁manzara	-10.693
▁tart	-10.6934
Sahip	-10.6935
▁bekleyiş	-10.6937
emiyor	-10.6937
▁düzeni	-10.6937
▁olası	-10.6938
Ni	-10.6944
▁diril	-10.6948
▁silin	-10.6948
▁gezerim	-10.6949
sene	-10.6949
▁azgın	-10.6953
▁senli	-10.6955
ıt	-10.6959
Ç	-10.696
Kop	-10.6961
aynı	-10.6961
▁sinsi	-10.6962
▁destek	-10.6965
▁dinmez	-10.6967
▁içimizde	-10.6969
Alır	-10.6969
▁döne	-10.697
Herkese	-10.6972
tme	-10.6973
Kimsesiz	-10.6974
Yüzüme	-10.6975
▁güllerin	-10.6978
▁uzağa	-10.6985
▁riya	-10.6985
▁gölgeler	-10.6986
▁olmamış	-10.6986
mıyorsun	-10.6986
▁şarkıları	-10.6987
▁kışa	-10.6987
Duygularım	-10.6987
Kıymet	-10.6988
▁duyduğum	-10.6989
▁gul	-10.6993
▁ç	-10.6994
▁sıkar	-10.6994
Başı	-10.6995
Kimbilir	-10.6997
muştu	-10.7001
▁saçlarına	-10.7001
Yavru	-10.7002
▁ettiği	-10.7002
▁sıla	-10.7003
Geride	-10.7006
Dostluk	-10.7007
▁töre	-10.7009
Hazır	-10.7011
▁sevmişim	-10.7012
▁kıyısında	-10.7016
▁aldırma	-10.7018
Gençlik	-10.7018
▁y	-10.7019
Bekliyorum	-10.702
▁ö	-10.702
▁anım	-10.7021
Gerek	-10.7022
Aşkınla	-10.7028
Umudum	-10.7028
▁kesilir	-10.7029
▁anlatan	-10.703
lek	-10.703
irken	-10.7031
▁çatı	-10.7032
Gülen	-10.7036
▁kov	-10.7037
▁cümleler	-10.7039
▁yâre	-10.7042
ide	-10.7042
▁buyur	-10.705
▁baska	-10.7051
▁aksın	-10.7051
▁kışı	-10.7052
▁şehre	-10.7055
▁bittiği	-10.7055
eyle	-10.7055
▁anlamak	-10.7056
Kiminin	-10.7061
Olmadı	-10.7063
Baktım	-10.7063
▁günahı	-10.7063
▁gezdim	-10.7063
ğini	-10.7064
mar	-10.7066
▁of	-10.7067
▁çekiyorum	-10.7068
▁özlemim	-10.7068
▁madde	-10.7071
▁âh	-10.7073
Ö	-10.7073
dedir	-10.7073
▁kah	-10.7075
▁sevince	-10.7076
▁etki	-10.7079
▁bozuldu	-10.7081
▁adem	-10.7082
▁özen	-10.7083
vâ	-10.7086
▁inanç	-10.7088
▁bağrında	-10.709
▁ölüyorum	-10.7092
Ga	-10.7092
ımıza	-10.7092
▁minnet	-10.7093
▁co	-10.7095
▁yaşarsın	-10.7096
▁doğ	-10.7096
▁agla	-10.7097
▁teli	-10.7097
▁saldım	-10.7098
Aklın	-10.7101
▁diyarı	-10.7102
▁çeke	-10.7103
▁vermeden	-10.7105
▁bağlan	-10.7106
▁hissediyorum	-10.7107
▁özünü	-10.7109
▁vaz	-10.7113
Elimi	-10.7113
rüzgar	-10.7114
▁ço	-10.7116
▁dallar	-10.7116
▁geceden	-10.7117
Dem	-10.7118
Umutlarım	-10.7118
▁dizlerim	-10.7118
▁ağlayıp	-10.712
kes	-10.7121
Ke	-10.7121
▁yalın	-10.7122
diğinde	-10.7126
Gözyaşı	-10.7133
ydik	-10.7134
Oda	-10.7135
▁yürüyorum	-10.7136
▁cay	-10.7137
▁kalpten	-10.7138
▁yokluğuna	-10.7138
Vallahi	-10.7139
ilip	-10.7141
maktayım	-10.7142
▁kafes	-10.7145
▁kudret	-10.7145
▁sanıyorsun	-10.7145
▁goz	-10.7146
▁buldun	-10.7147
▁heder	-10.7147
▁pamuk	-10.715
oku	-10.7151
▁sevdamız	-10.7155
▁geziyor	-10.716
▁olmuşsun	-10.7162
▁olması	-10.7164
yık	-10.7172
Du	-10.7173
Ömrün	-10.7174
▁dilime	-10.7176
▁yukarı	-10.7176
▁çalıp	-10.7177
▁uzanır	-10.7177
Po	-10.7178
▁dolsa	-10.7186
▁boğ	-10.7186
▁iklim	-10.7186
Fa	-10.7187
▁çökmüş	-10.7188
Dilimde	-10.7189
iver	-10.7189
Yalvar	-10.719
Ze	-10.7191
Yürekten	-10.7192
▁denge	-10.7194
bugün	-10.7194
▁eriş	-10.7197
yam	-10.7197
▁aldat	-10.7197
▁kondu	-10.7198
Güz	-10.7206
▁yıllardır	-10.7208
▁yargı	-10.7209
aman	-10.7211
▁vaktinde	-10.7213
▁kıs	-10.7213
▁intihar	-10.7216
▁seçim	-10.7218
Bat	-10.722
▁derviş	-10.7222
▁demiştim	-10.7225
▁kaybolmuş	-10.7226
▁vermedi	-10.7227
▁öpüş	-10.7228
▁çam	-10.7228
▁çiğ	-10.7229
▁ezer	-10.7231
Tat	-10.7232
▁dillerde	-10.7234
▁yoruldu	-10.7235
▁doğma	-10.7236
▁bulamazsın	-10.7236
▁uzar	-10.7237
▁pervane	-10.7237
leyin	-10.7238
▁dertlere	-10.7239
▁sazı	-10.724
▁söylesin	-10.7242
▁açsın	-10.7242
Zeki	-10.7247
▁bilim	-10.7247
Gerçekten	-10.7248
▁tir	-10.7249
Arzu	-10.725
Yangın	-10.7254
▁ahı	-10.7256
▁yanın	-10.7268
▁kimisi	-10.7268
▁ıslan	-10.7269
▁karşılık	-10.727
▁lisan	-10.7272
derin	-10.7277
▁herkesin	-10.728
▁sormaz	-10.7281
aya	-10.7281
eden	-10.7284
▁köyüm	-10.7285
▁örtü	-10.7287
tepe	-10.729
▁yalnızlığım	-10.7291
▁amansız	-10.7292
▁kaybolan	-10.7293
Suç	-10.7301
▁duyguları	-10.7301
▁diyeceğim	-10.7302
▁dönmek	-10.7303
▁kalktı	-10.7304
▁olmuştur	-10.7306
▁zorunda	-10.7306
teki	-10.7312
Gurur	-10.7313
▁mest	-10.7314
▁deyim	-10.7315
Koru	-10.7316
Neye	-10.7318
▁ün	-10.7318
▁bık	-10.7319
▁ayırma	-10.732
Tebessüm	-10.732
Yaşamın	-10.7321
▁zemheri	-10.7321
▁yanıyorum	-10.7325
Sevgim	-10.7326
▁metre	-10.7326
▁miydin	-10.7329
▁gülmüyor	-10.7332
Uzan	-10.7333
fil	-10.7335
▁yıkıldı	-10.7336
▁dönecek	-10.7336
▁va	-10.7337
▁karalar	-10.7338
▁babası	-10.7338
▁olmanın	-10.734
Hayallerim	-10.734
▁olmadığı	-10.734
miyorsun	-10.7341
Şafak	-10.7344
▁kılan	-10.7344
vet	-10.7347
▁alçak	-10.735
▁mecbur	-10.7352
Evin	-10.7353
▁gücün	-10.7354
Çekip	-10.7355
▁baban	-10.7359
▁çarşı	-10.736
Gülüm	-10.7361
Elbette	-10.7361
▁yaşamı	-10.7364
▁geliş	-10.7367
▁görmesin	-10.7369
▁farkına	-10.7369
▁polis	-10.7371
Yat	-10.7373
▁yoldaşım	-10.7375
▁koşuyor	-10.7376
▁zikir	-10.7378
Neredesin	-10.7379
▁yüreklerde	-10.738
▁ölümün	-10.7382
▁kola	-10.7382
▁etmedim	-10.7384
▁olmazdı	-10.7386
▁olam	-10.7386
▁nefsin	-10.7386
▁söylüyorum	-10.7386
▁içme	-10.7386
Ham	-10.7387
▁yosun	-10.7387
▁heceler	-10.7387
▁ipek	-10.7391
tıp	-10.7391
▁idin	-10.7391
▁oynuyor	-10.7393
Sokaklar	-10.7394
▁olmasan	-10.7395
▁İki	-10.7397
dən	-10.74
▁başından	-10.74
▁okuyan	-10.7401
▁sevap	-10.7403
larınla	-10.7406
▁yırtık	-10.7406
Kurt	-10.7408
İçten	-10.741
Özle	-10.741
leşmiş	-10.7412
▁görenler	-10.7416
▁maske	-10.7417
▁kandım	-10.7419
▁hayret	-10.7419
leşti	-10.7419
▁girdim	-10.7419
Gitmek	-10.742
▁bağrı	-10.742
Ömrümün	-10.7422
▁edenler	-10.7424
Koyun	-10.7429
yas	-10.7431
▁küsmüş	-10.7433
▁martı	-10.7433
▁fikrim	-10.7436
▁ulan	-10.7437
▁suları	-10.7437
▁kuşa	-10.7438
Umutsuz	-10.7438
▁esmer	-10.7439
Aklımda	-10.744
▁yürüdü	-10.744
Öte	-10.7441
▁set	-10.7441
Hatıralar	-10.7442
▁doğmuş	-10.7443
▁karşında	-10.7443
▁cayır	-10.7444
▁kuruş	-10.7447
▁ayet	-10.7447
▁mermi	-10.7448
▁onur	-10.745
▁ayaklarım	-10.7453
▁bedenden	-10.7453
▁boynuna	-10.7454
▁sürecek	-10.7454
▁damlar	-10.7457
Sensizliğin	-10.7458
▁darda	-10.7459
Gökyüzünde	-10.7459
içinde	-10.746
▁Benim	-10.746
▁yıkılır	-10.746
▁kesme	-10.7461
▁kıvrım	-10.7463
▁görecek	-10.7465
karanlık	-10.7468
Bırakma	-10.7471
Mar	-10.7472
kte	-10.7476
▁içilin	-10.7477
▁kapıları	-10.7478
Özlemin	-10.7479
▁dillere	-10.7479
Yüksek	-10.748
▁hepimiz	-10.7481
Yaprak	-10.7481
hüzün	-10.7482
yeter	-10.7483
▁kalınca	-10.7483
▁zan	-10.7484
▁karanfil	-10.7485
▁çöle	-10.7486
ülün	-10.7489
Saçların	-10.7494
Fırsat	-10.7496
Gonca	-10.7497
▁rüzgarlar	-10.7498
▁zifiri	-10.75
▁bitirir	-10.7502
Derman	-10.7507
▁cem	-10.7508
▁galiba	-10.7512
acağın	-10.7512
▁derbeder	-10.7514
Av	-10.7516
▁görmeye	-10.7516
▁bahçemde	-10.7517
▁burası	-10.7518
Dostum	-10.7519
▁bulutları	-10.7524
yürek	-10.7525
Ölmek	-10.7526
▁yaslan	-10.7528
▁parlayan	-10.7529
▁çıkmak	-10.7531
▁huzura	-10.7532
mızdan	-10.7534
▁kesildi	-10.7536
▁mutluluklar	-10.7539
▁edemem	-10.754
▁taştan	-10.7541
Sahi	-10.7541
Olma	-10.7542
▁avun	-10.7542
Fani	-10.7544
Ağ	-10.7544
▁kıta	-10.7546
▁ısın	-10.7546
▁idam	-10.7547
gal	-10.7548
▁aşıklar	-10.7549
Gitti	-10.755
▁Kerem	-10.7551
ut	-10.7552
▁yürüyor	-10.7553
▁söküp	-10.7555
Şarkı	-10.7555
ılınma	-10.7556
▁sıradan	-10.7556
▁kaçış	-10.7556
Dağları	-10.7558
Türkü	-10.756
sızlık	-10.7566
▁saman	-10.757
liye	-10.7571
▁kav	-10.7571
▁yürürken	-10.7573
▁mazlum	-10.758
▁yüzlüm	-10.7581
▁savrulur	-10.7583
Kimine	-10.7585
▁çök	-10.7587
▁kaşın	-10.7588
Hu	-10.7589
Susuz	-10.759
▁hepten	-10.759
Kitap	-10.759
▁inkar	-10.7591
▁razıyım	-10.7592
▁sorgu	-10.7592
oldu	-10.7593
▁göreceksin	-10.7593
▁önümde	-10.7595
▁gaye	-10.7597
Esen	-10.7598
▁dikeni	-10.7599
▁namert	-10.76
▁buluyor	-10.7601
Silah	-10.7603
Çağır	-10.7604
▁acıyor	-10.7604
Do	-10.7605
Yetiş	-10.7607
▁şefkat	-10.7607
▁muhteşem	-10.7607
▁cananım	-10.7609
rt	-10.761
▁ağar	-10.7612
▁yetmiş	-10.7614
▁h	-10.7617
▁gözlerden	-10.7619
Güçlü	-10.7621
▁vuruldum	-10.7622
▁büker	-10.7622
Öğren	-10.7622
▁ağı	-10.7623
▁aydınlat	-10.7627
sakın	-10.7628
▁felaket	-10.7629
▁cek	-10.7629
▁boncuk	-10.7631
▁nefsim	-10.7631
▁türk	-10.7632
▁hancı	-10.7632
ellerim	-10.7634
âh	-10.7634
don	-10.7634
▁görmeyen	-10.7634
▁hazin	-10.7636
▁Kuran	-10.7636
▁gerisi	-10.7636
Canımı	-10.7636
rü	-10.7637
Mer	-10.7638
▁üzüntü	-10.7642
▁etmedi	-10.7642
▁birbirimizi	-10.7645
▁katıl	-10.7646
▁sayılır	-10.7652
▁düşürme	-10.7653
▁söylen	-10.7653
▁duracak	-10.7657
▁yangını	-10.7658
▁gözlerimiz	-10.766
inci	-10.7661
orta	-10.7661
korku	-10.7661
▁hazine	-10.7661
▁seferinde	-10.7664
▁düşmana	-10.7668
raz	-10.767
▁resmi	-10.7671
▁yıllarım	-10.7672
Kuran	-10.7673
▁ateşinde	-10.7675
Yüzün	-10.7676
Doy	-10.7679
▁hürriyet	-10.7679
▁batan	-10.7679
▁dilini	-10.768
▁kırgın	-10.7681
▁öne	-10.7685
larken	-10.7686
▁saçan	-10.7686
▁sanıp	-10.7688
▁millete	-10.7689
▁erdem	-10.7691
bo	-10.7692
▁hüznün	-10.7693
▁tül	-10.7694
tıyor	-10.7695
▁vatandaş	-10.7698
Boynu	-10.7701
▁sesinde	-10.7702
Yürekler	-10.7702
Hüzünlü	-10.7704
▁eziyet	-10.7706
Ömrümü	-10.7713
net	-10.7713
▁bayrağı	-10.7713
Suçlu	-10.7714
▁insaf	-10.7714
Aslı	-10.7715
yâ	-10.7717
▁sancısı	-10.7718
Diş	-10.7718
▁zeytin	-10.7721
Komşu	-10.7721
▁bambaşka	-10.7722
▁oldular	-10.7723
▁sandığım	-10.7723
▁yeller	-10.7724
Türküler	-10.7724
Men	-10.7725
▁bade	-10.7727
▁ölecek	-10.7731
▁çul	-10.7732
lıkla	-10.7733
▁gövde	-10.7735
▁hayli	-10.7737
▁karanlığın	-10.7738
▁sevilmek	-10.7739
▁cihana	-10.7739
▁meşk	-10.774
▁eda	-10.7741
▁aşkından	-10.7743
Paylaş	-10.7743
izde	-10.7746
kü	-10.775
Diken	-10.7751
▁ağlarsın	-10.7751
▁Gece	-10.7751
▁şans	-10.7752
▁yolların	-10.7752
Aydınlık	-10.7753
▁kırılmış	-10.7754
▁geçilmez	-10.7754
▁defter	-10.7757
▁parası	-10.7757
▁birazcık	-10.7758
Dalga	-10.7759
▁ucuz	-10.7759
▁neylesin	-10.7759
para	-10.776
▁duyguların	-10.7761
▁ic	-10.7762
Kişi	-10.7766
▁arın	-10.7768
▁sorular	-10.777
Hasreti	-10.7771
▁hayra	-10.7774
▁başlayan	-10.7774
▁çimen	-10.7775
▁koşa	-10.7775
▁yalanı	-10.7776
Ellerimi	-10.7776
▁unuttu	-10.7777
▁belle	-10.7778
▁Azrail	-10.7781
▁bitmeyecek	-10.7782
▁gizlice	-10.7785
Köy	-10.7789
▁avaz	-10.7791
▁tu	-10.7793
Yolunu	-10.7795
▁arkasından	-10.7798
▁mavisi	-10.7798
▁salla	-10.7799
▁odun	-10.78
Hayatım	-10.78
▁acele	-10.7803
▁özüne	-10.7804
malar	-10.7805
Saç	-10.7807
▁nereden	-10.7813
▁doludur	-10.7816
▁inceden	-10.7818
▁gökten	-10.7818
▁tâ	-10.7819
mutluluk	-10.7819
acağı	-10.782
▁iyice	-10.7822
▁efkâr	-10.7823
sınlar	-10.7823
▁dudakların	-10.7826
▁karardı	-10.7826
▁vatanın	-10.7828
▁anlatsam	-10.7829
tam	-10.7832
Çektiğim	-10.7833
▁olsaydın	-10.7833
▁sevginle	-10.7833
müz	-10.7835
Gönlün	-10.7835
▁eriyor	-10.7838
▁Hüseyin	-10.7838
▁ateşiyle	-10.7838
Sıkıntı	-10.784
Zamansız	-10.7841
▁sararıp	-10.7844
▁sizlere	-10.7849
▁bilemez	-10.7851
▁baksan	-10.7851
zen	-10.7852
Olsa	-10.7853
▁halkı	-10.7854
▁yaparım	-10.7859
▁kayar	-10.786
Derdin	-10.7861
Şehir	-10.7864
▁zil	-10.7865
▁benliğimi	-10.7867
▁irade	-10.787
▁etrafında	-10.7874
Yasak	-10.7875
Nere	-10.7877
hadi	-10.7877
ebilmek	-10.7878
▁hüner	-10.7881
nen	-10.7884
▁yükselir	-10.7884
▁vardım	-10.7888
Dikkat	-10.789
▁hayalini	-10.7891
Tez	-10.7892
go	-10.7892
gerçek	-10.7892
▁cadde	-10.7894
▁gec	-10.7895
▁tay	-10.7898
Yaratan	-10.7899
▁verilir	-10.7899
▁haldeyim	-10.7901
▁dalmış	-10.7901
▁aldığın	-10.7901
▁kederim	-10.7906
▁ateşten	-10.7906
▁dünyamı	-10.7907
Sevdiğin	-10.7909
▁isem	-10.7913
liğinden	-10.7913
Yas	-10.7914
▁yoktun	-10.7916
▁açmaz	-10.7916
▁dünyası	-10.7918
mamak	-10.7919
sır	-10.792
▁süz	-10.7924
▁gerçekleri	-10.7925
▁doğu	-10.7926
▁çark	-10.7927
Kaderin	-10.7931
ton	-10.7934
Bayrak	-10.7935
▁şiirim	-10.7937
kuru	-10.7937
▁öde	-10.7944
▁çetin	-10.7948
▁buğday	-10.7953
Doğu	-10.7956
▁dünü	-10.7957
Mustafa	-10.7957
Giy	-10.7959
ıs	-10.796
zâ	-10.796
aklı	-10.7961
▁siper	-10.7962
Canı	-10.7963
▁yorar	-10.7964
ttı	-10.7964
▁eğme	-10.7965
▁şiş	-10.7966
▁sav	-10.7966
Nereden	-10.7967
▁olurmu	-10.7969
▁ölme	-10.7973
▁canda	-10.7973
ılıyor	-10.7975
▁yağmurları	-10.7975
Karanlıkta	-10.7976
▁mutluyum	-10.7977
▁ova	-10.798
▁sanırım	-10.798
▁korur	-10.7987
Heyecan	-10.7988
▁söyledi	-10.7989
eder	-10.799
▁Ak	-10.7993
▁mahşer	-10.7993
Zulüm	-10.7993
tığımız	-10.7994
▁gele	-10.7995
kor	-10.8
▁gu	-10.8006
Kıy	-10.8006
▁dimdik	-10.8007
▁fukara	-10.8009
▁onsuz	-10.8009
Gözümden	-10.801
▁geçtikçe	-10.8012
ücü	-10.8012
▁içerim	-10.8013
hoş	-10.8015
Sizi	-10.8015
▁seçti	-10.8018
▁sürdü	-10.8019
▁kurup	-10.8019
Mi	-10.802
Sevinç	-10.8022
▁dağla	-10.8024
İşin	-10.8027
gır	-10.8027
Baharı	-10.8029
Otuz	-10.8029
▁olmasaydı	-10.8029
eğe	-10.8032
▁gelene	-10.8034
▁balı	-10.8034
▁dünyama	-10.8037
▁sevdik	-10.8042
▁istedin	-10.8043
Doğa	-10.8043
▁geleni	-10.8044
▁nedeni	-10.8046
▁suyunu	-10.8048
▁pus	-10.8049
İsmini	-10.8051
▁bilene	-10.8052
▁çakar	-10.8052
▁direk	-10.8053
▁sıfır	-10.8055
▁keyif	-10.8057
▁akraba	-10.8058
▁sevmeyen	-10.8058
Getir	-10.806
▁taneleri	-10.8061
▁şerefsiz	-10.8061
▁dağda	-10.8061
▁arzular	-10.8067
▁sabahın	-10.8068
▁gecelere	-10.8068
Yoktur	-10.8068
▁kaba	-10.8069
▁aşın	-10.8071
▁kaynar	-10.8071
yelim	-10.8071
▁tarafa	-10.8074
▁kişilik	-10.8076
▁yüreklere	-10.8079
▁tavır	-10.8079
▁üstünden	-10.8081
lüğü	-10.8084
ene	-10.8085
Karanlıklar	-10.8086
Saatler	-10.8088
▁za	-10.8089
fet	-10.809
ister	-10.8091
kendini	-10.8093
Sevin	-10.8093
▁köşeye	-10.8095
▁çekmiş	-10.8095
kalp	-10.8097
Farkında	-10.8103
Yüzünde	-10.8105
▁kalırım	-10.8105
▁çıksa	-10.8106
▁huyu	-10.8106
▁ateşler	-10.8108
▁gidenler	-10.8112
▁rüyalar	-10.8115
▁bedenler	-10.8117
▁bilmedi	-10.8117
▁güzelliğin	-10.8117
▁Adem	-10.8117
▁silinmez	-10.812
▁yırt	-10.8121
çu	-10.8121
▁aşım	-10.8122
▁ediyorsun	-10.8129
▁S	-10.813
▁söylenen	-10.8131
ıyım	-10.8133
meliyiz	-10.8134
▁yorulur	-10.8135
▁göklerde	-10.8135
Sonsuza	-10.8138
Elde	-10.8139
▁bayramı	-10.814
▁besle	-10.814
doğru	-10.814
olsun	-10.8142
▁yaran	-10.8142
▁basit	-10.8144
▁mahkûm	-10.8146
▁d	-10.8148
▁analar	-10.8148
hay	-10.8151
▁çocukların	-10.8152
Üst	-10.8152
Yayla	-10.8153
gündüz	-10.8153
miydi	-10.8154
Şehitler	-10.8154
▁gelirdi	-10.8157
▁verdiler	-10.816
Söyleyin	-10.8161
▁sorulur	-10.8161
mıştık	-10.8162
▁to	-10.8163
▁çivi	-10.8163
ttın	-10.8165
▁gezin	-10.817
▁çığ	-10.817
Sat	-10.8171
özlem	-10.8173
▁aklar	-10.8174
▁bitmesin	-10.8176
Merhaba	-10.8177
▁alıştım	-10.8181
las	-10.8181
▁bakışları	-10.8182
▁bozan	-10.8183
▁evine	-10.8183
▁selâm	-10.8184
▁belde	-10.8187
▁kuruyor	-10.8187
▁bilme	-10.8192
▁sevgisiz	-10.8192
▁kesti	-10.8194
▁Bak	-10.8197
▁şiirleri	-10.82
▁ruhumun	-10.8201
Zevk	-10.8201
ömür	-10.8203
Denizin	-10.8203
▁arşa	-10.8203
▁bulduğum	-10.8205
▁Avrupa	-10.8209
▁hesabını	-10.8211
▁yüreğinden	-10.8212
ılsın	-10.8213
▁bilmeli	-10.8213
▁olgun	-10.8216
▁anımsa	-10.8216
▁sakladım	-10.8218
▁canavar	-10.8218
▁seyret	-10.8219
Farklı	-10.8219
İnsanoğlu	-10.822
▁esaret	-10.8227
▁dargın	-10.8229
ünde	-10.8229
▁maziye	-10.8229
▁açacak	-10.8232
▁takma	-10.8233
▁bük	-10.8234
▁yaşayıp	-10.8236
▁yerdeyim	-10.8237
’’	-10.8237
▁şerbet	-10.8245
▁günahım	-10.8246
▁değerini	-10.8247
▁soyu	-10.8248
▁yanmak	-10.8249
▁devri	-10.8253
¬_____	-10.8255
▁yutar	-10.8256
▁kaçıyor	-10.8257
Sigara	-10.826
▁suçum	-10.826
▁yaptık	-10.8261
▁soluyor	-10.8263
▁üzer	-10.8263
▁çe	-10.8263
▁rüyamda	-10.8263
Tur	-10.8264
Çıkmaz	-10.8264
▁pür	-10.8264
zer	-10.8267
ışı	-10.8269
▁özün	-10.827
▁sensizliği	-10.827
▁şikayet	-10.8272
▁derine	-10.8273
zu	-10.8273
çağ	-10.8276
▁karıştır	-10.8278
Olan	-10.828
▁hüzünler	-10.8281
Evlat	-10.8281
▁selamı	-10.8282
Düğün	-10.8282
Altı	-10.8283
Bakışın	-10.8283
▁inler	-10.8284
ola	-10.8286
▁çıra	-10.8286
uyan	-10.8287
Gölge	-10.8289
Gene	-10.829
Durma	-10.8297
▁akşamı	-10.8297
erken	-10.8298
sizce	-10.8299
▁unutup	-10.83
▁hoyrat	-10.83
▁uçur	-10.8301
▁yeşili	-10.8304
▁kent	-10.8307
▁bulamıyorum	-10.8307
Yolcu	-10.8307
▁bedenime	-10.8308
▁tüket	-10.8309
unun	-10.8309
▁yükünü	-10.8309
▁nam	-10.8309
▁saçlarım	-10.831
emedi	-10.8311
Çevre	-10.8311
▁olamadım	-10.8312
lemek	-10.8314
izin	-10.8319
Sofra	-10.8324
▁söylenir	-10.8326
▁kapkara	-10.8327
▁düşse	-10.8328
▁gülistan	-10.8328
evi	-10.8329
▁per	-10.8331
▁uygun	-10.8332
▁diliyorum	-10.8332
eğin	-10.8334
tük	-10.8335
▁kopan	-10.8336
Yüreğine	-10.8336
▁hayallerin	-10.8338
▁kalleş	-10.8339
▁sü	-10.8343
Ayaklarım	-10.8348
Yürekte	-10.8349
luyorum	-10.835
▁çocukluğum	-10.8353
bek	-10.8358
▁Peygamber	-10.8358
▁bileceksin	-10.8359
▁zorla	-10.836
▁döndür	-10.836
▁çayır	-10.8362
Yalnızlığın	-10.8364
▁otobüs	-10.8364
Gönlü	-10.8365
dükçe	-10.8366
▁okunur	-10.8367
▁yazılır	-10.8367
▁taştı	-10.8368
Ebedi	-10.8372
▁tarafından	-10.8374
Em	-10.8374
▁İzmir	-10.8376
ırdı	-10.8378
▁çehre	-10.8378
▁zormuş	-10.8379
▁mahalle	-10.838
Menfaat	-10.838
ket	-10.8381
▁menzil	-10.8383
sıra	-10.8384
▁almadan	-10.8386
▁eren	-10.8387
▁delir	-10.8387
İçindeki	-10.839
Nar	-10.839
Bitir	-10.8391
▁sizler	-10.8396
▁inadına	-10.8396
▁endişe	-10.8397
yayım	-10.8397
▁gelmeyen	-10.84
▁bakmaya	-10.8401
tab	-10.8403
uma	-10.8404
▁kurulmuş	-10.8406
▁üret	-10.8407
kapı	-10.8408
Bendeki	-10.8411
▁değişmez	-10.8416
gitme	-10.8417
▁dağında	-10.8418
Yaşadığım	-10.8418
aklar	-10.842
▁rüzgarın	-10.8422
▁adamın	-10.8422
▁önemi	-10.8423
▁ikram	-10.8424
▁ihsan	-10.8424
ona	-10.8426
▁uçup	-10.8429
Hay	-10.843
Ülke	-10.843
▁boylu	-10.8431
▁dalına	-10.8432
▁yapayalnız	-10.8434
Perişan	-10.8436
Mu	-10.844
Nefesim	-10.8442
▁yapacak	-10.8443
▁gamze	-10.8447
▁dolunay	-10.8448
Doğ	-10.8448
Topla	-10.845
▁yollarına	-10.8451
Doğum	-10.8451
▁gönle	-10.8452
Çağ	-10.8453
Yoksul	-10.8456
▁sahi	-10.8459
▁saçlı	-10.846
Ağaç	-10.846
Şen	-10.8462
Ca	-10.8463
Sevgiler	-10.8463
▁giyer	-10.8465
Denizler	-10.8465
▁gölü	-10.8465
Yaşarken	-10.8466
ıb	-10.8467
Kana	-10.8468
▁iyisi	-10.8472
bekle	-10.8472
Sık	-10.8473
laşıyor	-10.8473
▁gittiler	-10.8475
▁suda	-10.8475
mediğim	-10.8475
eni	-10.8478
yıldızlar	-10.8483
▁sendeki	-10.8484
Bunları	-10.8485
▁köpük	-10.8486
Sevmeyi	-10.8486
▁Ayşe	-10.8488
madığım	-10.8489
▁katma	-10.8489
▁demeye	-10.8491
▁duvara	-10.8491
Aşkımı	-10.8493
Tamam	-10.8496
Fatih	-10.8498
▁toy	-10.8499
Eli	-10.8502
Çoban	-10.8502
▁muhtacım	-10.8503
po	-10.8503
▁büktü	-10.8504
▁dökülüyor	-10.8508
Yaşanan	-10.851
Veysel	-10.8511
▁birileri	-10.8512
▁burcu	-10.8512
Teselli	-10.8512
dasın	-10.8513
Güzelliğin	-10.8518
▁soyun	-10.8518
▁saati	-10.8518
▁türküleri	-10.8522
▁acıyla	-10.8523
Gülü	-10.8525
▁bedene	-10.8526
▁belir	-10.8526
▁alim	-10.8528
▁gemiler	-10.8529
▁dalar	-10.8531
▁yazıp	-10.8533
ılındı	-10.8534
▁sarıp	-10.8536
▁dolmaz	-10.8537
▁gariban	-10.8538
Kir	-10.8539
▁aklını	-10.8541
bas	-10.8543
▁sesiyle	-10.8546
▁okuyor	-10.8548
▁kucağı	-10.8548
Is	-10.8549
▁oluyorsun	-10.8551
fâ	-10.8551
Engel	-10.8551
▁ekin	-10.8553
umun	-10.8555
▁çileler	-10.8555
Omuz	-10.8555
▁istiyorsun	-10.8556
▁so	-10.8558
▁bulutların	-10.8558
▁sinir	-10.8558
ât	-10.8559
Kurtuluş	-10.8559
Hasretle	-10.856
Ağrı	-10.8561
▁tırnak	-10.8563
▁min	-10.8563
▁değilmiş	-10.8567
Küçücük	-10.8569
▁mehtap	-10.8569
▁dolacak	-10.857
▁lider	-10.8571
adım	-10.8571
▁halkın	-10.8572
▁koştu	-10.8576
Dış	-10.8577
Nefis	-10.8578
▁umudun	-10.858
▁siyaset	-10.8582
Te	-10.8588
▁fena	-10.8597
▁istiyorsan	-10.8597
▁ayağım	-10.8598
▁ton	-10.8599
▁direği	-10.8599
Haksız	-10.86
ysen	-10.8606
▁doldurur	-10.8607
Ayrılığın	-10.8607
▁bırakan	-10.8611
Gerçeği	-10.8614
Yaptığın	-10.8615
▁geçmek	-10.8617
▁güvenme	-10.8619
▁yasla	-10.862
▁mucize	-10.8621
▁kurak	-10.8621
▁bilmedin	-10.8622
hey	-10.8622
Ad	-10.8623
¬"	-10.8625
sıdır	-10.8626
▁do	-10.8627
▁takvim	-10.8627
yamıyorum	-10.8628
▁anlıyorum	-10.8628
Onlara	-10.8628
▁karınca	-10.863
Hepimiz	-10.8632
ınız	-10.8638
▁tanıma	-10.864
digin	-10.8642
▁karanlıklar	-10.8645
Gözümün	-10.8648
İlham	-10.8649
▁yaptığı	-10.8654
âr	-10.866
▁boğul	-10.8662
suna	-10.8663
Hedef	-10.8663
▁mahrum	-10.8665
▁söv	-10.8666
İlahi	-10.8667
▁açtın	-10.8668
Gaflet	-10.8671
▁çöllerde	-10.8672
Melek	-10.8674
kalbim	-10.8676
▁davul	-10.8677
▁neyim	-10.8677
▁karışmış	-10.8678
lum	-10.8679
mişler	-10.868
Zarar	-10.868
▁büyüdü	-10.8682
▁tipi	-10.8683
imle	-10.8684
Düzen	-10.8684
ən	-10.8685
▁sordu	-10.8686
▁sahne	-10.8687
▁sahipsiz	-10.869
larımla	-10.869
Emanet	-10.869
lasın	-10.8691
▁vuslata	-10.8692
▁kanun	-10.8693
uzak	-10.8693
▁mühür	-10.8694
▁F	-10.8695
▁düşümde	-10.8695
▁ulaşır	-10.8695
▁diyelim	-10.8696
▁yazılı	-10.8697
▁sinemi	-10.8699
uzu	-10.8699
▁dalda	-10.87
sir	-10.8701
▁dinlen	-10.8704
▁tenha	-10.8707
▁soysuz	-10.8708
koş	-10.8711
▁zam	-10.8711
▁poyraz	-10.8711
▁vücut	-10.8711
▁ayında	-10.8711
▁dese	-10.8715
▁imza	-10.8716
▁yürümek	-10.8718
▁hayatımda	-10.8719
▁sineme	-10.8721
▁tutulur	-10.8721
▁Ferhat	-10.8724
▁talih	-10.8725
Üzül	-10.8727
Sığın	-10.8727
Kalan	-10.8729
▁duygusu	-10.873
▁dökük	-10.873
mızın	-10.8733
▁tutacak	-10.8733
▁unutmam	-10.8734
▁eksil	-10.8736
▁önü	-10.8737
Ulaş	-10.8737
mekteyim	-10.8741
▁çığlığı	-10.8742
▁sünnet	-10.8742
▁kalanlar	-10.8743
akşam	-10.8744
▁sarardı	-10.8744
Yaşar	-10.8746
Diren	-10.8746
Erkek	-10.8747
▁anlatayım	-10.8747
▁çekiş	-10.8747
▁mümin	-10.8749
mayacaksın	-10.875
altı	-10.875
sat	-10.8751
▁düşe	-10.8751
Aşkla	-10.8753
▁hayâl	-10.8754
▁hayallere	-10.8755
▁inen	-10.8756
gök	-10.8757
Kokla	-10.8761
▁maya	-10.8761
▁yüzümde	-10.8763
▁kulluk	-10.8763
İl	-10.8766
▁im	-10.8767
Kendin	-10.8767
▁yanarsın	-10.8772
▁istedi	-10.8775
▁kiraz	-10.8776
manı	-10.8777
Hasretinle	-10.8778
▁kadının	-10.8778
▁görmedi	-10.8779
▁olasın	-10.8779
maktadır	-10.878
Haklı	-10.8781
Eksik	-10.8781
ko	-10.8781
▁başladım	-10.8782
▁kondur	-10.8783
▁gümüş	-10.8788
▁düştük	-10.8792
undan	-10.8793
▁mesaj	-10.8794
▁yerleri	-10.8801
▁gerçekler	-10.8803
▁geldiği	-10.8805
▁gerdan	-10.8805
▁yapmaz	-10.8805
▁arif	-10.8807
▁yarını	-10.8809
▁semaya	-10.8809
▁kavuşma	-10.8812
▁kainat	-10.8813
asla	-10.8813
▁memleketim	-10.8816
▁eşek	-10.8816
▁giydir	-10.882
▁cân	-10.8821
masa	-10.8821
landır	-10.8821
▁hükmü	-10.8823
▁acım	-10.8823
Düşler	-10.8826
▁hakkım	-10.8827
▁düşerken	-10.8828
yıllar	-10.8831
▁dalları	-10.8832
▁ıslat	-10.8835
▁ezber	-10.8836
▁minik	-10.8839
▁kıran	-10.8841
Bol	-10.8845
▁gereği	-10.8846
eri	-10.8847
▁gizle	-10.8848
Meyve	-10.8848
Ruhumun	-10.8849
Esir	-10.8849
▁efe	-10.8849
▁beyan	-10.885
▁ateşte	-10.8854
▁etmeli	-10.8857
üzü	-10.8858
▁çırpın	-10.8859
▁Ata	-10.8859
Güler	-10.8859
▁demişler	-10.8861
▁gö	-10.8861
▁gökkuşağı	-10.8862
acaktım	-10.8863
▁tercih	-10.8866
Uğrunda	-10.8866
Doldur	-10.8866
eyi	-10.8869
▁nemli	-10.887
▁anan	-10.8871
▁almıyor	-10.8873
▁öbür	-10.8873
▁kazar	-10.8874
Yel	-10.8874
▁nağme	-10.8874
Aydın	-10.8878
Yabancı	-10.8878
Candan	-10.8881
▁Sa	-10.8881
▁içindir	-10.8881
Mana	-10.8882
tün	-10.8883
so	-10.8884
▁oradan	-10.8885
▁varır	-10.8886
dağı	-10.8887
▁çocuğum	-10.8887
▁ayaklar	-10.8887
▁tuzu	-10.889
▁tadına	-10.8896
▁kurma	-10.8898
▁seyran	-10.8902
Karşılıksız	-10.8907
▁kahrol	-10.8909
kiler	-10.8911
▁oruç	-10.8913
Sabahın	-10.8914
▁öleyim	-10.8917
▁lo	-10.8918
▁yaşımı	-10.8918
Saz	-10.892
Orman	-10.8921
▁geçsin	-10.8921
nak	-10.8922
▁bahtı	-10.8922
▁renkleri	-10.8923
▁salkım	-10.8923
▁takın	-10.8924
▁falan	-10.8925
▁sayende	-10.8926
▁kaşık	-10.8926
▁okudum	-10.8927
tel	-10.8927
liydi	-10.8929
Taze	-10.893
▁dumanlı	-10.8931
▁yöre	-10.8932
▁sara	-10.8937
Pembe	-10.8938
▁uyuma	-10.8939
▁murada	-10.8941
▁coğrafya	-10.8945
Canlı	-10.8945
▁haktan	-10.8947
▁aydınlatan	-10.8949
▁istesem	-10.895
▁geleceğe	-10.895
▁sustur	-10.8951
Kutsal	-10.8952
▁ümmet	-10.8952
▁ermez	-10.8952
▁avare	-10.8953
ndaki	-10.8953
▁duyulur	-10.8954
▁Şimdi	-10.8955
▁dilsiz	-10.8958
▁dede	-10.8958
▁aramak	-10.8959
▁savrul	-10.8959
acaklar	-10.896
▁meyil	-10.8962
▁çiğne	-10.8964
Deme	-10.8964
▁soruyorum	-10.8964
▁sıcaklığı	-10.8966
▁insanım	-10.8968
▁boşlukta	-10.8969
Sever	-10.8971
▁tersine	-10.8972
▁adres	-10.8973
▁yılda	-10.8975
▁işaret	-10.8976
Sözlerim	-10.8976
▁dolaştım	-10.8977
dığımda	-10.8977
▁küstü	-10.8977
Bitmeyen	-10.8979
larin	-10.8979
▁verirsin	-10.8979
▁süzülür	-10.8989
hava	-10.8998
▁konuşan	-10.9
▁kartal	-10.9
▁ışı	-10.9
çü	-10.9001
▁erer	-10.9002
▁gülüşü	-10.9002
▁kitaplar	-10.9005
Kurumuş	-10.9006
▁öykü	-10.9007
▁kitabı	-10.9008
mışız	-10.9008
ruhum	-10.901
▁küle	-10.9011
Evde	-10.9012
▁sırada	-10.9012
▁gideceksin	-10.9013
▁bilenler	-10.9013
▁sevgimiz	-10.9014
hit	-10.9014
nede	-10.9014
▁diğeri	-10.9015
Dere	-10.9017
▁ağıtlar	-10.9017
▁sazın	-10.9018
▁işit	-10.9019
▁saçlar	-10.9023
nızda	-10.9024
▁yetiştir	-10.9028
▁deve	-10.9028
Şer	-10.903
▁kalkıp	-10.903
▁diren	-10.9031
▁En	-10.9033
▁yitik	-10.9035
▁bulutlara	-10.9041
adını	-10.9043
▁nâ	-10.9043
▁tapar	-10.9043
Verdiğin	-10.9045
▁aldan	-10.9046
▁döv	-10.9048
Uzaklarda	-10.9049
▁hüzünle	-10.905
leşme	-10.905
▁guzel	-10.9051
Par	-10.9052
▁hürmet	-10.9056
Ok	-10.9057
ğinde	-10.9058
Bırakın	-10.9058
▁nâr	-10.9059
Kalemim	-10.9062
Sözler	-10.9063
▁uçuyor	-10.9066
▁salmış	-10.9066
V	-10.9069
▁yağmurun	-10.907
▁biçimde	-10.9075
▁bastır	-10.9077
Güzellik	-10.908
▁çarkı	-10.908
mezsin	-10.9092
▁zillet	-10.9092
▁ötesinde	-10.9093
▁vicdansız	-10.9094
▁olmadım	-10.9095
Ör	-10.9098
Görün	-10.9099
▁kördüğüm	-10.9101
11	-10.9103
Şa	-10.9104
Mazi	-10.9105
▁değirmen	-10.9106
adam	-10.9109
▁ırmaklar	-10.9109
ər	-10.911
▁uykuda	-10.9112
ılmıyor	-10.9112
▁buralardan	-10.9113
▁rüzgara	-10.9113
▁tenine	-10.9113
▁kalsam	-10.9114
Dev	-10.9114
▁öv	-10.9115
▁köyün	-10.9116
▁yaşımda	-10.9116
nce	-10.9117
mıştın	-10.9118
▁ziyaret	-10.9119
▁bo	-10.9123
▁unutamam	-10.9124
▁ölümüne	-10.9125
önce	-10.9125
▁kesen	-10.9125
ğin	-10.9127
▁parla	-10.9127
▁düşür	-10.9129
bahçe	-10.9131
Memleket	-10.9135
▁yarınlara	-10.9136
Aldırma	-10.9138
▁dalından	-10.9139
kları	-10.9139
ğın	-10.914
▁resimler	-10.914
yağ	-10.914
▁bastı	-10.9141
Sizler	-10.9141
▁haktır	-10.9142
samda	-10.9144
▁muradım	-10.9146
Gülün	-10.9147
▁içmek	-10.9149
Gözyaşım	-10.915
▁şiirlerim	-10.9151
▁mutluluğa	-10.9151
▁içtiğim	-10.9152
müştü	-10.9152
▁diyeceksin	-10.9153
▁beklenen	-10.9154
▁bağladım	-10.9155
▁ocağı	-10.9156
▁bilinmeyen	-10.9157
▁soğan	-10.9158
Duvarlar	-10.916
Dostun	-10.916
İs	-10.916
Ruhumda	-10.916
▁bakışlarım	-10.9162
▁sokakları	-10.9163
yıldız	-10.9165
sor	-10.9166
Vay	-10.9169
▁güya	-10.9171
ilindi	-10.9174
▁feryadı	-10.9175
esim	-10.9177
anda	-10.9178
dert	-10.918
▁kıyı	-10.9184
▁dünyamda	-10.9185
▁iğne	-10.9185
om	-10.9186
▁veriyorum	-10.919
Canan	-10.919
▁suyum	-10.9191
▁boşluğa	-10.9192
▁imam	-10.9195
▁yüksel	-10.9196
▁şehitler	-10.9198
Öksüz	-10.9199
Yeri	-10.9199
▁hayalimde	-10.9199
üs	-10.92
Götür	-10.9203
Konu	-10.9205
▁yaraya	-10.9205
▁faydası	-10.9206
▁eşim	-10.9206
▁büyüyen	-10.9208
▁Fatih	-10.9209
▁topu	-10.9211
▁murat	-10.9211
▁okşar	-10.9212
yince	-10.9213
▁vereyim	-10.9214
gâh	-10.9216
▁sıcağı	-10.9218
▁sessizliği	-10.9219
▁divan	-10.922
ladığım	-10.922
rum	-10.922
karşı	-10.9221
geri	-10.9223
▁ikinci	-10.9224
yiş	-10.9225
▁ce	-10.9228
makla	-10.9229
Geçmişi	-10.9234
oz	-10.9234
Geçer	-10.9235
▁Aslı	-10.9236
▁menfaat	-10.9236
Kalbinde	-10.9236
▁ellerimiz	-10.9238
▁yakacak	-10.9238
▁evladı	-10.9239
mə	-10.9241
▁Zaman	-10.9243
▁saçın	-10.9244
Mümin	-10.9244
▁çilesi	-10.9245
Yaban	-10.9246
▁Bazen	-10.9249
▁sağlık	-10.9249
▁şad	-10.9249
▁yolumuz	-10.9249
▁çağırır	-10.9251
▁götüren	-10.9255
Dilin	-10.9257
kader	-10.9258
▁rengarenk	-10.9263
Saçlarını	-10.9263
▁öncesi	-10.9264
▁ahenk	-10.9267
▁kabuk	-10.9268
Titre	-10.9268
▁par	-10.9271
▁süsle	-10.9272
▁çoğal	-10.9273
▁salar	-10.9275
▁hayalleri	-10.9276
▁cehalet	-10.9277
▁evim	-10.928
▁çadır	-10.9281
Sözün	-10.9281
Yoruldum	-10.9281
▁sevmiyorum	-10.9282
▁gülümser	-10.9282
▁oluş	-10.9282
▁mesken	-10.9283
▁beklersin	-10.9286
diz	-10.9287
Dava	-10.9288
▁gideriz	-10.9289
mesini	-10.9289
▁yiyor	-10.9289
▁mahşere	-10.9291
▁özde	-10.9291
▁yaşamaktan	-10.9293
▁fısılda	-10.9296
Gidişin	-10.9299
▁yanıl	-10.9302
▁terör	-10.9302
mezdi	-10.9303
Islak	-10.9309
▁küsme	-10.9309
▁park	-10.9309
▁çırp	-10.9311
▁hayırlı	-10.9312
▁olmadık	-10.9313
Birlik	-10.9313
▁kimdir	-10.9316
Atam	-10.9317
▁Rahman	-10.932
bizim	-10.9323
Aramızda	-10.9323
Bakar	-10.9324
▁alırsın	-10.9324
▁övün	-10.9325
▁doğrusu	-10.9327
▁kıpır	-10.9328
▁milletim	-10.9329
yıl	-10.9329
▁gömlek	-10.9329
▁uydur	-10.9331
▁ruhuna	-10.9331
▁kaldırım	-10.9332
Mis	-10.9333
▁doymaz	-10.9333
▁ulaşmak	-10.9337
▁yaşayamam	-10.9339
▁yüzleri	-10.9341
▁neredesin	-10.9342
emeyen	-10.9345
▁alevi	-10.9345
▁zehirli	-10.9346
▁kuşların	-10.9347
▁Eylül	-10.9348
▁huy	-10.935
▁bıktım	-10.935
▁yanacak	-10.935
Vakti	-10.9352
▁vurulur	-10.9355
▁göğü	-10.9355
▁farz	-10.9357
▁dikenli	-10.9358
▁rengine	-10.9359
▁çıkarır	-10.9359
▁sırtına	-10.9359
▁kapını	-10.9361
▁kıskanır	-10.9364
▁yıkma	-10.9365
▁ruhlar	-10.9368
Cehalet	-10.937
Tutun	-10.937
cin	-10.9374
âb	-10.9376
▁yalanlar	-10.9376
Tepe	-10.9378
aba	-10.9379
▁oturmuş	-10.9381
▁ölçü	-10.9383
Yüreğini	-10.9383
▁mutluluğun	-10.9383
Dolaş	-10.9383
▁dilimden	-10.9385
▁sonsuzluğa	-10.9385
▁kumar	-10.9387
în	-10.9387
lam	-10.9387
Kışın	-10.9387
▁doğur	-10.9388
Özgür	-10.9388
Görmek	-10.9388
Yazı	-10.9389
..?¬	-10.9395
Kayıp	-10.9397
Baharda	-10.9397
▁demi	-10.9405
▁senindir	-10.9408
▁ezgi	-10.9409
▁solmaz	-10.9409
▁vurulmuş	-10.9409
▁gelenler	-10.9409
▁zemin	-10.941
▁köşk	-10.9413
▁öle	-10.9415
Arar	-10.9415
Düz	-10.9415
▁ayıran	-10.9416
▁ayırdı	-10.9417
mah	-10.9418
▁sarayı	-10.9424
▁koskoca	-10.9425
Sine	-10.9426
▁dönüşü	-10.9431
▁şayet	-10.9432
▁isterken	-10.9433
▁bakışlı	-10.9434
▁bacak	-10.9435
▁coşkun	-10.9436
hepsi	-10.9437
▁yazıldı	-10.9437
meyiz	-10.9439
▁sürüyor	-10.9439
▁içindeyim	-10.944
▁müzik	-10.9441
▁sevdiklerim	-10.9441
▁dertten	-10.9443
oş	-10.9443
▁çizer	-10.9445
▁ilan	-10.9445
▁yakala	-10.9446
▁yatma	-10.9446
▁süzül	-10.9448
▁üşür	-10.9448
(!)¬	-10.9448
▁takat	-10.9449
▁eşit	-10.9451
lamaya	-10.9452
▁geçerim	-10.9453
▁yumruk	-10.9453
Kanım	-10.9459
▁marifet	-10.946
Kadir	-10.9462
lardayım	-10.9462
▁geçit	-10.9462
▁ceset	-10.9462
▁gizler	-10.9463
▁toplum	-10.9463
▁ömrünü	-10.9466
Kahve	-10.9466
▁piş	-10.9467
Oldu	-10.947
▁kaplar	-10.9472
Kısa	-10.9472
▁yürüyen	-10.9472
▁döktü	-10.9473
▁titrek	-10.9473
Feryat	-10.9474
▁geleyim	-10.9474
Yu	-10.9477
▁hâ	-10.9478
▁uzay	-10.9484
▁kut	-10.9484
ığı	-10.9486
▁eşlik	-10.9486
şen	-10.9489
▁sevgiliye	-10.949
▁kopuyor	-10.9491
▁haddi	-10.9493
▁koşup	-10.9494
▁kahrı	-10.9495
▁gurbete	-10.9497
lay	-10.9498
▁alkış	-10.9498
▁medeniyet	-10.9502
▁boynumu	-10.9503
▁güzelliğini	-10.9506
Renk	-10.9507
▁Nasıl	-10.9508
▁kâinat	-10.9508
▁rol	-10.9509
Ölmeden	-10.9513
▁bağladı	-10.9513
Fi	-10.9514
▁muyum	-10.9515
seniz	-10.9516
eb	-10.9517
▁savurur	-10.9517
▁karşına	-10.9517
▁atlar	-10.9518
Derya	-10.952
sever	-10.952
nefes	-10.952
▁Hiç	-10.9522
▁pa	-10.9522
▁duygularımı	-10.9523
▁yaşatan	-10.9526
▁sularda	-10.9526
▁olamazsın	-10.9526
tör	-10.9529
▁canına	-10.953
▁bacım	-10.953
▁bedenini	-10.9533
▁kâ	-10.9533
▁ezel	-10.9533
▁dalma	-10.9533
▁koymuş	-10.9534
▁gönlümden	-10.9534
¬1	-10.9537
▁baktın	-10.954
▁öğün	-10.9541
▁fesat	-10.9541
Gidip	-10.9542
▁sizden	-10.9543
▁kabir	-10.9544
▁içki	-10.9544
Dudakların	-10.9544
▁zulme	-10.9545
▁ateşini	-10.9549
Düştüm	-10.9549
▁yanmaz	-10.955
▁seyre	-10.9551
▁bedenimde	-10.9552
▁şiddet	-10.9552
▁kapanır	-10.9552
▁yapalım	-10.9552
▁sevdalara	-10.9553
▁gününü	-10.9554
▁duyuyor	-10.9554
Karanlığın	-10.9555
▁taşlara	-10.9555
yeşil	-10.9556
▁yoğun	-10.9556
▁un	-10.9558
▁ayrılığı	-10.9559
▁bah	-10.9561
▁azı	-10.9562
▁çoğaldı	-10.9564
▁edildi	-10.9567
▁damlalar	-10.9568
Gökte	-10.9571
▁efsane	-10.9571
▁duyuyorum	-10.9573
Yokluk	-10.9575
▁geçmişim	-10.9575
▁lime	-10.9577
▁sayıp	-10.9578
▁doyasıya	-10.9579
▁sorarım	-10.958
▁ordusu	-10.9583
▁oluruz	-10.9583
So	-10.9585
Düşünme	-10.9585
Sey	-10.9586
Boy	-10.9586
▁anlatıyor	-10.9588
▁korkarım	-10.9588
▁kaydı	-10.9589
Eri	-10.9591
▁fikri	-10.9591
▁durmuyor	-10.9592
ile	-10.9594
▁çelik	-10.9594
Onsuz	-10.9594
▁umutları	-10.9594
Anlamsız	-10.9595
▁süslü	-10.9596
▁Yıllar	-10.9597
▁çizgiler	-10.9598
▁kovan	-10.9599
Usta	-10.96
▁çağı	-10.9601
▁rabbim	-10.9607
▁koştum	-10.9608
▁uyandır	-10.9608
mân	-10.9609
▁öleceğim	-10.9609
▁sonunu	-10.9611
annem	-10.9612
▁yalnızlığa	-10.9614
Ed	-10.9615
▁çilem	-10.9615
▁şarkısı	-10.9615
Gayrı	-10.9615
▁kelebekler	-10.9615
▁padişah	-10.9621
çak	-10.9622
▁vere	-10.9623
▁yama	-10.9625
▁sayan	-10.9626
▁moda	-10.9627
▁rüyada	-10.9627
▁kurdun	-10.9628
Yaktı	-10.9629
ıyordum	-10.9629
lensin	-10.963
Sırt	-10.9632
▁şa	-10.9636
Aslan	-10.9636
Uzakta	-10.9636
▁bilmiyorsun	-10.9637
▁baktığım	-10.9638
Kocaman	-10.9639
▁gitse	-10.9641
çiçek	-10.9641
▁asma	-10.9643
Engin	-10.9644
ayak	-10.9645
Fırtınalar	-10.9646
▁bunların	-10.9646
▁dertlerim	-10.9647
Nazar	-10.9648
▁dillerin	-10.9648
▁ülkede	-10.9649
▁söylemez	-10.965
desin	-10.9651
▁dul	-10.9652
ğımda	-10.9654
▁sevdâ	-10.9655
▁perisi	-10.9656
Şeref	-10.9656
▁yollarını	-10.9656
▁deste	-10.966
▁ufukta	-10.9661
Kapan	-10.9661
▁bilsem	-10.9662
▁kuruldu	-10.9662
▁verelim	-10.9664
Kanayan	-10.9666
▁cik	-10.967
▁öpücük	-10.967
Eser	-10.9671
Etme	-10.9671
dikleri	-10.9672
Yoksun	-10.9673
yordu	-10.9675
lamaz	-10.9675
büyü	-10.9677
▁halinden	-10.9677
Ölüme	-10.9677
▁kapar	-10.9681
Geceyi	-10.9683
▁doğarken	-10.9686
Aşkımız	-10.9689
▁unuturum	-10.9689
▁tutul	-10.969
▁evlen	-10.969
Yalnızca	-10.9691
▁dokunuş	-10.9695
larımdan	-10.9696
Karanlığa	-10.9699
Kefen	-10.97
▁ovalar	-10.9701
amadın	-10.9701
▁dayandı	-10.9702
semde	-10.9702
Pişmanlık	-10.9703
▁mağrur	-10.9707
▁döktüm	-10.9707
▁olmalıydı	-10.9708
▁giyin	-10.9708
sessiz	-10.9709
▁yarınlar	-10.9709
tip	-10.9711
▁çayı	-10.9711
▁olacaktı	-10.9712
▁yaya	-10.9716
▁Sevda	-10.9723
lıydı	-10.9723
▁saldın	-10.9724
▁cemre	-10.9725
▁kattı	-10.9726
Ü	-10.9727
Tertemiz	-10.9727
▁bülbülü	-10.9732
▁saltanat	-10.9736
▁edeceğim	-10.9736
▁revan	-10.9738
duğunu	-10.9741
▁gösteren	-10.9742
▁aşa	-10.9742
rat	-10.9742
▁yolla	-10.9743
▁akarken	-10.9744
▁müdür	-10.9744
Aldığım	-10.9744
▁girmez	-10.9745
yaşam	-10.9746
▁inandım	-10.9748
▁takılır	-10.9749
Pınar	-10.9749
▁alırım	-10.9756
▁ber	-10.9756
▁seslen	-10.9758
▁düştüğü	-10.9761
▁gülden	-10.9763
▁beddua	-10.9763
▁not	-10.9764
▁saldır	-10.9764
▁özlemle	-10.9765
▁gösterme	-10.977
bunu	-10.9771
Burda	-10.9774
Tarla	-10.9777
kaya	-10.9777
miştin	-10.9779
▁düşünen	-10.9779
▁özlemek	-10.978
zin	-10.9781
Sorun	-10.9784
▁sevmiyor	-10.9791
▁hallere	-10.9791
▁kapandı	-10.9796
▁duymuyor	-10.9798
▁sokar	-10.9799
▁aba	-10.9799
▁hasretinle	-10.98
▁gençler	-10.9801
▁mesafe	-10.9804
Evvel	-10.9807
▁yüreğinin	-10.9807
▁bildik	-10.981
▁deyin	-10.981
Yüzüm	-10.9811
▁kayna	-10.9811
▁etrafa	-10.9812
▁yaşasın	-10.9813
ker	-10.9814
▁kadınım	-10.9815
▁getirdin	-10.9815
▁Sevgi	-10.9815
▁bağlarım	-10.9816
Günün	-10.9818
▁izlerin	-10.9819
Yanıl	-10.9819
▁sönmez	-10.9821
▁diner	-10.9822
▁kardaş	-10.9823
Kavuş	-10.9823
▁varlığım	-10.9824
▁durumu	-10.9826
▁çekildi	-10.9827
layın	-10.9827
▁vurdular	-10.9827
▁boğulur	-10.9829
▁sözcükler	-10.9829
▁ahmak	-10.9829
istan	-10.9829
▁diyorsan	-10.983
▁asa	-10.9834
Göç	-10.9834
▁sandal	-10.9834
Mümkün	-10.9835
Doğruyu	-10.9835
▁Sivas	-10.9839
▁nefsi	-10.9841
Yılan	-10.9842
▁gem	-10.9842
▁almadı	-10.9843
Öylece	-10.9844
▁andım	-10.9845
▁günlerden	-10.9847
▁zat	-10.9848
▁edemez	-10.985
▁beli	-10.985
▁vade	-10.9851
▁yanımdan	-10.9851
Cihan	-10.9853
▁düşersin	-10.9855
▁yaşayacak	-10.9856
▁gündüzüm	-10.9857
▁hissed	-10.9857
Yarin	-10.9857
Zindan	-10.9858
▁ayağı	-10.9859
Suskun	-10.9864
cim	-10.9864
Yetmez	-10.9865
▁renginde	-10.9866
▁neymiş	-10.9866
▁kuşum	-10.9868
▁şe	-10.987
▁döver	-10.987
rüya	-10.9871
▁nal	-10.9871
▁beyim	-10.9874
▁eylesin	-10.9878
ydık	-10.9878
▁öze	-10.9878
▁kucakla	-10.9879
kadın	-10.988
sarı	-10.988
▁zikr	-10.9884
▁memnun	-10.9886
Ceylan	-10.9886
Sevdalar	-10.9886
▁sırrını	-10.9887
▁ölmeden	-10.9888
▁yaşatır	-10.989
Yay	-10.989
▁yapılır	-10.9892
▁verirken	-10.9893
▁yordu	-10.9893
▁mâ	-10.9894
▁sorarsan	-10.9895
▁kaptan	-10.9896
▁meydana	-10.9897
▁kollarım	-10.9898
Dualar	-10.9902
▁û	-10.9903
selam	-10.9903
▁yaşanmış	-10.9903
▁seçtim	-10.9904
Batı	-10.9905
▁huzurlu	-10.9906
▁bozma	-10.9906
▁soba	-10.9908
Burası	-10.991
▁alıyorum	-10.991
▁doğal	-10.991
▁gözyaşlarımı	-10.991
▁takip	-10.9912
Şirin	-10.9913
arka	-10.9913
▁hekim	-10.9913
Dök	-10.9916
Ders	-10.992
▁Hızır	-10.9923
▁dudaklarım	-10.9924
▁sandığın	-10.9925
▁sözlere	-10.9925
Birileri	-10.9926
▁eşin	-10.9929
Yoluna	-10.9931
işim	-10.9931
▁kültür	-10.9932
▁sizde	-10.9934
mle	-10.9935
▁gözüyle	-10.9936
Soy	-10.9936
▁beynimde	-10.9937
▁dine	-10.9937
▁hü	-10.9939
yeceksin	-10.9939
▁göremez	-10.9939
▁utanır	-10.994
▁sence	-10.9941
▁sevenin	-10.9943
▁görmedin	-10.9948
Um	-10.995
benden	-10.995
▁ellerime	-10.9951
Hor	-10.9952
kuş	-10.9954
▁yoldur	-10.9955
▁vurul	-10.9959
nca	-10.9962
▁q	-10.9965
şır	-10.9965
ûr	-10.9966
▁dedem	-10.9967
Hainler	-10.9968
▁dilleri	-10.997
▁sözlerini	-10.9972
▁paramparça	-10.9973
▁böcek	-10.9974
dokun	-10.9976
▁topraktan	-10.9977
öp	-10.9977
▁sevgine	-10.9977
Elinden	-10.9977
Görme	-10.9978
Sevil	-10.9979
Yüksel	-10.998
ışım	-10.998
▁düşürdü	-10.9982
▁başlı	-10.9985
Vefa	-10.9986
Nedense	-10.9987
cil	-10.9988
▁muamma	-10.9988
Sakla	-10.999
▁ihtiyacım	-10.9991
▁koç	-10.9994
▁hacı	-10.9997
▁sildim	-10.9998
▁dengi	-11.0002
▁şiirin	-11.0005
▁yalanmış	-11.0005
▁huri	-11.0011
▁Senin	-11.0013
▁sayı	-11.0013
▁li	-11.0014
▁anıları	-11.0014
lə	-11.0015
gah	-11.0015
▁umuda	-11.0018
▁nehirler	-11.0019
mağa	-11.0023
Kimileri	-11.0023
say	-11.0024
▁genci	-11.0025
▁hası	-11.0027
yani	-11.0029
▁adımda	-11.003
Sevip	-11.003
rit	-11.0031
Bitsin	-11.0031
larınız	-11.0033
▁mes	-11.0034
▁dü	-11.0036
Bekleme	-11.0039
Söyler	-11.0043
▁sayma	-11.0044
▁Nisan	-11.0044
▁susamış	-11.0044
▁ağlatır	-11.0045
Düşme	-11.0045
▁olmazsan	-11.0046
Konuşma	-11.0046
▁dalgalan	-11.0047
Dokunma	-11.0048
▁eseri	-11.005
Ruhuma	-11.005
▁küstüm	-11.0052
▁ciğerim	-11.0052
aşık	-11.0054
▁bırakın	-11.0055
Hic	-11.0057
▁insanlığın	-11.0057
Edep	-11.0059
Sin	-11.006
▁kurmak	-11.0067
Adına	-11.0068
Çarp	-11.0068
▁resme	-11.0071
Ço	-11.0072
▁kazanır	-11.0074
▁pençe	-11.0074
Sevgimi	-11.0077
▁dunya	-11.0079
▁sinmiş	-11.0082
dığımı	-11.0085
Ahmet	-11.0085
▁bulduk	-11.0089
▁namazı	-11.0089
▁kapıda	-11.009
▁yâd	-11.0091
▁düştüğüm	-11.0092
▁böyledir	-11.0092
Zira	-11.0092
Karşımda	-11.0092
▁kanadım	-11.0095
▁kini	-11.0096
leşiyor	-11.0097
▁nasır	-11.0099
Ayaz	-11.01
▁evimiz	-11.01
▁sebepsiz	-11.0102
Cumhuriyet	-11.0103
▁veli	-11.0103
▁beyhude	-11.0104
Yırt	-11.0106
bilmem	-11.0109
▁cesur	-11.0109
▁bitirdi	-11.0111
▁işten	-11.0112
▁vermem	-11.0113
ılınca	-11.0114
Sevdayı	-11.0117
Ramazan	-11.0117
konuş	-11.0119
Bilme	-11.0119
▁toprağına	-11.0121
Eğ	-11.0121
▁becer	-11.0123
Bari	-11.0125
yeniden	-11.0125
Dudaklarım	-11.0126
▁ağlaya	-11.0126
▁evren	-11.0126
rip	-11.0127
▁şarabı	-11.0127
Toplum	-11.0127
▁deryasında	-11.0129
▁Biz	-11.013
Oturup	-11.013
Yalnızlığım	-11.013
▁kı	-11.0132
▁yobaz	-11.0132
▁akşamlar	-11.0132
▁yıktın	-11.0133
▁doğdum	-11.0133
▁sımsıcak	-11.0135
▁bağlamış	-11.0136
Kötülük	-11.0137
Gönlünü	-11.0138
▁ag	-11.014
nir	-11.0142
Fitne	-11.0143
▁taşıyorum	-11.0143
▁loş	-11.0144
▁artıyor	-11.0151
Serin	-11.0152
▁okun	-11.0152
▁gülerek	-11.0155
▁sarılmış	-11.0156
ülü	-11.0156
▁atlı	-11.0156
▁yolcusu	-11.0157
▁aynaya	-11.016
▁derinde	-11.016
mıyım	-11.016
▁öper	-11.0161
▁ihtimal	-11.0161
▁eşya	-11.0165
ırlar	-11.0169
▁düşüncelerim	-11.0169
Hayvan	-11.0171
Göl	-11.0171
▁sırası	-11.0172
▁köyde	-11.0174
▁değilmi	-11.0175
ımızda	-11.0177
▁enkaz	-11.0177
▁evinde	-11.0178
Milletin	-11.0179
▁yazgı	-11.018
İsmin	-11.018
uver	-11.0181
▁iri	-11.0181
▁demeli	-11.0182
▁yönü	-11.0183
▁reva	-11.0184
▁denli	-11.0184
▁durulur	-11.0186
▁kilim	-11.0186
▁közü	-11.0188
▁uyurken	-11.0188
▁kalbinin	-11.0191
▁atılan	-11.0192
▁gülmeyi	-11.0192
▁Cuma	-11.0194
▁baktıkça	-11.0195
memek	-11.0196
▁uçurtma	-11.0196
▁olmaktır	-11.0198
¬___	-11.0198
lenecek	-11.0198
▁böceği	-11.0199
▁fil	-11.02
mazsa	-11.0202
▁yaptığım	-11.0203
▁incitme	-11.0203
Sultan	-11.0204
Ölümün	-11.0204
cılar	-11.0204
ste	-11.0204
▁nefese	-11.0207
Zamanla	-11.0208
▁sokağa	-11.0211
Gurbette	-11.0212
▁konak	-11.0213
▁okuma	-11.0214
▁anlamlı	-11.0214
▁varlığı	-11.0216
▁sabırla	-11.0217
Yaşayan	-11.0218
Acep	-11.0218
▁dizeler	-11.0218
▁toprağım	-11.0219
ettin	-11.0223
rek	-11.0223
▁bellidir	-11.0223
▁haddini	-11.0226
▁hayatıma	-11.0226
Günü	-11.0227
▁ederiz	-11.023
Gönülde	-11.0231
▁öteye	-11.0235
▁hasretlik	-11.0238
▁çorba	-11.0239
▁sarılmak	-11.0239
dağlar	-11.024
▁sustum	-11.024
Doktor	-11.0244
▁çalın	-11.0246
▁kalbinden	-11.0246
Seç	-11.0247
eceğin	-11.0247
Uy	-11.0248
Derken	-11.0248
▁menzile	-11.0248
Yarı	-11.0249
▁verildi	-11.025
Makam	-11.025
Çi	-11.0252
▁geçici	-11.0252
Birer	-11.0254
▁sokul	-11.0254
Milli	-11.0255
▁vuruldu	-11.0256
▁sevene	-11.0256
▁kendimizi	-11.0258
▁besler	-11.0258
▁od	-11.0258
▁gülerken	-11.0261
Ayır	-11.0264
İlkbahar	-11.0265
▁saçlarımı	-11.0266
Insan	-11.0267
Varlık	-11.0267
▁barın	-11.0269
▁aşkların	-11.027
▁evler	-11.027
amayacak	-11.0272
▁öteki	-11.0274
▁neşeli	-11.028
▁böylesi	-11.028
▁önder	-11.0281
▁kavrul	-11.0286
sinler	-11.0286
▁uyanık	-11.029
▁rota	-11.0292
Çoktan	-11.0294
ladık	-11.0294
▁saracak	-11.0296
nır	-11.0297
▁sevilme	-11.0299
▁donar	-11.0299
Korkarım	-11.03
▁dayanamam	-11.03
▁tabiat	-11.03
▁yarattı	-11.0301
▁söyleyecek	-11.0302
Ellerinde	-11.0314
▁Türkçe	-11.0315
liktir	-11.0315
İkinci	-11.0317
Bey	-11.0318
▁sayfalar	-11.0318
▁alınır	-11.0322
▁çi	-11.0325
▁aynalar	-11.0325
▁soracak	-11.0327
iliyor	-11.0331
digi	-11.0332
Düşen	-11.0333
▁konan	-11.0333
▁masmavi	-11.0334
▁güzeller	-11.0335
▁fi	-11.0336
ayrılık	-11.0337
▁düşlerimde	-11.034
Bazıları	-11.034
stan	-11.0341
▁bunlara	-11.0342
Yen	-11.0343
▁baharlar	-11.0344
▁hayallerimi	-11.0344
▁sarılma	-11.0345
Aklını	-11.0347
Avrupa	-11.0347
Bilsen	-11.0347
Martılar	-11.0349
av	-11.0354
▁haller	-11.0355
İkimiz	-11.0355
abilecek	-11.0356
▁tutuşur	-11.0358
Cevap	-11.0358
▁pişir	-11.0359
▁hayırsız	-11.0359
▁sallar	-11.036
Telefon	-11.0361
Seviyor	-11.0363
▁Ömer	-11.0364
ysam	-11.0365
meyelim	-11.0366
ardı	-11.0369
▁esiri	-11.0369
▁sevincim	-11.0369
Aşkını	-11.037
▁kalmıştı	-11.0374
▁gözyaşlarını	-11.0376
▁kadir	-11.0377
▁diyordun	-11.0378
Aylar	-11.038
sevmek	-11.0381
▁yumuşak	-11.0382
▁sokaklara	-11.0384
▁konuşuyor	-11.0386
kendimi	-11.0386
▁buğulu	-11.0387
▁parlar	-11.0389
▁dolaşıyor	-11.039
ıydı	-11.0391
▁tozlu	-11.0392
▁Rabb	-11.0398
▁yemyeşil	-11.0398
▁yükle	-11.04
arken	-11.0401
▁olsak	-11.0402
▁kesil	-11.0402
▁yükselen	-11.0405
▁sevdiceğim	-11.0407
Sınır	-11.0407
mut	-11.0407
▁takıp	-11.0409
yaşamak	-11.0409
eceği	-11.0409
Emir	-11.041
▁Resul	-11.041
Dokuz	-11.0411
ışın	-11.0412
Yüzü	-11.0412
▁nem	-11.0413
lenmek	-11.0413
Ask	-11.0416
hala	-11.0416
▁tütüyor	-11.0416
nızı	-11.0416
▁kapıdan	-11.0417
▁etmeyi	-11.0417
▁gizemli	-11.0417
eme	-11.0417
▁torun	-11.0417
▁sendedir	-11.0422
▁feleğin	-11.0422
Kokun	-11.0423
▁gelmeyecek	-11.0423
Yazın	-11.0424
▁öldüren	-11.0424
▁v	-11.0424
▁çiçeğin	-11.0425
▁mar	-11.0425
▁terazi	-11.0426
▁gerekli	-11.0428
▁adama	-11.0429
▁nesli	-11.0429
▁vallahi	-11.0429
▁çekerek	-11.0429
▁işleri	-11.0429
gil	-11.043
▁takım	-11.0433
▁bittim	-11.0433
................	-11.0434
▁böylece	-11.0434
Perde	-11.0435
▁değiliz	-11.0438
ada	-11.0438
▁yaptır	-11.0442
▁karnı	-11.0442
▁ucundan	-11.0445
Sevdamız	-11.0452
▁geçtin	-11.0453
▁unutulur	-11.0453
▁hislerim	-11.0454
▁getirdim	-11.0456
▁ayrılıklar	-11.0457
▁olduğunda	-11.0458
inda	-11.0459
Vatanı	-11.0459
Bilmiyor	-11.0462
Okyanus	-11.0462
Neyi	-11.0464
gaz	-11.0469
Viran	-11.0469
Bakıp	-11.047
▁fener	-11.0472
▁dökme	-11.0472
▁sanmıştım	-11.0472
▁hayrı	-11.0475
▁sevilir	-11.0475
▁buğu	-11.0476
▁petek	-11.0476
▁çekilmiş	-11.0477
kini	-11.048
Tabi	-11.0484
bâ	-11.0487
▁geçmedi	-11.0487
▁fe	-11.0488
Ağa	-11.0491
ch	-11.0493
▁soldum	-11.0493
▁bilki	-11.0493
Üzerinde	-11.0494
lerce	-11.0494
Yapma	-11.0495
▁çözül	-11.0495
ğım	-11.0498
▁çığlıklar	-11.05
▁görmemiş	-11.05
âm	-11.05
▁tükenmiş	-11.0502
▁çıkardı	-11.0504
Aşktan	-11.0504
yeyim	-11.0508
▁bahçede	-11.0511
▁ışığım	-11.0511
Suyu	-11.0512
▁atıl	-11.0512
Duydum	-11.0513
▁yek	-11.0515
▁geleceği	-11.0521
▁patla	-11.0524
mezsen	-11.0525
▁cinayet	-11.053
▁şükret	-11.053
▁kaçıp	-11.053
bilirim	-11.0531
▁tanıdık	-11.0531
▁gönülleri	-11.0533
▁dedikçe	-11.0533
▁dediği	-11.0535
işin	-11.0536
Kalbini	-11.0537
Yapraklar	-11.0538
yürü	-11.0538
insanlar	-11.0541
▁toplan	-11.0541
▁kaçma	-11.0543
▁düs	-11.0545
▁atın	-11.0545
▁verse	-11.0546
▁sevinir	-11.0548
▁esinti	-11.0549
▁sığar	-11.0552
▁üzerinden	-11.0555
▁titreyen	-11.0555
uza	-11.0555
Eylül	-11.0555
ova	-11.0559
▁sırrına	-11.0559
Kibir	-11.056
▁ağlamaz	-11.0561
Hüseyin	-11.0562
▁çarpan	-11.0562
Bedenin	-11.0563
▁nota	-11.0564
sta	-11.0564
▁mısralar	-11.0565
▁konuşmak	-11.0565
▁İçin	-11.0565
10	-11.0567
▁üfle	-11.0568
▁kırıp	-11.0569
Da	-11.057
▁varmak	-11.0571
Başına	-11.0571
▁ölç	-11.0571
▁ektim	-11.0571
▁temeli	-11.0578
etme	-11.0579
(!)	-11.058
Yandı	-11.0581
▁severdim	-11.0581
Sürü	-11.0581
muzu	-11.0581
▁şaşır	-11.0581
▁paraya	-11.0586
▁dipsiz	-11.0587
▁ettir	-11.0591
▁akacak	-11.0592
▁çığlıkları	-11.0593
▁yaparsın	-11.0593
Nefsim	-11.0593
İbrahim	-11.0594
▁aralar	-11.0594
▁ikiye	-11.0595
▁simdi	-11.0595
sevgili	-11.0596
ecegim	-11.0596
Kök	-11.0597
Üstünde	-11.0598
amadığın	-11.0598
şair	-11.06
Bence	-11.0603
▁acılara	-11.0608
▁sadakat	-11.061
▁yüzde	-11.0611
▁Atam	-11.0613
▁İbrahim	-11.0613
▁tanık	-11.0614
Hoca	-11.0615
▁yandığım	-11.0617
ses	-11.0619
▁düşünürüm	-11.062
▁bulsa	-11.0621
▁haya	-11.0622
Yola	-11.0622
▁bilirdim	-11.0624
▁takıldı	-11.0624
▁Ma	-11.0626
Kollarım	-11.0626
▁gelemem	-11.0627
Yaşan	-11.0627
▁çalışma	-11.0628
▁sözden	-11.063
▁işgal	-11.0633
▁kollarını	-11.0634
Kıyı	-11.0639
▁yaşan	-11.064
▁inanır	-11.064
▁ge	-11.0643
▁mizan	-11.0644
▁selim	-11.0644
Doğan	-11.0644
▁tohumu	-11.0646
Huzuru	-11.0646
Cesaret	-11.0647
▁versem	-11.0648
Yık	-11.0652
▁desinler	-11.0655
Suya	-11.0657
▁takıl	-11.066
▁imanı	-11.0662
Dediler	-11.0665
▁firar	-11.0665
Mo	-11.0665
▁saçını	-11.0666
▁yelleri	-11.0666
▁basa	-11.0667
▁Güzel	-11.0669
▁cilve	-11.0669
soy	-11.0669
Gönder	-11.067
▁eyvallah	-11.0675
mla	-11.0676
yem	-11.0676
ciler	-11.0679
sür	-11.068
▁körpe	-11.0681
ebe	-11.0682
▁lütfen	-11.0683
Hizmet	-11.0686
▁över	-11.0687
iyordum	-11.0688
▁göğün	-11.069
▁insafsız	-11.069
Bizden	-11.069
▁cananı	-11.0691
▁derinliklerinde	-11.0691
▁duruşun	-11.0692
▁sâ	-11.0692
▁belası	-11.0693
Ilık	-11.0695
▁içti	-11.0697
▁güder	-11.0698
Şefkat	-11.0699
▁sevdigim	-11.07
▁olanlara	-11.0701
▁yokum	-11.0703
▁Veli	-11.0703
▁uçsuz	-11.0706
▁olurken	-11.0707
emedin	-11.0707
▁doğdun	-11.0707
▁ucuna	-11.0707
▁miydim	-11.071
Başımda	-11.0711
▁zoru	-11.0711
▁bulamam	-11.0712
▁baksana	-11.0712
ilinme	-11.0712
Güç	-11.0713
”¬“	-11.0714
Susma	-11.0715
amamak	-11.0718
▁gezme	-11.0718
Olmuyor	-11.0723
▁eğlence	-11.0726
mal	-11.0731
▁Türkmen	-11.0731
keder	-11.0732
▁yollarım	-11.0734
▁gazi	-11.0734
▁etmesin	-11.0734
▁azdır	-11.0735
▁sözle	-11.0736
Bakın	-11.0739
▁olanları	-11.074
soğuk	-11.0741
▁güzellikleri	-11.0741
▁acıların	-11.0744
Analar	-11.0744
▁doyar	-11.0746
▁kapına	-11.0749
▁geleceksin	-11.0749
▁bulama	-11.075
▁solmasın	-11.075
▁duruş	-11.0752
▁ağzı	-11.0752
op	-11.0755
▁dönsün	-11.0756
anlara	-11.0758
▁yaslı	-11.0759
meyip	-11.0761
▁yeşerir	-11.0763
▁kare	-11.0763
▁seslenir	-11.0763
▁bağım	-11.0764
bes	-11.0764
▁çiçeğe	-11.0765
ley	-11.0765
▁anlamadım	-11.0766
▁koşmak	-11.0766
▁sevdamın	-11.0766
▁Çin	-11.077
▁Samsun	-11.0772
▁Allaha	-11.0772
Yılların	-11.0774
lığıyla	-11.0775
▁bilmesin	-11.0777
▁katında	-11.0778
Daima	-11.0778
▁taşında	-11.078
▁cehenneme	-11.078
uf	-11.078
nılı	-11.0782
Karanlığı	-11.0784
▁buluyorum	-11.0784
büyük	-11.0786
Boğaz	-11.0787
mo	-11.0788
yorgun	-11.0789
▁ağlıyordu	-11.0789
▁unuttuk	-11.0793
ruh	-11.0793
Dürüst	-11.0794
▁pınarı	-11.0795
uyum	-11.0795
▁coştu	-11.0795
▁düşte	-11.0796
▁eğitim	-11.0798
▁yârin	-11.0799
▁hainler	-11.08
▁biliriz	-11.08
kum	-11.08
▁düşünüyor	-11.0802
▁olurmuş	-11.0802
▁gözet	-11.0803
▁olmadığın	-11.0804
Sohbet	-11.0804
Neyleyim	-11.0804
▁benliğim	-11.0805
▁kurtlar	-11.0807
▁belâ	-11.0808
▁ayakkabı	-11.0808
Şeker	-11.0808
bulutlar	-11.0809
vat	-11.081
kalbin	-11.0811
▁cebi	-11.0814
▁düşü	-11.0814
▁baktığımda	-11.0815
▁ağlasın	-11.0815
▁göremedim	-11.0815
Sözde	-11.0816
▁bağrım	-11.0818
▁yetin	-11.0818
sağ	-11.0819
▁ümitler	-11.082
gecenin	-11.0821
Duvar	-11.0822
Binbir	-11.0826
Aşkına	-11.0826
▁unutulmaz	-11.0827
Zafer	-11.0828
▁sigaram	-11.0832
▁güllerim	-11.0832
▁verilmiş	-11.0833
▁ekmeğim	-11.0833
▁şunu	-11.0833
▁buhar	-11.0833
▁yapa	-11.0833
Kıskan	-11.0834
▁hasrete	-11.0835
▁deri	-11.0836
▁hissetmek	-11.0837
edip	-11.084
▁vermedin	-11.0842
arı	-11.0843
Silin	-11.0843
▁etmeyen	-11.0844
lığından	-11.0846
▁kayır	-11.0846
Mum	-11.0846
▁aşkıma	-11.0847
▁beton	-11.0847
dunuz	-11.0849
Derler	-11.085
Güneşe	-11.085
Hü	-11.0852
▁tüy	-11.0853
Ezan	-11.0856
Köle	-11.0857
▁akmaz	-11.086
▁dolma	-11.0861
Yemek	-11.0862
▁yakamoz	-11.0864
yamazsın	-11.0865
Vurgun	-11.0865
▁sahilde	-11.0865
ub	-11.0866
▁anlatamam	-11.0867
▁tilki	-11.0868
ibi	-11.0869
▁akrep	-11.0869
▁karga	-11.087
▁şak	-11.087
▁kollarına	-11.0871
Söylesene	-11.0872
▁bina	-11.0874
▁duyunca	-11.0874
Asi	-11.0875
▁atı	-11.0875
▁kattın	-11.0876
ayrı	-11.0876
set	-11.0876
müşüm	-11.0877
▁yaşıyoruz	-11.0878
▁çalıştım	-11.0879
▁uykular	-11.0879
▁kulaklarımda	-11.0882
▁verem	-11.0882
▁vapur	-11.0883
▁bitmek	-11.0884
▁mevsimde	-11.0885
▁coşku	-11.0885
▁girmek	-11.0885
yr	-11.0886
uyku	-11.0888
▁duysun	-11.0889
▁kırılma	-11.0889
▁nazı	-11.089
▁nesi	-11.0891
▁kerem	-11.0893
▁yüreğimdeki	-11.0896
▁yazmaya	-11.0896
Tanrım	-11.0896
▁Erzurum	-11.0897
▁sevdana	-11.0899
amadan	-11.09
▁sarıldım	-11.0903
▁sorsan	-11.0903
tif	-11.0904
▁cep	-11.0904
▁yalana	-11.0907
Sabret	-11.0908
▁bölge	-11.0908
Hırsız	-11.0912
▁etrafı	-11.0912
Çamur	-11.0913
▁denizlere	-11.0913
▁dönem	-11.0913
▁koşma	-11.0914
▁Amerika	-11.0914
▁olunmaz	-11.0915
Tükendi	-11.0915
dök	-11.0916
yış	-11.0918
▁yürüdüm	-11.0918
▁yüregim	-11.0919
▁hırka	-11.0921
▁biriyim	-11.0922
▁katre	-11.0923
▁kapısında	-11.0924
▁mahşerde	-11.0924
ıldığı	-11.0924
▁tütün	-11.0926
▁vadi	-11.0928
▁fotoğraf	-11.0929
nur	-11.093
▁saha	-11.093
ülmüş	-11.0933
lüğe	-11.0933
▁icinde	-11.0934
Sevdiğini	-11.0934
▁aşan	-11.0934
Sevdası	-11.0935
▁yakında	-11.0935
▁âlemde	-11.0937
▁alamaz	-11.094
İblis	-11.0941
▁taa	-11.0941
Sevdaya	-11.0941
▁masallar	-11.0942
▁kalacaksın	-11.0943
▁yelkovan	-11.0945
Hisset	-11.0948
luklar	-11.0949
▁şimşekler	-11.0949
▁benze	-11.0949
▁mazide	-11.095
▁çorak	-11.0951
▁yazsam	-11.0952
▁kıymetli	-11.0952
▁canından	-11.0952
▁Güneş	-11.0953
Sabaha	-11.0955
▁sönmüş	-11.0956
▁serde	-11.0958
▁olmadın	-11.0959
▁üşüme	-11.096
▁yollardan	-11.0961
Üşü	-11.0965
▁kavuştur	-11.0965
Ür	-11.0966
Art	-11.0968
yollar	-11.0968
▁baht	-11.0968
▁yerli	-11.0969
Ko	-11.0969
▁havaya	-11.0969
▁arda	-11.0971
▁yiyip	-11.0972
▁kendince	-11.0973
▁çiçeklerin	-11.0973
▁dereler	-11.0974
▁ebe	-11.0976
▁düşürdün	-11.0978
▁paslı	-11.0978
▁Rabbi	-11.0978
▁kaybeder	-11.0982
▁yanından	-11.0984
Akıllı	-11.0984
▁put	-11.0984
!..¬	-11.0985
▁severek	-11.0986
▁nefer	-11.0986
▁kendimle	-11.0989
▁durdun	-11.0991
▁bıkar	-11.0991
▁öğrenci	-11.0992
yamadım	-11.0992
▁alemin	-11.0993
▁sanar	-11.0993
Gönüllere	-11.0995
▁yakış	-11.0999
▁teninde	-11.0999
▁şerbeti	-11.1001
▁deyil	-11.1003
Derdime	-11.1003
Birisi	-11.1003
yom	-11.1004
▁gamı	-11.1007
müs	-11.1011
nice	-11.1011
▁silip	-11.1018
▁etek	-11.1018
med	-11.1018
Sanırım	-11.1019
▁borç	-11.102
▁satma	-11.102
▁ölüp	-11.1021
İşi	-11.1022
▁dizgin	-11.1027
▁zalime	-11.1028
▁silen	-11.1028
▁vermeye	-11.103
▁iblis	-11.103
Sü	-11.1031
▁birinin	-11.1033
▁vekil	-11.1034
▁defterim	-11.1034
.201	-11.1035
▁ihtiyaç	-11.1038
▁gitsen	-11.1038
▁kazma	-11.1041
▁sudan	-11.1043
▁sarsın	-11.1044
▁duyarım	-11.1045
▁hançeri	-11.1046
▁seyreder	-11.1046
Görmez	-11.1047
▁gürültü	-11.1052
Rüzgarın	-11.1052
Neydi	-11.1053
Çöl	-11.1054
▁sınıf	-11.1054
Başında	-11.1056
hiçbir	-11.1056
▁yüzer	-11.1057
▁kural	-11.1057
▁karşılaş	-11.1058
▁olurdum	-11.1059
yedi	-11.1059
▁ninni	-11.1059
laştır	-11.1064
▁Mevlâ	-11.1066
▁sevdanı	-11.107
▁ayrılır	-11.1071
▁ayda	-11.1072
Başıma	-11.1072
▁amaç	-11.1072
Pat	-11.1073
▁hatırlar	-11.1075
▁cevabı	-11.1076
kon	-11.1077
▁azal	-11.1079
▁sulara	-11.1083
▁akış	-11.1083
▁testi	-11.1083
Bekler	-11.1086
Kucak	-11.1086
▁özlüyor	-11.1086
▁halden	-11.1089
Yaklaş	-11.1089
▁derece	-11.1091
▁atam	-11.1092
▁bildi	-11.1093
▁yoktan	-11.1094
küçük	-11.1095
Tu	-11.1095
▁çaktı	-11.1099
▁çöllere	-11.1099
▁değildim	-11.1101
haber	-11.1102
ydü	-11.1105
Arif	-11.1105
Bay	-11.1105
bim	-11.1106
Kirli	-11.1111
▁doğmadan	-11.1112
▁yaşlan	-11.1113
▁K	-11.1114
Bilen	-11.1114
▁anlattı	-11.1117
▁lezzet	-11.1118
▁çaldın	-11.1118
▁deminde	-11.1119
Üstelik	-11.1119
▁sormadan	-11.1119
kta	-11.112
▁sakal	-11.1121
▁döken	-11.1121
▁sözünden	-11.1122
adı	-11.1123
Kimseyi	-11.1123
▁olaydım	-11.1125
Gönüllerde	-11.1126
▁gezerken	-11.1127
Bebek	-11.1128
▁gen	-11.1129
âl	-11.113
▁bürünür	-11.1131
▁aşığı	-11.1133
▁geçmişe	-11.1134
▁hisse	-11.1134
Gönlümdeki	-11.1135
▁baykuş	-11.1138
▁serdim	-11.1138
ûn	-11.114
▁adi	-11.114
Nasip	-11.1141
▁Hakkın	-11.1144
kardeş	-11.1144
▁yorgunum	-11.1144
▁yatağında	-11.1146
▁yatağı	-11.1147
Bık	-11.1147
▁duvarları	-11.1147
luğunda	-11.1149
utan	-11.115
▁başarı	-11.115
▁gidiyoruz	-11.115
▁kın	-11.115
▁üzülür	-11.115
▁cenaze	-11.1152
Ber	-11.1153
▁güllere	-11.1153
liğimi	-11.1154
▁bilinir	-11.1156
acaktı	-11.1157
Tav	-11.116
ğün	-11.1161
▁kalayım	-11.1164
▁sahra	-11.1165
Ku	-11.1166
▁yağmurda	-11.1167
▁tarihe	-11.1169
▁bağrımda	-11.1171
▁ellerinle	-11.1172
▁biner	-11.1172
▁anlıyor	-11.1173
ılsa	-11.1173
▁dinliyorum	-11.1175
Ra	-11.1175
▁olmalısın	-11.1177
▁sağlar	-11.1177
abilirim	-11.1177
▁engeller	-11.1177
▁bürünmüş	-11.1179
madığı	-11.118
▁çaresizlik	-11.118
▁çıka	-11.118
▁dalgın	-11.1181
Derde	-11.1182
işi	-11.1183
▁bilse	-11.1183
▁bülbüle	-11.1183
çaresiz	-11.1185
▁güldüm	-11.1185
▁kuşağı	-11.1186
▁gündüzü	-11.119
▁bilirmisin	-11.1193
▁masalı	-11.1193
Avuç	-11.1194
İnsanlara	-11.1194
▁ahiret	-11.1198
▁gözyaşını	-11.1198
▁izini	-11.1199
▁batır	-11.1199
Anlam	-11.1199
▁deriz	-11.1199
▁kabar	-11.1203
▁ağlayacak	-11.1204
Yeşer	-11.1205
▁köyü	-11.1205
Mevlam	-11.1206
Namus	-11.1208
ınılın	-11.1209
▁yagmur	-11.1209
▁gı	-11.1209
▁böylesine	-11.1209
▁gözyaşların	-11.121
▁unuttur	-11.121
Kendinden	-11.121
▁yoldu	-11.1211
▁çarpıyor	-11.1211
Kavuşmak	-11.1212
▁kaçmak	-11.1214
Kırıldı	-11.1214
▁hayatımın	-11.1218
mediğin	-11.1218
▁yit	-11.122
lığımı	-11.1221
▁sağı	-11.1222
▁işini	-11.1224
▁kınalı	-11.1225
Yolda	-11.1226
Çiz	-11.1226
Zincir	-11.1227
eğim	-11.1227
Yaşat	-11.1227
bay	-11.1228
Sebebi	-11.1228
▁birçok	-11.1229
▁aradığım	-11.123
▁dökülmüş	-11.1234
Man	-11.1235
▁ölesiye	-11.1235
▁kirlet	-11.1236
▁yedir	-11.1236
lisin	-11.1238
▁şehirden	-11.1238
▁sinemde	-11.1241
▁ıs	-11.1242
▁dehliz	-11.1243
Şahin	-11.1243
▁çevirme	-11.1245
▁herşeye	-11.1246
▁dalan	-11.1251
Süt	-11.1255
▁yıkıp	-11.1256
▁çığlığa	-11.1261
▁ahım	-11.1264
▁du	-11.1264
▁hissetme	-11.1265
verdi	-11.1265
Yüreğimden	-11.1266
▁bürün	-11.1267
Bit	-11.1267
Ger	-11.1269
▁gölgem	-11.127
▁kafeste	-11.1276
▁kılın	-11.1282
▁zül	-11.1283
Gözyaşları	-11.1284
▁kavur	-11.1287
Hayran	-11.1287
▁tenime	-11.1287
▁kavuşur	-11.1289
▁alarak	-11.1289
şer	-11.1289
▁düşünürken	-11.1289
ili	-11.1291
Nefsin	-11.1292
▁kaplı	-11.1292
muştum	-11.1293
yüreğimde	-11.1295
▁tattım	-11.1297
larımıza	-11.1298
▁keçi	-11.1299
aşkı	-11.13
▁Hep	-11.13
▁ölmeye	-11.1301
▁geçin	-11.1302
Bazan	-11.1303
▁düşlerin	-11.1304
▁dinmiyor	-11.1305
Nasılda	-11.1305
▁yaşadı	-11.1306
içim	-11.1308
▁askeri	-11.1313
▁gömdüm	-11.1314
kleri	-11.1314
▁açıl	-11.1314
Küs	-11.1315
▁salma	-11.1315
▁Turan	-11.1317
Koşar	-11.1317
▁vahşet	-11.1318
Cana	-11.1319
▁kardeşi	-11.1319
▁sevindir	-11.1321
esinde	-11.1322
▁kafayı	-11.1323
▁gelmişti	-11.1323
Allahım	-11.1325
▁vuracak	-11.1328
▁gitmesin	-11.1329
oy	-11.1329
▁sevdaların	-11.133
▁gelirken	-11.1331
▁yılın	-11.1332
Haz	-11.1332
▁yitirmiş	-11.1333
▁gülüşler	-11.1336
▁itibar	-11.1339
imdir	-11.1341
▁pula	-11.1342
▁bağları	-11.1345
▁eserin	-11.1345
▁saçı	-11.1347
rdin	-11.1348
▁sevmeli	-11.1348
▁yorul	-11.1349
Yük	-11.135
kalem	-11.135
yanı	-11.1353
ellerin	-11.1353
▁değmesin	-11.1354
Umudun	-11.1354
▁şehidim	-11.1355
▁savrulan	-11.1356
til	-11.1357
▁sıcağında	-11.1358
▁ölsem	-11.1358
▁olmadığını	-11.136
▁varlığını	-11.1364
İçinden	-11.1364
mıdır	-11.1365
▁şehvet	-11.1365
Gü	-11.1368
Nihayet	-11.1369
▁yurdun	-11.1369
▁gördüğümde	-11.1371
Masal	-11.1374
▁nefreti	-11.1375
Kadere	-11.1376
▁mesut	-11.1377
▁bitanem	-11.1378
▁sırılsıklam	-11.138
▁sanmayın	-11.1383
eye	-11.1383
▁takdir	-11.1384
▁insanlığa	-11.1385
▁tarumar	-11.1385
▁pranga	-11.1385
▁Oğuz	-11.1386
▁düze	-11.1387
▁duydun	-11.1387
kem	-11.1389
▁nefsine	-11.1389
▁kesilmiş	-11.1389
▁çalışıyorum	-11.1392
Dini	-11.1394
leyerek	-11.1395
▁ikisi	-11.1396
▁anlamını	-11.1397
▁düşle	-11.1401
▁emi	-11.1402
▁vazgeçtim	-11.1403
Gülümse	-11.1403
▁duası	-11.1404
Yerde	-11.1405
Zerre	-11.1405
▁tarifi	-11.1406
▁özleme	-11.1408
Go	-11.1409
aj	-11.141
▁uzaklaş	-11.1411
▁sallan	-11.1411
▁kasa	-11.1412
▁gölgen	-11.1413
Bülbüller	-11.1414
▁hasretini	-11.1414
▁seversen	-11.1415
▁burdan	-11.1415
▁bakışta	-11.1417
Kahraman	-11.1417
mayıp	-11.1417
▁İşte	-11.142
▁gözümüz	-11.142
Üzerine	-11.1421
▁İlk	-11.1422
▁sapan	-11.1424
bilin	-11.1426
▁ilerle	-11.1432
Çaresizlik	-11.1434
▁Kim	-11.1434
▁ederdi	-11.1435
▁inşallah	-11.1436
uyordu	-11.1439
Umudu	-11.144
▁ödül	-11.1441
▁aşığın	-11.1442
Misafir	-11.1445
Zannetme	-11.1445
▁ateşim	-11.1446
anım	-11.1447
Önünde	-11.1448
▁ayrılığa	-11.1449
▁melodi	-11.1453
Pazar	-11.1453
▁üstünü	-11.1457
▁ağrısı	-11.1458
Erken	-11.1459
▁izinde	-11.1459
▁şaha	-11.1459
ud	-11.1461
▁çalışıyor	-11.1462
lerinle	-11.1462
▁vura	-11.1465
▁sala	-11.1465
▁bilmedim	-11.1467
Diyar	-11.1468
▁selamet	-11.1469
▁açmak	-11.1472
▁kanadında	-11.1472
▁piç	-11.1472
düğünde	-11.1473
▁aşktır	-11.1474
▁vicdanın	-11.1476
Haktan	-11.1476
▁içir	-11.1476
▁söker	-11.1477
▁j	-11.1477
▁ayran	-11.1478
▁yoluma	-11.148
▁yetiyor	-11.148
▁bek	-11.1481
▁günümde	-11.1483
▁kalplere	-11.1483
▁giriş	-11.1483
▁kırdı	-11.1484
Zalimler	-11.1484
▁duydu	-11.1484
evet	-11.1485
Pa	-11.1485
ruk	-11.1486
▁nasılda	-11.1487
▁0	-11.1488
Şan	-11.1492
▁ömrümde	-11.1493
▁bebe	-11.1494
▁tah	-11.1495
dere	-11.1497
▁kese	-11.1497
▁kazık	-11.1498
tısı	-11.1498
renk	-11.1499
mdaki	-11.15
cennet	-11.1501
▁ağlat	-11.1502
▁yanımız	-11.1502
uyla	-11.1503
çıkar	-11.1504
Kızgın	-11.1506
▁süsü	-11.1506
Başın	-11.1507
Alt	-11.1507
Fer	-11.1508
Saray	-11.151
▁defasında	-11.1512
▁zurna	-11.1513
Yanına	-11.1513
▁güzelin	-11.1518
Yasa	-11.152
▁aydınlığı	-11.1521
▁payı	-11.1522
Ge	-11.1522
▁sarayım	-11.1523
Gözden	-11.1524
gölge	-11.1528
▁dönersin	-11.1528
▁karşılıksız	-11.1534
Arama	-11.1535
▁sözlerine	-11.1537
▁fermanı	-11.1539
▁varya	-11.154
əm	-11.154
▁yastık	-11.1543
Gökten	-11.1549
▁aldılar	-11.1549
▁cennette	-11.155
Usulca	-11.1551
▁mesele	-11.1552
Yüreğimdeki	-11.1553
Sebep	-11.1554
▁kıymeti	-11.1554
▁doğmaz	-11.1555
▁kabahat	-11.1556
▁bağına	-11.1557
▁bala	-11.1559
▁kac	-11.156
seviyorum	-11.156
▁sararmış	-11.1561
arsın	-11.1561
▁tüten	-11.1562
▁sarmaşık	-11.1562
▁düşmeden	-11.1562
▁göğsünde	-11.1564
▁sırat	-11.1565
Sözü	-11.1567
▁arzum	-11.1567
▁yaşanacak	-11.1568
▁öküz	-11.1569
▁uyma	-11.1569
▁vız	-11.157
▁kapında	-11.1571
Tuz	-11.1571
▁dudaklarımda	-11.1572
▁urgan	-11.1573
ağın	-11.1575
Zalimin	-11.1575
▁düşkün	-11.1577
▁ortasına	-11.1584
Amel	-11.1585
Vatanım	-11.1585
▁gökler	-11.1586
▁gelişin	-11.1586
▁içen	-11.1587
▁peş	-11.1587
▁üzen	-11.1589
▁attığın	-11.159
▁batsın	-11.1591
▁yet	-11.1592
▁canımız	-11.1594
mir	-11.1594
Kaş	-11.1595
Ceza	-11.1597
İsmi	-11.1598
▁şiire	-11.1599
▁heybe	-11.1603
▁sırlar	-11.1603
lerimden	-11.1605
Yitir	-11.1605
▁şavkı	-11.1606
▁kulum	-11.1608
▁yarışır	-11.1608
Sevdiğimi	-11.1609
lerimize	-11.161
▁dilekler	-11.1611
Gülmek	-11.1611
▁balıklar	-11.1611
▁yal	-11.1615
Oruç	-11.1616
▁büyüt	-11.1616
Toprağı	-11.1621
▁şairler	-11.1621
▁ermiş	-11.1622
▁ömrümüz	-11.1623
▁ararsan	-11.1625
▁düşmek	-11.1628
▁mani	-11.163
oğlan	-11.1631
▁yağdır	-11.1631
▁dostların	-11.1632
▁mo	-11.1632
▁gizem	-11.1634
▁yıkık	-11.1634
umda	-11.1637
siyah	-11.1641
▁nedendir	-11.1641
▁canlanır	-11.1642
▁yakarım	-11.1644
ilsin	-11.1645
▁acır	-11.1648
▁dönüşür	-11.165
▁sabahlara	-11.1651
vaz	-11.1653
▁yeryüzünde	-11.1653
▁adet	-11.1654
▁akşamları	-11.1654
Eğil	-11.1655
▁sindir	-11.1657
▁ekler	-11.1657
Sevgimiz	-11.1657
Elimden	-11.1658
12	-11.1659
Çıkıp	-11.1663
Yolum	-11.1663
▁ellerimle	-11.1663
Papatya	-11.1664
▁kalpleri	-11.1664
▁elle	-11.1668
▁ısır	-11.1668
▁diker	-11.1669
▁bırakıyorum	-11.1671
▁sarısı	-11.1671
▁ayık	-11.1671
▁titre	-11.1672
▁oyunlar	-11.1673
ırız	-11.1674
▁acılarım	-11.1674
mâ	-11.1676
▁öğretti	-11.1679
▁bıktı	-11.1679
▁yayılır	-11.168
▁önceki	-11.168
▁büründü	-11.1681
▁istemedim	-11.1682
▁oturdu	-11.1685
▁bırakmış	-11.1687
Mel	-11.1687
çer	-11.1688
Çe	-11.1688
▁hayalinle	-11.1689
Kula	-11.169
▁çekin	-11.1691
▁kapıya	-11.1691
▁sonsuzluk	-11.1691
▁demokrasi	-11.1691
Acıyı	-11.1692
ıpta	-11.1695
Biter	-11.1695
▁umutlu	-11.1695
yamam	-11.1697
▁defteri	-11.1698
▁karışma	-11.1701
Kork	-11.1702
▁anlamadın	-11.1702
Ciğer	-11.1704
Üşüyorum	-11.1705
▁gururum	-11.1706
Kalbe	-11.1706
▁abla	-11.1706
uşun	-11.1707
▁kesik	-11.1709
▁tozu	-11.171
▁kavra	-11.1711
Beklerim	-11.1711
mişiz	-11.1711
▁kâbus	-11.1711
▁yorulma	-11.1711
▁çevirdi	-11.1712
Gücüm	-11.1713
▁halimiz	-11.1713
▁çı	-11.1715
▁kak	-11.1717
▁dilenci	-11.1717
▁belim	-11.1718
▁sırtını	-11.172
▁torba	-11.172
Hakkını	-11.1721
▁çürük	-11.1721
▁Ya	-11.1722
Sema	-11.1722
Mak	-11.1722
▁bilek	-11.1723
▁İçimde	-11.1725
▁oluştur	-11.1725
His	-11.1725
▁atış	-11.1726
▁basma	-11.1727
acaksan	-11.1727
Mazlum	-11.173
Bülbülün	-11.1731
▁gülümsüyor	-11.1732
▁sığmayan	-11.1733
▁çekersin	-11.1735
bı	-11.1735
Dostlarım	-11.1735
▁çektin	-11.1737
▁saatlerce	-11.1738
▁gözyaşımı	-11.1739
▁havayı	-11.1739
▁Osmanlı	-11.1739
▁gittiğim	-11.1741
▁rengin	-11.1742
▁yitirdim	-11.1743
hr	-11.1743
uştur	-11.1743
▁gömül	-11.1744
▁kendinde	-11.1746
Bekledim	-11.1748
▁şairin	-11.1749
▁anımda	-11.1751
▁çağında	-11.1751
▁arzusu	-11.1751
Kuzu	-11.1753
Daim	-11.1753
durur	-11.1756
▁silme	-11.1756
Arz	-11.1756
gelir	-11.1756
Başlar	-11.176
Geceye	-11.176
Durdur	-11.1761
Ağız	-11.1762
▁saklıdır	-11.1764
Bıktım	-11.1765
▁ocağında	-11.1765
▁delicesine	-11.1766
Hafif	-11.1767
▁sevgililer	-11.1767
yel	-11.1767
▁ölünce	-11.1769
Özüm	-11.1771
▁efem	-11.1772
▁utanmaz	-11.1773
İstediğin	-11.1775
▁çevirir	-11.1776
▁taşım	-11.1776
▁eylemiş	-11.1779
Dönme	-11.178
Bembeyaz	-11.1781
▁beyazı	-11.1782
▁bozkır	-11.1783
▁çalma	-11.1786
▁sofrasında	-11.1787
▁uyumak	-11.1788
▁herkesten	-11.1789
▁suret	-11.1789
olmaz	-11.1789
▁okuyup	-11.179
hâ	-11.1791
bizi	-11.1792
▁dalgaların	-11.1795
▁olmamalı	-11.1796
Çekil	-11.1798
Vah	-11.18
▁kiri	-11.1801
neler	-11.1804
Hayalimde	-11.1805
▁boğdu	-11.1806
Damar	-11.1808
▁hoşgörü	-11.1808
▁dönerim	-11.1808
zik	-11.1808
▁korkunç	-11.1809
▁engelleri	-11.1811
▁onlardan	-11.1813
▁taşıma	-11.1815
▁dolayı	-11.1815
▁simsiyah	-11.1816
▁yapış	-11.1816
▁biber	-11.1818
▁tatma	-11.1818
Ateşin	-11.1819
▁içiyorum	-11.1819
▁ağaçları	-11.1821
▁imkan	-11.1829
▁kanla	-11.1829
Yapılan	-11.183
lıktır	-11.1832
▁sevdadır	-11.1833
▁ediyordu	-11.1833
▁ulaştı	-11.1833
Aşıklar	-11.1835
mun	-11.1836
Baharın	-11.1837
▁gittiği	-11.1837
▁halimden	-11.1837
Görev	-11.1837
Vuslata	-11.1839
Dosta	-11.1839
▁bilmiş	-11.184
▁dönerken	-11.1841
yanlar	-11.1841
düğünü	-11.1841
Kokunu	-11.1841
▁maşuk	-11.1842
ersin	-11.1843
▁Tanrım	-11.1846
▁puslu	-11.1846
Kutlu	-11.1847
boz	-11.1848
hele	-11.1849
▁değme	-11.1853
▁süsler	-11.1854
▁yaşanmaz	-11.1854
▁ağlatan	-11.1855
huzur	-11.1856
▁aştım	-11.1857
▁mahsun	-11.1858
Mert	-11.1858
İnşallah	-11.186
▁kutu	-11.1861
Le	-11.1865
▁birşeyler	-11.1866
Mutluluğun	-11.1867
▁anın	-11.1868
Zavallı	-11.1869
▁meftun	-11.1869
▁korkuyor	-11.187
▁ağaçların	-11.1873
▁beslen	-11.1875
Rabb	-11.1877
▁köhne	-11.1878
▁görünüyor	-11.1879
▁çıkarıp	-11.188
▁mat	-11.1881
▁çekerken	-11.1881
▁giderse	-11.1881
▁kurşunu	-11.1882
▁ilah	-11.1884
▁Süleyman	-11.1885
▁islam	-11.1888
▁dinledim	-11.1889
ömrüm	-11.189
liğiyle	-11.1891
▁kaldırır	-11.1892
▁doldum	-11.1895
▁tuttuğum	-11.1897
Kel	-11.1899
Koskoca	-11.1903
▁okumak	-11.1906
msın	-11.1909
▁daral	-11.1911
▁uyanmak	-11.1912
▁anlı	-11.1912
▁beline	-11.1912
şar	-11.1914
▁uykudan	-11.1915
▁seviyorsun	-11.192
Gemi	-11.192
Görünce	-11.1921
▁düşmanın	-11.1921
yokluğun	-11.1925
Biliyorsun	-11.1926
▁kavak	-11.1927
▁rıza	-11.1929
▁tutuldu	-11.1929
▁zanneder	-11.193
▁yansa	-11.1931
▁koşarak	-11.1931
▁nurlu	-11.1933
▁özgürce	-11.1934
▁düşsün	-11.1935
Aklına	-11.1935
▁sıktı	-11.1936
▁dilimi	-11.1936
▁dağına	-11.1936
Geçmişin	-11.1936
▁verenler	-11.1936
Gönlünde	-11.1937
▁sevemem	-11.1938
▁yıldızların	-11.194
Düştü	-11.1941
Kanlı	-11.1941
▁yapsan	-11.1942
▁zalım	-11.1945
▁geldiğin	-11.1946
▁bâ	-11.1946
▁selvi	-11.1951
Han	-11.1951
▁unutmadım	-11.1952
▁unutamadım	-11.1953
Masa	-11.1953
laya	-11.1953
Sevgiden	-11.1954
dirir	-11.1956
ilmiyor	-11.1957
▁kabullen	-11.1957
▁kalmayacak	-11.1958
▁yeşer	-11.1962
▁bakacak	-11.1963
▁düşünmez	-11.1965
kanat	-11.1965
▁sabahlar	-11.1967
▁.....	-11.1967
▁anlayamadım	-11.1967
▁sürmeli	-11.197
▁yedin	-11.1971
▁ir	-11.1971
Kok	-11.1971
▁giymiş	-11.1974
▁uykum	-11.1975
▁temmuz	-11.1976
Tar	-11.1976
▁titreme	-11.1977
oloji	-11.1979
Mazlumun	-11.198
mizin	-11.198
▁kaval	-11.198
▁yaralarım	-11.1981
▁yağsa	-11.1981
Dili	-11.1983
vir	-11.1983
Görür	-11.1984
irdi	-11.1984
▁düşleri	-11.1984
▁götürüyor	-11.1984
▁bulunca	-11.1985
Gar	-11.1986
▁aldır	-11.1986
▁sermaye	-11.1986
▁çekilen	-11.1987
▁ahengi	-11.1987
▁bozdu	-11.1989
▁umutlarımı	-11.1989
▁dursa	-11.1989
Kalbimdeki	-11.1989
Çığlık	-11.199
▁şehirler	-11.1991
▁hi	-11.1992
Terör	-11.1995
lerken	-11.1995
▁kederli	-11.1996
▁teşekkür	-11.1997
▁ıslık	-11.1997
Yanıyor	-11.1998
▁sanadır	-11.2
malıydı	-11.2
▁lav	-11.2002
Sensizliğe	-11.2005
▁kimsin	-11.2006
▁günahlar	-11.201
Anlamaz	-11.2011
dolu	-11.2011
ima	-11.2012
Köz	-11.2013
...”	-11.2013
pınar	-11.2015
lıkları	-11.2015
▁dağlarım	-11.2015
▁gösterdi	-11.2016
▁alaca	-11.2017
▁biriktir	-11.2017
▁köpekler	-11.2017
▁meze	-11.2018
Ela	-11.2018
eler	-11.2023
▁sevgidir	-11.2023
▁bencil	-11.2024
▁babalar	-11.2025
▁yıkılmış	-11.2026
Bensiz	-11.2026
▁us	-11.2028
▁şeyde	-11.2031
▁hır	-11.2032
▁yaşamış	-11.2033
▁Se	-11.2033
▁vermeyen	-11.2034
Karlı	-11.2034
ysem	-11.2034
▁birinci	-11.2037
amayız	-11.2039
▁sormayın	-11.204
ebilsem	-11.2041
▁dondu	-11.2041
Dağlara	-11.2042
▁sıcaklığını	-11.2044
▁neşesi	-11.2046
Tadı	-11.2048
▁arta	-11.2049
.)	-11.2049
▁heykel	-11.205
▁ora	-11.205
▁anlayama	-11.2051
▁koşarken	-11.2051
Kalbine	-11.2052
▁yanını	-11.2053
▁yağacak	-11.2053
▁sars	-11.2053
▁seveyim	-11.2054
▁ıslanır	-11.2055
▁sevmedin	-11.2055
▁nasil	-11.2055
iyorlar	-11.2058
Yanık	-11.2063
▁günaha	-11.2064
Karış	-11.2065
▁arkasına	-11.2066
pi	-11.2067
▁peynir	-11.2068
▁attığım	-11.2068
Ölümden	-11.2069
Aklımdan	-11.2071
▁nida	-11.2072
▁duvarlara	-11.2072
▁sızlıyor	-11.2072
▁dahil	-11.2073
▁susuyor	-11.2075
Kaz	-11.2076
▁hissettim	-11.2077
▁günahkar	-11.2077
▁dostları	-11.208
▁gülüşlerin	-11.2081
▁sığmıyor	-11.2081
▁bekletme	-11.2082
▁öğrettin	-11.2083
▁sağanak	-11.2084
hayır	-11.2085
Güzeller	-11.2086
Bela	-11.2088
▁gülücükler	-11.2088
Sesim	-11.2089
Parmak	-11.2089
kaybol	-11.209
▁intikam	-11.2093
Birbirine	-11.2094
günah	-11.2094
kötü	-11.2095
lüğün	-11.2096
▁unutmaz	-11.2097
▁zehri	-11.2098
▁diyene	-11.2098
▁kışlar	-11.2104
Düşlerim	-11.2104
▁köye	-11.2105
ünün	-11.2106
▁süzer	-11.2107
▁soğu	-11.2109
▁sevi	-11.211
▁anma	-11.2113
▁tutkun	-11.2114
▁çıkınca	-11.2116
nç	-11.2116
isin	-11.2117
Balık	-11.2117
▁mektuplar	-11.2117
Halimi	-11.212
Yerin	-11.2122
yorsun	-11.2123
Kâh	-11.2126
hatta	-11.2128
▁neyine	-11.2128
▁gördüğü	-11.2131
▁yakındır	-11.2131
Gidenler	-11.2132
▁bırakmak	-11.2135
Hüzünler	-11.2136
Dede	-11.2136
Sız	-11.2137
kuşlar	-11.214
▁gitmeden	-11.214
larımızın	-11.214
Karınca	-11.2142
▁karaya	-11.2144
▁avuçlarımda	-11.2144
▁yokmu	-11.2144
▁yıldızlı	-11.2145
▁çuval	-11.2147
ço	-11.2147
Şi	-11.2147
▁kaldırıp	-11.2148
▁dertlerin	-11.2148
Efkar	-11.2151
▁adamlar	-11.2152
▁kavrulur	-11.2154
▁dermanım	-11.2154
▁rızası	-11.2154
İnsanlığın	-11.2156
▁şelale	-11.2157
▁kelamı	-11.2158
Kahr	-11.216
Üstüme	-11.216
Arayıp	-11.2162
▁tavan	-11.2163
mektedir	-11.2163
Tüken	-11.2165
▁sevmenin	-11.2166
Hacı	-11.2167
Denize	-11.2167
taşı	-11.2167
▁tabak	-11.2169
Uzaklardan	-11.217
nıza	-11.217
▁ufuk	-11.2171
Dam	-11.2171
▁yakalan	-11.2171
▁kıskan	-11.2172
miştik	-11.2173
▁şal	-11.2174
Ağlıyor	-11.2174
▁anneler	-11.2175
▁çakmak	-11.2175
▁tepeden	-11.2175
Canımdan	-11.2176
▁açılmış	-11.2177
▁pi	-11.2179
▁gitmedi	-11.218
▁olman	-11.2181
▁ilik	-11.2181
▁İl	-11.2182
mayasın	-11.2183
şehir	-11.2183
▁dirhem	-11.2184
Açıl	-11.2184
▁bitince	-11.2186
ebilecek	-11.2186
▁kaptır	-11.2187
bize	-11.2188
▁ümidim	-11.2188
▁kurut	-11.2188
▁sese	-11.219
▁kalmıyor	-11.219
Herkesi	-11.2191
▁kira	-11.2192
▁edilmez	-11.2192
Hançer	-11.2193
▁Mevlana	-11.2193
▁yıldızım	-11.2193
▁devrim	-11.2194
▁erkenden	-11.2194
Ri	-11.2194
▁fırça	-11.2197
ulacak	-11.2197
▁bahçesine	-11.2198
▁kızları	-11.2198
▁sile	-11.2198
aslında	-11.22
Ölen	-11.2201
▁sütü	-11.2201
beden	-11.2203
▁buluşur	-11.2206
Islan	-11.2207
▁name	-11.2208
.!¬	-11.221
▁himmet	-11.2211
İbadet	-11.2211
▁kafir	-11.2212
▁birbirinden	-11.2212
▁edersen	-11.2213
Virane	-11.2213
▁eti	-11.2214
▁düşerse	-11.2215
▁yıkılma	-11.2216
▁kanıma	-11.2216
▁yeşeren	-11.2217
▁boşalt	-11.2217
mediği	-11.222
▁kalkma	-11.222
▁korun	-11.222
Tarihi	-11.222
▁kimden	-11.2222
▁ilmi	-11.2222
Çağlar	-11.2222
▁kanın	-11.2222
▁sonraki	-11.2225
▁ayrılmaz	-11.2225
▁kaçak	-11.2226
▁solacak	-11.2226
▁aradı	-11.2228
ral	-11.223
▁sürüsü	-11.2232
▁kaybolup	-11.2232
Varlığım	-11.2233
▁tarifsiz	-11.2233
▁dolmadı	-11.2233
▁eridi	-11.2234
▁soylu	-11.2236
▁rast	-11.2237
İpek	-11.2237
Gözümü	-11.2238
▁numara	-11.2238
Sürekli	-11.2238
Allahın	-11.224
Gördüğün	-11.224
İkisi	-11.2241
▁sesle	-11.2243
▁kesmiş	-11.2243
kam	-11.2244
Gözünü	-11.2244
▁Öz	-11.2245
▁göçtü	-11.2247
Mesela	-11.2248
hayatın	-11.2249
▁ayrıldı	-11.225
▁kardeşlik	-11.2252
▁haykırır	-11.2255
▁ürk	-11.2256
▁güzün	-11.2257
▁insanda	-11.2258
mayız	-11.2258
▁kavurur	-11.2259
▁anlattım	-11.226
▁düvel	-11.2261
inilen	-11.2262
Dışarıda	-11.2262
Sön	-11.2265
▁bır	-11.2267
▁ülkü	-11.2269
▁inim	-11.2269
▁sokağın	-11.2269
▁biçti	-11.2273
Hayali	-11.2273
▁olunulan	-11.2275
▁gerçeğe	-11.2275
▁sevdir	-11.2275
▁mahpus	-11.2278
ıldım	-11.2279
lah	-11.228
▁sorulmaz	-11.228
▁saçıyor	-11.228
herşey	-11.2281
kere	-11.2282
ttim	-11.2282
▁aşkımın	-11.2282
Bilemedim	-11.2284
▁kucaklar	-11.2284
cisi	-11.2284
▁turnalar	-11.2285
▁küt	-11.2286
▁günümüz	-11.2287
▁hayatını	-11.2287
▁garibin	-11.2288
Lale	-11.2289
▁ağlatma	-11.2289
▁boşu	-11.2291
▁göğsüne	-11.2293
of	-11.2298
▁resmine	-11.2298
▁bakmıyor	-11.23
Vatana	-11.2301
▁ho	-11.2302
Sağlam	-11.2304
▁kentin	-11.2305
▁sözümüz	-11.2308
dıkları	-11.2308
tırma	-11.2311
Halkın	-11.2312
ll	-11.2314
▁kibrit	-11.2314
▁kasvet	-11.2316
▁şaştı	-11.2316
Ömer	-11.2318
▁Musa	-11.2319
lediğim	-11.2319
▁istemiyor	-11.232
rif	-11.232
▁insanlığı	-11.232
▁davası	-11.2322
▁bitkin	-11.2323
▁kasaba	-11.2323
diren	-11.2324
olma	-11.2324
İsterse	-11.2326
▁ölene	-11.2327
▁giriyor	-11.2329
nerede	-11.2331
▁kalıyorum	-11.2334
▁saydım	-11.2335
▁yazacağım	-11.2335
Ezelden	-11.2339
msin	-11.2339
Kıl	-11.2341
Kav	-11.2342
▁meh	-11.2342
liler	-11.2342
▁yoz	-11.2342
▁ke	-11.2344
▁tatil	-11.2344
Sırat	-11.2344
Sakin	-11.2346
yir	-11.2348
larsa	-11.2349
asın	-11.2349
▁çıkart	-11.2349
Eline	-11.235
▁başbaşa	-11.2351
▁bura	-11.2351
▁yaşların	-11.2352
▁yabana	-11.2352
▁eşliğinde	-11.2353
▁parlıyor	-11.2353
Yetmiş	-11.2355
Mahşer	-11.2356
Asırlar	-11.2358
▁isti	-11.2359
için	-11.2361
▁ferah	-11.2362
gözüm	-11.2363
damar	-11.2363
Birazcık	-11.2363
likleri	-11.2363
Saklan	-11.2365
▁gark	-11.2365
Emin	-11.2367
Secde	-11.2368
Zamana	-11.2368
▁başımız	-11.2368
▁öder	-11.237
▁sevgisini	-11.2371
Hepsini	-11.2373
▁nazik	-11.2374
Günden	-11.2375
▁çocukluk	-11.2376
▁kaderime	-11.2381
▁kırp	-11.2382
▁yaşıyorsun	-11.2384
▁huyun	-11.2386
▁oralarda	-11.2386
nerde	-11.2388
▁Neden	-11.2389
▁kolları	-11.239
▁tenini	-11.239
▁görü	-11.239
▁cevher	-11.239
Yaka	-11.2391
▁hisler	-11.2392
▁istek	-11.2394
Seneler	-11.2394
▁Yar	-11.24
▁madem	-11.24
inize	-11.2401
Kendim	-11.2401
Yüreğimiz	-11.2401
olan	-11.2401
▁El	-11.2402
çal	-11.2403
Yürekleri	-11.2405
▁sonun	-11.2408
▁kirpiklerin	-11.2408
▁kökü	-11.2411
▁seherde	-11.2413
▁cömert	-11.2414
▁uyandı	-11.2416
Bar	-11.2417
mamalı	-11.2417
▁yakarış	-11.242
▁ağzında	-11.242
▁geliyorsun	-11.2424
▁içli	-11.2425
zim	-11.2425
▁korkular	-11.2426
bile	-11.2428
▁sızla	-11.2428
▁çileyi	-11.243
▁çatar	-11.243
▁günlerce	-11.2431
▁fırlat	-11.2431
kez	-11.2432
▁bülbülün	-11.2433
▁sisli	-11.2433
▁Su	-11.2435
▁çene	-11.2435
Kandır	-11.2435
▁kasım	-11.2437
▁tanım	-11.2439
▁şiirde	-11.2439
▁fasıl	-11.2439
Sanmayın	-11.2441
▁neyler	-11.2442
▁cüce	-11.2443
▁yaklaştı	-11.2444
Salın	-11.2444
İsterim	-11.2445
▁benzeyen	-11.2445
▁duruyorum	-11.2446
kil	-11.2447
eğer	-11.2448
düşman	-11.2448
▁sıyrıl	-11.2449
üf	-11.2451
▁konmuş	-11.2452
Pas	-11.2453
Duyar	-11.2454
teyim	-11.2454
▁maziyi	-11.2454
▁yangınlar	-11.2455
▁kuluna	-11.2457
Aldı	-11.2459
▁yuvası	-11.2459
▁bayan	-11.246
▁ram	-11.2461
▁kıvran	-11.2462
diyor	-11.2462
üt	-11.2463
▁onlarla	-11.2464
▁bos	-11.2464
▁ağlayarak	-11.2465
▁vebali	-11.2466
cc	-11.2466
▁doluyum	-11.2467
lıyordu	-11.2469
▁uğur	-11.247
▁yeryüzüne	-11.247
▁tırman	-11.2471
Beklemek	-11.2471
Çırpın	-11.2471
Servet	-11.2472
▁Hacı	-11.2473
Resul	-11.2474
▁seçme	-11.2476
▁bakıyorsun	-11.2476
Sığ	-11.248
▁korkut	-11.248
▁acayip	-11.248
kaş	-11.248
Akıp	-11.248
▁Gözlerin	-11.2481
▁özünden	-11.2484
cım	-11.2486
▁danış	-11.2486
▁inmiş	-11.2487
▁İ	-11.2487
▁meçhule	-11.2488
meler	-11.2488
lemiş	-11.2489
Yazdığım	-11.249
▁devleti	-11.249
Per	-11.249
▁tutulmuş	-11.2492
▁kalemde	-11.2493
Nisan	-11.2494
Eğri	-11.2495
▁çınla	-11.2496
▁âlemi	-11.2497
Herşeyi	-11.2498
▁çektiğin	-11.2499
Sevdamı	-11.2499
▁tav	-11.2499
Şifa	-11.25
▁kaleme	-11.2501
Ayna	-11.2505
▁sürüp	-11.2505
tığında	-11.2505
▁öten	-11.2507
Kaf	-11.2508
▁kışta	-11.2509
▁sevdama	-11.2511
Canlar	-11.2512
▁sırtıma	-11.2516
▁rah	-11.2517
▁zarif	-11.252
Gerçekler	-11.252
▁nizam	-11.252
▁mevki	-11.252
▁bulmaya	-11.252
Zi	-11.2521
sızca	-11.2526
▁başlangıç	-11.2527
▁zirve	-11.2527
▁dönmüyor	-11.2528
▁bırakarak	-11.2532
▁kurtulur	-11.2533
▁düne	-11.2534
tınız	-11.2534
▁tüken	-11.2536
▁kağıda	-11.2536
Uçurum	-11.2539
▁gücünü	-11.2539
▁nağmeler	-11.2539
Yağan	-11.2542
▁sabrı	-11.2542
▁vurmak	-11.2543
Kanun	-11.2544
Gökkuşağı	-11.2546
▁fincan	-11.2546
▁susmak	-11.2547
▁suna	-11.2547
iği	-11.2548
▁gururu	-11.2551
▁ağlamaklı	-11.2551
Tap	-11.2552
▁pazarında	-11.2553
▁şanı	-11.2553
▁alsam	-11.2554
▁efendisi	-11.2555
▁ayazında	-11.2555
▁şeytanın	-11.2555
▁akşama	-11.2556
▁gibiydin	-11.2557
▁vaha	-11.2558
▁saki	-11.2558
▁zulmü	-11.2559
lt	-11.2561
▁dinleyen	-11.2562
▁cebinde	-11.2562
▁sac	-11.2563
▁mide	-11.2566
indir	-11.2566
▁Veysel	-11.2566
▁anlatma	-11.2569
Hasretlik	-11.2569
▁öldürdün	-11.2569
Sahil	-11.2572
Sıcacık	-11.2574
▁umutların	-11.2575
Namert	-11.2575
▁sözüme	-11.2575
▁yandır	-11.2576
▁inanan	-11.2581
▁ayrılan	-11.2581
Kaybol	-11.2582
Aşkından	-11.2583
▁uyanma	-11.2584
▁sokma	-11.2585
▁memur	-11.2585
▁nefesimi	-11.2587
▁düşürür	-11.259
Yarına	-11.259
midir	-11.2592
▁çoğalır	-11.2592
ursun	-11.2593
▁Sensiz	-11.2593
diklerim	-11.2593
▁damlaları	-11.2594
▁hapis	-11.2594
Kral	-11.2595
Öğret	-11.2595
damla	-11.2595
seven	-11.2596
lerimle	-11.2596
▁sayın	-11.2597
▁kemer	-11.2597
Şiirlerim	-11.26
▁kalemin	-11.2601
▁kesiyor	-11.2601
▁inle	-11.2602
▁bölün	-11.2602
▁idrak	-11.2603
▁halay	-11.2604
▁savurdu	-11.2605
Bo	-11.2606
▁Nebi	-11.2607
gini	-11.261
Sessizlik	-11.261
▁dağlardan	-11.2611
▁devre	-11.2611
▁değişmiş	-11.2612
sevdiğim	-11.2621
▁bizimle	-11.2621
▁kavgası	-11.2621
▁kadına	-11.2622
▁oyuna	-11.2625
▁döküp	-11.2625
Sarar	-11.2625
Değ	-11.2625
▁bölüş	-11.2626
Sürgün	-11.2626
liğimiz	-11.2628
▁diy	-11.263
▁donuk	-11.2631
▁afet	-11.2632
Sevilen	-11.2634
▁onlarda	-11.2635
▁acıdır	-11.2638
▁bilge	-11.2638
▁hayatımı	-11.2638
kür	-11.2639
▁dikenler	-11.2639
Geçip	-11.2639
▁serp	-11.264
▁anlatacak	-11.2641
Yıldızları	-11.2641
imizin	-11.2643
▁çalışmak	-11.2644
▁ısıtan	-11.2644
Başarı	-11.2645
▁raks	-11.2645
▁rastla	-11.2645
▁Hoca	-11.2648
▁unutulmuş	-11.2648
Hesabı	-11.2649
▁koymaz	-11.2649
bilme	-11.2649
ef	-11.2649
▁sandı	-11.265
Oğlum	-11.2651
▁horoz	-11.2651
İbret	-11.2652
▁büyüdüm	-11.2652
▁tekne	-11.2653
▁kova	-11.2656
mazlar	-11.2657
Zemheri	-11.2657
Kültür	-11.2658
dandır	-11.2663
Uçsuz	-11.2663
Tutku	-11.2663
▁düşmesin	-11.2664
amamış	-11.2664
▁hatırlatır	-11.2665
Kokusu	-11.2666
Tarihin	-11.2666
▁eylem	-11.2666
▁kavuştu	-11.2667
▁erit	-11.2668
▁kokuları	-11.267
▁acının	-11.267
▁içerisinde	-11.2674
Ufukta	-11.2674
▁lamba	-11.2674
Yağmurun	-11.2674
tanı	-11.2675
Çocukluğum	-11.2679
▁etmeyin	-11.268
▁renge	-11.268
▁paha	-11.2681
İnanç	-11.2683
▁olmus	-11.2684
▁ruha	-11.2684
▁nesne	-11.2685
▁burun	-11.2686
▁şevk	-11.2687
▁sark	-11.2688
▁parti	-11.2688
▁200	-11.2689
▁kıvır	-11.2689
▁Gecenin	-11.2689
▁yanayım	-11.269
İmkansız	-11.2692
▁sön	-11.2693
▁ışığın	-11.2695
geceler	-11.2695
▁çaldım	-11.2695
Değiş	-11.2696
Canın	-11.2696
▁İnsanlar	-11.2698
mekle	-11.2699
▁hitap	-11.2699
▁açtır	-11.27
Biçare	-11.27
▁asalet	-11.27
▁deseler	-11.2701
▁hikayesi	-11.2702
▁diyordum	-11.2702
malıydım	-11.2702
Derdini	-11.2702
▁geleceğin	-11.2703
Yandım	-11.2704
▁Filistin	-11.2704
▁yatıp	-11.2705
lığımız	-11.2705
elinde	-11.2705
▁tenimde	-11.2707
▁dokundu	-11.2708
▁bilelim	-11.2708
▁uşak	-11.2709
▁sancılar	-11.271
▁oynaş	-11.271
▁anlarım	-11.2711
muydu	-11.2711
▁demeyin	-11.2712
▁kıyamam	-11.2714
▁bozulmuş	-11.2714
Özü	-11.2715
Cin	-11.2716
Bunların	-11.2716
▁cennetin	-11.2717
▁iftira	-11.2718
▁teyze	-11.2719
▁mevsiminde	-11.272
▁anılarım	-11.2721
▁siir	-11.2723
Ala	-11.2724
▁gezip	-11.2724
▁hin	-11.2726
Aradım	-11.2727
▁söktü	-11.2727
Samsun	-11.2732
▁çıkmadı	-11.2732
▁bizimdir	-11.2733
Gökyüzüne	-11.2733
Bizleri	-11.2736
▁savaşlar	-11.2737
Ahh	-11.274
▁hıçkırık	-11.2741
▁hap	-11.2742
▁hanı	-11.2742
Sağır	-11.2743
▁dünyasında	-11.2745
Yeme	-11.2745
▁şahane	-11.2745
▁ordan	-11.2748
▁yaşıma	-11.2749
▁görevi	-11.2749
▁geçmişin	-11.2749
Kendimden	-11.2749
Yanı	-11.2751
▁aran	-11.2753
▁borcu	-11.2756
▁mahkeme	-11.2756
▁gideni	-11.2759
▁simit	-11.2762
▁vursun	-11.2764
▁nasılsa	-11.2765
.¬(	-11.2765
▁mukaddes	-11.2766
Cami	-11.2766
▁yetme	-11.2768
yarım	-11.2768
▁topraklarda	-11.277
Küfür	-11.2771
▁kimbilir	-11.2773
▁saçtı	-11.2774
▁nicedir	-11.2775
▁kaynak	-11.2776
▁zahir	-11.2776
▁sevabı	-11.2776
nik	-11.2777
isyan	-11.2777
▁kalplerde	-11.2778
Lal	-11.2779
▁hisseder	-11.2782
Beyhude	-11.2785
Çirkin	-11.2785
▁başak	-11.2787
▁lapa	-11.2787
▁gökyüzünü	-11.2788
▁baharında	-11.2789
▁duramaz	-11.279
Alma	-11.2791
leyecek	-11.2791
▁sızısı	-11.2792
▁Akdeniz	-11.2795
▁diyemiyorum	-11.28
▁baksın	-11.2801
▁bı	-11.2802
unutma	-11.2803
tre	-11.2803
Sak	-11.2804
Hi	-11.2805
▁çar	-11.2805
▁umar	-11.2807
▁gündüze	-11.2807
Araba	-11.2808
▁sözlü	-11.2811
▁kattım	-11.2811
imizde	-11.2813
▁uslan	-11.2817
▁sabrım	-11.2817
naz	-11.2817
▁vererek	-11.2817
▁ülkem	-11.2818
ayna	-11.2818
▁pır	-11.2819
▁kalmaya	-11.2821
Dertlerim	-11.2821
Ağlıyorum	-11.2821
▁göğsüme	-11.2824
gönlüm	-11.2824
▁sevgilinin	-11.2824
▁yapanlar	-11.2827
▁annesi	-11.2827
▁oyalan	-11.2828
▁belini	-11.2829
▁peki	-11.2834
Kurudu	-11.2835
▁gizlidir	-11.2835
▁dağlarında	-11.2835
▁Ta	-11.2836
▁kalmayı	-11.2836
▁torunu	-11.2836
▁keklik	-11.2837
▁dip	-11.2838
▁şok	-11.2838
▁param	-11.2838
▁işlemiş	-11.284
Ada	-11.2842
▁batımı	-11.2843
▁tarihin	-11.2843
koy	-11.2844
▁hissi	-11.2845
Göm	-11.2846
Ag	-11.2846
Yazar	-11.2847
▁haksızlık	-11.2847
▁bıraktığım	-11.2847
Arsız	-11.2848
▁yerle	-11.2848
▁heba	-11.2851
▁izlerini	-11.2851
▁yakmış	-11.2855
▁hâkim	-11.2857
▁içiyor	-11.2857
▁hastane	-11.2857
cağa	-11.2859
▁yazarken	-11.286
▁yurduna	-11.2861
iler	-11.2861
▁yitti	-11.2863
▁kasırga	-11.2863
▁gecelerim	-11.2864
Tabiat	-11.2865
Amerika	-11.2866
▁düşüyorum	-11.2867
▁sivri	-11.2869
▁duygularla	-11.2869
▁esas	-11.2871
tiler	-11.2872
▁yağmura	-11.2873
Sahipsiz	-11.2873
Za	-11.2876
amayacağım	-11.2878
tikçe	-11.2878
▁dudaklarında	-11.2879
▁cemalin	-11.2882
▁kucağına	-11.2883
Dağlarda	-11.2883
Kayna	-11.2883
verir	-11.2887
Hayatımın	-11.2889
▁vermeli	-11.2891
▁ikrar	-11.2893
Mahzun	-11.2893
▁bitmeden	-11.2893
▁oba	-11.2894
▁bağlıyor	-11.2896
▁önceden	-11.2897
Suyun	-11.2897
▁öldürme	-11.2899
▁ru	-11.29
▁şaş	-11.29
▁dı	-11.2901
▁alışır	-11.2902
Bö	-11.2902
▁çöküyor	-11.2903
▁adil	-11.2904
Sebepsiz	-11.2904
yalnızlık	-11.2904
İnsanlığa	-11.2905
▁kendisini	-11.2906
▁yağlı	-11.2906
Boğ	-11.291
▁Karadeniz	-11.291
▁gençliğin	-11.2911
▁arkamdan	-11.2911
▁çattı	-11.2912
▁umurunda	-11.2913
babam	-11.2913
▁Na	-11.2914
▁bildin	-11.2915
doğ	-11.2917
▁tablo	-11.2918
▁yazısı	-11.2919
▁kıza	-11.292
▁dostunu	-11.2922
▁noksan	-11.2922
Davul	-11.2922
▁dertle	-11.2923
▁kızma	-11.2923
▁büyüme	-11.2924
▁karda	-11.2924
▁misal	-11.2925
Sokakta	-11.2928
▁yeğ	-11.2928
▁anlasana	-11.2929
▁görülür	-11.2929
siydi	-11.2929
Sesi	-11.2929
▁unutan	-11.2931
resi	-11.2933
▁taktı	-11.2934
▁silahı	-11.2935
Elem	-11.2936
▁Mehmedim	-11.2938
▁gülüşünü	-11.2938
▁gazete	-11.2939
Kâ	-11.2939
Halbuki	-11.2942
▁kaybeden	-11.2942
▁kapım	-11.2942
mizden	-11.2946
▁korkum	-11.2946
Yarınlar	-11.2948
▁kahkahalar	-11.2948
lüğüm	-11.2949
▁bozulur	-11.295
▁alamadım	-11.2953
ymuş	-11.2955
ümün	-11.2956
çiçekler	-11.2957
▁seveceksin	-11.2957
▁tadım	-11.2957
▁mevsimin	-11.2959
▁pazarı	-11.296
▁ruhunda	-11.296
▁Artık	-11.296
▁arttı	-11.2961
▁kulesi	-11.2961
▁kayboluyor	-11.2963
▁Cumhuriyet	-11.2964
meyeceğini	-11.2964
oda	-11.2966
çay	-11.2967
▁kılar	-11.2969
▁yi	-11.297
asyon	-11.2971
▁kos	-11.2972
▁geçmeden	-11.2973
Ayaklar	-11.2976
▁Yağmur	-11.2976
▁âleme	-11.2977
ğan	-11.2977
siyim	-11.2978
▁çizdim	-11.2979
iydi	-11.298
ilmis	-11.2981
Galiba	-11.2981
▁ramazan	-11.2981
▁ülkesinde	-11.2981
▁gündüzün	-11.2982
▁pişer	-11.2983
▁bugüne	-11.2983
▁telleri	-11.2984
lanıyorum	-11.2987
▁dostuna	-11.2989
▁yapıyorum	-11.299
▁hüzne	-11.2991
▁komutan	-11.2991
▁yazdır	-11.2991
Aynalar	-11.2995
.200	-11.2996
▁atarken	-11.2998
▁uykusu	-11.2999
▁büklüm	-11.3001
▁ayrılmak	-11.3002
lər	-11.3003
▁patlar	-11.3003
gur	-11.3004
Yıkıldı	-11.3005
je	-11.3005
ledin	-11.3006
▁teller	-11.3006
Yanlız	-11.3007
yeri	-11.3009
▁ipi	-11.3009
İsteme	-11.3012
Şaşkın	-11.3012
fı	-11.3013
▁gid	-11.3013
Ağladım	-11.3014
▁telaşı	-11.3015
▁aynada	-11.3016
gözlerinde	-11.3018
▁bitirdin	-11.3019
Çıplak	-11.3021
▁korusun	-11.3022
nem	-11.3022
Uğra	-11.3024
üyorsun	-11.3025
göl	-11.3025
bî	-11.3026
eti	-11.3028
▁dokunmak	-11.3029
▁hiçe	-11.303
Ruhu	-11.3031
▁hoşuna	-11.3031
▁perdeler	-11.3031
▁özüme	-11.3032
▁duruyorsun	-11.3032
Hatıra	-11.3039
▁ayazı	-11.304
Neyin	-11.304
▁ördü	-11.304
▁nazın	-11.3042
Köprü	-11.3043
▁gönüllü	-11.3044
cir	-11.3044
▁başımın	-11.3045
▁kalka	-11.3045
ulup	-11.3045
▁tuş	-11.3046
▁kopardı	-11.3046
bol	-11.3047
▁gemileri	-11.3048
▁doksan	-11.3049
▁arş	-11.305
▁samimi	-11.305
İleri	-11.305
▁qa	-11.305
▁gemisi	-11.305
▁bebeğin	-11.3051
Defter	-11.3052
▁sürüklen	-11.3052
Aldan	-11.3056
.1	-11.3057
▁kanatlı	-11.3058
▁zır	-11.3058
▁tekme	-11.3059
▁ze	-11.3061
▁çocuklara	-11.3066
▁kura	-11.3068
▁varmadan	-11.3069
▁ölmeyi	-11.3069
hil	-11.307
▁tapan	-11.307
Divane	-11.307
▁tahammül	-11.3071
laşıp	-11.3071
▁iti	-11.3072
▁dağılır	-11.3073
▁canımın	-11.3073
▁uyuya	-11.3074
▁geçtik	-11.3074
▁Asya	-11.3074
▁bitse	-11.3078
▁yiy	-11.3078
niye	-11.3081
▁deryasına	-11.3081
▁feryadım	-11.3082
▁unutul	-11.3082
▁pislik	-11.3083
▁dibe	-11.3085
▁edilme	-11.3086
▁tar	-11.3089
Lâ	-11.3093
▁geçim	-11.3094
▁koşarım	-11.3097
ağ	-11.3099
acaktır	-11.3099
▁sinem	-11.31
▁girecek	-11.31
▁mayıs	-11.31
▁sir	-11.3103
Vatandaş	-11.3103
▁bostan	-11.3104
Dalgalan	-11.3104
▁durumda	-11.3106
▁yıkıyor	-11.3107
▁zamandan	-11.3108
ındayım	-11.3108
Sayende	-11.3111
Yorul	-11.3113
duğunda	-11.3114
İzmir	-11.3116
▁maden	-11.3117
▁ateşine	-11.3118
Kaya	-11.312
▁susuyorum	-11.312
Gayri	-11.3121
▁toprağında	-11.3121
▁vermesin	-11.3121
kale	-11.3121
▁durduk	-11.3121
Mutluluğa	-11.3124
Kavuşma	-11.3124
Kainat	-11.3128
rar	-11.3128
▁doğup	-11.3128
ürü	-11.3129
▁okşayan	-11.3129
lal	-11.313
▁tutmadı	-11.313
ac	-11.3134
Sırtımda	-11.3134
▁safa	-11.3135
▁altmış	-11.3136
▁basıp	-11.3137
▁varıp	-11.3139
▁kanını	-11.314
Sök	-11.314
Uğur	-11.3141
▁terbiye	-11.3142
▁sonuç	-11.3142
▁kumsal	-11.3143
▁sabahında	-11.3144
Bizlere	-11.3144
▁alınmaz	-11.3148
▁kalmalı	-11.3149
▁saklanır	-11.3149
▁lira	-11.3149
▁açı	-11.3149
▁kavram	-11.315
Sırtında	-11.315
Üzüntü	-11.3151
▁fısıltı	-11.3151
Havada	-11.3151
Rüyalar	-11.3152
▁benzeri	-11.3152
▁Kaç	-11.3153
▁balta	-11.3153
▁solsun	-11.3157
▁ataş	-11.3158
▁parayı	-11.3158
ire	-11.3158
▁katıp	-11.3159
▁bulmalı	-11.3162
▁uymaz	-11.3162
Önüne	-11.3164
▁meme	-11.3165
▁arşın	-11.3166
Met	-11.317
▁bağlanmış	-11.3173
▁atla	-11.318
Mektup	-11.3181
▁yaraları	-11.3181
şak	-11.3181
▁tutuştur	-11.3181
▁gidiyordu	-11.3182
yâr	-11.3182
▁ülkenin	-11.3182
▁bekleyeceğim	-11.3183
▁değen	-11.3183
madığın	-11.3183
▁yıkıl	-11.3185
İnsaf	-11.3186
▁bilmezler	-11.3188
Diller	-11.3189
▁çırpınış	-11.3189
▁asar	-11.3191
Pamuk	-11.3191
▁denizlerde	-11.3192
İmam	-11.3192
▁yerlerden	-11.3192
şah	-11.3192
▁çileli	-11.3193
▁takmış	-11.3195
▁perdesi	-11.3195
dilim	-11.3196
▁kart	-11.3196
Umutla	-11.3199
▁boyan	-11.3199
▁şehadet	-11.3201
▁bahtın	-11.3201
▁mantık	-11.3202
alın	-11.3202
▁saatte	-11.3203
Pi	-11.3203
Zifiri	-11.3203
Haberin	-11.3204
İçki	-11.3205
leriniz	-11.3205
▁bayat	-11.3205
▁aşıp	-11.3205
▁kuşan	-11.3206
kalk	-11.3206
▁dostluğu	-11.3207
sonu	-11.3207
▁bölük	-11.3208
Kas	-11.3209
▁bitme	-11.321
▁biricik	-11.3212
▁örter	-11.3213
değil	-11.3215
▁kıyar	-11.3216
Sürün	-11.3217
ciğer	-11.3218
Sensizliği	-11.3218
Gözlerimiz	-11.3219
▁bahçeler	-11.3222
usu	-11.3222
aşka	-11.3223
▁eriyip	-11.3224
▁gal	-11.3225
▁eliyle	-11.3228
▁övgü	-11.3228
saf	-11.3229
▁nine	-11.3229
▁sizleri	-11.323
▁atacak	-11.3232
▁uğrar	-11.3232
Sade	-11.3235
lılar	-11.3236
Eğitim	-11.3237
bazı	-11.3238
▁dolduran	-11.3238
▁harabe	-11.3241
▁isyanım	-11.3241
▁hikâye	-11.3242
rur	-11.3244
ağlar	-11.3244
ünden	-11.3244
▁deş	-11.3246
▁kılıcı	-11.3246
▁vuslatı	-11.3248
Evlen	-11.3248
▁yankı	-11.3249
▁yoludur	-11.3251
▁gülüşüne	-11.3252
Yıkıl	-11.3252
bah	-11.3254
▁özlemler	-11.3255
▁şekli	-11.3255
Hâ	-11.3256
ulmuyor	-11.3262
▁hamur	-11.3262
Kedi	-11.3262
Baştan	-11.3263
düşünce	-11.3263
rap	-11.3266
Eyüp	-11.3268
Nokta	-11.3272
▁arkandan	-11.3274
Rabbin	-11.3274
▁kıble	-11.3275
▁anlarda	-11.3279
Ayakta	-11.3279
▁sundu	-11.328
▁yalniz	-11.3282
yy	-11.3285
▁cani	-11.3287
▁beynim	-11.3288
▁beslenir	-11.3288
▁düşeli	-11.3289
Nefesin	-11.3289
▁benzemez	-11.3291
Pay	-11.3291
Köylü	-11.3292
▁alamıyorum	-11.3292
Devam	-11.3293
▁ufka	-11.3293
Mısralar	-11.3295
Öldü	-11.3295
▁anlamıyor	-11.3295
▁sürdüm	-11.3295
mese	-11.3296
▁susa	-11.3296
▁aldığı	-11.3297
▁kast	-11.3299
▁olmuşuz	-11.33
▁yakmak	-11.33
▁arşı	-11.3301
ane	-11.3301
ınılan	-11.3301
▁güman	-11.3302
▁sönük	-11.3303
▁aglar	-11.3305
▁gibiyiz	-11.3305
zade	-11.3305
▁E	-11.3309
▁çatma	-11.3309
▁no	-11.3309
Sevgini	-11.3309
▁savun	-11.331
▁suların	-11.3311
Okun	-11.3311
▁değişik	-11.3311
▁ufuklar	-11.3312
▁getirme	-11.3314
keşke	-11.3315
▁katili	-11.3317
▁yeşert	-11.3319
▁tıka	-11.332
Evren	-11.3321
▁çap	-11.3321
▁bakarsan	-11.3322
▁yeminler	-11.3322
▁zulmet	-11.3322
▁ayağın	-11.3323
▁harcı	-11.3324
▁gaf	-11.3324
▁dolmuyor	-11.3326
▁darmadağın	-11.3327
Geleceğim	-11.3328
▁başlamış	-11.3328
▁düşüne	-11.3328
Başa	-11.3329
▁bakmam	-11.3329
▁yüreğimiz	-11.3329
İçimizde	-11.3331
sevme	-11.3332
ediyor	-11.3333
▁edene	-11.3334
▁dilli	-11.3334
Çevir	-11.3339
Teslim	-11.3339
Kendisi	-11.334
Kü	-11.334
Yet	-11.334
Yalın	-11.3341
▁malum	-11.3342
▁bö	-11.3344
▁azim	-11.3344
▁tutuştu	-11.3345
Nedendir	-11.3345
▁Aşkın	-11.3345
▁çektik	-11.3345
▁gönlümdeki	-11.3346
Ahiret	-11.3348
▁uçak	-11.3348
birde	-11.3349
▁anlayacaksın	-11.335
▁sönüyor	-11.335
.!	-11.3351
Eşi	-11.3351
▁kaldırımlar	-11.3352
▁akşamın	-11.3353
▁döküyor	-11.3355
Ahlak	-11.3355
▁seri	-11.3355
”,	-11.3356
çare	-11.3358
▁zarı	-11.3359
▁özlediğim	-11.3359
▁turna	-11.3359
ümüzü	-11.3361
▁giysi	-11.3362
Çocukların	-11.3364
örü	-11.3364
Ağlarım	-11.3365
▁helâl	-11.3365
▁anneciğim	-11.3365
▁usanmadan	-11.3367
▁uçmak	-11.337
mel	-11.337
▁bendini	-11.3371
▁sanırdım	-11.3374
▁çocuğa	-11.3374
▁mermer	-11.3375
▁şubat	-11.3375
▁vazgeçilmez	-11.3376
▁istesen	-11.3376
▁dönük	-11.3377
▁yaparken	-11.3378
▁barışık	-11.3379
▁saçlarıma	-11.3379
sunda	-11.338
▁alırken	-11.338
▁doğmak	-11.338
▁nefesinde	-11.3383
▁çevirdin	-11.3383
▁yutkun	-11.3383
▁seline	-11.3384
zaten	-11.3385
dayız	-11.3385
▁atılır	-11.3387
▁topraklara	-11.3388
Kahır	-11.3389
tüken	-11.339
▁girince	-11.3391
Sendin	-11.3391
ılmayan	-11.3391
lî	-11.3392
▁çağdaş	-11.3392
▁tabip	-11.3393
▁yaksın	-11.3393
▁yakarsın	-11.3394
▁bıraktık	-11.3394
▁bıraktığı	-11.3395
▁saçak	-11.3396
larinda	-11.3397
Yaşadığın	-11.3397
Kılıç	-11.3402
▁yaşananlar	-11.3403
sünü	-11.3404
luktan	-11.3405
ji	-11.3405
▁karışıyor	-11.3407
▁baktığın	-11.3408
dol	-11.3409
▁sözlerle	-11.3409
▁kimselere	-11.341
▁sallanır	-11.341
Elli	-11.3411
▁mayın	-11.3411
landık	-11.3415
Geldim	-11.3415
▁başlangıcı	-11.3416
▁Murat	-11.3417
Yeterki	-11.3417
▁donan	-11.3418
▁neresi	-11.3421
▁Allahın	-11.3421
Buram	-11.3422
▁göle	-11.3422
▁çim	-11.3424
▁idik	-11.3425
▁canları	-11.3425
▁kriz	-11.3427
Çin	-11.3428
▁hatırlat	-11.3429
▁pe	-11.343
▁paylaşmak	-11.343
Dönüşü	-11.3432
Simdi	-11.3432
Kı	-11.3433
Bulur	-11.3433
▁garibi	-11.3434
▁öldürüyor	-11.3434
aydın	-11.3435
Bez	-11.3437
▁oynayan	-11.344
▁elmas	-11.344
▁gizlen	-11.3442
▁edeceksin	-11.3442
Yıldırım	-11.3443
▁gülücük	-11.3444
▁kanımız	-11.3444
ğü	-11.3445
▁ihtişam	-11.3447
▁ürper	-11.3448
▁boynum	-11.3448
▁kavurdu	-11.3449
▁uyuyor	-11.3451
▁bense	-11.3452
▁bakışlarında	-11.3453
▁durul	-11.3453
▁otlar	-11.3453
Okşa	-11.3455
ağında	-11.3455
Kut	-11.3456
Demokrasi	-11.3457
nar	-11.3457
▁deliye	-11.3458
▁yapmaya	-11.3459
▁yıla	-11.3459
▁kopmuş	-11.346
▁vazgeçme	-11.346
▁bildiklerim	-11.346
▁çan	-11.3461
Böl	-11.3463
yalı	-11.3464
▁serdi	-11.3464
▁acın	-11.3464
tamam	-11.3466
Tomurcuk	-11.3467
▁kimim	-11.3467
▁bî	-11.3468
ğından	-11.3469
▁sızar	-11.3469
larim	-11.3472
ımla	-11.3472
▁saçım	-11.3472
▁zalimin	-11.3473
▁neresinde	-11.3473
Irmak	-11.3476
▁vahşi	-11.3479
İm	-11.348
Öyleyse	-11.348
▁yaşantı	-11.348
▁tükeniyor	-11.3481
▁yorgunluk	-11.3481
▁esme	-11.3482
▁gömleği	-11.3484
yüm	-11.3484
▁duyulmaz	-11.3485
Yaktın	-11.3486
Sağlık	-11.3487
▁illa	-11.3487
Oğuz	-11.3488
▁dehşet	-11.3488
Gide	-11.3489
diğimi	-11.3492
Verme	-11.3494
▁oynat	-11.3494
Tarihe	-11.3495
▁dokunan	-11.3496
▁yiğidim	-11.3496
▁ateşle	-11.3497
▁kusar	-11.3498
▁sahile	-11.35
Olmuş	-11.35
▁kurduğum	-11.3501
Sun	-11.3501
▁yitirme	-11.3502
▁söğüt	-11.3503
mesem	-11.3503
▁uğraşma	-11.3505
▁Gözlerim	-11.3505
▁göremiyorum	-11.3506
▁sesinden	-11.3508
▁yaşadığın	-11.3508
▁yastığa	-11.3509
▁istasyon	-11.3509
▁serbest	-11.3509
Madde	-11.3509
ısın	-11.3511
Yetmedi	-11.3512
▁dönse	-11.3513
ıyorsa	-11.3514
▁hevesim	-11.3515
▁kanatları	-11.3517
Söndür	-11.3518
Bilemezsin	-11.3519
▁itler	-11.3522
ğunu	-11.3526
▁söyleyip	-11.3526
▁gelsem	-11.3527
zam	-11.3528
Hüznün	-11.3529
Yemyeşil	-11.353
▁darıl	-11.3531
kırmızı	-11.3533
miyordu	-11.3535
duman	-11.3536
▁düşlerimi	-11.3537
Eyvah	-11.3537
inizi	-11.3538
Gölgeler	-11.3539
Şehrin	-11.3542
▁bükül	-11.3543
▁katran	-11.3543
▁ışığını	-11.3543
Ac	-11.3546
▁kapladı	-11.3547
▁dostluklar	-11.3547
▁Yaz	-11.3548
▁çıkın	-11.3548
▁sevdayla	-11.3549
etti	-11.355
Susar	-11.3551
▁şırıl	-11.3551
Uzaklara	-11.3551
Mecbur	-11.3551
▁verilmez	-11.3552
▁kaldi	-11.3553
Kadınlar	-11.3554
▁öldürdü	-11.3555
Hikmet	-11.3555
▁atıldı	-11.3556
▁dışım	-11.3557
▁değin	-11.3557
meyenler	-11.3557
sık	-11.3558
▁tepesinde	-11.3559
Sorgu	-11.3559
ırdım	-11.356
▁diyardan	-11.356
▁buluşma	-11.3561
▁intizar	-11.3561
▁canımsın	-11.3565
▁etmedin	-11.3565
▁nefsini	-11.3565
▁güneşle	-11.3566
Kına	-11.3566
pir	-11.3571
▁vefalı	-11.3572
Gariban	-11.3572
Bulunmaz	-11.3572
Karlar	-11.3573
▁də	-11.3573
hasretin	-11.3574
▁ker	-11.3574
▁yag	-11.3575
▁yorgunluğu	-11.3575
▁papatyalar	-11.3575
▁kokular	-11.3576
Yanıp	-11.3577
Toplan	-11.358
▁kovalar	-11.3582
▁uyuyan	-11.3582
▁anlaş	-11.3582
▁İsmail	-11.3582
Rengarenk	-11.3582
giden	-11.3586
▁dillerim	-11.3586
terk	-11.359
▁söylerken	-11.359
▁şaşma	-11.3591
Ülkü	-11.3591
İnat	-11.3592
Masmavi	-11.3593
▁imkânsız	-11.3593
▁sırdaşım	-11.3593
▁çalmış	-11.3596
▁öt	-11.3596
Gençliğim	-11.3598
▁damlıyor	-11.3602
for	-11.3602
▁dogru	-11.3604
▁kayalar	-11.3606
▁harika	-11.3606
▁çatlak	-11.3607
▁koymak	-11.3608
▁davranış	-11.3609
▁yaşla	-11.3609
▁satın	-11.361
Günaydın	-11.3611
▁Bektaş	-11.3614
▁hünkar	-11.3614
▁lambaları	-11.3615
▁neyime	-11.3616
▁toplayıp	-11.362
Eşin	-11.3622
Güzellikler	-11.3624
▁isteğim	-11.3627
▁görelim	-11.3627
▁semt	-11.3627
▁izlerim	-11.3629
▁dünyalar	-11.3629
Mutlaka	-11.3629
▁ilke	-11.363
larımızda	-11.3632
kadar	-11.3632
▁yağı	-11.3633
Çam	-11.3634
Anlamadım	-11.3634
▁tik	-11.3634
▁kalb	-11.3636
zalim	-11.3636
Etrafı	-11.3638
▁bunda	-11.3639
▁dolaştı	-11.3639
Haksızlık	-11.3639
yüreğin	-11.3639
▁sakladığım	-11.3641
▁aramıza	-11.3643
▁yükseldi	-11.3644
▁takılı	-11.3646
▁Kar	-11.3647
▁aşkları	-11.3648
Gelmez	-11.3649
▁kayboldum	-11.3649
▁iniş	-11.365
▁yuvarlan	-11.365
▁vuruş	-11.3651
ılması	-11.3654
▁gidene	-11.3655
▁sıva	-11.3656
Canıma	-11.3656
▁kulunu	-11.3656
▁berbat	-11.3657
▁yumağı	-11.3657
▁sedasız	-11.3658
▁şahı	-11.3659
▁niyetine	-11.366
▁sayıkla	-11.3661
▁alsa	-11.3662
▁yükseliyor	-11.3663
Kale	-11.3665
âd	-11.3665
▁huzurunda	-11.3665
▁azından	-11.3667
▁kuyuya	-11.3668
Hile	-11.367
▁yorulmuş	-11.3672
Bulamadım	-11.3673
Usul	-11.3673
▁rüzgârı	-11.3674
▁düzü	-11.3675
▁rüzgarları	-11.3678
▁ateşlerde	-11.3679
Bilim	-11.3679
▁düzene	-11.368
Önümde	-11.368
▁seksen	-11.3683
▁batarken	-11.3684
▁H	-11.3685
leşip	-11.3685
▁Mayıs	-11.3687
tatlı	-11.3687
▁ömrümce	-11.3687
sâ	-11.3687
Ürkek	-11.3688
▁T	-11.3689
Baktığım	-11.3692
Böylesi	-11.3697
▁posta	-11.3698
▁yumurta	-11.3698
▁çekmez	-11.3699
▁dura	-11.3699
▁emekli	-11.3699
▁halkım	-11.37
▁kesip	-11.3701
▁yersin	-11.3702
▁fikirler	-11.3702
▁nebi	-11.3705
▁giderdi	-11.3706
▁tarafım	-11.3706
▁semada	-11.3708
Fikir	-11.3713
▁zalimler	-11.3714
▁mahsus	-11.3714
▁ırk	-11.3716
▁emel	-11.3717
▁daldır	-11.3717
Yor	-11.3718
akıl	-11.3721
▁müebbet	-11.3721
▁başkasının	-11.3722
▁kuşku	-11.3724
▁ışıltı	-11.3725
▁silmek	-11.3726
Saçları	-11.3728
▁ef	-11.3728
▁gülünü	-11.373
▁sarıldı	-11.3731
▁çırak	-11.3731
▁boşver	-11.3733
▁gözünün	-11.3733
▁çanta	-11.3734
▁donat	-11.3735
▁post	-11.3737
▁dus	-11.3739
▁geçince	-11.374
▁dökül	-11.3741
▁Temmuz	-11.3742
▁gecesinde	-11.3742
Özlüyorum	-11.3743
▁aralık	-11.3743
Yüreğinin	-11.3744
▁evden	-11.3744
yup	-11.3744
▁kırmak	-11.3745
Hırs	-11.3746
▁hevesi	-11.3746
▁bayramlar	-11.3747
Bereket	-11.3748
▁kö	-11.375
▁dinliyor	-11.375
▁tüfek	-11.3752
▁ılgıt	-11.3752
Başla	-11.3752
Çeker	-11.3752
Kimimiz	-11.3752
▁sevenlerin	-11.3754
dıgım	-11.3755
▁kararı	-11.3758
▁yaşarız	-11.3758
▁şairim	-11.3759
▁rahatsız	-11.376
ağır	-11.3761
▁olunur	-11.3762
yemedim	-11.3763
▁yavan	-11.3763
acılar	-11.3763
▁fir	-11.3763
▁oluyordu	-11.3764
▁artı	-11.3764
▁hikmeti	-11.3765
millet	-11.3767
▁yakıl	-11.3767
Durup	-11.3767
Rahman	-11.3767
▁pencereden	-11.3769
▁kıvrıl	-11.377
▁olta	-11.3772
▁kudur	-11.3773
▁süs	-11.3773
▁sormuyor	-11.3775
abın	-11.3778
Sokaklarda	-11.3779
▁kaybettik	-11.3781
▁ederse	-11.3786
▁mavilik	-11.3789
Bilki	-11.3789
▁istediği	-11.379
▁koltuk	-11.3791
cın	-11.3791
Harman	-11.3792
▁düşerim	-11.3793
▁devril	-11.3793
▁vereceğim	-11.3794
▁üstümüze	-11.3795
▁yokluğu	-11.3797
▁kulağıma	-11.3798
▁sancağı	-11.38
▁deyi	-11.3802
Cantekin	-11.3805
▁itiraf	-11.3805
Olmasın	-11.3807
İsmet	-11.3808
Adımı	-11.3808
▁terketti	-11.3809
▁arayı	-11.381
Gid	-11.3811
▁kemiği	-11.3811
▁satıyor	-11.3812
▁koydular	-11.3812
▁âlim	-11.3813
biliyor	-11.3813
Sırrı	-11.3815
Çoğal	-11.3816
▁ayni	-11.3817
▁gavur	-11.3818
▁yetişir	-11.3818
▁kaşların	-11.382
▁koklar	-11.3824
Çağlayan	-11.3824
▁aşksız	-11.3825
▁daldan	-11.3825
▁isten	-11.3827
Sordum	-11.3827
▁karanlıklarda	-11.3827
▁yükler	-11.3828
kah	-11.3829
▁bihaber	-11.3829
▁hoştur	-11.383
▁önem	-11.383
▁kulağı	-11.3831
Ayağım	-11.3831
▁olacağını	-11.3831
Uzaklaş	-11.3834
Kalır	-11.3834
▁gökyüzünden	-11.3835
▁aynası	-11.3835
tigim	-11.3835
▁insandan	-11.3836
▁for	-11.3837
▁sokakların	-11.3837
▁dudaklarından	-11.3837
İlgi	-11.3839
▁değildin	-11.384
Düşmanın	-11.384
Yolu	-11.3841
▁kemal	-11.3841
▁ermek	-11.3842
▁ilçe	-11.3842
▁kurulu	-11.3844
ıverir	-11.3844
▁okyanuslar	-11.3844
▁açarken	-11.385
▁dinlemek	-11.3855
▁kalsan	-11.3858
Acıları	-11.3859
▁küpe	-11.3859
▁bakışlarını	-11.386
▁dönmem	-11.386
▁alevler	-11.3861
▁demedin	-11.3862
▁kâh	-11.3862
▁usan	-11.3863
▁şarkıyı	-11.3864
▁sessizliğinde	-11.3865
▁durakta	-11.3865
▁ısrar	-11.3868
lıyorsun	-11.3868
Günde	-11.3868
▁severdi	-11.3869
Kâinat	-11.387
Osmanlı	-11.387
▁yurda	-11.387
▁yazacak	-11.3872
▁sokağı	-11.3873
▁dönüştü	-11.3873
▁sebebim	-11.3873
▁maç	-11.3873
▁balıkçı	-11.3874
▁kabuğu	-11.3874
▁sürünür	-11.3874
ılınmış	-11.3874
Gezer	-11.3875
▁aksam	-11.3875
▁marşı	-11.3877
▁sevgime	-11.3877
▁durağı	-11.3877
▁paket	-11.3879
Yaşım	-11.3879
▁yuh	-11.388
Coş	-11.3881
▁basamak	-11.3884
▁tekbir	-11.3884
▁ayakları	-11.3885
▁gittik	-11.3886
▁bıkma	-11.3887
▁örtüsü	-11.3887
Ölümsüz	-11.3889
karar	-11.389
▁utanma	-11.389
▁biliyormusun	-11.3891
Oğul	-11.3892
▁ocaklar	-11.3894
▁eyleyen	-11.3895
▁özümde	-11.3897
masam	-11.39
Süzül	-11.39
memeli	-11.3902
▁boşluğu	-11.3903
Yürüyorum	-11.3907
▁sezer	-11.3907
▁hayatımdan	-11.3908
yaşama	-11.3908
▁darılma	-11.391
larca	-11.391
▁hayatında	-11.3914
▁ederdim	-11.3914
▁konuk	-11.3916
▁ümitlerim	-11.3917
Çoluk	-11.3917
Filistin	-11.3918
▁kelimeleri	-11.3918
▁düzgün	-11.3918
Sırf	-11.3918
▁özümüz	-11.3919
sey	-11.3919
mezse	-11.392
bilir	-11.3922
▁malına	-11.3923
▁bahset	-11.3924
▁hesaba	-11.3924
tez	-11.3924
▁tavuk	-11.3924
Tutup	-11.3924
Gerçekleri	-11.3926
▁yağsın	-11.3926
Doğma	-11.3929
Sanırsın	-11.3929
▁dağdan	-11.393
▁bulayım	-11.393
▁kuruttu	-11.3931
▁yuttu	-11.3933
lukta	-11.3934
▁telli	-11.3936
▁Karanlık	-11.3936
görün	-11.3937
lerse	-11.3938
▁yâri	-11.3939
Usan	-11.3939
▁zevki	-11.3944
▁dinleme	-11.3944
▁kanunu	-11.3945
▁lahza	-11.3946
▁sükut	-11.3946
▁düşlere	-11.3947
▁yüzümüz	-11.3948
▁aydınlığa	-11.3948
▁çıktık	-11.3948
▁yalaka	-11.3949
Çölde	-11.395
ılmak	-11.3953
▁cal	-11.3954
▁kaymak	-11.3957
▁hac	-11.3958
Tohum	-11.3961
ılmamış	-11.3961
▁oturan	-11.3962
▁sordun	-11.3963
▁korkmaz	-11.3965
lenmez	-11.3965
▁yaşlarımı	-11.3966
▁bülbülüm	-11.3967
▁kağıdı	-11.3968
▁emrine	-11.3969
▁kelâm	-11.3969
İnadına	-11.3971
▁düşmanlar	-11.3971
▁kuşat	-11.3972
lamadan	-11.3972
▁yaşayacağım	-11.3973
▁taşkın	-11.3973
▁şehid	-11.3974
▁hakları	-11.3974
▁izan	-11.3975
Sabırla	-11.3976
Nefsi	-11.3977
▁mülkün	-11.3978
▁doğsun	-11.3979
▁ziyade	-11.3982
sarıl	-11.3982
▁inkâr	-11.3982
▁ezik	-11.3983
▁saatleri	-11.3983
üb	-11.3984
Nuh	-11.3984
gam	-11.3984
Boğul	-11.3985
▁bula	-11.3985
Böylece	-11.3986
▁vaktidir	-11.3987
tay	-11.399
irler	-11.399
▁doluydu	-11.399
dr	-11.399
Sahibi	-11.3992
▁nehri	-11.3993
▁mercan	-11.3993
▁malın	-11.3995
Önemli	-11.3995
▁zi	-11.3999
mana	-11.4003
▁çağda	-11.4003
Söylen	-11.4003
Gür	-11.4003
▁çırpınır	-11.4004
geçmiş	-11.4004
▁koyduğum	-11.4005
hemen	-11.4006
lesi	-11.4007
▁odamda	-11.4007
▁Maraş	-11.4011
Gönlüne	-11.4012
▁günaydın	-11.4013
Neyse	-11.4013
▁sorgula	-11.4013
▁yağarken	-11.4014
▁boştur	-11.4014
▁eşe	-11.4014
▁cihanı	-11.4015
▁aşklara	-11.4016
Aldanma	-11.4016
▁defalarca	-11.4017
▁kendimize	-11.4019
▁almalı	-11.402
▁felsefe	-11.4022
yere	-11.4022
▁ortam	-11.4022
▁ettiğini	-11.4023
▁sardım	-11.4028
▁vebal	-11.403
▁küfre	-11.4032
▁iflah	-11.4033
▁girdap	-11.4033
Merhem	-11.4034
▁dağlıyor	-11.4035
▁meşale	-11.4036
▁hatırlıyorum	-11.4037
Sancı	-11.4037
Hoşgörü	-11.4038
Yaşıyorum	-11.4038
▁içerken	-11.4038
▁anıların	-11.4039
Hasretinden	-11.4039
▁gelincik	-11.4044
▁yemez	-11.4045
▁An	-11.4046
Düşündüm	-11.4048
▁alalım	-11.4048
▁yaşayalım	-11.4049
▁bulsam	-11.4049
Dağda	-11.4051
▁yalandan	-11.4052
ırsan	-11.4053
▁yokluğunu	-11.4054
Çıldır	-11.4055
▁yahut	-11.4056
Döv	-11.4057
Duyma	-11.4057
Murad	-11.4057
Yad	-11.4057
▁güm	-11.4059
▁kaplamış	-11.4059
Gı	-11.406
▁diledim	-11.406
▁oya	-11.406
Aynaya	-11.4061
Sevdiklerim	-11.4061
ladığın	-11.4062
▁lafı	-11.4064
Yollara	-11.4064
Damarımda	-11.4065
rma	-11.4068
▁kölesi	-11.4069
Kalpte	-11.407
Ardında	-11.4072
▁gerçeğin	-11.4076
▁kaşlar	-11.4076
Unutulmaz	-11.4077
▁şahin	-11.4077
▁andı	-11.4078
▁nefse	-11.4081
▁bele	-11.4084
Kabir	-11.4084
Ruhunu	-11.4087
▁sı	-11.4088
dugum	-11.4089
▁nurun	-11.409
sti	-11.4091
uğu	-11.4091
▁bulutu	-11.4095
savaş	-11.4095
▁ummana	-11.4095
▁bahçelerinde	-11.4096
ydum	-11.4096
▁kanımı	-11.4099
▁gülşen	-11.4099
▁fabrika	-11.41
▁güldürür	-11.4101
▁pan	-11.4101
Hayalim	-11.4103
Yüzümde	-11.4104
Li	-11.4105
▁sevdaları	-11.4106
izm	-11.4107
▁dinmeyen	-11.4108
▁cansın	-11.4108
▁sıfat	-11.4108
▁dümen	-11.4109
▁andır	-11.411
▁sıçra	-11.4112
ülüyor	-11.4112
▁özümü	-11.4112
▁çürü	-11.4113
▁inadı	-11.4113
Elden	-11.4119
▁kıt	-11.4119
madılar	-11.4119
▁bahçem	-11.4121
▁ekmeğin	-11.4122
▁kele	-11.4122
▁soz	-11.4122
▁yaparak	-11.4124
Çöp	-11.4126
mini	-11.4126
▁lâl	-11.4128
▁odama	-11.4129
▁hasat	-11.4129
▁solum	-11.4129
▁emeği	-11.413
▁kafesi	-11.413
▁fiş	-11.413
kas	-11.413
▁kama	-11.413
Hürriyet	-11.4132
▁sürsün	-11.4133
Heves	-11.4133
▁feth	-11.4134
Ardı	-11.4134
▁işleyen	-11.4136
▁canana	-11.4137
Açar	-11.4139
▁yiyecek	-11.4139
▁dikti	-11.4141
▁koştur	-11.4141
▁seyir	-11.4142
Bildiğim	-11.4143
▁gülerim	-11.4144
▁kurul	-11.4145
▁erdir	-11.4146
gülü	-11.4147
▁çektir	-11.4148
▁gayet	-11.4148
▁bahtıma	-11.4148
▁kutup	-11.4149
bedenim	-11.4149
▁algı	-11.415
Sonsuzluk	-11.4151
▁aşkının	-11.4151
▁kalesi	-11.4152
▁yüreğimle	-11.4153
▁gerekmez	-11.4154
Yörük	-11.4155
▁etrafına	-11.4155
▁kararır	-11.4157
▁anahtar	-11.4157
Beynimde	-11.4158
Ordu	-11.4158
kut	-11.4158
aq	-11.4158
lip	-11.4159
▁koluna	-11.4159
Dudak	-11.4163
gider	-11.4163
▁kulağım	-11.4164
▁dalmak	-11.4164
Düşmana	-11.4164
▁kü	-11.4165
Ardına	-11.4167
▁baksa	-11.4167
▁istedik	-11.4169
▁çağırıyor	-11.4169
▁aydınlan	-11.417
günler	-11.417
▁diyarlara	-11.417
▁düzelt	-11.4171
lisi	-11.4171
▁haliyle	-11.4172
▁açmadan	-11.4172
▁arayış	-11.4172
tuğum	-11.4173
▁zorba	-11.4173
Görenler	-11.4174
▁görmeyi	-11.4175
Elif	-11.4176
¬...............	-11.4177
gözleri	-11.418
▁yoksulluk	-11.418
▁dallarım	-11.4181
▁düşmüşüm	-11.4183
▁harbi	-11.4185
▁aklından	-11.4186
▁dağınık	-11.4187
▁sökül	-11.4188
▁duam	-11.4189
▁tüt	-11.419
▁kitabın	-11.419
▁Seninle	-11.4192
Fayda	-11.4194
▁candır	-11.4194
▁bildiği	-11.4195
▁sere	-11.4196
Şaş	-11.4196
▁anarım	-11.4197
Meş	-11.4198
yazı	-11.4198
ğına	-11.4198
cum	-11.4198
Kalbinin	-11.4199
▁kâğıt	-11.4199
▁koynumda	-11.4199
▁çalım	-11.4199
suzluk	-11.42
▁sıcaklık	-11.42
Hilal	-11.42
cılık	-11.42
ipte	-11.4201
▁rab	-11.4201
▁düşüm	-11.4202
▁milli	-11.4203
▁döşe	-11.4203
cilik	-11.4203
▁kırdın	-11.4203
İçeri	-11.4204
▁gözlerindeki	-11.4205
▁bakıyordu	-11.4206
İşçi	-11.4206
▁kimine	-11.4207
mışken	-11.4209
Dolan	-11.4211
mor	-11.4211
▁dağladı	-11.4212
▁kararmış	-11.4213
bilsem	-11.4214
Yo	-11.4215
▁sefalet	-11.4215
▁sarışın	-11.4216
▁ere	-11.4218
Bahtım	-11.4218
▁poz	-11.4219
▁batmış	-11.4219
Dizlerim	-11.4219
▁kimseden	-11.4221
Yaşıyor	-11.4222
▁zamanında	-11.4224
▁diyarda	-11.4225
▁koşuyorum	-11.4225
ecekler	-11.4225
Yüzümü	-11.4227
meni	-11.4228
zel	-11.4229
▁halleri	-11.4229
▁yaşadın	-11.423
Coşkun	-11.423
▁güneşten	-11.423
.”¬	-11.4231
Sevenin	-11.4231
▁ezil	-11.4232
▁manevi	-11.4233
Muhtaç	-11.4233
esin	-11.4234
▁yalandır	-11.4235
ht	-11.4236
mıyorsa	-11.4238
▁görüntü	-11.4238
▁katık	-11.4239
▁meleği	-11.4241
▁aklında	-11.4241
▁ümitsiz	-11.4241
▁kerim	-11.4242
▁garibim	-11.4243
Yalnızım	-11.4244
Nefsine	-11.4244
ali	-11.4245
▁delen	-11.4247
▁hayvanlar	-11.4248
Anlar	-11.4248
▁gezersin	-11.4249
▁kopacak	-11.425
tes	-11.425
raf	-11.425
▁ülkesi	-11.4252
alıp	-11.4252
▁deyiş	-11.4254
▁çarşaf	-11.4255
▁üryan	-11.4256
▁tefekkür	-11.4256
▁hatırına	-11.4257
▁cu	-11.426
▁sılaya	-11.4261
▁ur	-11.4261
▁geceme	-11.4263
▁yorulmaz	-11.4263
▁nadide	-11.4267
Aciz	-11.4267
Biliyormusun	-11.4267
Yıldızlara	-11.4268
Ayağın	-11.4269
▁kayan	-11.4269
▁görünme	-11.4269
gım	-11.4271
▁incir	-11.4273
Seslen	-11.4275
▁eşiğinde	-11.4275
tarih	-11.4276
Hâl	-11.4276
ıverdi	-11.4277
▁yapın	-11.4278
Mahalle	-11.4278
▁avuçlarında	-11.4279
Doya	-11.4279
Babası	-11.428
▁musalla	-11.4281
sıcak	-11.4281
▁gurbetin	-11.4283
▁keş	-11.4284
▁denizlerin	-11.4287
▁kimdi	-11.4288
▁hakir	-11.4289
Bedel	-11.4289
▁eyleyip	-11.4289
Bekliyor	-11.429
▁amber	-11.429
01	-11.429
▁benlik	-11.4292
▁sızan	-11.4292
ığa	-11.4293
▁yaşanmamış	-11.4293
▁rüyalarımda	-11.4293
Hastalık	-11.4295
tiyor	-11.4296
Bulun	-11.4298
▁caddeler	-11.4299
▁taşını	-11.4299
Niyet	-11.4299
▁atarım	-11.4299
▁ayrıldık	-11.4301
▁küre	-11.4302
▁dayanamaz	-11.4302
▁gereksiz	-11.4302
▁bıkmadan	-11.4303
▁onulmaz	-11.4303
▁içre	-11.4304
▁sömür	-11.4305
▁ezen	-11.4305
▁boğazımda	-11.4307
Kalpler	-11.4308
Anlatmak	-11.4311
▁topladım	-11.4312
Hayret	-11.4312
▁büyüğü	-11.4313
▁aşkımızı	-11.4314
luğuna	-11.4314
▁bulacaksın	-11.4315
▁kalbimiz	-11.4317
▁yedik	-11.4318
Yalnızlığı	-11.4318
▁geldikçe	-11.4318
Ölümüne	-11.4321
Düşünür	-11.4322
gözler	-11.4324
▁affed	-11.4325
▁dendi	-11.4325
▁burnumda	-11.4325
▁anlayış	-11.4326
Ömrü	-11.4327
▁kalbimdeki	-11.4327
▁dingin	-11.4329
▁başımıza	-11.433
▁attık	-11.4333
▁yaktığın	-11.4334
▁azık	-11.4334
değer	-11.4335
▁söylediğin	-11.4336
▁Bahar	-11.4338
lerimizin	-11.4339
▁ağlamasın	-11.4339
▁konma	-11.434
▁işledim	-11.4342
▁haykırmak	-11.4342
▁mürekkep	-11.4342
▁uz	-11.4342
Rüzgarlar	-11.4343
▁kırılsın	-11.4343
ışında	-11.4344
Bağrı	-11.4348
▁baktığında	-11.4352
abiliyor	-11.4352
▁hamam	-11.4356
▁enerji	-11.4357
▁Erdoğan	-11.4357
▁evlerin	-11.4357
▁rüzgarda	-11.4358
ani	-11.4364
daşım	-11.4366
Yolumuz	-11.4367
Günlerce	-11.4367
▁kendisine	-11.4367
güven	-11.4368
ğum	-11.4368
▁Türkler	-11.4369
▁doyma	-11.4371
▁ahret	-11.4371
▁acıma	-11.4371
nâ	-11.4372
Seyr	-11.4372
▁tutsun	-11.4372
kâ	-11.4373
▁deşik	-11.4373
▁çorap	-11.438
▁büyüktür	-11.4381
Olmayan	-11.4383
Kömür	-11.4383
yük	-11.4383
kana	-11.4383
▁kısacık	-11.4384
▁edince	-11.4387
▁yaparsan	-11.439
▁tanırım	-11.4394
Gö	-11.4396
Kaldı	-11.4396
▁radyo	-11.4396
▁alayım	-11.4396
Unutur	-11.4398
gara	-11.4399
▁dalın	-11.4399
▁masada	-11.4399
uluyor	-11.4401
_____	-11.4402
hre	-11.4402
▁dinlemiyor	-11.4403
▁uzatma	-11.4403
Sedat	-11.4403
Şak	-11.4404
belli	-11.4404
▁aheste	-11.4405
Pis	-11.4406
▁alıcı	-11.4407
▁sayarım	-11.4407
Dereler	-11.4408
▁sürdür	-11.4408
Irak	-11.4409
fak	-11.4409
▁gelmem	-11.441
▁kapi	-11.4411
ks	-11.4411
▁sesli	-11.4412
Medet	-11.4415
muyorum	-11.4415
▁dünyâ	-11.4416
▁resul	-11.4417
Kaybolan	-11.4418
▁kırılan	-11.4419
buz	-11.4419
▁vurgunum	-11.442
vî	-11.442
▁üstelik	-11.442
▁gamlı	-11.442
mediler	-11.4421
▁mart	-11.4422
▁misiniz	-11.4423
▁nesin	-11.4424
▁kanaat	-11.4425
tığını	-11.4425
Çocukluk	-11.4425
sonsuz	-11.4428
▁bulunan	-11.4431
▁kek	-11.4432
▁çokça	-11.4432
▁aşır	-11.4435
▁çıkarsa	-11.4436
▁organ	-11.4437
▁küçül	-11.4438
▁dinin	-11.4439
muşlar	-11.444
▁duyguyu	-11.4441
Dol	-11.4442
ağlama	-11.4442
Ellerimde	-11.4443
▁maşa	-11.4445
▁işimiz	-11.4446
▁dertlerimi	-11.4446
▁içmiş	-11.4447
▁sunan	-11.4447
lakin	-11.4449
bor	-11.445
▁sönmeyen	-11.445
ûl	-11.4451
▁tutuşup	-11.4451
▁ayaklı	-11.4452
▁yurdunda	-11.4452
▁insanlardan	-11.4453
mada	-11.4453
mudur	-11.4456
▁ged	-11.4456
mat	-11.4458
Tah	-11.4459
Düşünceler	-11.446
Dağıt	-11.446
▁arkası	-11.4461
▁sırtımda	-11.4462
ff	-11.4463
Ufuklar	-11.4465
Anneler	-11.4466
Elma	-11.4468
meliydim	-11.4468
▁muradın	-11.4469
▁üstümde	-11.447
▁adresi	-11.447
▁düşlerime	-11.447
▁Can	-11.447
bülbül	-11.4471
▁dağıldı	-11.4472
Yarat	-11.4472
▁uyup	-11.4473
Düşünüyorum	-11.4473
▁Senden	-11.4475
▁kapısına	-11.448
hur	-11.4481
Hırçın	-11.4482
▁yâ	-11.4484
Ezil	-11.4485
▁hatırı	-11.4486
Özel	-11.4489
Yurt	-11.449
ladığı	-11.4492
▁ezeli	-11.4492
İsmail	-11.4494
▁anladı	-11.4495
kop	-11.4496
ndeki	-11.4497
fir	-11.4498
este	-11.4499
nek	-11.4499
▁bilmezdim	-11.45
▁secdeye	-11.4501
Yiğitler	-11.4502
lû	-11.4503
Kırıl	-11.4504
▁kıyıya	-11.4505
Bek	-11.4508
▁uğurla	-11.4508
bulut	-11.4508
Yudum	-11.4509
Erenler	-11.451
bebek	-11.4511
Cep	-11.4511
deyiz	-11.4511
Dertlerin	-11.4512
dokuz	-11.4513
Dertleri	-11.4513
▁mevlam	-11.4515
▁okula	-11.4515
▁malını	-11.4516
▁çıkarken	-11.4518
▁yediğim	-11.452
ft	-11.4522
▁doldurdu	-11.4522
▁korkan	-11.4522
▁yaptığını	-11.4523
▁kapılıp	-11.4524
özü	-11.4525
▁kadehler	-11.4525
Katil	-11.4526
▁keyfi	-11.4529
Ayrılığı	-11.4529
▁cumhuriyet	-11.4529
▁kaybolmak	-11.4529
▁iniyor	-11.453
▁coşan	-11.4531
▁narı	-11.4532
▁halt	-11.4535
▁akşamında	-11.4535
▁rüyalarda	-11.4537
Uğraş	-11.4539
▁cel	-11.4539
▁ağlamayı	-11.4539
▁peşin	-11.454
▁gönlümüz	-11.4541
▁tenimi	-11.4544
▁vuslatın	-11.4544
▁gıda	-11.4545
Verilen	-11.4545
ılma	-11.4546
Onda	-11.4547
Muha	-11.4548
dular	-11.4549
▁herşeyim	-11.455
▁kaf	-11.4551
Siyaset	-11.4552
▁makamı	-11.4553
▁yapamam	-11.4554
Azgın	-11.4555
Of	-11.4556
▁şahlan	-11.4556
Tutsak	-11.4557
▁Fırat	-11.4558
▁dediğimiz	-11.4558
Denizde	-11.4559
▁Son	-11.456
içimdeki	-11.456
▁müddet	-11.4563
▁gezdir	-11.4563
▁takılıp	-11.4565
▁sevgimizi	-11.4567
!!!	-11.4567
Sendeki	-11.4568
Osman	-11.4569
▁hasretine	-11.457
mün	-11.4571
▁incecik	-11.4571
▁taşımak	-11.4571
▁geçersin	-11.4571
▁serer	-11.4572
▁kazanmak	-11.4572
ttım	-11.4572
▁kişinin	-11.4573
▁ertele	-11.4573
▁kadim	-11.4573
▁Kasım	-11.4574
Simsiyah	-11.4575
▁yerdir	-11.4575
▁yaşanma	-11.4576
Ölsem	-11.4576
▁Hangi	-11.4576
Öde	-11.4577
▁sarp	-11.4578
[...]
